<unk>	0
<s>	0
</s>	0
.	-3.38302
▁	-3.57873
을	-3.83084
의	-3.90999
에	-4.27122
를	-4.27835
이	-4.33784
는	-4.34097
가	-4.46446
은	-4.55945
,	-4.59584
고	-4.63951
에서	-4.99512
로	-5.112
한	-5.13807
▁“	-5.22114
”	-5.26373
인	-5.30279
일	-5.33404
)	-5.39941
(	-5.41451
과	-5.47067
▁이	-5.48282
으로	-5.56891
와	-5.61451
▁있다	-5.62193
▁수	-5.74058
지	-5.75239
도	-5.76397
할	-5.77662
▁밝혔다	-5.84971
▁말했다	-5.86955
년	-5.91569
했다	-5.93427
하고	-6.00852
다	-6.0143
▁있는	-6.05293
하는	-6.08537
▁그	-6.13624
▁전	-6.16345
며	-6.16484
기	-6.24572
▁2	-6.25024
해	-6.25273
▁그는	-6.26035
자	-6.26384
▁1	-6.27303
스	-6.30477
만	-6.31371
▁대한	-6.35248
▁위해	-6.37308
월	-6.39225
리	-6.42609
▁전했다	-6.43975
된	-6.45314
▁한	-6.45552
▁미국	-6.4674
▁미	-6.49243
▁3	-6.49286
▁이번	-6.51262
▁지난	-6.53015
▁중	-6.53122
현지시간	-6.54741
▁대해	-6.6283
"	-6.65053
에게	-6.66736
나	-6.6714
라	-6.6944
▁것으로	-6.699
시	-6.70803
▁‘	-6.70884
▁것	-6.75324
▁것이라고	-6.75512
명이	-6.75545
s	-6.75865
▁"	-6.7719
이라고	-6.78387
어	-6.79788
사	-6.80145
주	-6.80403
▁있다고	-6.8189
▁4	-6.82796
게	-6.83044
▁것을	-6.8516
들이	-6.89674
’	-6.90514
▁이라크	-6.90639
▁6	-6.90754
히	-6.91101
트	-6.91394
드	-6.91517
하기	-6.92132
▁5	-6.95288
▁더	-6.95615
▁그러나	-6.95638
대	-6.95946
적인	-6.96081
▁주	-6.96645
▁다른	-6.99826
서	-7.00283
▁대통령	-7.02378
르	-7.02813
하게	-7.02977
하지	-7.05135
상	-7.05626
운	-7.06545
▁중국	-7.06594
아	-7.07048
수	-7.08345
▁한편	-7.08801
▁10	-7.09087
라고	-7.10522
세	-7.10778
들은	-7.11471
명	-7.12189
▁북한	-7.12226
▁내	-7.14761
▁후	-7.15115
명의	-7.16245
던	-7.1632
비	-7.16463
적	-7.16567
-	-7.18621
부	-7.19907
▁정부	-7.20825
▁바	-7.22727
▁이후	-7.23482
▁통해	-7.24472
e	-7.25291
▁영국	-7.25643
치	-7.27034
▁많은	-7.27571
▁또	-7.27994
됐다	-7.28177
▁7	-7.28458
▁위한	-7.28547
▁대통령은	-7.28875
▁두	-7.28897
했다고	-7.29408
크	-7.29416
미	-7.29739
전	-7.30058
▁8	-7.30164
▁부시	-7.30799
▁한국	-7.32217
성	-7.32494
▁등	-7.32544
니	-7.32837
▁가장	-7.33018
이다	-7.33332
소	-7.33338
▁동안	-7.34328
까지	-7.34906
진	-7.35378
정	-7.35521
▁같은	-7.35652
▁것이다	-7.3571
▁일	-7.36143
▁알	-7.36204
될	-7.3659
▁대변인은	-7.37118
▁아	-7.38268
보	-7.40359
마	-7.41422
개	-7.42879
원	-7.44115
면	-7.443
▁비	-7.45228
▁말	-7.45956
에는	-7.46092
▁주장했다	-7.46396
하며	-7.47087
프	-7.47811
선	-7.48125
야	-7.48148
▁될	-7.48313
했으며	-7.49007
▁세계	-7.49726
▁것은	-7.50016
▁약	-7.5037
▁영화	-7.50502
▁할	-7.51011
▁한다	-7.51045
들을	-7.5117
▁또한	-7.51998
▁시	-7.52071
▁9	-7.52139
당	-7.52375
▁때	-7.52898
▁오바마	-7.53062
장	-7.53087
▁제	-7.53623
▁현재	-7.53763
▁12	-7.5383
하	-7.54589
파	-7.54775
바	-7.55291
▁조사	-7.55307
조	-7.55318
화	-7.56074
디	-7.56386
▁경우	-7.56462
▁보도했다	-7.56553
▁관련	-7.57165
▁덧붙였다	-7.57651
▁이상	-7.57831
▁사	-7.57857
적으로	-7.58009
▁않았다	-7.58515
▁있었다	-7.58573
및	-7.58785
오	-7.59283
▁최근	-7.59651
▁문제	-7.59658
▁마	-7.60704
제	-7.60998
타	-7.61003
▁것이	-7.61573
▁지	-7.61953
차	-7.6213
했던	-7.62145
▁19	-7.62254
▁일본	-7.62522
'	-7.63777
즈	-7.64027
에서는	-7.64183
▁뒤	-7.64273
▁경제	-7.64351
▁11	-7.64583
▁일부	-7.64959
그	-7.65856
▁자신의	-7.66028
▁부	-7.66172
내	-7.66182
▁했다	-7.66528
▁오	-7.66898
우	-7.66925
한다	-7.67253
들	-7.68066
▁대	-7.68284
▁함께	-7.69044
d	-7.69455
▁국가	-7.69531
▁나	-7.69751
용	-7.69813
▁공격	-7.70167
▁20	-7.70325
국	-7.70389
여	-7.71194
▁정	-7.71322
▁당시	-7.71398
▁'	-7.71474
간	-7.71808
분	-7.71937
▁새로	-7.71991
위	-7.7308
구	-7.73141
약	-7.73595
▁모든	-7.73792
레	-7.73854
▁그리고	-7.73959
▁반	-7.74166
티	-7.7448
▁없다	-7.75019
러	-7.75219
▁때문에	-7.75634
하다	-7.76312
카	-7.76796
▁계속	-7.77501
해야	-7.77586
▁예정이다	-7.78033
▁수도	-7.78297
▁안	-7.78376
1	-7.78737
2	-7.78828
▁프랑스	-7.79639
▁거	-7.79662
▁모두	-7.79841
o	-7.79852
▁있습니다	-7.79937
▁유	-7.79958
▁설명했다	-7.80098
▁자	-7.80207
모	-7.80472
었다	-7.80483
A	-7.80507
▁몇	-7.80981
▁파키스탄	-7.81461
신	-7.81823
▁있으며	-7.82133
m	-7.8224
린	-7.82445
▁보	-7.82474
억	-7.82571
코	-7.82896
▁미군	-7.82917
려	-7.83204
▁무	-7.83273
▁경찰은	-7.83317
▁지역	-7.83871
실	-7.83932
▁기	-7.8404
▁불	-7.84227
노	-7.84641
▁유엔	-7.8576
계	-7.86016
▁정부는	-7.86792
관	-7.86917
보다	-7.87485
▁러시아	-7.87889
▁다	-7.87967
단	-7.88004
브	-7.88068
▁조	-7.88703
▁이스라엘	-7.88951
▁큰	-7.88975
권	-7.89622
▁사고	-7.89682
a	-7.90312
▁계획	-7.90557
▁민주당	-7.90745
무	-7.90796
▁경찰	-7.91154
식	-7.91217
▁30	-7.9142
▁신	-7.91985
유	-7.92443
S	-7.92915
호	-7.92992
▁이들	-7.93071
▁클린턴	-7.93149
▁지난해	-7.93543
명을	-7.93945
y	-7.94113
에따르면	-7.94173
▁않을	-7.94648
▁테러	-7.94739
산	-7.94947
▁열린	-7.95835
회	-7.95863
▁핵	-7.95949
▁공	-7.96383
질	-7.96476
▁하	-7.96488
▁후보	-7.9649
▁해	-7.96595
▁하는	-7.9676
▁경기	-7.96795
▁세	-7.96899
▁대통령이	-7.96978
▁재	-7.98395
법	-7.9863
▁올해	-7.98725
안	-7.99315
▁우리	-7.99394
▁모	-7.99456
▁성	-8.00063
▁발생한	-8.0048
▁(	-8.00603
▁이날	-8.00698
되는	-8.00789
▁총리는	-8.00968
점	-8.00995
▁파	-8.01056
▁선거	-8.01121
▁연구	-8.01138
문	-8.01237
토	-8.01352
▁데	-8.01452
▁지원	-8.01692
▁the	-8.0194
C	-8.01955
▁결과	-8.02261
▁상	-8.02422
▁발표했다	-8.02516
▁달러	-8.02801
▁카	-8.0322
▁15	-8.03304
했습니다	-8.03324
물	-8.03412
▁발표	-8.0359
▁시작	-8.03614
에도	-8.03821
시간	-8.0383
들의	-8.03903
▁군	-8.03911
▁초	-8.04437
▁받고	-8.04859
▁결정	-8.05014
▁구	-8.06012
라는	-8.06046
▁있을	-8.06382
▁회담	-8.06881
이나	-8.07079
동	-8.07177
하면서	-8.0734
3	-8.08003
▁도	-8.08091
방	-8.08155
피	-8.08192
▁달	-8.08589
루	-8.08639
▁원	-8.08837
▁스	-8.08967
직	-8.09067
u	-8.09076
력	-8.09361
▁국제	-8.09721
▁여성	-8.10251
▁가운데	-8.10543
n	-8.10812
체	-8.10897
▁미국의	-8.11195
▁양	-8.1125
으며	-8.1147
▁강	-8.11561
길	-8.11563
▁존	-8.11648
▁채	-8.11725
▁to	-8.11962
▁조치	-8.12376
▁16	-8.12385
▁피	-8.12517
▁노	-8.12684
더	-8.12798
▁총리	-8.12914
▁총	-8.13002
▁방문	-8.13258
심	-8.13356
면서	-8.13962
▁of	-8.13993
▁이란	-8.1401
하여	-8.14237
▁S	-8.14372
▁의해	-8.14463
감	-8.14524
▁된다	-8.14537
중	-8.14768
▁당	-8.15191
▁사건	-8.1538
▁주요	-8.15461
군	-8.15493
부터	-8.15566
▁사람들이	-8.15632
▁줄	-8.15662
든	-8.15718
란	-8.15726
▁하고	-8.15795
살	-8.15869
행	-8.15885
▁정부가	-8.16171
되고	-8.16178
재	-8.16403
▁18	-8.16593
키	-8.16885
▁시위	-8.16984
c	-8.17033
공	-8.17128
)’	-8.17257
경	-8.1726
▁다시	-8.17301
i	-8.17485
▁관계	-8.1777
▁인해	-8.17827
▁보고	-8.18189
.”	-8.18403
연	-8.18551
입니다	-8.1888
▁동	-8.18991
▁첫	-8.19008
버	-8.19029
▁차	-8.19779
▁않은	-8.198
▁소	-8.20323
▁간	-8.2033
종	-8.20637
지만	-8.20665
▁아프간	-8.20818
▁인도	-8.21052
t	-8.2116
▁어	-8.21224
▁13	-8.21626
▁기록	-8.21812
데	-8.21818
▁리	-8.21886
D	-8.22155
▁혐의로	-8.22286
▁있다는	-8.22599
돼	-8.22684
▁됐다	-8.2282
였다	-8.23019
▁시간	-8.23517
난	-8.23571
▁A	-8.23718
er	-8.23889
번	-8.23963
▁활동	-8.24036
임	-8.24389
▁반대	-8.24621
▁발	-8.24686
되어	-8.24776
학	-8.25056
▁독일	-8.25119
ing	-8.25219
▁아이	-8.25693
들에게	-8.25726
요	-8.25747
▁라	-8.2597
터	-8.26044
반	-8.26055
▁14	-8.26681
▁프로그램	-8.26791
▁실	-8.26809
▁이미	-8.2701
▁피해	-8.27159
▁대학	-8.27207
▁승리	-8.27273
5	-8.27303
▁유럽	-8.27512
▁타	-8.27682
포	-8.27818
▁위치한	-8.28056
km	-8.28077
▁받았다	-8.28199
▁대선	-8.28385
▁매	-8.28553
▁감독	-8.28846
▁탈레반	-8.28941
▁우려	-8.29156
거	-8.29167
▁관리	-8.29306
P	-8.29482
▁팔레스타인	-8.29667
▁회사	-8.29866
▁없는	-8.30365
▁생각	-8.30456
▁협상	-8.30543
달러	-8.31067
▁투표	-8.3108
▁우주	-8.3113
M	-8.3126
▁뉴욕	-8.31396
되지	-8.31498
ed	-8.31724
▁개	-8.32014
▁아직	-8.32285
▁내용	-8.3233
▁W	-8.32359
▁호주	-8.32395
▁TV	-8.32572
로부터	-8.32779
▁지지	-8.32946
▁배	-8.33275
/	-8.33477
▁소속	-8.33492
형	-8.33677
교	-8.33735
이라며	-8.33744
네	-8.3376
▁서	-8.3385
r	-8.34014
▁잘	-8.34026
▁추가	-8.34195
▁사실을	-8.34514
▁25	-8.3468
▁상원의원	-8.35164
▁혐의	-8.35738
▁매케인	-8.35999
▁관계자는	-8.36158
들과	-8.3621
▁않고	-8.36638
p	-8.36749
▁시장	-8.36839
▁포함	-8.37
▁방송	-8.37104
▁노력	-8.37275
▁외	-8.37299
▁새	-8.37304
론	-8.37393
습니다	-8.375
저	-8.37578
▁전쟁	-8.3758
래	-8.37616
▁많	-8.37699
l	-8.37858
▁인터넷	-8.37946
▁경	-8.38038
▁지적했다	-8.38071
▁''	-8.38115
▁차량	-8.38439
▁한다고	-8.38453
▁최고	-8.38713
al	-8.38718
▁17	-8.38733
▁석방	-8.38994
▁지금	-8.39052
▁이슬람	-8.39398
▁주장	-8.39563
품	-8.39604
설	-8.39736
년간	-8.39756
?	-8.39779
▁비난	-8.40207
▁in	-8.40233
▁조지	-8.40423
▁연	-8.4044
▁매우	-8.40562
▁사람	-8.40877
작	-8.41132
%	-8.41159
▁코	-8.41467
▁올림픽	-8.4159
▁적	-8.41607
▁기술	-8.41678
▁개발	-8.41936
▁당국은	-8.41968
▁예정	-8.41988
▁입장	-8.42041
발	-8.42052
장은	-8.42157
▁합의	-8.42177
통	-8.42426
▁이용	-8.42438
▁명의	-8.42481
▁대부분	-8.42642
▁위	-8.42882
됐다고	-8.42951
금	-8.43154
▁사망	-8.43169
g	-8.43225
f	-8.4327
▁점	-8.43372
너	-8.43554
▁부상	-8.43707
개월	-8.43815
했고	-8.43851
▁판매	-8.43867
릴	-8.4391
▁열	-8.43933
6	-8.43995
▁없다고	-8.44303
E	-8.44405
석	-8.44457
7	-8.4454
▁정책	-8.44574
▁산	-8.44607
두	-8.44744
워	-8.44978
판	-8.45047
▁받은	-8.45136
▁우	-8.45274
▁살	-8.45363
▁자동차	-8.45389
▁여러	-8.45533
▁2006	-8.4567
▁선	-8.45723
처럼	-8.45773
▁않는다	-8.45857
▁이는	-8.45952
▁못했다	-8.45963
▁위협	-8.46294
▁100	-8.4664
▁B	-8.46676
▁보도	-8.46773
▁포	-8.46911
▁연방	-8.47043
▁단	-8.47466
▁올	-8.47501
지는	-8.47523
▁중단	-8.47544
▁날	-8.4758
았다	-8.47789
▁24	-8.47896
▁장	-8.48006
생	-8.48076
스트	-8.48145
▁도시	-8.48222
▁물	-8.48487
▁생산	-8.48652
▁어떤	-8.48697
▁기자	-8.48844
▁발생	-8.48915
▁오늘	-8.4918
ar	-8.49316
했으나	-8.49324
▁심	-8.49403
T	-8.49466
에따라	-8.49715
위원회	-8.49907
▁건물	-8.49995
▁폭탄	-8.49996
▁하지만	-8.50147
천	-8.50217
▁저	-8.5027
▁레	-8.50334
▁명	-8.50584
온	-8.50617
▁김	-8.50629
건	-8.50785
▁확인	-8.50798
▁있던	-8.50839
했지만	-8.51019
▁21	-8.51034
▁사이	-8.51066
▁오후	-8.5109
이었다	-8.51184
▁남부	-8.5121
▁집	-8.51231
▁사용	-8.51239
급	-8.51473
▁해결	-8.5165
속	-8.51724
개의	-8.51743
▁당국	-8.51757
▁남	-8.51857
명은	-8.5208
슨	-8.52125
▁이에	-8.52252
류	-8.52345
F	-8.52373
▁50	-8.52379
했었다	-8.52514
된다	-8.52559
▁하지	-8.52882
▁폭발	-8.53069
I	-8.53151
되었다	-8.53371
▁의사	-8.53401
▁검찰	-8.53473
▁이어	-8.53629
▁27	-8.54265
▁입	-8.54313
▁미얀마	-8.54364
하는데	-8.54436
▁변화	-8.54704
▁대표	-8.54881
▁앞서	-8.54967
▁23	-8.55016
▁치	-8.55098
▁안전	-8.55232
▁필요	-8.55289
▁남자	-8.55571
▁보호	-8.55661
이며	-8.55838
▁있어	-8.55876
▁볼	-8.55959
▁22	-8.56494
강	-8.56548
▁금융	-8.5655
▁법	-8.5679
츠	-8.5683
▁성명	-8.56848
▁준비	-8.56982
▁호	-8.57005
▁인터뷰에서	-8.57032
▁병원	-8.57084
▁치료	-8.57237
or	-8.5724
스는	-8.57255
▁M	-8.5728
h	-8.57364
하기로	-8.57514
▁컴퓨터	-8.57752
량	-8.57794
:	-8.57913
▁강조했다	-8.58021
▁다음	-8.5804
절	-8.58127
편	-8.58271
▁갖고	-8.58385
병	-8.58422
▁루	-8.58466
▁아시아	-8.58486
배	-8.58495
4	-8.5857
▁이러	-8.58713
▁그들은	-8.58798
▁공화당	-8.59067
▁납치	-8.59131
▁처음	-8.59306
▁것에	-8.59311
친	-8.59417
▁2005	-8.5962
▁학교	-8.59787
▁떨어진	-8.59824
en	-8.59962
▁발견	-8.59973
▁방	-8.60066
▁요구	-8.60197
▁정치	-8.60263
▁힐러리	-8.6042
▁원문기사보기	-8.60551
▁있도록	-8.60557
▁반군	-8.60632
▁오전	-8.60773
클	-8.60783
▁건강	-8.60798
달	-8.60907
하도록	-8.61128
▁메	-8.61236
▁마지막	-8.61283
▁여	-8.61333
양	-8.61573
▁평화	-8.61706
▁여행	-8.61814
져	-8.61859
in	-8.61889
▁비난했다	-8.61932
▁C	-8.62062
▁금지	-8.62466
▁논의	-8.62482
▁터키	-8.62559
▁북부	-8.62581
N	-8.62609
▁북한이	-8.62635
민	-8.6276
▁지구	-8.62845
▁이름	-8.62892
▁증가	-8.62906
▁가진	-8.62948
▁버	-8.6303
8	-8.6311
▁경찰이	-8.63181
출	-8.63296
▁은행	-8.63497
색	-8.63506
날	-8.63553
다고	-8.63617
복	-8.63665
▁팀	-8.63892
▁된	-8.64096
▁지도자	-8.64244
▁오는	-8.64266
청	-8.64326
▁최대	-8.64361
이라는	-8.64572
처	-8.64771
▁요청	-8.64788
▁미국과	-8.64806
▁a	-8.64857
▁공개	-8.64992
와의	-8.6505
▁장관은	-8.65127
▁인근	-8.65187
an	-8.65296
거나	-8.6551
는데	-8.65663
▁처음으로	-8.65686
▁살해	-8.65751
▁자신이	-8.65822
팀	-8.65858
▁맞	-8.65981
B	-8.66041
▁연기	-8.66125
▁이를	-8.66144
▁언론	-8.66177
▁그녀	-8.6619
영	-8.6628
▁그녀는	-8.66334
하자	-8.66385
▁상황	-8.66435
▁판결	-8.6657
▁친	-8.66579
▁출신	-8.66581
졌다	-8.6667
▁하나	-8.66869
으로부터	-8.66936
▁규모	-8.67025
▁버락	-8.67094
▁상태	-8.67361
▁행사	-8.67396
▁지난달	-8.6749
번째	-8.67641
▁불법	-8.67676
▁없었다	-8.67809
▁들어	-8.67882
됐으며	-8.67928
업	-8.68054
▁26	-8.68126
▁행동	-8.68141
▁이탈리아	-8.68159
▁최소	-8.68357
울	-8.68386
베	-8.68461
▁T	-8.68475
▁40	-8.68476
▁F	-8.68596
▁자금	-8.68713
역	-8.68808
증	-8.68869
O	-8.69039
and	-8.69067
▁손	-8.69229
▁D	-8.69355
▁앞으로	-8.69378
▁자신	-8.69469
▁있지만	-8.69541
▁지역에서	-8.69609
▁영향	-8.6963
▁야당	-8.69755
▁발사	-8.69784
▁CNN	-8.69843
각	-8.69931
▁없이	-8.69972
▁국민	-8.70085
▁거래	-8.70211
층	-8.70232
▁분	-8.70326
▁보인다	-8.70337
▁상승	-8.70343
▁투자	-8.70493
료	-8.70651
▁̋	-8.70777
탄	-8.70893
▁관한	-8.71
▁사망했다	-8.71007
▁주둔	-8.71076
▁막	-8.71245
기를	-8.71419
투	-8.71512
▁P	-8.7163
메	-8.71765
▁스페인	-8.72098
테	-8.72457
▁서울	-8.72567
▁베	-8.72871
▁않다	-8.729
▁좋은	-8.72954
L	-8.73014
▁사망자	-8.73039
5%	-8.73084
해서	-8.73115
합	-8.73161
▁의회	-8.73186
▁공식	-8.73258
▁돌	-8.7349
▁만에	-8.73567
▁29	-8.73568
▁회장	-8.73688
▁미사일	-8.73707
▁가격	-8.7389
▁사람들	-8.73933
▁수사	-8.74
_	-8.7406
▁현지	-8.74069
초	-8.741
▁돈	-8.74173
▁미국이	-8.74291
▁무샤라프	-8.74499
포인트	-8.74623
R	-8.74625
우리는	-8.74731
▁진	-8.74892
▁들	-8.75137
▁만	-8.75319
▁공동	-8.7553
▁런던	-8.75579
▁비행기	-8.75581
▁사태	-8.75693
▁관심	-8.75769
▁가능성	-8.75832
▁앞	-8.76108
G	-8.76151
▁교	-8.76175
▁동영상	-8.76311
▁사람들은	-8.76318
▁밤	-8.76462
▁28	-8.76476
▁행위	-8.76705
후	-8.76743
락	-8.76755
▁진행	-8.7699
▁드	-8.77046
▁백악관	-8.77164
article	-8.77168
외	-8.77244
미국	-8.77447
▁각	-8.77611
▁이들은	-8.77688
▁알려졌다	-8.77762
▁무기	-8.77815
▁종	-8.77922
▁인질	-8.77927
▁공급	-8.78088
▁정보	-8.78092
▁현	-8.78514
▁AP	-8.78541
▁조직	-8.78549
it	-8.78618
▁군사	-8.78812
한다고	-8.78876
▁온	-8.79
▁벌이	-8.79085
▁정치적	-8.79214
▁난	-8.7934
▁H	-8.79351
박	-8.79362
먼	-8.79479
▁성공	-8.79484
▁불구하고	-8.79524
립	-8.79605
▁중요한	-8.79658
렌	-8.79691
▁본	-8.79818
▁속	-8.79841
▁문	-8.80003
▁오바마는	-8.80018
▁페	-8.80064
본	-8.80144
▁지방	-8.80282
▁빌	-8.80308
▁발언	-8.80336
▁코리아	-8.80394
▁나라	-8.80427
▁바그다드	-8.80462
▁말했습니다	-8.805
함	-8.80515
▁통	-8.80637
▁N	-8.80675
▁환경	-8.807
▁위험	-8.80814
▁박사는	-8.80837
▁충돌	-8.80923
▁가족	-8.80931
▁발생했다	-8.81012
▁이전	-8.81201
▁대통령과	-8.81203
▁게임	-8.81331
▁사망한	-8.81333
▁고위	-8.81347
열	-8.81472
▁체포	-8.81484
v	-8.81537
k	-8.81668
▁용의자	-8.81756
▁미국은	-8.81785
▁것입니다	-8.81787
▁사진	-8.82075
▁추	-8.82111
▁시도	-8.82175
▁번	-8.82262
▁통과	-8.82284
▁여부	-8.82359
▁인용	-8.82513
▁이런	-8.8258
▁역할	-8.82612
K	-8.82816
측	-8.8289
▁정도	-8.82894
▁반면	-8.82952
▁보안	-8.83318
▁병력	-8.83354
▁폐쇄	-8.83383
▁강화	-8.83408
긴	-8.83449
격	-8.83528
▁곳	-8.8363
범	-8.83694
▁법원	-8.83849
▁2008	-8.83928
▁직접	-8.83997
▁역사	-8.84025
le	-8.84101
승	-8.8411
표	-8.84238
하면	-8.84244
▁이야기	-8.84315
▁부토	-8.84415
간의	-8.84446
매	-8.84462
▁방법	-8.84476
▁부인	-8.84703
’’	-8.8473
▁팔	-8.84764
리는	-8.84883
▁부족	-8.84961
on	-8.84977
▁범죄	-8.84979
▁변	-8.85066
▁생	-8.85296
▁사회	-8.85333
▁기업	-8.85431
▁표	-8.85445
▁의원	-8.85468
▁독립	-8.85554
2005.08	-8.85973
퍼	-8.86064
▁사망했다고	-8.86154
자가	-8.8644
상을	-8.86446
▁딸	-8.86508
▁서비스	-8.8656
언	-8.86562
▁G	-8.86617
혀	-8.86793
▁골	-8.86947
▁보내	-8.86957
▁기간	-8.87078
▁아이들	-8.87171
CNN	-8.87269
케	-8.87295
마리	-8.87455
▁의하면	-8.8749
▁인정	-8.87539
▁잠	-8.87608
▁모습을	-8.87614
▁알카에다	-8.87619
▁확보	-8.87752
등	-8.87845
▁워싱턴	-8.87849
결	-8.87865
▁야	-8.8801
▁재판	-8.88034
▁단체	-8.88144
▁자신들	-8.88216
▁2005.08	-8.88271
예	-8.88387
▁뉴스	-8.88399
시킬	-8.88492
▁것이라는	-8.88496
▁감소	-8.88522
▁힘	-8.88524
만명	-8.88538
▁보다	-8.8855
▁우승	-8.88584
독	-8.88591
▁사업	-8.88595
▁공항	-8.88621
▁자살	-8.88805
▁길	-8.88973
집	-8.89087
▁애	-8.89168
▁높은	-8.89359
▁더욱	-8.89366
▁가능성이	-8.89378
하겠다고	-8.89504
▁뜻	-8.89707
▁국경	-8.89808
위를	-8.89814
▁전체	-8.89824
▁지난주	-8.89906
▁상원	-8.89931
쳐	-8.89956
남	-8.90165
▁누	-8.90216
’(	-8.90347
있는	-8.90391
▁예	-8.9061
▁정상	-8.90647
말	-8.90751
플	-8.90757
▁왔다	-8.90814
▁c	-8.90866
▁성명에서	-8.90961
▁아버지	-8.90991
▁&	-8.91048
머	-8.91058
곳	-8.91141
▁L	-8.91155
▁하마스	-8.91174
▁참가	-8.91241
▁위기	-8.9148
▁비행	-8.91575
자들은	-8.91588
▁의견	-8.91686
▁언급	-8.91691
▁헤	-8.91832
만달러	-8.91834
추	-8.91879
▁구조	-8.92007
▁유지	-8.92121
▁신문	-8.9218
▁호텔	-8.92188
▁감	-8.92209
▁맥	-8.92316
w	-8.92381
▁못	-8.92513
▁지역에	-8.92571
차례	-8.92667
▁아니다	-8.92796
였던	-8.92942
▁것이며	-8.92959
▁인쇄	-8.9299
됐	-8.93058
▁for	-8.93097
이번	-8.93144
▁베이징	-8.9324
하려	-8.93298
▁2004	-8.93351
세의	-8.93367
커	-8.93384
▁전화	-8.93443
▁검사	-8.93546
▁총리가	-8.93572
▁알고	-8.9361
▁이와	-8.9364
하던	-8.93646
▁않는	-8.93906
▁말을	-8.93997
▁관	-8.94252
▁마련	-8.94356
▁제안	-8.94369
▁하락	-8.94596
했을	-8.94684
▁석유	-8.94697
▁않았다고	-8.94724
▁되는	-8.94798
회의	-8.94809
망	-8.94813
나는	-8.94857
▁폭탄테러	-8.94976
▁주택	-8.95015
▁캘리포니아	-8.9511
지역	-8.95119
▁예상	-8.95166
▁철수	-8.95495
▁전에	-8.95781
▁시신	-8.95894
▁기자회견에서	-8.95999
▁얻	-8.96006
▁핵무기	-8.96063
현	-8.96094
▁개인	-8.96126
음	-8.96142
▁어제	-8.96208
▁시작했다	-8.96226
목	-8.96256
렸다	-8.96386
▁폴	-8.96479
▁국회	-8.96497
▁하루	-8.96507
▁키	-8.96672
▁보였다	-8.96731
b	-8.96816
▁제공	-8.96836
▁아침	-8.9715
▁라이스	-8.97272
▁필요한	-8.9729
설명	-8.97352
▁관련된	-8.97396
▁아니라	-8.97501
▁사람이	-8.97637
▁별	-8.97691
▁결혼	-8.97716
억원	-8.98016
▁생활	-8.98052
▁국방부	-8.98202
▁증거	-8.9821
50	-8.98215
ch	-8.98339
있다	-8.98486
▁해외	-8.98568
un	-8.98613
“	-8.98657
도록	-8.9869
▁재개	-8.98739
▁담	-8.98827
ic	-8.98857
▁건설	-8.98885
▁우리는	-8.99142
▁남성	-8.99196
JO	-8.99243
▁결	-8.99277
년대	-8.99351
▁사르코지	-8.99376
▁회의	-8.99453
▁시설	-8.99546
▁체	-8.9957
인한	-8.99573
그러나	-8.9976
른	-8.99888
▁타고	-8.99922
▁협력	-8.9995
▁브라운	-8.99951
태	-9.00008
INS	-9.00314
▁인권	-9.00339
▁지나	-9.00431
▁받을	-9.00651
▁있고	-9.00708
▁이동	-9.0074
단체	-9.00754
▁원문	-9.00759
▁작전	-9.00784
▁티베트	-9.00891
년까지	-9.01165
0	-9.01174
▁아프가니스탄	-9.01193
▁시위대	-9.01221
▁도로	-9.01258
년에	-9.01306
▁노무현	-9.01401
에서도	-9.01412
▁결국	-9.01453
▁콜롬비아	-9.0156
▁토	-9.01596
받	-9.016
리아	-9.01605
시켰다	-9.01875
으나	-9.01904
▁박	-9.0201
입	-9.02099
▁역시	-9.02203
▁s	-9.02217
장을	-9.0222
~	-9.02524
ri	-9.02539
▁아들	-9.02748
림	-9.02954
▁걸	-9.03029
▁번째	-9.03114
▁에너지	-9.03128
▁직원	-9.03163
▁천	-9.03386
정부	-9.03391
령	-9.03461
▁내년	-9.03552
▁2003	-9.03649
▁친구	-9.03698
▁곧	-9.03708
▁청	-9.03765
▁열리는	-9.0381
▁이유로	-9.0382
왔다	-9.0401
▁숨졌다	-9.04098
자인	-9.04151
▁경쟁	-9.04202
&	-9.04301
▁수준	-9.04582
re	-9.04688
▁출전	-9.04719
▁인도네시아	-9.04747
▁산업	-9.04749
▁사건에	-9.0475
▁국무부	-9.04776
▁눈	-9.04802
▁60	-9.04828
▁타임즈	-9.05158
▁Korea	-9.05303
갈	-9.0542
▁문제에	-9.05472
▁요	-9.05496
▁출연	-9.05705
주의	-9.05942
▁연설	-9.05966
▁운동	-9.06083
▁잡	-9.06236
▁이제	-9.06271
▁전망	-9.06506
▁디	-9.06579
▁왕	-9.06694
겨	-9.06698
▁예정이라고	-9.06875
독해	-9.06937
▁해안	-9.06983
▁어떻게	-9.07042
센터	-9.07086
▁운영	-9.07193
▁최초	-9.07223
▁훈련	-9.07642
기도	-9.07685
▁시스템	-9.08021
▁회복	-9.08219
▁경선	-9.08222
▁대회	-9.08365
▁자유	-9.08397
▁같다	-9.08421
▁경고	-9.08577
링	-9.08601
▁주변	-9.08673
하라	-9.08714
▁제작	-9.08783
▁네	-9.08795
▁알리	-9.0893
▁레바논	-9.08954
▁선수	-9.08985
스타	-9.09186
▁원인	-9.09263
율	-9.09272
▁승인	-9.09353
▁한국인	-9.09384
하려는	-9.09393
▁성장	-9.09426
▁전문가들은	-9.09483
▁지명	-9.09545
▁빈	-9.09583
▁동물	-9.09606
일간	-9.09672
▁임무	-9.09815
30	-9.09862
▁또는	-9.09938
▁이같	-9.09961
▁태	-9.09969
들에	-9.10008
▁정보를	-9.10135
▁방안	-9.10188
성을	-9.10238
▁인구	-9.10239
▁태국	-9.10269
▁일정	-9.10276
▁요구했다	-9.10337
자는	-9.10497
만원	-9.10511
▁만나	-9.10592
▁있기	-9.10608
쿠	-9.10673
▁있게	-9.10679
▁연합	-9.10686
▁음악	-9.10696
▁사임	-9.10713
▁까지	-9.10763
▁200	-9.10792
▁데이비드	-9.10987
▁멕시코	-9.10987
▁대선후보	-9.10993
▁마을	-9.11189
회사	-9.11393
▁벌	-9.11421
▁b	-9.11463
▁2000	-9.11489
이자	-9.11549
▁대신	-9.11567
명과	-9.11622
▁보고서	-9.11762
로서	-9.11827
엔	-9.11843
▁용	-9.11926
▁31	-9.1193
com	-9.11954
▁선택	-9.12042
▁건	-9.12071
▁과학자들	-9.12206
▁아프리카	-9.12209
▁발견했다	-9.12318
▁주말	-9.12321
▁무장	-9.12458
▁극	-9.12532
맨	-9.12609
▁비디오	-9.1261
▁앞두고	-9.1261
▁수술	-9.12702
▁대변인	-9.12873
▁학생	-9.12898
▁받아	-9.12914
▁어린이	-9.12915
하거나	-9.13001
▁한나라당	-9.13022
▁비롯	-9.13026
▁파괴	-9.13032
불	-9.13035
▁사망하고	-9.13099
씨는	-9.13102
es	-9.13173
▁여객기	-9.13186
▁양국	-9.13204
▁샤	-9.13301
▁너무	-9.13306
▁금	-9.13393
▁교육	-9.13468
되기	-9.13474
레이	-9.1352
누	-9.13544
▁생각한다	-9.13572
졌	-9.13645
자들이	-9.13653
▁북	-9.13689
H	-9.13804
▁패	-9.13868
▁바로	-9.13872
▁배우	-9.13887
▁나타났다	-9.13912
사는	-9.13924
is	-9.13973
▁개최	-9.14312
ation	-9.14563
▁부분	-9.14566
▁민간인	-9.14605
▁대사관	-9.14643
▁관할	-9.14664
▁항공	-9.1501
▁몸	-9.15023
▁제품	-9.1505
▁폭력	-9.15177
▁투	-9.15316
▁전투	-9.15397
능	-9.15436
▁있었던	-9.15543
▁거리	-9.15545
▁장관	-9.15559
▁전세계	-9.15563
월에	-9.15789
▁포함한	-9.1594
▁정당	-9.16025
▁행정부	-9.16115
▁주도	-9.16131
▁re	-9.16142
▁도움	-9.16253
▁평	-9.16288
▁대규모	-9.16374
at	-9.16375
업체	-9.16583
억달러	-9.16649
▁참석	-9.16719
▁판사	-9.16847
▁만들어	-9.16873
런	-9.16977
▁죽	-9.17022
채	-9.17026
▁가지	-9.17036
▁화재	-9.1715
기로	-9.17171
블	-9.17191
록	-9.17225
▁아닌	-9.17233
▁쿠	-9.17466
흐	-9.17642
▁넘	-9.17684
▁여전	-9.17767
▁약속	-9.17933
▁기대	-9.17957
▁K	-9.18048
▁로버트	-9.18077
축	-9.18247
▁주민	-9.18256
▁남편	-9.18339
▁살고	-9.1841
잡	-9.18429
▁질	-9.18496
▁편	-9.185
▁책임	-9.18614
▁교수는	-9.18694
습	-9.18808
▁찾아	-9.18894
▁무장세력	-9.18945
톤	-9.18959
합니다	-9.19007
▁내려	-9.19075
▁가지고	-9.19099
▁특별	-9.19108
▁의원은	-9.19149
▁촉구했다	-9.19296
▁올라	-9.1937
▁밝혀졌다	-9.1939
퍼센트	-9.19401
▁실시	-9.19717
▁온라인	-9.19817
▁작품	-9.19831
▁계약	-9.19851
▁2002	-9.19863
▁크	-9.1989
st	-9.20172
)'	-9.20207
▁규정	-9.20259
한다는	-9.20282
▁갈	-9.20433
▁총선	-9.2046
▁입은	-9.20535
사를	-9.20547
랜드	-9.20622
▁안에	-9.20632
▁구성	-9.20639
우리	-9.20666
▁가자지구	-9.20701
▁수단	-9.20748
▁특히	-9.20779
▁수치	-9.20824
▁안보	-9.20967
▁인간	-9.20996
골	-9.20999
▁입었다	-9.21053
▁연료	-9.21182
▁그들의	-9.21232
▁국영	-9.21262
▁행	-9.21351
▁수입	-9.2153
▁앤	-9.21545
리스	-9.2158
▁국내	-9.21649
▁되	-9.21662
해왔다	-9.21677
▁제재	-9.21742
랑	-9.21937
액	-9.22021
▁스타	-9.22086
자회담	-9.22117
▁LA	-9.22142
▁경기에서	-9.22193
▁암	-9.22354
▁말한다	-9.22442
▁이상이	-9.22476
▁통신	-9.22477
▁부통령	-9.22489
W	-9.22495
▁설치	-9.22532
▁U	-9.22629
탈	-9.22785
▁일이	-9.22831
el	-9.22928
▁홍콩	-9.22943
▁작은	-9.23194
▁여자	-9.2321
▁최종	-9.23421
▁관계자가	-9.23431
▁시험	-9.23434
▁웹사이트	-9.23455
▁목표	-9.23612
▁퍼	-9.23612
▁f	-9.23721
▁푸틴	-9.23856
▁담당	-9.2394
▁심각한	-9.23967
▁열차	-9.24008
▁있	-9.24078
장이	-9.2408
▁기소	-9.24247
▁인기	-9.24528
ro	-9.24621
▁필요하다	-9.24654
백	-9.2473
▁메시지	-9.24774
▁밝힌	-9.24777
▁대의원	-9.24802
▁경고했다	-9.24838
▁일을	-9.24967
▁없을	-9.25235
▁파업	-9.25297
▁가치	-9.25362
▁개선	-9.25388
▁플로리다	-9.2549
▁했다고	-9.2557
ur	-9.25604
준	-9.2563
하겠다	-9.25686
▁환자	-9.2571
▁반응	-9.25715
▁과거	-9.2573
빌	-9.25795
▁아무	-9.25935
▁중인	-9.25963
et	-9.2603
▁기념	-9.26122
▁테	-9.26178
▁쓰	-9.26274
시키는	-9.26318
▁주식	-9.26322
▁부대	-9.26432
술	-9.26531
▁영	-9.26538
줄	-9.26547
▁캐나다	-9.26638
▁발표한	-9.2668
여명	-9.26814
환	-9.26855
▁광고	-9.26882
규	-9.27007
대로	-9.27065
▁마이클	-9.2711
▁움직임	-9.27115
▁암살	-9.2714
▁사실	-9.27181
▁다양	-9.27196
별	-9.27212
▁밀	-9.27252
▁비해	-9.2727
▁변호사	-9.27363
▁임명	-9.27367
▁벌였다	-9.2741
ra	-9.27432
▁추락	-9.27514
▁동부	-9.2754
▁라디오	-9.27583
▁독	-9.27584
▁아기	-9.27656
▁섬	-9.27662
▁문화	-9.27761
▁외국인	-9.27836
향	-9.27964
▁총격	-9.2798
▁얼마	-9.27991
▁도착	-9.28025
us	-9.28535
폭	-9.28566
▁대만	-9.28604
▁관리들	-9.28627
▁취	-9.28688
샤	-9.28689
▁외교	-9.2869
엘	-9.28724
▁미국인	-9.28901
▁화요일	-9.28926
▁기록했다	-9.29066
▁US	-9.2908
▁엘	-9.29111
▁서부	-9.29241
▁통제	-9.29376
▁서로	-9.29428
튼	-9.29454
▁힐	-9.29623
사건	-9.29652
▁강제	-9.29665
▁이라크에서	-9.29863
년부터	-9.29881
▁지역의	-9.29897
▁브라질	-9.29988
▁식량	-9.30015
▁중동	-9.30023
▁커	-9.3003
▁위반	-9.30052
페	-9.30152
▁진압	-9.30153
▁이유	-9.30288
▁가스	-9.30334
▁헬기	-9.30342
▁나이	-9.30362
이었던	-9.30386
혈	-9.30433
▁감시	-9.30468
▁어머니	-9.30475
▁스미스	-9.30476
▁여름	-9.30492
쉬	-9.30712
례	-9.30736
▁케냐	-9.3097
▁실험	-9.30984
항	-9.31155
애	-9.31159
빈	-9.31207
▁그런	-9.31214
▁p	-9.31229
▁외국	-9.31338
500	-9.31346
▁선언	-9.31429
▁제한	-9.31516
▁국무장관	-9.31517
▁머리	-9.31524
▁추진	-9.31565
▁짐바브웨	-9.31589
익	-9.31594
▁수출	-9.31616
▁캐	-9.31697
▁내렸다	-9.31703
▁사과	-9.31844
▁같이	-9.31925
힌	-9.31947
▁후보가	-9.3195
▁각각	-9.31982
▁비용	-9.32102
▁수행	-9.32117
거리	-9.32209
랜	-9.32213
▁근	-9.32251
▁시아파	-9.32451
▁소송	-9.32475
광	-9.32636
▁최	-9.32649
▁밖에	-9.32844
▁해군	-9.32909
▁탈	-9.32956
▁평균	-9.32956
▁대변인이	-9.32959
20	-9.33011
▁일반	-9.33032
▁장소	-9.3304
▁축구	-9.33083
▁권리	-9.33141
▁미국에서	-9.33219
창	-9.33245
▁명이	-9.33319
9	-9.33407
▁나는	-9.33425
▁프로	-9.33429
였	-9.33444
▁시즌	-9.33467
▁차례	-9.33513
▁하원	-9.33556
▁제기	-9.33605
▁배치	-9.33689
▁인상	-9.33765
=2	-9.33793
▁쇼	-9.33803
▁악	-9.33821
▁접근	-9.33963
▁목적	-9.34023
▁전달	-9.34205
▁출	-9.344
▁여론조사	-9.34456
▁과정에서	-9.34542
▁허	-9.3456
▁나온	-9.34579
▁놓	-9.34589
▁않아	-9.34706
▁선고	-9.34735
▁h	-9.34736
▁텍사스	-9.34778
착	-9.34823
협회	-9.3484
▁삼	-9.34959
시켜	-9.34977
▁순	-9.34984
자들	-9.35027
▁차이	-9.35085
▁발견됐다	-9.35128
▁처리	-9.35128
동안	-9.35222
▁선정	-9.35395
▁일본의	-9.35415
▁정권	-9.35434
▁항의	-9.35494
▁신고	-9.35553
▁파병	-9.35564
▁구속	-9.35564
▁버스	-9.35682
경기	-9.35709
200	-9.35746
▁사원	-9.35844
일까지	-9.35981
▁병	-9.36032
담	-9.36053
니다	-9.36064
▁숨	-9.36086
하다고	-9.36086
책	-9.36111
▁공연	-9.36119
▁무역	-9.36125
▁사건이	-9.36172
때	-9.36173
▁국민들	-9.36193
▁인수	-9.3623
▁경찰에	-9.36251
▁사실이	-9.3626
것	-9.36268
ent	-9.36303
침	-9.36309
▁귀	-9.36386
염	-9.3645
▁당신	-9.36479
렸	-9.36529
▁걸쳐	-9.36541
▁책	-9.36547
변	-9.36603
▁참여	-9.36716
▁위성	-9.36812
▁않	-9.36849
이란	-9.36872
▁붕괴	-9.36883
허	-9.36942
▁파견	-9.37074
▁게	-9.37129
글	-9.37184
▁자료	-9.37252
개국	-9.37326
씨	-9.37376
▁다리	-9.37401
▁설명	-9.37525
▁항공사	-9.37571
▁의미	-9.37589
▁2007	-9.37589
시키기	-9.37594
▁사이에	-9.37648
관계	-9.37797
▁포기	-9.37819
▁부상했다	-9.37825
▁E	-9.37882
▁위원회	-9.37899
▁수상	-9.37913
▁고려	-9.37971
▁전국	-9.38062
▁센터	-9.38064
▁음식	-9.38143
▁헌법	-9.38162
▁자리	-9.38235
5000	-9.38238
▁500	-9.38252
평	-9.38331
▁/	-9.38363
▁주재	-9.3842
▁살인	-9.38478
▁설립	-9.38631
▁허용	-9.3867
▁평가	-9.3868
▁사랑	-9.38686
▁집중	-9.38692
▁대상으로	-9.38845
▁긴장	-9.38854
▁안정	-9.3897
▁발전	-9.39004
▁개혁	-9.3907
▁J	-9.39102
▁이에앞서	-9.39154
▁논쟁	-9.39155
▁수요일	-9.39188
▁씨	-9.39197
▁R	-9.39198
10	-9.39283
▁촬영	-9.39419
▁주지사	-9.39528
▁결정했다	-9.39551
▁바이러스	-9.39691
▁사퇴	-9.39724
▁것과	-9.39731
▁그룹	-9.39807
▁기관	-9.39843
sp	-9.39886
▁목	-9.39919
중인	-9.39989
▁작업	-9.40113
측은	-9.40149
움	-9.4018
▁거부	-9.40186
▁관계자들은	-9.40191
▁성폭행	-9.40226
▁공습	-9.4027
리고	-9.40294
세기	-9.40307
은행	-9.40335
▁칼	-9.40359
하였다	-9.40383
▁부모	-9.40404
▁유일	-9.40484
▁수감	-9.40553
▁The	-9.40583
▁희망	-9.40617
se	-9.40621
드는	-9.40723
냐	-9.40753
▁알려진	-9.40787
▁콜	-9.40801
▁대해서는	-9.40822
▁교수	-9.40858
▁아내	-9.40879
▁인물	-9.40901
▁0	-9.40943
ion	-9.41011
▁발견된	-9.41185
as	-9.41203
▁터	-9.4129
▁주민들	-9.41298
▁받는	-9.41298
▁차베스	-9.4131
▁혼란	-9.41331
▁압력	-9.41341
▁후세인	-9.41348
▁한다는	-9.41422
▁집회	-9.41431
▁단계	-9.41643
▁관해	-9.41654
했	-9.41705
총	-9.4171
▁완전	-9.41868
▁되어	-9.41893
지도	-9.41976
▁EU	-9.42179
북	-9.42213
가지	-9.42257
▁당선	-9.4233
▁교회	-9.42352
▁요청했다	-9.42393
▁바란다	-9.42408
라며	-9.4243
▁상대로	-9.42437
▁그들이	-9.42473
▁익명	-9.42493
▁교통	-9.42578
▁교전	-9.4261
▁on	-9.42625
명으로	-9.42656
▁마약	-9.42683
▁학생들	-9.42735
올	-9.42744
▁변호사는	-9.4283
름	-9.42959
▁기지	-9.42988
▁신원	-9.43014
안을	-9.43172
▁차지	-9.43219
▁감염	-9.43228
시키고	-9.43258
밀	-9.43382
▁기사	-9.43532
▁대응	-9.43533
▁증	-9.43535
▁야후	-9.43544
ter	-9.4362
▁죽음	-9.43632
▁후보는	-9.43636
▁나가	-9.43638
▁집단	-9.43662
이라크	-9.43668
▁예상된다	-9.43672
턴	-9.43687
기구	-9.43706
▁이래	-9.43706
되	-9.43848
앙	-9.43981
문제	-9.44001
▁질문	-9.44034
▁복귀	-9.44077
▁I	-9.44122
▁시리아	-9.44162
▁왕자	-9.4422
▁접	-9.44396
▁이명박	-9.44635
▁밝혔습니다	-9.4464
▁구매	-9.44694
▁불만	-9.44696
쳤다	-9.44732
▁크게	-9.44789
▁아직까지	-9.44833
▁로마	-9.44839
▁폭	-9.44861
했다는	-9.44898
▁있지	-9.45002
하기도	-9.45035
▁미래	-9.45084
▁남북	-9.45104
▁탑승	-9.45179
▁북핵	-9.45203
▁관광	-9.45212
국가	-9.45222
▁특	-9.45234
사가	-9.45264
▁끝	-9.45284
▁고용	-9.45351
스터	-9.45352
▁w	-9.45396
슬	-9.45403
션	-9.45479
▁받지	-9.45538
▁남한	-9.45555
▁정신	-9.45767
▁폭력사태	-9.45773
센	-9.45783
하지만	-9.45846
▁중앙	-9.45919
되었습니다	-9.45926
▁사형	-9.45933
▁가정	-9.45987
▁울	-9.4608
▁이곳	-9.46088
▁보여주	-9.4616
▁인터뷰	-9.46189
리자	-9.4622
▁저장	-9.46271
패	-9.46305
x	-9.46327
▁중국은	-9.46421
il	-9.46438
▁임시	-9.4649
▁사람은	-9.46491
볼	-9.46507
▁허가	-9.46526
킨	-9.46618
th	-9.46738
일부터	-9.46793
▁판	-9.46871
▁이집트	-9.46915
▁효과	-9.46921
▁탄	-9.46922
▁따라	-9.4693
▁표현	-9.46938
▁연결	-9.46955
돌	-9.46983
▁베네수엘라	-9.47051
이지만	-9.47169
▁내리	-9.47191
송	-9.47388
3%	-9.47414
▁아니라고	-9.47416
▁슈	-9.47494
▁민주주의	-9.47502
▁따른	-9.47504
▁따	-9.47516
으로서	-9.47567
▁시민	-9.4757
▁몰	-9.47572
▁사람들을	-9.47586
▁합니다	-9.47615
손	-9.47626
2%	-9.4782
▁관계자	-9.47844
▁세력	-9.47886
▁위해서는	-9.47933
대가	-9.48055
▁목요일	-9.48073
견	-9.48106
▁때까지	-9.48116
▁여론	-9.48125
▁사는	-9.48151
▁정부와	-9.48216
▁적이	-9.48287
델	-9.48326
▁임	-9.48343
▁글	-9.48344
▁팬들	-9.48379
▁사이트	-9.48442
▁비밀	-9.48462
▁마크	-9.48569
까	-9.48646
▁검토	-9.48659
▁시카고	-9.48661
▁최악	-9.48667
▁모델	-9.48693
▁권력	-9.48697
▁부부	-9.48698
▁쿠바	-9.48741
▁받게	-9.48744
족	-9.4887
▁실패	-9.48875
▁제조	-9.49006
▁과정	-9.49264
▁임기	-9.49301
수가	-9.49357
▁2001	-9.49393
▁비판	-9.49569
ir	-9.49628
▁브	-9.49631
이라	-9.49743
▁장면	-9.49773
▁높이	-9.49838
▁무장단체	-9.49856
▁해리	-9.499
▁명령	-9.49901
되었다고	-9.49948
▁de	-9.50008
▁농	-9.50042
▁가졌다	-9.501
▁매년	-9.50168
▁선출	-9.50169
▁내부	-9.50229
▁유명	-9.50249
▁상원의원이	-9.50253
▁못하고	-9.50297
▁지도자들	-9.50316
▁진출	-9.50476
▁수십	-9.5056
▁수색	-9.506
ID	-9.50603
▁철	-9.50719
▁지불	-9.50722
▁병사	-9.50743
▁형	-9.50854
▁계획이다	-9.50915
만이	-9.50938
으	-9.50944
▁유권자들	-9.50983
▁뿐	-9.51005
▁되고	-9.5103
▁공격으로	-9.51032
▁일요일	-9.51034
▁분쟁	-9.51041
▁사무실	-9.51052
▁두고	-9.51103
▁자체	-9.51219
▁언급했다	-9.51235
▁보냈다	-9.51289
그는	-9.51309
▁슬	-9.51322
▁동료	-9.51344
▁거주	-9.5147
▁강력한	-9.51519
▁필리핀	-9.51634
▁이끄는	-9.51638
▁아랍	-9.51648
▁주가	-9.51652
▁국립	-9.51652
▁선박	-9.51682
▁수많은	-9.51742
▁들어가	-9.51752
냈다	-9.51829
▁도움이	-9.51832
▁나왔다	-9.51856
북한	-9.51877
ut	-9.51883
▁달리	-9.51905
되면서	-9.5192
▁폐	-9.51923
▁밝혀	-9.52078
▁못한	-9.52127
기가	-9.52202
대의	-9.52241
트는	-9.52275
▁월요일	-9.52281
▁하기	-9.52303
▁밝히지	-9.52361
▁보고서는	-9.5242
▁국	-9.52456
▁사항	-9.52507
장에서	-9.52533
▁벤	-9.52801
느	-9.52811
▁강한	-9.52839
▁선수들	-9.5286
▁의료	-9.5291
▁오른	-9.52914
▁바다	-9.52927
▁향해	-9.53017
▁의장	-9.53026
악	-9.53062
▁뇌	-9.53096
▁관계자들	-9.53099
▁거대	-9.53121
겠다	-9.53133
로운	-9.5321
‘	-9.53211
▁확인했다	-9.53264
▁위치	-9.53265
▁be	-9.53283
▁파리	-9.534
▁한반도	-9.53466
▁선두	-9.53531
▁격	-9.53584
▁떠나	-9.5363
▁전시	-9.5365
▁항공기	-9.53673
▁전력	-9.53708
▁수익	-9.53866
4%	-9.53867
▁상황이	-9.53891
▁창	-9.53962
▁측	-9.54009
▁정부에	-9.54019
▁상대	-9.5411
▁노동	-9.54168
▁군대	-9.5417
▁심리	-9.54211
다른	-9.54263
봉	-9.5444
비아	-9.54489
ist	-9.54533
째	-9.54652
롭	-9.54668
▁약물	-9.54676
▁비슷	-9.54702
▁흑인	-9.5471
▁긴급	-9.54718
▁누구	-9.54787
극	-9.5493
▁받았	-9.54975
철	-9.55012
▁작년	-9.55036
▁관광객	-9.55068
▁80	-9.55081
▁칸	-9.55132
▁제거	-9.55215
▁나머지	-9.55328
▁고통	-9.55379
▁증시	-9.55416
▁과학	-9.55463
▁종교	-9.55555
▁주지사는	-9.55609
▁민	-9.55628
▁지진	-9.55688
▁넘어	-9.55763
▁보수	-9.55812
▁올랐다	-9.55956
▁사우디	-9.55976
▁맺	-9.55983
▁대사	-9.56032
▁UN	-9.56088
▁O	-9.561
▁소년	-9.56216
릭	-9.56255
▁막기	-9.56389
▁범인	-9.56444
▁부상자	-9.56505
▁목숨	-9.5659
▁숨지고	-9.56593
▁소재	-9.56709
여명이	-9.56789
▁백	-9.56857
▁소리	-9.56868
존	-9.56899
▁환영	-9.56941
▁계	-9.56966
자로	-9.5712
이어	-9.57175
ol	-9.57187
▁도쿄	-9.57226
틀	-9.57238
▁다음달	-9.57274
▁유권자	-9.57281
▁만든	-9.57311
▁처	-9.57332
▁희생자	-9.57449
▁1000	-9.5747
▁대중	-9.57543
▁오르	-9.57664
ate	-9.57728
▁북한에	-9.57733
엄	-9.57854
▁감사	-9.57865
▁정상회담	-9.57875
▁국방장관	-9.57956
op	-9.58015
▁되었다	-9.58031
만한	-9.58125
▁중심	-9.58195
-1	-9.58207
성이	-9.5822
스가	-9.58255
새	-9.58306
▁세금	-9.58368
랄	-9.58508
▁제임스	-9.58513
▁어느	-9.58544
자와	-9.58614
▁주장하고	-9.58672
ers	-9.58691
▁m	-9.58809
▁받았다고	-9.58901
▁사람들에게	-9.58938
▁가능한	-9.5899
▁악화	-9.59018
분기	-9.59022
섬	-9.59053
▁올리	-9.59101
베이	-9.59237
▁프리	-9.59313
▁있다며	-9.5935
▁인질들	-9.59467
▁총기	-9.59478
▁만큼	-9.59593
▁제출	-9.59602
▁경찰관	-9.59687
▁중에	-9.59717
자금	-9.59766
▁착륙	-9.59809
▁싶다	-9.59815
딘	-9.59815
▁외무부	-9.59815
거래	-9.59816
▁충격	-9.59826
▁출발	-9.59844
▁넘는	-9.59847
▁질문에	-9.59931
▁이라크전	-9.60008
▁업체	-9.60253
▁현대	-9.60264
알	-9.60344
▁광	-9.60396
욕	-9.60427
▁적어도	-9.60474
▁정도로	-9.60493
40	-9.60507
▁뛰어	-9.60517
▁만들	-9.60518
지에	-9.60587
▁것이라	-9.60625
▁후에	-9.60627
▁되지	-9.60694
▁대비	-9.60832
▁끝에	-9.60856
▁노조	-9.60939
▁작가	-9.60943
칠	-9.60973
취	-9.6098
▁동의	-9.60988
▁심장	-9.61029
인들은	-9.61074
▁곳에서	-9.61086
▁작업을	-9.61162
▁보낸	-9.61171
▁직원들	-9.61201
▁전기	-9.61223
▁여당	-9.6129
▁인사	-9.61481
▁가까	-9.61526
몬	-9.61582
▁공장	-9.61596
▁수천	-9.61619
사회	-9.61619
기간	-9.61693
척	-9.61766
경찰	-9.61784
충	-9.61793
▁어떠한	-9.61802
▁허리케인	-9.61802
▁패배	-9.61833
▁의혹	-9.61836
슈	-9.61982
겼다	-9.62056
▁제시	-9.62128
인들이	-9.62314
▁여성이	-9.62379
▁황	-9.62414
▁접촉	-9.62477
▁소비자	-9.62545
▁동결	-9.6256
스크	-9.62631
▁홀	-9.62633
▁공공	-9.62668
▁합	-9.62679
▁시행	-9.62789
▁보장	-9.62811
▁수천명	-9.62849
▁발생했다고	-9.62875
였습니다	-9.63083
씩	-9.63149
▁일자리	-9.63201
한다면	-9.63228
▁출마	-9.63259
▁급	-9.63299
▁입고	-9.63337
▁시기	-9.63345
▁소유	-9.63384
갔다	-9.6342
▁자국	-9.63424
▁전문가	-9.63452
텔	-9.63589
황	-9.63654
▁이달	-9.63704
시키	-9.63778
▁유명한	-9.6382
▁끌어	-9.63829
▁없어	-9.63829
▁확대	-9.63829
▁폭풍	-9.63835
▁압박	-9.63839
▁방문한	-9.63869
▁삶	-9.63915
▁휴	-9.63941
▁승객	-9.63947
▁유로	-9.63949
서는	-9.63952
▁부정	-9.64048
ce	-9.64097
▁35	-9.64134
▁발생해	-9.64247
▁합의했다	-9.64462
▁이해	-9.64495
좌	-9.64501
컵	-9.64511
▁300	-9.64575
귀	-9.64594
▁주의	-9.64751
ck	-9.64756
▁고문	-9.64822
▁마리	-9.64861
험	-9.64992
▁보건	-9.65005
▁사상	-9.65028
었다고	-9.65042
id	-9.65047
겠다고	-9.65108
▁오바마가	-9.65128
▁식	-9.65162
▁어려움	-9.65207
▁미군이	-9.65236
대통령	-9.65247
▁찰스	-9.65276
▁유죄	-9.65315
▁사진을	-9.6532
통신	-9.65345
▁구호	-9.65352
▁완화	-9.65369
▁자연	-9.65406
▁피해자	-9.65423
▁동원	-9.65467
▁전자	-9.65524
▁아주	-9.65597
▁등의	-9.65745
▁수백	-9.65836
펠	-9.65892
▁외무장관	-9.65898
J	-9.65943
▁작성	-9.66007
▁지배	-9.6607
▁묻	-9.66106
▁듯	-9.66239
all	-9.66303
▁대표는	-9.66429
시장	-9.665
la	-9.66553
▁대해서	-9.66555
▁로켓	-9.66582
▁지도자인	-9.66595
▁빠져	-9.66596
▁소말리아	-9.66597
▁목소리	-9.666
▁소녀	-9.66627
▁병원에	-9.66629
▁경매	-9.6665
▁향	-9.66656
스러운	-9.66676
마일	-9.66702
▁맡	-9.66745
▁것인지	-9.66774
검	-9.66806
▁마음	-9.66829
▁존스	-9.66859
녀	-9.66895
기관	-9.66969
▁대화	-9.67
▁끝나	-9.67039
▁체포됐다	-9.67195
▁주민들이	-9.67233
▁않았지만	-9.67301
▁시상식	-9.67302
▁능력	-9.67305
▁전반	-9.67366
테러	-9.67451
▁그리스	-9.67452
▁가질	-9.67475
▁현장	-9.67509
되며	-9.67522
▁역	-9.67646
인지	-9.67682
▁경험	-9.67702
▁연장	-9.67809
레스	-9.6787
▁시간이	-9.67899
▁나오	-9.679
▁해제	-9.67935
▁신뢰	-9.68015
▁공군	-9.6802
▁평양	-9.68042
▁군인	-9.68064
월부터	-9.68073
▁언론은	-9.68084
▁숨진	-9.68101
▁등록	-9.68121
순	-9.68187
▁적용	-9.68188
▁심각	-9.68197
▁절	-9.68213
▁법적	-9.68221
▁망명	-9.68264
▁g	-9.68274
▁완	-9.68321
ow	-9.68363
해졌다	-9.68384
▁연구소	-9.68412
음을	-9.68435
▁카운티	-9.68641
▁취임	-9.68697
▁보여	-9.6872
▁게이츠	-9.68726
▁머물	-9.68752
▁절차	-9.68778
이것은	-9.68786
벌	-9.68818
▁이루	-9.68857
헌	-9.68921
▁뉴	-9.68971
▁상당	-9.68993
▁관련해	-9.69129
▁카메라	-9.69156
▁서명	-9.69183
벨	-9.69218
▁붙	-9.69261
▁대법원	-9.6933
▁프	-9.69345
▁목표로	-9.69365
▁사건은	-9.69368
▁유세	-9.69376
▁걱정	-9.69444
▁말레이시아	-9.69444
▁프로젝트	-9.69444
싼	-9.69444
▁휴대폰	-9.69446
▁트럭	-9.69448
ot	-9.6949
▁이라크에	-9.69557
▁존재	-9.69584
▁취소	-9.69592
▁그것은	-9.69596
▁아베	-9.69619
▁국가들	-9.69665
▁반대하는	-9.69691
▁최고의	-9.69717
했는데	-9.69724
▁강력	-9.69734
▁기억	-9.69735
▁전문	-9.69773
▁해야	-9.69847
▁소비	-9.69902
치는	-9.70026
▁크리스	-9.701
닝	-9.70169
▁청와대	-9.7017
▁보이는	-9.70183
▁아무런	-9.70185
▁여왕	-9.70187
7%	-9.70211
▁물론	-9.70252
▁내무부	-9.70304
폐	-9.70345
▁오래	-9.70351
쇼	-9.70387
숙	-9.704
▁당선인	-9.70497
ive	-9.70572
▁술	-9.70648
ment	-9.70749
▁젊은	-9.70816
▁넣	-9.70834
갑	-9.70859
▁힐튼	-9.70913
표를	-9.70969
▁항상	-9.70981
▁순간	-9.71013
▁경제적	-9.7104
▁영어	-9.71082
제도	-9.711
▁사기	-9.71116
60	-9.71234
U	-9.7131
시아	-9.71336
람	-9.71379
다면	-9.71488
▁마드리드	-9.71634
▁신화통신	-9.71636
▁추정	-9.71727
중국	-9.7177
▁법안을	-9.71804
▁등을	-9.71851
▁옷	-9.71851
The	-9.71885
▁수석	-9.72056
였다고	-9.72161
▁들고	-9.72197
6%	-9.72278
▁놓고	-9.72345
▁밝혀지지	-9.72376
▁운행	-9.72386
▁투입	-9.72397
▁작	-9.72464
▁자주	-9.72476
▁신청	-9.72485
▁촉구	-9.7249
▁수용	-9.72493
▁확산	-9.72523
ly	-9.72547
▁집행	-9.72592
찬	-9.72602
▁지역을	-9.72627
#	-9.72635
▁그린	-9.72637
방송	-9.72642
활동	-9.72657
ve	-9.72675
연합	-9.72689
▁입원	-9.72743
조사	-9.72745
정책	-9.72746
▁박물관	-9.7276
학자	-9.72819
▁오픈	-9.72883
관리	-9.72994
▁전략	-9.73031
젠	-9.73121
▁상징	-9.73154
▁법률	-9.73154
▁국제사회	-9.73157
▁고래	-9.73224
▁도중	-9.73312
낸	-9.73325
▁만약	-9.73422
▁선거에서	-9.73437
들도	-9.73532
▁시작된	-9.73618
▁직	-9.73649
▁도전	-9.73813
▁나타나	-9.73874
▁수니파	-9.73875
▁이수지	-9.73893
시설	-9.73926
▁본부	-9.73934
▁집권	-9.73948
▁판단	-9.7395
▁비상	-9.73987
었습니다	-9.74021
▁좀	-9.74031
▁학	-9.74064
▁레이	-9.74108
ig	-9.74121
궁	-9.74137
▁참	-9.74144
▁굴	-9.74183
▁화	-9.74213
었으며	-9.74217
공격	-9.74257
▁이전에	-9.74312
▁미군은	-9.74322
▁개의	-9.74322
▁있음을	-9.74483
법원	-9.7452
▁비자	-9.74539
팅	-9.74631
▁얼굴	-9.74632
▁베컴	-9.7464
장에	-9.74661
▁운전	-9.7469
▁장기	-9.74704
▁연속	-9.74709
백만	-9.74731
▁결의안	-9.7476
▁집계	-9.74766
▁피터	-9.74766
▁90	-9.74779
▁조건	-9.74796
▁지하	-9.74803
)/	-9.74968
로써	-9.74997
장관	-9.75017
▁육	-9.75075
▁소식	-9.75095
▁회담에서	-9.75101
▁동시	-9.75218
기에	-9.75283
▁수반	-9.75297
▁가수	-9.75333
당한	-9.75337
▁올메르트	-9.75394
▁잉글랜드	-9.75394
▁아파트	-9.75395
▁억류	-9.75398
▁윌리엄	-9.75406
▁애플	-9.75427
ap	-9.75428
운동	-9.75432
▁전까지	-9.75441
▁부패	-9.7546
▁구입	-9.75462
▁정말	-9.75502
▁저지	-9.75792
▁영상	-9.75837
전에	-9.75862
▁기회	-9.75906
▁근무	-9.75939
▁물질	-9.75948
트리	-9.76018
▁당했다	-9.7606
▁예측	-9.76082
념	-9.76092
▁연설에서	-9.76095
으면	-9.7614
▁스포츠	-9.76163
만명이	-9.76249
▁찬성	-9.76276
▁분노	-9.76285
▁차기	-9.76362
▁부문	-9.76442
▁연합군	-9.76523
▁사상자	-9.76539
▁혼	-9.7658
▁체포했다	-9.76582
▁자녀	-9.76585
▁대피	-9.76681
▁민주	-9.767
▁있는지	-9.7682
j	-9.76939
▁겪고	-9.76939
▁크리스마스	-9.76939
▁직후	-9.76957
이드	-9.76977
▁마무리	-9.77013
▁홍보	-9.77026
▁지지자들	-9.7707
▁깨	-9.77123
▁대형	-9.77141
▁사라	-9.77145
▁전통	-9.77195
▁수정	-9.77379
▁곳에	-9.77384
있	-9.77473
▁한국은	-9.77504
▁버지니아	-9.77511
▁낮	-9.77538
▁가져	-9.77545
▁웨	-9.77588
Y	-9.77592
cat	-9.77638
▁강조	-9.77641
럼	-9.77675
셔	-9.77688
▁블레어	-9.7772
▁블랙	-9.77722
▁시대	-9.77727
수를	-9.77818
▁분석	-9.77825
▁주민들은	-9.77832
▁대처	-9.77868
lo	-9.77896
▁핵심	-9.77902
▁외교부	-9.77943
르는	-9.77984
▁모여	-9.77996
시킨	-9.78005
▁축하	-9.78061
est	-9.78067
▁소장	-9.78111
왕	-9.78111
▁찬	-9.78127
킬	-9.78261
관은	-9.78284
안에	-9.78389
빙	-9.78457
▁영국의	-9.78467
▁선포	-9.78492
젤	-9.78507
▁여기	-9.78508
▁고양이	-9.78509
▁늘	-9.78514
▁씨는	-9.78561
▁임신	-9.78567
위에	-9.78586
19	-9.78635
▁경계	-9.78668
근	-9.78774
▁한미	-9.78875
막	-9.78888
▁항	-9.78902
▁받	-9.78918
▁마감	-9.78924
낼	-9.78944
▁가능	-9.78958
찰	-9.79014
▁그러	-9.79255
▁협의	-9.79301
▁언제	-9.79304
▁비상사태	-9.79305
라운드	-9.79305
해진	-9.79308
▁스스로	-9.79308
▁몇몇	-9.79308
▁산불	-9.79345
▁원자로	-9.79347
▁그들	-9.79374
▁분야	-9.79405
▁나토	-9.79412
▁케	-9.79499
▁약간	-9.79569
▁소지	-9.7959
▁때문	-9.79618
▁군부	-9.79642
했는지	-9.79671
▁성인	-9.79682
놓	-9.79752
▁병원에서	-9.79782
▁엔	-9.79787
▁맞아	-9.79803
▁이란이	-9.79885
드리	-9.79909
▁이밖에	-9.80101
▁빠른	-9.80101
▁빠르	-9.80102
▁탁신	-9.80102
▁무사	-9.80107
▁처벌	-9.80109
▁보이고	-9.80111
▁BBC	-9.80115
▁유사	-9.80124
▁감축	-9.80127
▁최신	-9.80166
▁노출	-9.80202
▁보이지	-9.80225
센트	-9.80319
▁푸	-9.80322
im	-9.80344
▁풀	-9.80362
▁난민	-9.80546
였으며	-9.80586
▁돌아가	-9.80623
로스	-9.80655
▁라이	-9.80682
▁단지	-9.80689
▁클럽	-9.80697
퇴	-9.80731
▁실시된	-9.80787
▁팬	-9.80789
▁보안관	-9.80851
었고	-9.80906
▁높다	-9.80907
▁떨어져	-9.80907
▁협정	-9.80907
▁할리우드	-9.80907
▁일어난	-9.80908
▁업무	-9.8091
▁고속도로	-9.80919
함으로써	-9.8093
스와	-9.80937
▁절반	-9.80939
이었다고	-9.81008
▁현상	-9.81044
▁조금	-9.81061
▁차지했다	-9.81077
달러를	-9.81106
▁대책	-9.81243
▁문서	-9.81322
들로	-9.8135
▁실수	-9.81384
암	-9.81465
▁준	-9.81465
징	-9.81667
롤	-9.81711
joins	-9.8172
▁스피어스	-9.8172
겐	-9.8172
▁코소보	-9.8172
▁나무	-9.81755
▁나타냈다	-9.81782
▁오랜	-9.818
어진	-9.81808
▁알려지	-9.81876
▁조작	-9.8188
▁중이다	-9.81927
70	-9.81944
▁내각	-9.81965
▁강타	-9.81996
▁가량	-9.82022
▁아마	-9.82031
▁발생할	-9.8207
ies	-9.82071
▁치안	-9.82078
필	-9.82117
선수	-9.82125
▁의원이	-9.82152
▁북한과	-9.8227
킹	-9.82274
월까지	-9.82297
▁티	-9.82301
▁받기	-9.82335
하길	-9.82397
▁이미지	-9.82399
▁소식을	-9.82449
▁이와같	-9.82508
렉	-9.8254
▁찾기	-9.8254
▁크리스토퍼	-9.8254
▁샤리프	-9.8254
▁민병대	-9.82541
행위	-9.82554
▁대화를	-9.82581
▁불안	-9.82592
▁부인했다	-9.82685
▁돌아	-9.82686
▁개정	-9.82691
▁윌리엄스	-9.8277
▁사망했으며	-9.82776
▁공원	-9.82818
▁낮은	-9.82824
Ch	-9.82846
▁70	-9.8288
▁놀라	-9.82968
▁지켜	-9.8297
▁실제	-9.83003
▁증가했다	-9.83017
▁않겠다	-9.83034
힐	-9.83141
영화	-9.83169
▁매일	-9.83188
▁초기	-9.83205
었지만	-9.8323
▁그에게	-9.83261
▁프라이머리	-9.83302
ht	-9.83315
▁후보에	-9.83316
▁오랫동안	-9.83366
cnn	-9.83368
▁개봉	-9.83401
▁확실히	-9.83411
▁Korean	-9.83432
▁노래	-9.83499
▁보좌관	-9.83499
스코	-9.83554
▁지도	-9.83609
▁의심	-9.83633
▁즐	-9.83666
▁원조	-9.83681
▁보기	-9.83766
▁알게	-9.83817
한국	-9.83917
위로	-9.83925
슨은	-9.84054
금을	-9.84056
▁둔	-9.84085
▁위기에	-9.841
▁제외	-9.8411
지르	-9.8417
▁그렇게	-9.842
리가	-9.8425
▁지지율	-9.84251
▁개입	-9.84259
▁대표팀	-9.84264
▁추방	-9.84287
▁고든	-9.84342
▁상황에서	-9.84348
tp	-9.84487
▁후반	-9.84583
▁말하고	-9.8461
▁약속했다	-9.84686
▁의원들	-9.84687
▁이용해	-9.84713
▁해당	-9.84736
▁부르	-9.84749
▁십	-9.8476
te	-9.84773
▁소식통은	-9.8481
▁집에서	-9.84878
회사인	-9.8488
▁성적	-9.84922
▁수백명	-9.84968
▁바이	-9.8499
▁베이	-9.85023
▁마르	-9.8503
▁손상	-9.85035
X	-9.8504
▁나섰다	-9.8504
▁네덜란드	-9.8504
▁다쳤다	-9.85108
▁기자회견	-9.85193
▁화성	-9.85203
▁민간	-9.85213
▁기반	-9.85258
▁원유	-9.85262
▁지키	-9.85354
▁블로그에	-9.85392
상태	-9.8543
▁필	-9.85448
▁이혼	-9.8546
▁단어	-9.85501
▁월드컵	-9.85623
화를	-9.85651
상의	-9.85661
▁경찰과	-9.85768
▁깊	-9.85793
▁후보로	-9.85799
▁모습	-9.85819
명에	-9.85848
://	-9.85887
▁확정	-9.85888
▁무가베	-9.85889
▁먼저	-9.85889
▁하워드	-9.85904
▁담배	-9.85933
▁보험	-9.85938
▁예산	-9.85982
▁즉	-9.86019
▁떠	-9.86021
▁참석한	-9.86152
▁대통령에게	-9.86167
ak	-9.86188
대표	-9.86259
스카	-9.86382
▁알아	-9.86392
▁시점	-9.86425
▁속에	-9.86459
▁데이	-9.86476
▁희생	-9.86504
풍	-9.86567
▁실종	-9.86578
▁기회를	-9.86589
▁방해	-9.86599
▁휴가	-9.86616
▁150	-9.86714
웰	-9.86731
▁의한	-9.86739
Total	-9.86742
▁찾는	-9.86742
▁캠프	-9.86742
code	-9.86746
주년	-9.86756
▁배럴	-9.86764
▁있었으며	-9.86772
었던	-9.86791
▁철회	-9.86793
▁크기	-9.8682
▁사례	-9.86837
▁쥐	-9.86872
▁45	-9.86885
▁st	-9.86978
국인	-9.87005
▁대체	-9.87023
▁여사	-9.87066
▁수는	-9.87073
▁중국이	-9.87114
▁세르비아	-9.87139
▁연구진	-9.87154
▁조정	-9.87221
▁요구한	-9.87256
▁남성이	-9.87292
▁증명	-9.87296
▁구성된	-9.87399
니아	-9.87452
탕	-9.87499
▁날씨	-9.87517
▁박사	-9.87523
▁못할	-9.87543
▁하며	-9.87573
▁위험한	-9.87574
▁사용하는	-9.87576
▁펜실베이니아	-9.87604
▁우크라이나	-9.87604
▁알려져	-9.87613
▁태풍	-9.87616
▁아니	-9.87617
됐지만	-9.87677
TV	-9.87686
▁교체	-9.877
니는	-9.87713
버그	-9.87724
▁연루	-9.87742
▁2009	-9.87769
▁벨	-9.87773
▁위원장은	-9.87781
하려고	-9.87796
▁그것	-9.87812
▁지급	-9.87835
줬다	-9.87837
▁명단	-9.87863
▁다이애나	-9.87974
▁있는데	-9.88
V	-9.88089
▁#	-9.8815
▁대표단	-9.88176
▁다수	-9.88222
▁이행	-9.88359
▁모하메드	-9.88474
▁스티븐	-9.88474
▁침체	-9.88475
▁1999	-9.88506
▁진입	-9.88516
항공	-9.88522
스키	-9.88534
▁손실	-9.88605
▁기후	-9.88607
▁재산	-9.88715
▁벌인	-9.88728
으려	-9.88793
▁견	-9.88917
물을	-9.88945
군이	-9.88966
▁니콜라	-9.88979
▁시작됐다	-9.88983
▁홍수	-9.88991
브라	-9.89109
▁니	-9.89114
▁승	-9.89133
필드	-9.89192
▁400	-9.89214
▁웹사이트에	-9.8924
▁빨리	-9.89351
▁정확한	-9.89351
▁조종사	-9.89352
▁마이크	-9.8936
▁분위기	-9.89362
▁그래	-9.89373
▁질병	-9.89393
▁실시한	-9.89404
▁해변	-9.8942
▁나와	-9.89457
▁경찰서	-9.89487
▁재정	-9.89517
▁진술	-9.89521
▁분명	-9.89534
▁긴	-9.89582
ry	-9.89618
▁영향력	-9.89621
▁진전	-9.89624
▁NASA	-9.89663
▁인정했다	-9.89697
▁어린	-9.89707
▁색	-9.89837
둔	-9.9005
▁충	-9.90171
폰	-9.902
쯤	-9.90236
▁부동산	-9.90237
▁스티브	-9.90237
▁엄마	-9.90238
▁규제	-9.90243
▁국왕	-9.90246
▁특사	-9.90305
짜리	-9.90338
▁흔들	-9.90402
사의	-9.90482
▁얻었다	-9.90531
ia	-9.90533
▁현장에	-9.90533
25	-9.90534
▁기자는	-9.90534
마다	-9.90581
▁쉬	-9.90602
▁그중	-9.90603
▁하락했다	-9.90691
▁32	-9.90711
조치	-9.90711
▁당선자	-9.90782
▁테러로	-9.90819
▁들었다	-9.90899
▁응	-9.90919
헤	-9.90942
▁위원장	-9.90975
▁환	-9.91011
▁않기	-9.9103
▁사무총장은	-9.91079
균	-9.91079
칭	-9.91104
딩	-9.91113
▁저녁	-9.91129
▁장난감	-9.91129
▁자살폭탄테러	-9.91134
▁콘돌	-9.91135
▁위해서	-9.91148
▁바람	-9.91189
사인	-9.91201
라도	-9.91312
▁말한	-9.91327
▁도착했다	-9.91365
달하는	-9.91421
▁충분	-9.91489
▁통치	-9.91518
세계	-9.91526
경제	-9.91559
▁왜	-9.91589
▁돼	-9.91747
▁증언	-9.91787
▁태도	-9.91861
▁가격이	-9.91893
멘	-9.92016
렛	-9.9203
▁아바스	-9.92032
▁며칠	-9.92038
▁형태	-9.9205
▁아부	-9.92087
도시	-9.92113
▁예방	-9.92117
제를	-9.92155
▁이웃	-9.92174
▁근처	-9.9223
▁지도부	-9.9223
▁인식	-9.92235
▁문제로	-9.9228
80	-9.92453
▁법정	-9.92509
▁승무원	-9.92604
자들의	-9.92632
▁여성들	-9.9274
▁장애	-9.92848
효	-9.92853
▁토요일	-9.9294
▁네팔	-9.92947
2009.06	-9.9295
▁면	-9.92962
개월간	-9.92978
잔	-9.93003
▁강도	-9.93075
같은	-9.93084
왔	-9.93101
▁살해한	-9.93122
▁최소한	-9.93147
▁시민들	-9.93148
▁떨어졌다	-9.93325
혼	-9.93341
▁않으면	-9.93373
▁송	-9.93382
▁방어	-9.93382
어야	-9.93406
▁생명	-9.93559
틴	-9.93598
▁아직도	-9.93605
▁회	-9.93646
▁파타	-9.93727
푸	-9.93766
▁휴전	-9.93822
▁징역	-9.93833
▁자신들이	-9.9384
▁테이프	-9.93858
▁FBI	-9.93874
▁노대통령	-9.93897
▁점령	-9.93913
▁주에서	-9.93943
▁무시	-9.9396
▁반발	-9.9406
▁지출	-9.94077
▁입국	-9.94126
▁못하	-9.94128
▁기타	-9.94312
▁시리즈	-9.94387
▁일본은	-9.94388
▁땅	-9.94513
원은	-9.94564
▁대상	-9.94573
▁당한	-9.9458
▁끼	-9.94673
▁지휘	-9.947
▁쿠르드	-9.94775
텐	-9.94777
;	-9.94782
▁헬	-9.94785
▁결론	-9.94844
▁진정	-9.94882
객	-9.94914
▁형성	-9.94932
▁복	-9.94935
주의자	-9.95001
률	-9.95034
▁만들었다	-9.95063
▁사용할	-9.95142
▁가족들	-9.95178
위원회는	-9.9534
▁내린	-9.95386
▁머	-9.95438
ity	-9.95442
▁스테	-9.95443
업자	-9.95475
국장은	-9.95488
▁교황	-9.95596
▁살아	-9.95701
▁쉽게	-9.95718
▁전망이	-9.9572
▁근거	-9.95724
▁침해	-9.95726
15	-9.95788
▁타격	-9.95799
▁감행	-9.95801
▁상황에	-9.95837
▁즉시	-9.95852
주간	-9.95986
혔다	-9.96026
▁통화	-9.9613
▁요구하는	-9.96349
▁복제	-9.96358
우스	-9.96359
▁오하이오	-9.96426
▁전문가들	-9.96606
장관은	-9.96625
덴	-9.96629
압	-9.96657
州	-9.9666
▁유럽연합	-9.96693
완	-9.96705
▁한번	-9.96707
▁실망	-9.96734
▁연락	-9.96736
▁사령관	-9.96739
▁직면	-9.96746
▁기준	-9.9675
오바마	-9.96792
걸	-9.96794
계획	-9.96814
▁추측	-9.96909
▁웹	-9.96964
▁의문	-9.97041
즈는	-9.97081
▁결과가	-9.97163
▁것처럼	-9.97194
▁잔	-9.97287
▁한국과	-9.97411
▁주로	-9.97453
▁모른다	-9.97586
▁의장은	-9.97587
77	-9.97608
덕	-9.9761
▁엘리자베스	-9.97613
픽	-9.97613
▁늘어	-9.9762
▁만족	-9.97646
▁선거운동	-9.97654
▁복용	-9.97664
대회	-9.97686
몰	-9.97729
▁상품	-9.97784
▁연관	-9.97801
▁봉	-9.97823
▁남북한	-9.9784
▁토니	-9.97842
▁킹	-9.97851
린다	-9.9788
▁중요하다	-9.97881
▁우주선	-9.97912
▁주는	-9.97959
▁벌금	-9.97998
▁공화당의	-9.98034
들어	-9.98171
▁권	-9.98176
▁말라	-9.98291
400	-9.98313
사고	-9.98462
▁짐	-9.98474
학교	-9.98507
up	-9.98542
▁방식	-9.98549
▁토론	-9.98558
닉	-9.98573
▁소프트웨어	-9.98574
▁협조	-9.98574
▁활용	-9.98575
▁론스타	-9.98576
▁끝난	-9.9862
▁화산	-9.9863
▁구글	-9.98635
▁잭슨	-9.98654
▁육군	-9.98656
▁속에서	-9.98741
곡	-9.98751
▁대출	-9.98765
▁동맹	-9.98774
▁현장에서	-9.98862
▁자산	-9.98928
▁신용	-9.98936
▁회담은	-9.98962
▁대북	-9.98995
▁헌	-9.99067
▁매장	-9.99076
▁가는	-9.99109
▁스위스	-9.99156
▁실제로	-9.99287
▁이르는	-9.99335
▁유리	-9.99362
십	-9.99376
▁총선에서	-9.99379
▁""	-9.99443
▁밝	-9.99456
▁대기	-9.99482
럴	-9.9952
꺼	-9.99544
▁핵실험	-9.99545
▁김정일	-9.99546
▁페르베	-9.99552
▁시위자들	-9.99557
▁갖추	-9.99558
▁통합	-9.996
▁등이	-9.99607
▁축제	-9.99634
육	-9.99653
산업	-9.99661
함에따라	-9.99669
de	-9.99676
▁MS	-9.99676
참	-9.99678
▁자격	-9.99691
▁지적	-9.99712
▁신경	-9.99777
▁대사는	-9.99809
▁우선	-9.99827
▁장치	-9.99841
▁되면	-9.99876
지수	-9.99896
▁영국군	-9.99901
▁잘못	-9.99956
▁관광객들	-9.99965
트로	-9.99976
12	-9.99979
▁해고	-10.0042
닐	-10.0046
▁기독교	-10.0053
▁일으키	-10.0053
▁설	-10.0053
▁사이클론	-10.0054
▁1997	-10.0055
▁휘	-10.0055
▁조사하고	-10.0057
▁진행되	-10.006
으로써	-10.0063
▁귀국	-10.0064
▁지연	-10.0068
▁신속	-10.0069
▁일부는	-10.007
▁공식적으로	-10.0071
▁기구	-10.008
▁결혼식	-10.008
▁아래	-10.0085
▁무력	-10.0086
치를	-10.0086
쪽	-10.0086
▁이틀	-10.0089
▁동물원	-10.009
▁상점	-10.0099
ne	-10.0104
되면	-10.0108
▁금리	-10.011
▁모습이	-10.0111
▁갖	-10.0121
ma	-10.0135
▁Iraq	-10.0152
▁뉴질랜드	-10.0152
▁헤럴드	-10.0152
▁North	-10.0152
▁매들린	-10.0152
▁1998	-10.0154
▁지지자	-10.0159
▁힘들	-10.0161
▁내놓	-10.0161
웨	-10.0163
▁법안	-10.0164
▁체포된	-10.0165
▁아르헨티나	-10.0175
▁구체적인	-10.0178
▁구제	-10.019
▁총리와	-10.0191
▁타이	-10.0194
▁걸어	-10.0201
▁솔	-10.0207
니스	-10.0213
▁요구를	-10.0221
ant	-10.0222
▁양측	-10.0229
주는	-10.0243
▁포함되어	-10.0243
준다	-10.0247
▁CBS	-10.0252
▁드러났다	-10.0252
▁외곽	-10.0252
▁이끌어	-10.0252
▁있으나	-10.0254
▁올렸다	-10.0258
▁가입	-10.026
▁납	-10.0261
600	-10.0262
▁의료진	-10.0262
▁수용소	-10.0266
▁압둘라	-10.0266
▁인하	-10.0271
▁나달	-10.0271
▁길이	-10.0273
▁마치	-10.0274
▁지지하는	-10.0276
▁트	-10.0278
▁빛	-10.0283
윈	-10.0283
칸	-10.0283
▁해산	-10.0284
생활	-10.0285
대에	-10.0289
▁국제적	-10.0292
▁대단	-10.0293
개발	-10.0296
▁음	-10.0296
부는	-10.0324
▁성공했다	-10.0325
11	-10.0326
▁중이라고	-10.033
▁con	-10.0335
▁의도	-10.0336
정보	-10.034
▁성화	-10.0352
▁얘기	-10.0353
▁캠페인	-10.0353
켄	-10.0353
▁이민	-10.0355
▁함	-10.0357
▁없었	-10.0361
▁변경	-10.0362
▁중국과	-10.0362
▁벗어나	-10.0364
▁어린이들	-10.0365
▁영국에서	-10.037
▁강경	-10.0372
▁즐기	-10.0378
▁이곳에서	-10.038
▁is	-10.0384
만큼	-10.0388
▁좋아	-10.0402
▁혹	-10.0408
▁주고	-10.0425
▁투자자들	-10.0434
mo	-10.0438
47	-10.0443
▁포드	-10.0443
▁달성	-10.0444
▁무엇	-10.0451
▁싱가포르	-10.0455
▁좋지	-10.0455
▁케네디	-10.0455
▁리버풀	-10.0455
▁답변	-10.0455
▁루이스	-10.0457
▁주인공	-10.0458
▁불참	-10.0459
▁에이즈	-10.046
▁폭행	-10.046
kg	-10.0462
▁만드는	-10.0463
▁지진으로	-10.0466
▁민주화	-10.0469
▁관여	-10.0469
▁등장	-10.0469
▁실행	-10.0472
▁대부분은	-10.0477
▁경선에서	-10.0482
800	-10.0486
▁학대	-10.0491
▁소개	-10.0495
▁포함해	-10.0499
보호	-10.0499
리그	-10.0502
▁회담에	-10.0502
▁해결하기	-10.0505
원이	-10.051
▁중요	-10.0512
▁곳으로	-10.052
▁주석	-10.0531
탁	-10.0549
▁그와	-10.0549
▁안보리	-10.055
자들에게	-10.0555
뜨	-10.0555
Z	-10.0558
▁맨체스터	-10.0558
▁우라늄	-10.0558
▁드라마	-10.0558
▁DNA	-10.0558
▁벌어진	-10.0559
▁않도록	-10.056
▁음반	-10.0561
▁방침	-10.0562
주에서	-10.0562
▁1980	-10.0563
▁일어나	-10.0566
▁반정부	-10.057
▁행진	-10.0574
드로	-10.0576
▁n	-10.0579
▁열린우리당	-10.0579
▁장식	-10.0583
▁지수는	-10.0589
특	-10.0595
▁기자들	-10.0599
▁맞서	-10.06
결과	-10.0606
▁수영	-10.0611
▁수백만	-10.0615
▁압	-10.0623
▁전해	-10.0626
진다	-10.063
▁터키군	-10.0641
부시	-10.0648
▁문제는	-10.066
▁목격	-10.066
▁포르투갈	-10.0662
▁휘발유	-10.0662
▁페일린	-10.0662
▁요구하고	-10.0662
▁첼시	-10.0662
▁가득	-10.0664
▁계획이	-10.0664
▁질환	-10.0664
지역에서	-10.0666
▁노벨	-10.0666
▁덮	-10.0666
▁음모	-10.0667
▁느끼	-10.067
▁때문이다	-10.0671
▁바라	-10.0671
▁화학	-10.0675
조직	-10.0676
▁조각	-10.0677
▁테러가	-10.068
▁잔해	-10.0684
▁회원국	-10.0685
▁장관이	-10.0685
▁저는	-10.0686
▁감정	-10.0687
혹	-10.0697
웨이	-10.0697
▁언급하지	-10.0702
검사	-10.0708
EU	-10.0709
▁중에는	-10.0717
68	-10.0721
주일	-10.0728
▁자세	-10.0744
67	-10.0756
▁무릎	-10.0767
▁믿고	-10.0767
▁훨씬	-10.0767
▁베트남	-10.0767
죠	-10.0767
▁거절	-10.0767
▁녹	-10.0767
▁국제유가	-10.0767
겠지만	-10.0768
▁주인	-10.0769
▁향후	-10.0769
ess	-10.077
▁1990	-10.0772
▁경기에	-10.0773
▁분리	-10.0773
력이	-10.0774
비치	-10.0778
▁유치	-10.078
▁에이	-10.0785
소를	-10.0799
▁회담이	-10.0803
▁장비	-10.0809
▁하이	-10.081
졌으며	-10.0824
▁기본	-10.0826
▁폐지	-10.0826
드라	-10.0829
▁250	-10.0831
▁공개했다	-10.0832
세트	-10.084
▁지시	-10.0842
▁전면	-10.0852
▁거주하는	-10.0856
▁광장	-10.0857
▁기상	-10.0863
측이	-10.087
켈	-10.0873
▁샌프란시스코	-10.0874
▁페더러	-10.0874
▁획득	-10.0874
몽	-10.0874
▁로봇	-10.0874
▁묘사	-10.0874
▁운항	-10.0874
▁밀란	-10.088
▁영토	-10.0881
co	-10.0885
▁예정이며	-10.0885
▁병사들	-10.0889
▁지목	-10.0892
▁집에	-10.0894
▁단체는	-10.0897
▁생존자	-10.0899
▁추적	-10.0902
▁소니	-10.0908
▁외부	-10.0918
▁중부	-10.092
오늘	-10.0927
mp	-10.0928
네스	-10.0935
▁파악	-10.094
사태	-10.0953
▁존슨	-10.0957
▁불리는	-10.0958
▁미국에	-10.096
▁속도	-10.0961
됐고	-10.0968
▁한국군	-10.0971
▁치르	-10.0974
▁희생자들	-10.0975
▁주장하는	-10.0977
켓	-10.0978
▁모스크바	-10.0981
!	-10.0981
▁밖으로	-10.0981
핀	-10.0981
▁랭킹	-10.0981
▁콘서트	-10.0981
▁반기문	-10.0981
▁검색	-10.0981
▁맨유	-10.0981
▁나쁜	-10.0983
▁얼음	-10.0983
▁빅	-10.0984
▁빚	-10.0986
▁작동	-10.0986
▁폭우	-10.099
▁노동자	-10.0991
▁학생들이	-10.0992
▁워싱턴에서	-10.0992
▁용의자들	-10.0993
▁편지	-10.0996
▁대결	-10.0997
▁주간	-10.1001
▁이것이	-10.1002
▁샌	-10.1004
▁시절	-10.1007
▁협회	-10.101
▁내용이	-10.1013
▁목격자들	-10.1018
회담	-10.1022
▁행성	-10.1032
캐	-10.1036
콘	-10.1037
▁컨	-10.1049
▁도달	-10.1053
▁아카데미	-10.1062
스티	-10.1064
▁전개	-10.1071
▁지정	-10.1072
▁무대	-10.1073
▁탐	-10.1083
▁중재	-10.1083
▁South	-10.109
▁온난화	-10.109
▁세계대전	-10.109
▁금요일	-10.109
▁이메일	-10.1091
▁이들이	-10.1091
▁방문할	-10.1093
▁둘러	-10.1094
▁접속	-10.1094
▁토론회	-10.1095
▁소환	-10.1097
▁야생	-10.1097
▁입양	-10.1098
▁밑	-10.1104
▁예비	-10.1109
▁린	-10.1112
▁방법으로	-10.1116
▁방문했다	-10.1123
▁잃었다	-10.1126
▁조사에서	-10.1127
▁놀	-10.1129
▁블	-10.1131
▁목격자	-10.1136
▁잡지	-10.1137
▁방지	-10.1138
▁당선인은	-10.114
이션	-10.1143
듯	-10.1146
▁꿈	-10.1146
맥	-10.1147
원을	-10.1153
▁충분한	-10.1161
▁심슨	-10.1163
▁것보다	-10.1164
리오	-10.1166
년에는	-10.1166
▁바그다드에서	-10.1167
▁주문	-10.1168
해주	-10.118
▁이사	-10.1187
트라	-10.1195
촌	-10.1198
▁풍	-10.1199
현지시각	-10.12
▁특파원	-10.12
▁9.11	-10.12
▁측근	-10.1201
▁앨범	-10.1201
▁영변	-10.1202
▁이란은	-10.1202
▁학살	-10.1205
▁r	-10.1206
▁성향	-10.1208
▁리비아	-10.1209
▁주식시장	-10.1212
객들	-10.1213
▁고객	-10.1214
▁말합니다	-10.1214
man	-10.1221
▁밖에서	-10.1223
""	-10.1225
려는	-10.1227
▁계획에	-10.1228
▁신체	-10.1228
려고	-10.1235
▁부근	-10.1236
▁생각하고	-10.1239
▁선물	-10.1245
스톤	-10.1246
▁의무	-10.1249
▁의원들은	-10.1257
▁남아	-10.1259
폴	-10.1261
▁궁	-10.127
▁취할	-10.1271
택	-10.1274
▁진행된	-10.1277
기술	-10.1277
▁t	-10.1283
장인	-10.1285
▁CIA	-10.1288
모든	-10.1291
▁38	-10.131
▁수집	-10.131
탑	-10.1311
▁정부군	-10.1312
▁리콜	-10.1313
된다고	-10.1314
▁허락	-10.1314
▁저항	-10.1316
▁윤	-10.1316
▁사무총장	-10.1317
▁카페	-10.1318
▁내전	-10.1322
▁예상했다	-10.1324
▁시작한	-10.133
▁공중	-10.1336
age	-10.134
▁출시	-10.134
▁주목	-10.1342
ho	-10.1344
▁체니	-10.1347
▁성과	-10.1349
▁특별한	-10.1349
그들은	-10.1357
▁사살	-10.1362
우드	-10.1371
지구	-10.1373
▁논란	-10.1378
100	-10.1378
▁원하는	-10.1384
▁자기	-10.1384
▁생존	-10.1385
▁레이스	-10.1387
므로	-10.1401
▁에드	-10.1407
▁이익	-10.1413
▁보이	-10.1416
▁다니	-10.1421
▁않았으며	-10.1423
▁유나이티드	-10.1423
▁시청	-10.1431
▁확신	-10.1431
▁평화적	-10.1435
▁모양	-10.1439
미군	-10.1441
자리	-10.1442
▁경기장	-10.1449
82	-10.1452
적이고	-10.1454
단은	-10.146
▁대부분이	-10.1467
달러에	-10.1468
are	-10.1471
베리	-10.1476
▁후임	-10.1476
▁콘	-10.1477
▁철도	-10.1483
작업	-10.1485
ong	-10.1487
▁보상	-10.1494
▁마시	-10.1506
물이	-10.1507
▁사건과	-10.151
▁이번주	-10.1517
럽	-10.1527
어질	-10.1528
▁보면	-10.1531
▁다우	-10.1534
▁챔피언	-10.1536
넬	-10.1536
▁붉은	-10.1537
▁찾고	-10.1537
▁쿠데타	-10.1537
▁헤즈볼라	-10.1537
롱	-10.1537
▁대다수	-10.1537
▁회견	-10.1538
▁봄	-10.1539
▁총재	-10.154
▁핵시설	-10.1542
▁격차	-10.1546
▁기능	-10.1549
▁사건으로	-10.1552
▁Re	-10.1557
▁서방	-10.1558
▁처음이다	-10.157
▁바라고	-10.1574
ver	-10.1575
▁아일랜드	-10.1577
▁교사	-10.1593
▁나서	-10.1594
셀	-10.1596
▁중국에서	-10.1596
라스	-10.1603
▁발표된	-10.1621
▁영화제	-10.1625
▁트레	-10.1625
▁37	-10.1628
▁수요	-10.163
바이	-10.1639
▁가까이	-10.1646
사항	-10.1648
cm	-10.1649
▁차드	-10.165
▁멸종	-10.1651
▁with	-10.1652
▁여자친구	-10.1652
▁우주비행사	-10.1652
▁장례식	-10.1652
첸	-10.1652
▁폭발물	-10.1652
▁아이오와	-10.1652
▁겨울	-10.1653
▁복구	-10.1658
▁마틴	-10.1658
▁걸릴	-10.1658
▁전투기	-10.1659
▁체결	-10.166
▁만날	-10.1661
조차	-10.1663
▁곤	-10.1668
90	-10.1669
▁산타	-10.1681
ine	-10.1682
76	-10.1688
▁파티	-10.1691
▁내에	-10.1699
▁이송	-10.17
300	-10.1703
▁클라	-10.1704
쟁	-10.1708
▁톰	-10.1708
▁회사들	-10.1711
▁의회의	-10.1715
펜	-10.173
▁그리	-10.1733
▁경찰서장	-10.1736
▁현재까지	-10.1742
▁줄어들	-10.1746
전에서	-10.1749
▁기도	-10.176
▁옮겨	-10.1768
▁다이아몬드	-10.1768
▁떨어지	-10.1768
▁알래스카	-10.1768
▁일환으로	-10.1768
▁다르푸르	-10.1768
qu	-10.1768
▁물러	-10.177
대학	-10.1771
되자	-10.1773
되어야	-10.178
▁특정	-10.1781
▁나누	-10.1782
연맹	-10.1783
▁몰아	-10.1785
▁심문	-10.1786
▁하다	-10.1787
▁동반	-10.1787
▁다이	-10.1795
어져	-10.1802
▁신호	-10.1803
군의	-10.1808
▁답	-10.1808
▁불과	-10.1812
▁추정되는	-10.1816
▁절대	-10.1817
▁CEO	-10.1819
▁수감자	-10.1819
장치	-10.1823
13	-10.1824
▁향하	-10.1833
▁최초로	-10.1834
85	-10.1839
쓰	-10.1847
국의	-10.1856
▁자치	-10.1866
타르	-10.1867
▁요원	-10.1872
괴	-10.1876
ight	-10.1882
▁다우존스	-10.1886
▁달라이라마	-10.1886
▁희	-10.1886
▁설득	-10.1886
▁교환	-10.189
▁달라	-10.189
▁웨스트	-10.1891
▁pro	-10.1896
했기	-10.1896
▁식당	-10.1896
▁오염	-10.1897
▁일주일	-10.1898
▁치러진	-10.19
▁탐사	-10.1901
▁물건	-10.1902
▁둘	-10.1903
▁보통	-10.191
▁사실상	-10.1911
▁기업들	-10.1912
러스	-10.1913
▁요인	-10.1917
▁파산	-10.1918
오는	-10.1929
▁통신은	-10.193
▁잠시	-10.1931
▁행정	-10.1933
년이	-10.1936
▁니콜	-10.1936
ard	-10.1938
▁장악	-10.1943
ain	-10.195
▁공격이	-10.1952
▁이스라엘과	-10.1952
▁싸	-10.1957
▁FTA	-10.1958
ab	-10.1966
ay	-10.1975
our	-10.1978
54	-10.1979
▁아이들이	-10.1985
▁이스라엘군	-10.1986
▁회원	-10.1994
원제	-10.1998
춘	-10.2002
▁증권	-10.2002
▁친구들	-10.2003
선거	-10.2003
]	-10.2005
▁더불어	-10.2005
▁쇼핑	-10.2005
▁발굴	-10.2006
▁바꾸	-10.2007
▁폭락	-10.2008
▁행복	-10.201
▁어려운	-10.201
▁않지만	-10.2011
ational	-10.2011
▁광산	-10.2012
▁커피	-10.2013
▁50%	-10.2017
▁열리	-10.2019
▁제안했다	-10.2021
국이	-10.2022
z	-10.2024
▁강요	-10.2026
▁세워	-10.2026
당국	-10.2031
라이브	-10.2033
▁업계	-10.2035
국은	-10.2038
▁경보	-10.2043
▁유가	-10.2048
▁보고했다	-10.2049
당국은	-10.2051
ang	-10.2057
▁36	-10.2058
▁낙	-10.2061
▁가자	-10.2067
▁폐기	-10.2068
▁밝히고	-10.207
▁결정은	-10.2073
▁재건	-10.2074
out	-10.2076
▁윈	-10.2082
내가	-10.2083
▁멜	-10.2094
홀	-10.2095
싱	-10.2096
삼	-10.2097
▁소비자들	-10.2098
▁사인	-10.2099
▁FARC	-10.2104
▁목적으로	-10.2108
들로부터	-10.2109
▁사무	-10.2117
닥	-10.2118
묘	-10.2124
▁됩니다	-10.2125
▁스리랑카	-10.2125
▁에드워즈	-10.2125
튜	-10.2125
▁된다고	-10.2125
▁원한다	-10.2126
▁갑자	-10.2126
▁북극	-10.2127
차전	-10.213
▁출석	-10.2132
지수는	-10.2132
▁매각	-10.2137
▁배출	-10.2137
▁도입	-10.2138
▁항소	-10.2143
▁In	-10.2145
▁거두	-10.215
▁교도소	-10.215
▁지상	-10.2151
후드	-10.2151
▁신임	-10.2152
었	-10.2156
▁계속되고	-10.2158
▁투어	-10.2159
▁적절한	-10.2163
식을	-10.2171
▁제도	-10.2171
ill	-10.2172
▁고대	-10.2173
▁지점	-10.2179
▁기분	-10.2182
18	-10.2182
▁국회의원	-10.2185
▁케이	-10.2192
▁벽	-10.2198
▁협상이	-10.2202
▁있어서	-10.2209
시키려	-10.2209
라면	-10.2219
그룹	-10.222
뿐	-10.2221
▁의회는	-10.2225
▁결승	-10.2226
▁사용되	-10.223
▁되기	-10.2232
▁시장에서	-10.2241
님	-10.2245
멸	-10.2247
렐	-10.2247
▁방글라데시	-10.2247
▁오스트리아	-10.2247
▁칠레	-10.2247
▁NBC	-10.2249
▁이하	-10.2249
▁소방	-10.2249
▁48	-10.2251
▁단순	-10.2251
▁데이터	-10.2251
▁서울에서	-10.2252
▁합동	-10.2253
▁것이라며	-10.2254
▁성관계	-10.2255
▁기존	-10.2256
▁넓	-10.2256
▁윌	-10.2257
▁의식	-10.226
께	-10.2266
16	-10.2267
뉴스	-10.2267
▁외교적	-10.2269
▁사전	-10.228
▁스키	-10.2289
▁북측	-10.229
▁보유	-10.229
▁호세	-10.2292
▁예상되	-10.2296
▁대통령에	-10.23
어스	-10.2301
▁아동	-10.2302
PA	-10.2305
▁소식이	-10.2306
▁낸	-10.2307
만약	-10.2313
▁그림	-10.232
▁소수	-10.2321
▁시드	-10.2321
최	-10.233
량이	-10.2333
▁꾸	-10.2335
▁부근에서	-10.2337
▁적은	-10.2342
ts	-10.2343
▁상승했다	-10.2344
der	-10.2344
납	-10.2346
둘	-10.2346
이슬람	-10.2347
▁본사	-10.2353
▁노동자들	-10.2355
군은	-10.2355
▁왔	-10.2361
장의	-10.2363
잉	-10.2365
▁시위에	-10.2368
79	-10.2369
수사	-10.237
▁노스캐롤라이나	-10.2371
▁봉쇄	-10.2371
▁공산당	-10.2371
▁합류	-10.2375
▁폭동	-10.2378
▁치열	-10.2379
▁방영	-10.238
▁의존	-10.2381
▁화물	-10.2382
▁부담	-10.2382
했음	-10.2385
▁해양	-10.2391
▁피난	-10.2393
▁고소	-10.2394
▁테러리스트	-10.2396
▁일본이	-10.2397
정부는	-10.24
▁美	-10.24
▁버마	-10.2401
▁책임자	-10.2401
▁노력하고	-10.2404
▁망	-10.2406
▁수상자	-10.2409
▁일본에서	-10.2411
ha	-10.2413
▁후원	-10.2423
됐을	-10.2423
▁의지	-10.2424
뉴	-10.2424
▁세상	-10.2425
▁중독	-10.2428
63	-10.2429
▁부여	-10.2432
빠진	-10.2433
세력	-10.2433
▁각국	-10.2434
냈	-10.2435
BC	-10.2436
900	-10.2437
▁승리했다	-10.2437
국민	-10.2437
시티	-10.2438
▁수송	-10.2439
▁해병대	-10.2448
▁청소년	-10.245
건의	-10.2453
▁V	-10.2455
곤	-10.2464
▁많다	-10.247
측에	-10.2471
부대	-10.2472
되었	-10.2473
▁말까지	-10.2475
파키스탄	-10.2475
▁순찰	-10.2479
▁실시되	-10.2481
▁지수	-10.2485
룩	-10.2495
▁없으며	-10.2496
▁나이지리아	-10.2496
▁흡연	-10.2496
▁마카오	-10.2496
▁검거	-10.2496
▁카르자이	-10.2496
▁가옥	-10.2497
▁하늘	-10.2498
▁농축	-10.2498
▁식품	-10.25
▁조성	-10.2501
▁공항에서	-10.2502
▁맞이	-10.2503
78	-10.2505
ress	-10.2505
▁재무장관	-10.2506
▁대항	-10.2508
▁나갈	-10.2512
▁현실	-10.2513
▁로한	-10.2514
▁소설	-10.2514
▁보관	-10.2521
▁묵	-10.2522
▁측정	-10.253
69	-10.2533
one	-10.2536
▁얻어	-10.254
▁골드	-10.2542
▁세우	-10.2544
▁잇	-10.2554
램	-10.2554
▁의회에	-10.2557
▁연주	-10.2567
▁오브	-10.2568
▁만화	-10.2569
▁생물	-10.2571
츠는	-10.2571
▁부과	-10.2571
▁구조대	-10.2575
조원	-10.2577
시위	-10.2578
정도	-10.2582
▁트리	-10.2583
▁북쪽	-10.2585
▁베르	-10.26
▁전날	-10.2603
▁모인	-10.2612
▁증가하고	-10.2621
상황	-10.2621
▁고등학교	-10.2622
▁네트워크	-10.2622
▁훌륭	-10.2622
▁파예드	-10.2622
▁습격	-10.2622
▁카스트로	-10.2622
더라도	-10.2623
▁복잡	-10.2624
▁관람	-10.2625
▁혁명	-10.2625
▁목록	-10.2625
▁건축	-10.2626
분의	-10.2627
▁극복	-10.2628
▁취재	-10.263
▁인류	-10.263
▁시드니	-10.263
▁페루	-10.2636
▁최선	-10.2637
▁구출	-10.2639
관련	-10.2642
▁보복	-10.2643
▁개방	-10.2645
▁이주	-10.2648
됐었다	-10.2649
▁경쟁자	-10.2653
▁일간	-10.2659
ance	-10.2662
리스트	-10.2666
다시	-10.267
작전	-10.2672
▁내릴	-10.2672
▁자리에서	-10.2678
▁홈	-10.2695
▁기다리고	-10.2696
안전	-10.2699
▁사드르	-10.2706
▁야기	-10.2707
▁국경지역	-10.2708
사와	-10.2709
▁있었고	-10.2714
▁이유는	-10.272
칼	-10.2734
휴	-10.2736
▁왕세자	-10.2743
▁나아	-10.2743
▁말하는	-10.2744
가격	-10.2748
끄	-10.275
▁훼손	-10.275
엑	-10.275
▁스웨덴	-10.275
밍	-10.275
▁거뒀다	-10.275
▁북동부	-10.275
▁혜택	-10.275
▁숫자	-10.275
New	-10.275
▁콩고	-10.2752
▁패션	-10.2753
▁남아공	-10.2754
▁출판	-10.2756
▁순방	-10.2758
▁인종	-10.2761
▁태평양	-10.2762
▁발병	-10.2765
세인	-10.2767
▁선언했다	-10.2767
▁상처	-10.2768
▁모색	-10.2768
▁움직이	-10.2769
75	-10.2769
▁삼성	-10.2774
▁지속	-10.278
▁풀어	-10.2785
▁유감	-10.2785
▁대답	-10.2786
▁불러	-10.28
▁분석가	-10.2804
▁그동안	-10.2805
▁취하	-10.2806
의회	-10.281
▁체제	-10.281
워터	-10.2812
▁환자들	-10.2816
▁털	-10.2818
▁가했다	-10.2825
▁방화	-10.2831
지난	-10.2847
▁유대인	-10.2851
원인	-10.2865
슬리	-10.2871
값	-10.2874
핑	-10.2875
컴	-10.2878
훈	-10.288
▁의회에서	-10.288
첨	-10.288
▁덴마크	-10.288
▁되찾	-10.288
▁이렇게	-10.288
▁정확히	-10.288
▁펼치	-10.288
릿	-10.288
▁이재민	-10.288
닷컴	-10.288
▁클레	-10.2882
▁탈출	-10.2886
▁고향	-10.2887
대한	-10.2889
▁명예	-10.2889
▁2010	-10.2891
▁지도자들은	-10.2894
▁사담	-10.2894
▁프라	-10.2894
▁비율	-10.29
▁진실	-10.2901
▁지진이	-10.2901
▁AC	-10.2907
전쟁	-10.2909
▁베이징에서	-10.2915
▁이뤄지	-10.2916
▁로비	-10.2918
▁현금	-10.2919
하고자	-10.2921
해줄	-10.2934
▁10%	-10.2937
um	-10.2937
스턴	-10.294
▁올린	-10.2946
플레	-10.2948
▁주제	-10.2948
▁반군이	-10.2952
된다면	-10.2957
널	-10.2959
▁거부했다	-10.2965
▁본선	-10.2967
▁숙	-10.2968
▁시내	-10.2972
기지	-10.2981
▁표시	-10.299
tor	-10.2998
콜	-10.2999
ure	-10.3
▁플레이	-10.3004
웅	-10.3011
랭	-10.3012
컬	-10.3012
▁마찬가지	-10.3012
▁명확	-10.3012
▁챔피언스리그	-10.3012
틸	-10.3012
▁will	-10.3013
▁목사	-10.3013
점이	-10.3014
▁말리키	-10.3015
▁커플	-10.3016
▁레알	-10.3016
현재	-10.3017
▁자극	-10.3022
▁입증	-10.3022
▁일리노이주	-10.3026
▁대가로	-10.3026
▁만난	-10.3028
▁고발	-10.3029
▁선발	-10.303
데이	-10.3032
▁발생했으며	-10.3048
▁유력	-10.305
▁세포	-10.3056
▁셀	-10.3058
▁말해	-10.306
드시	-10.3076
▁제공하는	-10.3087
쳤	-10.3089
▁앨	-10.3091
▁시위대는	-10.3092
보다는	-10.3102
▁실패했다	-10.3102
▁주최	-10.3105
▁카드	-10.3118
▁웃	-10.3121
얼	-10.3127
씨가	-10.3134
희	-10.3139
농	-10.3141
▁마치고	-10.3143
꾼	-10.3145
▁Japan	-10.3145
▁예루살렘	-10.3145
▁청문회	-10.3145
갤	-10.3145
▁남동부	-10.3145
▁plan	-10.3145
▁엄청	-10.3145
▁했지만	-10.3146
▁코커스	-10.3147
2008.12	-10.3147
연구소	-10.3147
▁새끼	-10.3147
민주당	-10.3149
섹스	-10.3149
▁과격	-10.315
▁장착	-10.3151
▁공격에	-10.3154
▁상업	-10.3155
▁노예	-10.3158
▁조사에	-10.3162
▁임금	-10.3163
명에게	-10.3163
▁공화국	-10.3166
▁배경	-10.3166
▁소요	-10.3168
▁권한	-10.3178
▁라고	-10.3181
tr	-10.3184
▁IAEA	-10.3197
▁초점	-10.3205
▁델	-10.3208
지금	-10.3209
▁외교관	-10.3211
▁진화	-10.3215
시에	-10.3216
▁보안군	-10.322
▁600	-10.3224
▁발생하지	-10.3228
▁군인들	-10.3229
▁보인다고	-10.3233
▁있다면	-10.3235
99	-10.3244
▁워	-10.3252
아야	-10.3253
▁이양	-10.3259
기업	-10.326
▁석	-10.3262
▁장군	-10.3271
▁그것이	-10.3275
팔	-10.3279
74	-10.328
▁성화봉송	-10.328
▁외교통상부	-10.328
▁활주로	-10.328
웬	-10.328
▁디즈니	-10.328
▁폴란드	-10.328
홍	-10.328
▁완벽	-10.3281
▁다니엘	-10.3281
▁차관	-10.3285
▁사장은	-10.3285
▁분열	-10.3288
▁멀	-10.3289
▁얻기	-10.329
▁압수	-10.3292
▁소매	-10.3293
▁체계	-10.3294
▁받아야	-10.33
▁봉사	-10.3301
역을	-10.3303
▁노인	-10.3304
▁대회에서	-10.3308
▁중순	-10.3308
▁있었	-10.3309
▁경영	-10.331
▁수업	-10.3311
▁중지	-10.3316
▁달려	-10.3319
▁보석	-10.3325
▁갖는	-10.3329
ome	-10.334
▁열대	-10.3344
▁축	-10.3352
천만	-10.3354
▁이것	-10.3358
▁주한	-10.3358
▁전통적	-10.3359
이던	-10.3369
▁대선에서	-10.3376
▁폭격	-10.3382
▁방향	-10.3384
▁민족	-10.3385
▁주지	-10.3388
디아	-10.3393
▁이중	-10.3394
수록	-10.3411
행사	-10.3412
▁납치된	-10.3413
▁군정	-10.3413
▁실적	-10.3414
접	-10.3416
62	-10.3416
▁인디애나	-10.3417
▁잃은	-10.3417
렘	-10.3417
▁크루즈	-10.3417
▁아이디어	-10.3417
▁리조트	-10.3417
▁삭제	-10.3417
▁싸움	-10.3418
▁타이틀	-10.3418
▁의학	-10.3419
▁관찰	-10.342
▁합병	-10.3421
▁있었지만	-10.3422
▁모기지	-10.3422
▁보잉	-10.3422
▁복무	-10.3423
▁명은	-10.3424
▁생긴	-10.3424
▁관영	-10.3425
▁빙하	-10.3426
▁아니면	-10.3427
▁출산	-10.3427
▁무죄	-10.343
▁고립	-10.343
ood	-10.3431
▁철군	-10.3432
▁분명히	-10.3433
6000	-10.3433
▁PC	-10.3435
▁연행	-10.3437
▁대량	-10.3446
▁견해	-10.3449
▁구금	-10.3449
▁드러	-10.3452
▁인사들	-10.3456
▁발간	-10.3456
▁높아지	-10.3456
▁공유	-10.3457
▁따르	-10.3459
이기	-10.3459
▁펜	-10.3462
왔으며	-10.3471
마르	-10.3473
700	-10.3475
대사	-10.3477
안보	-10.3478
▁캘리포니아주	-10.3482
▁기차	-10.3485
▁난사	-10.3487
▁유전자	-10.3487
▁위원회는	-10.3497
▁런던에서	-10.3499
나갔다	-10.3503
▁모르	-10.3507
▁피해가	-10.3509
▁수상했다	-10.3512
으면서	-10.3515
▁폭탄이	-10.3515
AN	-10.3516
피트	-10.3518
-3	-10.3519
▁뉴욕에서	-10.3527
▁표했다	-10.3531
성에	-10.3531
▁승객들	-10.3533
짜	-10.3535
▁수사관	-10.3537
▁결정에	-10.3538
-2	-10.3539
▁중간	-10.3541
ear	-10.3541
닌	-10.3544
▁지시했다	-10.3547
▁하면	-10.3549
▁라스베이거스	-10.3556
▁봤다	-10.3556
▁크라이슬러	-10.3556
▁태어난	-10.3556
▁토마스	-10.3556
▁운송	-10.3557
▁채택	-10.356
▁은퇴	-10.3561
▁계획이라고	-10.3562
▁회동	-10.3562
▁방송국	-10.3565
av	-10.357
▁일반적으로	-10.357
▁갖게	-10.3572
▁청구	-10.3573
▁시장에	-10.3574
▁주지사가	-10.3578
▁돌아오	-10.3579
영국	-10.3581
되었고	-10.3582
▁보고서에서	-10.3582
▁수감자들	-10.3588
▁제조업체	-10.3588
▁서신	-10.359
▁총격전	-10.359
▁부서	-10.3593
▁위조	-10.3594
▁과학자	-10.3599
▁안에서	-10.3609
원들은	-10.3617
▁소식통	-10.3623
금지	-10.3629
▁안전한	-10.3635
▁기대하고	-10.3636
ell	-10.3639
분간	-10.3644
디스	-10.3649
장과	-10.3649
▁고어	-10.3649
▁사장	-10.365
▁의미한다	-10.3666
미터	-10.3668
시대	-10.3668
▁같	-10.3672
▁여성의	-10.3673
▁누리	-10.3674
▁기금	-10.3682
▁재단	-10.369
▁크레	-10.3692
캔	-10.3696
명도	-10.3696
▁맞춰	-10.3697
▁사우디아라비아	-10.3697
▁쏟아	-10.3697
▁앓고	-10.3697
▁협박	-10.3697
▁이루어지	-10.3697
▁심지어	-10.3697
▁보여줬다	-10.3698
▁빈곤	-10.3698
▁면담	-10.3699
▁하원의원	-10.3699
▁응급	-10.37
▁척	-10.3701
응	-10.3701
▁2012	-10.3704
▁보낼	-10.3704
▁항구	-10.3705
짐	-10.3708
벤	-10.3708
▁카불	-10.3709
앤	-10.3711
폭탄	-10.3715
▁거쳐	-10.3715
▁프레	-10.3716
▁지역으로	-10.3721
▁tr	-10.3722
▁실종된	-10.3723
▁보유하고	-10.3725
▁유발	-10.3726
▁재난	-10.3727
▁sh	-10.3746
▁하던	-10.3769
▁착용	-10.377
▁무선	-10.377
▁자세한	-10.3777
▁th	-10.3784
▁싶어	-10.379
타운	-10.379
일본	-10.3792
▁로드	-10.3796
▁승리한	-10.38
▁달러에	-10.3801
▁기부	-10.3803
▁이사회	-10.3808
▁뼈	-10.3811
▁계획은	-10.3816
▁영장	-10.3816
장으로	-10.3821
▁나오는	-10.3826
▁방법이	-10.3833
▁영국인	-10.3836
현지	-10.3836
▁치러	-10.3838
넷	-10.384
▁바르셀로나	-10.384
▁펼쳐	-10.384
▁휴대전화	-10.384
▁엄격	-10.384
▁누군가	-10.384
▁베를린	-10.384
▁논평	-10.3841
▁케이블	-10.3841
▁태양	-10.3841
▁조합	-10.3842
▁1994	-10.3842
ti	-10.3843
▁Co	-10.3843
▁하와이	-10.3845
▁철저	-10.3845
▁해결책	-10.3845
▁값	-10.3846
끼	-10.3847
▁작용	-10.385
▁마쳤다	-10.3853
▁단속	-10.3854
▁생각하는	-10.3856
▁CD	-10.3856
놀	-10.3857
카운티	-10.3857
김	-10.3858
▁형제	-10.3858
▁리그	-10.3861
▁무료	-10.3862
▁신발	-10.3867
▁추정된다	-10.3868
간에	-10.3877
▁대학교	-10.3888
17	-10.3893
▁못하게	-10.3895
▁만들어진	-10.3897
▁다가	-10.3898
▁호텔에서	-10.3901
▁전역	-10.3903
▁부정적	-10.3907
▁처해	-10.3918
ba	-10.3921
련	-10.3927
▁요리	-10.395
되었던	-10.3961
▁죄	-10.3965
정부가	-10.3969
▁동성애자	-10.397
기록	-10.3975
브레	-10.3983
▁동티모르	-10.3985
끈	-10.3985
춤	-10.3985
콤	-10.3985
▁쓰나미	-10.3985
▁파트너	-10.3985
37	-10.3985
▁에어버스	-10.3985
▁주한미군	-10.3985
▁외환은행	-10.3985
▁바스라	-10.3986
▁3000	-10.3986
▁급등	-10.3988
세로	-10.3988
▁디자인	-10.399
▁것이고	-10.3992
▁에어	-10.3994
▁두바이	-10.3995
▁초대	-10.3997
▁펼쳤다	-10.3999
▁사용한	-10.4001
oll	-10.4003
▁사령관은	-10.4004
▁중심부	-10.4006
▁여권	-10.4008
▁회의에서	-10.4009
번째로	-10.4011
▁시각	-10.4016
세가	-10.4019
▁신중	-10.402
▁앞에	-10.402
▁골프	-10.4021
▁간단	-10.4021
더스	-10.4024
▁상태에	-10.4027
▁선거에	-10.4028
스타인	-10.4029
▁책임이	-10.4031
▁위로	-10.4032
▁한때	-10.4034
▁사회적	-10.4039
▁기계	-10.4042
▁논란이	-10.4046
▁한국에서	-10.4049
석을	-10.405
받았다	-10.4055
▁전쟁에	-10.4058
▁보트	-10.4064
▁테러범	-10.4064
겼	-10.4065
22	-10.4076
▁42	-10.4076
병원	-10.4081
ast	-10.4084
▁물가	-10.4094
▁말하며	-10.4094
▁참석했다	-10.4098
▁공간	-10.41
▁이후로	-10.4102
활	-10.4107
▁운동을	-10.4107
되었으며	-10.4109
▁클린턴이	-10.4112
▁an	-10.4114
▁발생하는	-10.4114
▁비용이	-10.4116
▁마비	-10.4117
혁	-10.412
▁못한다	-10.4124
▁당신이	-10.4125
▁그레	-10.4126
▁도시에서	-10.4127
룬	-10.4127
▁그렇지	-10.4132
큐	-10.4132
킬로미터	-10.4132
틱	-10.4132
▁이루어졌다	-10.4132
▁일으킨	-10.4132
▁불능화	-10.4132
▁송환	-10.4133
▁(=	-10.4134
▁저지른	-10.4134
▁의석	-10.4139
▁바닥	-10.4141
▁성공적	-10.4142
▁했으며	-10.4142
돼있다	-10.4143
▁기밀	-10.4144
▁나올	-10.4145
짓	-10.4154
▁초래	-10.4157
▁맛	-10.4159
▁존중	-10.4161
▁첫번째	-10.4161
▁공포	-10.4162
슬러	-10.4165
▁점차	-10.4169
포드	-10.4171
▁유전	-10.4171
▁주기	-10.418
▁자문	-10.4182
베나	-10.4183
▁차관보는	-10.419
▁우리당	-10.4193
▁신부	-10.4195
▁비교	-10.4196
▁케리	-10.4197
ca	-10.4199
▁응답자	-10.4199
▁시사	-10.4199
▁서울시	-10.4202
▁경제에	-10.4205
▁지켜보	-10.4208
28	-10.4209
▁이곳에	-10.4212
ide	-10.4214
▁마감했다	-10.4234
프라	-10.4235
▁높아	-10.4237
▁측은	-10.4241
▁곡	-10.4243
▁130	-10.4252
차량	-10.4255
이었으며	-10.4256
아이	-10.4266
▁리처드	-10.4268
▁검사는	-10.4273
미니	-10.4277
룰	-10.428
▁레스토랑	-10.4281
▁선거캠프	-10.4281
▁옆에	-10.4281
▁김대중	-10.4281
95	-10.4281
▁흥분	-10.4281
▁벌어지	-10.4281
▁우리나라	-10.4282
▁못해	-10.4284
▁검은	-10.4287
▁받았으며	-10.4288
▁종류	-10.4292
▁노동당	-10.4294
▁세계은행	-10.4297
▁개표	-10.4299
8000	-10.43
▁감독이	-10.4301
▁여학생	-10.4304
▁유출	-10.4307
▁특수	-10.4307
파운드	-10.4311
이스라엘	-10.4311
▁발전소	-10.4315
ke	-10.4317
규모	-10.4317
▁법안이	-10.432
▁표명	-10.432
▁아니었다	-10.4324
▁피트	-10.4326
▁답했다	-10.4328
▁가구	-10.4332
▁공약	-10.4333
제대로	-10.4336
▁제기했다	-10.4338
▁선전	-10.4343
▁전사	-10.4343
▁죽은	-10.4351
위원장	-10.4364
▁자유를	-10.4366
▁물리	-10.4372
▁생일	-10.4374
▁백악관은	-10.4386
▁불가능	-10.439
▁시티	-10.4391
▁국방	-10.4391
▁비판했다	-10.4394
▁것이었다	-10.4396
달라고	-10.4411
▁압둘	-10.4411
▁상어	-10.4414
▁파손	-10.4415
▁일리노이	-10.4417
35	-10.442
연대	-10.442
촉	-10.4431
▁가슴	-10.4433
▁곤잘레스	-10.4433
▁만났다	-10.4433
0,000	-10.4433
▁콜로라도	-10.4433
▁헨리	-10.4433
▁핵프로그램	-10.4434
▁숀	-10.4435
▁고위관리	-10.4436
▁강풍	-10.4438
▁테스트	-10.444
▁경영진	-10.444
▁1970	-10.4442
▁인생	-10.4442
▁가졌	-10.4446
▁그래서	-10.4448
tion	-10.4449
▁도망	-10.445
▁백인	-10.4453
▁벗	-10.4457
▁보도에따르면	-10.4459
▁예전	-10.4465
▁발언에	-10.4466
▁뇌물	-10.4466
▁당수	-10.4473
▁불길	-10.4473
▁기자들에게	-10.4475
▁차단	-10.4476
바르	-10.4479
▁다루	-10.4481
▁요소	-10.4489
▁신분	-10.449
▁사망자수	-10.4495
65	-10.4498
총리	-10.45
▁크리스티	-10.4501
▁지질	-10.4504
원들이	-10.4506
위의	-10.4508
▁따라서	-10.4523
▁총장은	-10.4525
▁칼리	-10.4528
본부	-10.4538
국제	-10.4543
▁뿐만아니라	-10.4543
▁법원에	-10.4545
▁조기	-10.4549
▁과도	-10.4558
to	-10.4562
▁개장	-10.4563
▁미국측	-10.4563
점으로	-10.4569
IC	-10.457
▁고객들	-10.4574
▁프로그램에	-10.4575
▁나스닥	-10.4586
▁북서부	-10.4586
▁침입	-10.4587
▁와인하우스	-10.4587
▁방콕	-10.4587
▁자유롭	-10.4589
▁화장실	-10.4589
▁ABC	-10.459
▁출입	-10.459
▁들어갔다	-10.459
▁직업	-10.459
때문에	-10.4594
45	-10.4594
▁산림	-10.4596
▁사막	-10.4597
▁진영	-10.4597
▁세대	-10.4597
▁40%	-10.46
▁화면	-10.4601
▁쓴	-10.4606
아나	-10.4608
▁내정	-10.461
져야	-10.4614
▁올려	-10.4616
▁돌파	-10.4616
ens	-10.4617
▁근로자	-10.4624
▁해임	-10.4624
▁사용될	-10.4631
▁이라크와	-10.4633
러시아	-10.4636
▁두번째	-10.4637
▁미술	-10.4637
변화	-10.464
▁주장에	-10.4645
▁자원	-10.4646
▁논의하기	-10.4646
▁가능하다	-10.4648
ail	-10.4649
▁사용자	-10.4659
민주	-10.4662
▁800	-10.4663
▁돼지	-10.4666
ther	-10.4686
▁결과는	-10.4698
▁메이	-10.4702
▁열어	-10.4703
▁집으로	-10.4705
▁해적	-10.4707
▁리드	-10.4708
▁시민들이	-10.4713
▁짓	-10.4715
ie	-10.4717
▁경비	-10.472
해질	-10.4724
▁정전	-10.4724
흑	-10.4739
▁요르단	-10.4741
랙	-10.4742
▁President	-10.4743
▁궤도	-10.4743
▁떠났다	-10.4743
▁블라디미	-10.4743
▁스코틀랜드	-10.4743
▁없지만	-10.4743
룸	-10.4743
▁법무부	-10.4743
▁촉발	-10.4743
▁활약	-10.4743
▁아프가니스탄에서	-10.4743
▁둘러싸	-10.4743
▁받아들이	-10.4743
▁감지	-10.4743
▁성직자	-10.4744
▁라이벌	-10.4744
▁언어	-10.4744
▁대륙	-10.4745
▁필립	-10.4746
▁급증	-10.4747
▁자치정부	-10.4747
▁환호	-10.4749
▁맞추	-10.4751
▁축소	-10.4753
▁체중	-10.4756
▁왕실	-10.4759
▁성격	-10.4761
위성	-10.4763
▁돌려	-10.4766
▁다우지수	-10.4768
▁불편	-10.4769
▁후보들	-10.477
▁중국에	-10.4774
▁꼭	-10.4776
▁자랑	-10.4778
▁직전	-10.4781
멜	-10.4783
act	-10.4785
▁가해	-10.4786
핵	-10.4786
뿐만아니라	-10.4787
페이스	-10.4789
▁연금	-10.479
▁상호	-10.4793
▁북미	-10.4793
▁공모	-10.4794
▁지속적	-10.4795
▁걸리	-10.4804
▁엘리	-10.4807
▁세금을	-10.4813
▁역사적	-10.4813
▁맥주	-10.4815
▁리치	-10.4815
▁연안	-10.4818
연방	-10.4819
▁자신에게	-10.482
▁생각했다	-10.483
버리	-10.4835
▁보호하기	-10.4836
▁일어났	-10.4836
▁시기에	-10.4839
▁백악관에서	-10.4848
▁독도	-10.4849
▁나타내	-10.485
▁혐의에	-10.4855
▁홍	-10.4857
▁개시	-10.4863
▁출동	-10.4868
▁at	-10.487
▁라이트	-10.4874
▁진술했다	-10.4877
▁즉각	-10.4877
mb	-10.4884
▁120	-10.4885
▁보내는	-10.489
여성	-10.4897
럭	-10.4898
Q	-10.4901
▁가택연금	-10.4901
▁샤라포바	-10.4901
넨	-10.4901
▁남서부	-10.4901
▁리차드	-10.4901
▁받아들일	-10.4901
▁겨냥	-10.4902
▁촉진	-10.4902
▁월스트리트	-10.4902
▁천주교	-10.4902
▁패트릭	-10.4902
▁거듭	-10.4902
▁수석대표	-10.4903
▁봉송	-10.4903
▁농장	-10.4903
▁l	-10.4903
mm	-10.4903
▁붙잡	-10.4904
▁대치	-10.491
즉각적인	-10.491
▁주었다	-10.4911
▁편집	-10.4913
▁구축	-10.4914
로우	-10.4914
▁낸시	-10.4918
▁월드	-10.492
우주	-10.4928
▁55	-10.4929
▁들여	-10.4929
48	-10.4931
득	-10.494
▁주장하며	-10.4948
▁사법	-10.4951
▁조약	-10.4963
▁선보	-10.4964
▁날아	-10.4967
▁보지	-10.4969
▁전환	-10.4974
▁맡은	-10.4975
매우	-10.4976
▁만들고	-10.4977
▁다르	-10.4981
▁적극적	-10.4982
▁잡고	-10.4998
티아	-10.4998
▁약화	-10.4998
▁앉아	-10.5
▁지내	-10.5
ta	-10.5004
▁인원	-10.5004
▁코트	-10.5008
됐으나	-10.501
▁거리에	-10.5011
투표	-10.5014
후보	-10.5015
▁동쪽	-10.5026
▁결의안을	-10.5036
▁일제	-10.5037
▁소득	-10.5059
헨	-10.5062
▁감염된	-10.5062
▁애도	-10.5063
겁	-10.5063
▁쌍둥이	-10.5063
▁오사마빈라덴	-10.5063
▁알코올	-10.5063
▁탄핵	-10.5064
▁상하이	-10.5064
▁다섯	-10.5064
▁영웅	-10.5064
▁케빈	-10.5065
▁사람에게	-10.5065
▁전역에	-10.507
▁포함된	-10.5075
▁인공	-10.5077
▁정착	-10.5078
▁여행객	-10.5078
▁폭파	-10.5078
▁대상이	-10.5079
가족	-10.508
▁자제	-10.5081
▁스타일	-10.5083
▁것인가	-10.5088
▁초반	-10.5094
▁카터	-10.5095
▁도착한	-10.5096
▁나토군	-10.5099
▁오바마와	-10.51
▁비난하고	-10.5102
▁눈에	-10.5108
싸	-10.5111
답	-10.5112
▁확실한	-10.5114
▁예술	-10.5114
포트	-10.5115
헤드	-10.5117
▁34	-10.5118
▁상태로	-10.5118
▁타임스	-10.5119
논	-10.512
▁레드	-10.512
▁국민들에게	-10.512
동맹	-10.5121
풀	-10.5121
▁던지	-10.5122
▁입법	-10.5127
▁공항에	-10.5137
돼야	-10.5149
▁자사	-10.5149
64	-10.515
▁Mo	-10.5157
▁떨어졌	-10.5157
14	-10.5157
▁들어오	-10.5159
▁가리	-10.517
▁폭스	-10.517
▁회사가	-10.5171
▁평가했다	-10.5174
▁하락세	-10.5175
▁하게	-10.5186
▁프레스	-10.5195
per	-10.5197
▁공개된	-10.5207
▁증가한	-10.5209
버렸다	-10.5209
▁시장이	-10.5217
▁미시시피	-10.5227
엠	-10.5227
왓	-10.5227
▁디지털	-10.5227
▁마이애미	-10.5227
▁사찰단	-10.5227
▁애리조나	-10.5227
▁유튜브	-10.5227
▁캄보디아	-10.5227
▁비타민	-10.5227
▁침몰	-10.5227
▁중앙일보	-10.5227
▁오딩가	-10.5227
▁천연가스	-10.5227
▁로이터	-10.5227
▁졸업	-10.5227
▁지하철	-10.5228
▁새벽	-10.5229
▁날짜	-10.5229
▁소련	-10.523
▁산사태	-10.523
▁채널	-10.523
▁급격	-10.523
타임	-10.5231
▁종합	-10.5236
▁감금	-10.5238
▁완전한	-10.5239
▁게재	-10.5239
▁분류	-10.524
▁엔진	-10.5241
▁취임식	-10.5242
▁뛰	-10.5246
▁와인	-10.5246
▁전세계적으로	-10.5247
▁연구팀	-10.5248
스럽게	-10.5249
▁추모	-10.525
▁쌀	-10.5257
▁향상	-10.5262
▁인근에	-10.5263
▁상공	-10.5264
▁미칠	-10.5265
PS	-10.5268
▁연예	-10.5269
▁전원	-10.527
▁33	-10.5275
▁무리	-10.5279
▁논	-10.5282
해왔	-10.5283
▁이론	-10.5283
▁su	-10.5285
나무	-10.5288
▁경력	-10.529
자동차	-10.529
▁서쪽	-10.5291
재판소	-10.5291
▁전부터	-10.5292
▁장면이	-10.5294
▁정신적	-10.5297
▁원화	-10.5304
▁증상	-10.531
▁예수	-10.5318
장소	-10.5329
▁벌였	-10.5329
▁딕	-10.5331
▁44	-10.5338
▁75	-10.5349
▁상승세	-10.535
지역에	-10.5351
▁합의했다고	-10.5355
▁걸린	-10.5365
▁로스	-10.5375
53	-10.5376
▁가상	-10.5378
▁투표에서	-10.5378
▁포로	-10.5379
스케	-10.5386
흥	-10.5393
▁경호	-10.5393
▁공사	-10.5393
▁결선투표	-10.5393
▁뿌리	-10.5393
▁쓰촨성	-10.5393
▁좋다	-10.5393
놈	-10.5393
쌍	-10.5393
▁비핵화	-10.5393
▁뉴저지	-10.5393
▁가즈니	-10.5393
▁호랑이	-10.5393
▁over	-10.5393
▁흥미	-10.5393
▁스파이	-10.5394
라이트	-10.5394
▁이뤄졌다	-10.5394
▁근육	-10.5395
▁사냥	-10.5396
▁부총리	-10.5399
▁받으며	-10.54
▁돌입	-10.5401
▁다윈	-10.5401
제품	-10.5402
▁재무부	-10.5406
있었다	-10.5406
▁끝내	-10.5407
▁오늘날	-10.5407
▁소집	-10.5409
▁호소	-10.5409
▁포경	-10.5411
▁부채	-10.5413
년만에	-10.5419
▁스턴	-10.542
▁대립	-10.5421
▁조류	-10.5423
▁공개적으로	-10.5427
▁가동	-10.5431
위기	-10.5431
정치	-10.5432
▁좁	-10.5434
▁-	-10.5437
▁국장	-10.5448
▁마무	-10.5449
벽	-10.5454
해야만	-10.5456
컨	-10.5456
▁방식으로	-10.5462
▁기다리	-10.5467
사진	-10.547
▁참여한	-10.5477
▁형사	-10.5479
▁들어있	-10.5487
▁동기	-10.5491
▁겨	-10.5493
▁변호인	-10.5506
▁이라크군	-10.5512
▁만들기	-10.5519
▁유럽의	-10.5525
요원	-10.553
▁위에	-10.5531
lu	-10.5533
맹	-10.5534
iz	-10.5535
2009.0	-10.5536
▁나오지	-10.5536
▁전복	-10.5537
당신	-10.5542
첼	-10.5546
▁최저	-10.5548
▁권고	-10.5548
▁월요일에	-10.5551
둥	-10.5558
얀	-10.5559
▁한국에	-10.5561
롬	-10.5562
▁칭	-10.5563
[	-10.5563
쁘	-10.5563
▁골키퍼	-10.5563
▁늦게	-10.5563
▁브라이언	-10.5563
▁블라고예비치	-10.5563
▁알렉산더	-10.5563
▁에베레스트	-10.5563
▁인플레이션	-10.5563
▁토네이도	-10.5563
▁필라델피아	-10.5563
▁키바키	-10.5563
▁원숭이	-10.5563
▁리히터	-10.5563
▁스캔들	-10.5563
▁오히려	-10.5563
.8%	-10.5563
▁갖춘	-10.5563
▁합법적	-10.5564
▁탄압	-10.5564
▁보스턴	-10.5568
▁국가안보	-10.5568
▁무엇보다	-10.5569
▁영업	-10.5569
카드	-10.557
▁만남	-10.5574
▁*	-10.5575
▁이에따라	-10.5578
▁물품	-10.5582
▁자본	-10.5588
▁구조대원들	-10.5589
▁공정	-10.5589
유로	-10.559
▁들어간	-10.5592
▁반영	-10.5592
비용	-10.5595
교회	-10.56
▁겸	-10.5613
▁어디	-10.5614
▁록	-10.5616
라드	-10.5622
▁노선	-10.563
▁표명했다	-10.563
▁일간지	-10.5631
▁가족과	-10.5634
솔	-10.5634
물질	-10.5636
밤	-10.5637
버스	-10.5638
▁소문	-10.5646
▁그대로	-10.5647
었으나	-10.565
감독	-10.5652
▁알려	-10.5652
스탄	-10.5656
평화	-10.5662
▁주연	-10.5668
▁소위	-10.5669
▁간부	-10.567
▁사람들과	-10.5675
▁단체들	-10.5679
▁상상	-10.5679
▁것임	-10.5682
▁보는	-10.5695
여행	-10.5696
▁국민들이	-10.5697
▁정치인	-10.57
▁차량에	-10.5702
▁입수	-10.5706
▁이스라엘은	-10.5721
▁언론에	-10.5722
▁키스	-10.5725
▁호수	-10.5726
퀴	-10.5728
스테	-10.5733
▁차량이	-10.5733
즘	-10.5734
▁마이크로소프트	-10.5735
▁이슬라마바드	-10.5735
꽃	-10.5735
슐	-10.5735
▁남자친구	-10.5735
▁은신처	-10.5735
▁아름다	-10.5735
▁통일부	-10.5735
▁화이트	-10.5736
2008.0	-10.5737
▁있었으나	-10.5738
▁공대	-10.5738
▁라이언	-10.5738
▁징역형	-10.574
▁블루	-10.574
▁문제들	-10.5744
▁벗어	-10.5744
▁종결	-10.5744
▁기소됐다	-10.5747
▁다음날	-10.5748
▁로저	-10.575
▁결심	-10.575
port	-10.5754
▁지휘관	-10.5754
▁증시는	-10.5755
▁젊은이들	-10.5755
죄	-10.5756
▁문제의	-10.5756
▁체코	-10.5756
▁초청	-10.5758
▁중대한	-10.5758
▁보여준다	-10.5761
▁소형	-10.5763
▁기각	-10.5764
▁투르	-10.5773
▁러시아는	-10.5779
▁아르	-10.578
▁밥	-10.5782
▁알카에다와	-10.5786
▁게시	-10.5791
▁범	-10.5798
▁매력	-10.5799
▁가족들이	-10.5802
▁정식	-10.5802
▁시체	-10.5803
▁조사에따르면	-10.5809
햄	-10.5811
ous	-10.5812
▁해병	-10.5814
털	-10.5819
▁연구에	-10.5828
언론	-10.5828
우디	-10.5829
▁51	-10.5829
▁기록한	-10.583
민들	-10.583
범죄	-10.5831
▁홍수로	-10.5835
ial	-10.5839
▁일본과	-10.5841
▁제공한	-10.5841
수술	-10.5845
▁부상으로	-10.5858
▁52	-10.586
▁가게	-10.5869
▁근로자들	-10.587
▁브리	-10.5872
▁세력이	-10.5874
52	-10.5879
▁사태에	-10.5883
▁국무	-10.5888
▁제공할	-10.5889
46	-10.5902
▁불어	-10.5908
▁코미디	-10.5909
▁아프간에서	-10.591
혜	-10.591
븐	-10.5911
▁후진타오	-10.5911
▁법무장관	-10.5911
▁선관위	-10.5911
▁펀드	-10.5911
▁국제공항	-10.5912
▁원칙	-10.5913
▁1996	-10.5915
▁남극	-10.5916
▁소탕	-10.5916
▁황금	-10.5918
▁출생	-10.5918
▁가담	-10.5921
시킨다	-10.5926
▁배후	-10.5926
▁보고서에따르면	-10.5926
▁브랜드	-10.5927
▁카라	-10.5931
▁음주	-10.5936
▁보고서에	-10.5937
▁성장률	-10.5937
▁진단	-10.5938
▁비행사	-10.5941
▁일으켰다	-10.5944
▁화재로	-10.5945
▁물러나	-10.5946
▁확인됐다	-10.5946
▁기온	-10.5947
▁사실은	-10.5956
위인	-10.596
▁얻을	-10.5961
▁화해	-10.5966
▁세계적	-10.5967
▁쓸	-10.5968
▁셰	-10.597
▁주최측	-10.5978
▁부산	-10.598
▁받는다	-10.5982
▁듀	-10.5983
▁일어났다	-10.5983
률이	-10.5985
▁날개	-10.5989
▁변호사가	-10.5991
▁경험이	-10.5994
시스템	-10.5996
▁햄	-10.6012
▁공격은	-10.6016
▁총상	-10.6029
▁예정인	-10.6029
▁화상	-10.603
44	-10.6032
▁일치	-10.6033
마자	-10.6034
▁경호원	-10.6038
▁직장	-10.6042
▁구역	-10.6043
▁한국이	-10.6044
▁밝히	-10.6045
베르	-10.6052
▁양국간	-10.6054
▁남쪽	-10.6054
▁했었다	-10.6055
▁이란과	-10.6056
▁내무부는	-10.6056
▁급속	-10.6057
▁여성과	-10.6069
콩	-10.6086
쇠	-10.6087
▁통계	-10.6087
pr	-10.6089
▁뭄바이	-10.6089
▁탱크	-10.6089
덜	-10.6089
얄	-10.6089
톱	-10.6089
▁섭취	-10.6089
▁줄리아니	-10.6089
▁할머니	-10.6089
▁택시	-10.609
▁구멍	-10.6091
▁교통사고	-10.6091
겠습니다	-10.6091
▁플라	-10.6092
▁소규모	-10.6093
▁1993	-10.6094
▁여론조사에서	-10.6094
▁수퍼	-10.6094
▁라덴	-10.6095
▁인권단체	-10.6095
▁기원	-10.6096
▁영양	-10.6097
▁벨기에	-10.6097
▁폭설	-10.6097
분에	-10.6097
▁사생활	-10.6099
▁하나인	-10.6099
▁보존	-10.6101
▁GM	-10.6104
▁진행자	-10.6107
▁관측	-10.6107
▁감바리	-10.611
▁발생하고	-10.6113
▁신문사	-10.6116
▁기대한다	-10.6117
▁PPP	-10.6119
▁이식	-10.6125
▁악어	-10.613
▁가방	-10.6135
자들과	-10.6137
▁옥	-10.6148
많은	-10.6149
▁낼	-10.6161
▁보일	-10.6164
▁이란에	-10.6176
▁피부	-10.6182
▁대피했다	-10.6184
카르	-10.6186
▁여사는	-10.6193
▁뒤에	-10.6195
▁제작한	-10.6196
▁자신과	-10.6197
▁초안	-10.6198
담당	-10.62
시켰다고	-10.62
▁투쟁	-10.62
▁결과에	-10.6202
▁자택	-10.6203
▁살아있	-10.6205
▁코스	-10.621
▁정치인들	-10.6211
▁년간	-10.6215
▁참석할	-10.622
▁착수	-10.6222
▁노스	-10.6223
▁올라가	-10.6224
▁폭발이	-10.6226
▁근처에서	-10.6237
▁46	-10.624
▁주장한	-10.6241
쪽으로	-10.6243
켜	-10.6244
었는지	-10.6247
▁국적	-10.6251
▁사용했다	-10.6253
사업	-10.6256
▁아메리카	-10.626
▁갔다	-10.6261
흉	-10.6263
▁아메리칸	-10.6265
▁700	-10.6265
▁1%	-10.6268
ish	-10.627
▁무슬림	-10.6271
▁China	-10.6271
▁돕기	-10.6271
▁밴드	-10.6271
▁재검토	-10.6271
▁횡령	-10.6271
▁기쁘다	-10.6271
▁테일러	-10.6271
▁쓰레기	-10.6271
▁다시한번	-10.6271
▁침공	-10.6271
▁플래	-10.6271
▁가벼	-10.6272
▁감옥	-10.6272
민감한	-10.6273
▁예멘	-10.6274
▁진행되는	-10.6274
▁지붕	-10.6274
▁비난하는	-10.6275
▁1991	-10.6276
▁포럼	-10.6276
▁농업	-10.6276
▁아이폰	-10.6277
▁his	-10.6277
▁결함	-10.6279
▁위협이	-10.6281
▁에릭	-10.6282
▁피랍	-10.6288
▁관중	-10.6288
▁수립	-10.629
▁판정	-10.6293
▁적발	-10.6294
09	-10.6297
▁선포했다	-10.6299
▁사용하지	-10.6302
▁생기	-10.6302
▁반복	-10.6304
렸으며	-10.6304
▁개정안	-10.6306
▁비교적	-10.6306
▁미국인들이	-10.6307
BA	-10.6308
▁재임	-10.6309
▁마친	-10.6311
▁as	-10.6311
화된	-10.6312
▁곳이다	-10.6314
▁종식	-10.6316
os	-10.6325
▁북쪽으로	-10.6328
▁시한	-10.6329
▁늘어나	-10.633
▁맡고	-10.6336
▁방송사	-10.6338
에게서	-10.6341
▁남부에서	-10.6342
▁St	-10.6345
▁부실	-10.6351
▁파도	-10.6358
레나	-10.6359
속도로	-10.6359
▁극장	-10.636
▁제출했다	-10.6363
▁총회	-10.6367
7000	-10.637
▁관계에	-10.6373
만개	-10.6374
▁번째로	-10.6374
조건	-10.6381
91	-10.6381
▁통신이	-10.6383
되거나	-10.6389
▁49	-10.639
▁근거로	-10.639
▁에도	-10.6394
구조	-10.6404
▁단체가	-10.6406
▁구체적	-10.6409
▁적십자	-10.6409
▁하나로	-10.6411
▁공기	-10.6414
Ma	-10.6415
않게	-10.6416
▁정지	-10.6419
노동	-10.6421
신문	-10.6424
바로	-10.6426
▁모아	-10.6426
▁여성들이	-10.6429
▁세계적으로	-10.643
▁재판관	-10.6435
▁해도	-10.6435
역사적인	-10.6438
▁수십명	-10.6442
통제	-10.6445
학과	-10.645
▁연구원들	-10.6452
▁수상한	-10.6452
▁여러분	-10.6453
▁DVD	-10.6456
▁광범위	-10.6456
▁사우스캐롤라이나	-10.6456
▁안전보장이사회	-10.6456
▁협약	-10.6456
슛	-10.6456
헐	-10.6456
▁메르켈	-10.6456
▁파나마	-10.6456
▁스트레스	-10.6456
▁원주민	-10.6456
▁미디어	-10.6457
▁이용하는	-10.6457
커스	-10.6457
▁거짓말	-10.6457
▁세인트	-10.6457
▁호흡	-10.6458
▁발휘	-10.6458
▁억제	-10.646
▁싸우	-10.6464
▁중이었다	-10.6466
▁정찰	-10.6467
▁차별	-10.6468
▁관계당국	-10.6468
이었습니다	-10.647
▁신규	-10.6471
▁금연	-10.6471
구역	-10.6477
▁치명적인	-10.648
▁생각하지	-10.6481
▁소식통이	-10.6484
▁반박	-10.6484
▁제목	-10.6486
▁이륙	-10.6487
▁빼	-10.649
▁뉴햄프셔	-10.649
▁~	-10.6492
▁했습니다	-10.6495
▁미치는	-10.6502
▁순위	-10.6507
▁자행	-10.6511
▁확실	-10.6515
▁해안에서	-10.6517
▁가족이	-10.6519
▁혼자	-10.6529
▁정상화	-10.6533
긍정적인	-10.6536
▁성당	-10.6537
▁많아	-10.6539
▁차지하고	-10.654
▁신사	-10.6546
▁승리로	-10.6547
▁실업	-10.6556
▁스톤	-10.6557
▁결과로	-10.6559
공사	-10.656
교육	-10.6567
잘못된	-10.6567
▁계속될	-10.6569
▁IOC	-10.658
등급	-10.658
▁고장	-10.6583
▁보여주고	-10.6589
oo	-10.6591
▁서안	-10.6591
▁지점에서	-10.6593
연구원	-10.6601
▁제정	-10.6603
▁적절	-10.6606
▁결승전	-10.6606
▁사용해	-10.6607
▁미군과	-10.6607
day	-10.6622
▁후보자	-10.6631
쉽	-10.6639
▁nuclear	-10.6645
왈	-10.6645
▁다큐멘터리	-10.6645
▁식료품	-10.6645
▁왼쪽	-10.6645
▁쿠웨이트	-10.6645
▁전당대회	-10.6645
▁과반수	-10.6645
▁옹호	-10.6645
▁일어날	-10.6645
▁데이비스	-10.6645
▁균형	-10.6645
▁공산주의	-10.6645
▁위안부	-10.6645
▁롬니	-10.6645
▁승려들	-10.6645
▁난민촌	-10.6646
▁팝	-10.6648
▁귀환	-10.6648
워드	-10.6649
▁완료	-10.6649
▁표준	-10.6651
▁1995	-10.6651
▁검문소	-10.6651
▁탑승객	-10.6652
▁물에	-10.6652
26	-10.6653
▁출두	-10.6653
▁잭	-10.6653
na	-10.6657
분만에	-10.6657
▁화려	-10.6657
킨스	-10.6657
▁61	-10.666
▁인민	-10.666
▁주위	-10.666
자유	-10.6661
▁모리	-10.6661
ber	-10.6663
▁숲	-10.6664
▁스타디움에서	-10.6666
▁조언	-10.6669
▁동생	-10.667
380	-10.6673
▁총재는	-10.6675
전선	-10.6678
▁모임	-10.6684
▁`	-10.6692
▁있어야	-10.6694
ary	-10.6702
▁39	-10.6702
▁이름이	-10.6702
▁지원할	-10.6705
▁물이	-10.6707
86	-10.6711
단계	-10.6715
▁합의한	-10.6715
▁수배	-10.6715
▁조용	-10.6721
▁부상당	-10.6723
▁나에게	-10.6729
▁운영하	-10.6731
▁중단할	-10.6732
▁최고치	-10.6733
▁선원	-10.6733
▁출연한	-10.6736
▁AT	-10.6738
▁경관	-10.674
▁주장한다	-10.6746
▁피해자들	-10.6746
않	-10.6749
▁하미	-10.675
굴	-10.6752
▁센	-10.6758
▁세트	-10.6758
돈	-10.6759
▁달러화	-10.676
▁중단했다	-10.6765
ty	-10.6766
▁보냈	-10.6774
▁달린	-10.6779
▁실시할	-10.678
데스	-10.6781
▁흘	-10.6783
▁얼	-10.6789
84	-10.6795
겠	-10.6806
▁뉴욕시	-10.6807
▁군은	-10.6818
동물	-10.6823
▁운전자	-10.6827
Al	-10.6831
ph	-10.6833
▁군사적	-10.6835
▁무게	-10.6835
▁신조	-10.6837
▁매사추세츠	-10.6837
▁않았던	-10.6837
▁없게	-10.6837
▁에콰도르	-10.6837
▁이산화탄소	-10.6837
▁캐릭터	-10.6837
▁확장	-10.6837
▁받아들여	-10.6837
▁어렵다	-10.6837
▁국제원자력기구	-10.6837
▁매니저	-10.6837
▁코끼리	-10.6837
▁펠로시	-10.6837
▁나타난	-10.6837
▁퇴임	-10.6837
▁득표율	-10.6838
▁침대	-10.684
▁맞는	-10.684
▁낮추	-10.6841
▁쉽지	-10.6841
▁급락	-10.6842
▁친척	-10.6842
해지고	-10.6842
▁떠난	-10.6843
▁복역	-10.6844
ence	-10.6844
▁레이건	-10.6845
▁일련	-10.6847
▁범행	-10.6848
예비선거	-10.685
▁조지아주	-10.6851
▁쓰고	-10.6855
▁58	-10.6856
▁케이트	-10.6857
▁당초	-10.6858
▁나왔	-10.6859
▁조명	-10.6859
▁후보인	-10.6863
▁상영	-10.6864
스틴	-10.6868
▁해리포터	-10.6869
▁충돌이	-10.6869
▁운영하고	-10.687
발전	-10.687
▁매체	-10.6871
ound	-10.6871
▁유대	-10.6874
▁인력	-10.6874
ite	-10.6876
▁어려	-10.6878
▁요금	-10.6889
56	-10.6889
▁계속되는	-10.6898
▁생산량	-10.6902
▁아난	-10.6912
▁텍사스주	-10.6913
▁창문	-10.6915
▁다르다	-10.6915
▁후보와	-10.6918
▁조건으로	-10.6927
▁촬영한	-10.6935
▁수리	-10.6936
▁정원	-10.6939
▁운전사	-10.694
▁공개됐다	-10.6946
▁확신한다	-10.6948
아시아	-10.695
97	-10.6952
▁한나라당은	-10.6953
▁손에	-10.6957
IAEA	-10.6958
팬	-10.6959
▁포함돼	-10.696
아일랜드	-10.6965
07	-10.6967
그녀	-10.6972
▁발견되었다	-10.6985
▁발표하고	-10.699
▁의사들	-10.6998
ee	-10.7002
▁소식에	-10.7007
▁남성은	-10.7008
▁늘리	-10.7011
▁회원국들	-10.7016
▁64	-10.7019
res	-10.7024
▁당국에	-10.7029
엇	-10.7029
▁보게	-10.7033
템	-10.7033
▁from	-10.7033
▁샌디에이고	-10.7033
▁일으킬	-10.7033
▁마라톤	-10.7033
▁외무성	-10.7033
▁여겨지	-10.7033
▁구제금융	-10.7034
▁어깨	-10.7034
▁드러냈다	-10.7034
▁우리에게	-10.7034
▁폰	-10.7035
▁용납	-10.7035
▁테니스	-10.7035
▁상륙	-10.7036
▁무어	-10.7036
▁생방송	-10.7037
▁창출	-10.7039
▁끝날	-10.704
▁부활	-10.704
▁탄생	-10.7041
▁추구하	-10.7043
▁분석가들은	-10.7046
▁몰려	-10.7046
▁1960	-10.7047
▁거부권	-10.7047
▁분량	-10.7048
과학	-10.7049
▁방출	-10.7049
니까	-10.7049
▁이뤄진	-10.7049
▁전달했다	-10.7049
지원	-10.7051
▁교도소에	-10.7054
▁음성	-10.7055
▁최저치	-10.706
▁발포	-10.7064
▁인근에서	-10.7064
▁밝혀진	-10.7066
▁무장대원	-10.7067
▁거절했다	-10.7068
▁알렸다	-10.707
▁월가	-10.707
▁모건	-10.707
▁부위	-10.7078
▁만일	-10.708
▁진보	-10.7082
▁오하이오주	-10.7082
▁발견한	-10.7083
▁상태이다	-10.7086
▁마리아	-10.7089
▁비난하며	-10.7091
▁예정이었다	-10.7097
▁냈다	-10.7108
▁투명	-10.711
▁방문하는	-10.7113
▁자택에서	-10.7116
▁기여	-10.7123
41	-10.7134
▁깊이	-10.7142
▁증세	-10.7142
▁사용된	-10.7143
▁지도자가	-10.7149
▁행사에	-10.715
버린	-10.7151
▁세부	-10.7157
NASA	-10.7162
▁데에	-10.717
da	-10.717
▁가르	-10.7171
앞으로	-10.7178
▁작업에	-10.7184
39	-10.7193
직원	-10.7214
fi	-10.7216
▁식사	-10.7219
ust	-10.7224
▁하루에	-10.7227
렬	-10.723
딜	-10.7233
▁느낄	-10.7233
▁자카르타	-10.7233
▁줄기세포	-10.7233
▁프리미어리그	-10.7233
▁휩쓸	-10.7233
콰	-10.7233
쿨	-10.7233
▁앤드류	-10.7233
▁샘플	-10.7233
▁new	-10.7233
▁돌고래	-10.7233
▁홈페이지	-10.7233
▁유혈사태	-10.7234
.9%	-10.7234
▁로딕	-10.7234
▁중동평화	-10.7234
▁탐험	-10.7234
느냐	-10.7235
▁특징	-10.7235
▁계좌	-10.7236
▁밝혔지만	-10.7236
▁축출	-10.7236
▁미국인들	-10.7236
▁MBC	-10.7237
▁빌딩	-10.7237
▁동일한	-10.7237
▁실업률	-10.7241
▁다국적군	-10.7241
▁표결	-10.7243
▁회계	-10.7244
▁처방	-10.7244
▁건너	-10.7245
▁법안은	-10.7247
▁측면	-10.7254
▁치러지	-10.7254
▁서양	-10.7255
▁교황은	-10.726
▁선임	-10.7261
에이커	-10.7266
▁원래	-10.7267
▁문제와	-10.7269
▁선호	-10.7271
▁하락한	-10.7271
▁토지	-10.7272
▁화요일에	-10.7272
▁발행	-10.7275
▁싱	-10.7281
▁수여	-10.7284
▁해당하는	-10.7289
▁2-1	-10.7292
▁국가들은	-10.7296
▁상태에서	-10.73
▁소유하고	-10.7306
89	-10.731
▁2500	-10.7313
▁방법은	-10.7314
방위	-10.7314
▁보조	-10.7337
▁여지	-10.7345
▁긍정적	-10.735
옥	-10.7365
▁유럽에서	-10.7367
셰	-10.7368
힘	-10.7371
▁뉴욕주	-10.7372
4000	-10.7372
1000	-10.7373
유럽	-10.7373
빛	-10.7374
위안	-10.738
시오	-10.7383
진압	-10.7385
▁외치	-10.7386
▁이어지	-10.7387
▁동의했다	-10.7388
었을	-10.7388
▁취해	-10.7391
▁실종자	-10.7392
▁해상	-10.7393
▁얻고	-10.7399
▁용기	-10.7401
대책	-10.7408
▁페이지	-10.7418
ice	-10.7419
▁73	-10.7426
▁아들이	-10.7427
24	-10.7431
봐	-10.7432
쾌	-10.7433
▁테러와	-10.7434
▁발표됐다	-10.7436
▁항공우주국	-10.7437
2006.01	-10.7437
▁HIV	-10.7437
▁멤버	-10.7437
▁않았으나	-10.7437
▁애완견	-10.7437
▁윔블던	-10.7437
▁프랭크	-10.7437
넌	-10.7437
▁노르웨이	-10.7437
▁마흐디	-10.7437
▁힘입어	-10.7437
▁예를들어	-10.7437
▁득점	-10.7437
▁검증	-10.7437
▁잇따	-10.7437
▁좌절	-10.7438
▁정거장	-10.7438
▁브리핑	-10.7438
▁암컷	-10.7438
▁부부가	-10.7438
2007.11	-10.7438
▁not	-10.7439
▁떠올	-10.7439
▁밝혔으며	-10.744
▁손님	-10.744
▁영화배우	-10.7441
▁음료	-10.7441
▁녹음	-10.7442
▁화합	-10.7443
▁선수가	-10.7444
▁촉구하	-10.7444
▁쿠퍼	-10.7444
▁오마르	-10.7445
▁국기	-10.7446
▁내려졌다	-10.7446
▁포착	-10.7446
▁외환	-10.7447
프리	-10.7449
▁통증	-10.745
▁종료	-10.745
21	-10.7453
▁리처드슨	-10.7456
▁외국인들	-10.7458
04	-10.7458
▁매달	-10.7459
내용	-10.7459
▁이슬람교	-10.746
▁개편	-10.746
▁부모들	-10.7462
▁양측은	-10.7462
▁격렬한	-10.7462
po	-10.7464
▁키우	-10.7467
▁접전	-10.7471
▁틀	-10.7473
▁열렸다	-10.7474
▁불리	-10.7482
▁고무	-10.7483
▁재직	-10.7487
▁바르	-10.7488
▁상원의원과	-10.7488
버트	-10.7492
▁사설	-10.7494
▁노리	-10.7495
▁실시했다	-10.7499
98	-10.7501
▁최근에	-10.7503
리언	-10.7505
▁53	-10.7509
▁바라는	-10.7512
▁1500	-10.7514
▁마을에서	-10.7515
▁소식은	-10.7519
▁부유	-10.752
▁보이며	-10.752
▁지지한다	-10.7523
▁88	-10.7526
min	-10.753
▁화장	-10.7533
▁판다	-10.7533
▁가족은	-10.7547
▁법안에	-10.7548
▁정권이	-10.7555
하우스	-10.7558
▁포장	-10.756
▁추세	-10.757
93	-10.7579
▁기울이	-10.7581
프랑스	-10.7583
ef	-10.7588
▁단체인	-10.759
▁NATO	-10.7592
ian	-10.7592
▁자리에	-10.7596
▁FRB	-10.7598
NS	-10.7602
▁중심가	-10.7603
▁장군은	-10.7604
▁파운드	-10.7605
연구	-10.7609
때까지	-10.761
▁움직	-10.7614
▁지분	-10.7616
▁목표는	-10.7621
▁카리	-10.7626
▁못했	-10.7626
▁해주	-10.7628
▁잡스	-10.7638
▁알지	-10.7642
▁막아	-10.7642
짝	-10.7646
덩	-10.7646
▁government	-10.7646
▁세웠다	-10.7646
▁않았고	-10.7646
▁없습니다	-10.7646
▁피라미드	-10.7646
붐	-10.7646
팩	-10.7646
▁비틀즈	-10.7646
▁마돈나	-10.7646
▁자선단체	-10.7646
▁침략	-10.7646
드립니다	-10.7646
▁배터리	-10.7646
▁탈북자	-10.7646
▁객실	-10.7646
▁서식지	-10.7646
▁데이빗	-10.7646
▁라파엘	-10.7646
▁여섯	-10.7646
▁졸리	-10.7647
▁빠지	-10.7647
2005.09	-10.7648
▁1992	-10.7649
▁운명	-10.765
▁금액	-10.7651
▁탈락	-10.7652
▁테러조직	-10.7653
▁산책	-10.7655
▁아마디	-10.7659
▁않는다면	-10.766
▁인형	-10.7661
▁청사	-10.7661
▁프라이머리에서	-10.7662
▁전국적으로	-10.7666
▁통행	-10.7667
▁온도	-10.767
▁본토	-10.767
▁고급	-10.7671
▁커지	-10.7675
▁상당히	-10.7676
▁전부	-10.7679
▁FA	-10.768
▁보급	-10.7685
▁30%	-10.7686
▁강행	-10.7687
프레드	-10.7687
▁잡아	-10.7687
▁피살	-10.7687
▁상승한	-10.7689
▁남용	-10.7689
bu	-10.7698
▁불구	-10.7703
▁방향으로	-10.7705
▁자동	-10.771
▁유산	-10.7715
▁4000	-10.7719
▁65	-10.7723
▁승무원들	-10.7723
티스	-10.773
▁위대	-10.773
▁퀸	-10.7732
▁플로리다주	-10.7741
▁한국인들	-10.7764
▁회의에	-10.7765
▁BA	-10.7766
지방	-10.7771
▁대리	-10.7777
▁댄	-10.7778
혔	-10.7786
▁잃었	-10.7787
▁몰고	-10.7788
▁약세	-10.7797
▁일이다	-10.78
탈레반	-10.78
▁손해	-10.7801
▁사실에	-10.7803
ag	-10.7806
음악	-10.7806
con	-10.7814
▁지지자들이	-10.7825
▁Ar	-10.7826
▁국가에서	-10.7833
▁배심원	-10.7835
이런	-10.7843
졸	-10.7856
OPEC	-10.7858
▁경기부양책	-10.7858
▁관타나모	-10.7858
▁오토바이	-10.7858
▁우주왕복선	-10.7858
▁울포위츠	-10.7858
▁자유무역협정	-10.7858
▁준결승	-10.7858
▁파바로티	-10.7858
▁펜실베니아	-10.7858
▁플라스틱	-10.7858
社	-10.7858
툴	-10.7858
▁퍼거슨	-10.7858
펄	-10.7858
▁롤링	-10.7859
▁벌써	-10.7859
▁헌법재판소	-10.786
▁의뢰	-10.7861
▁낙태	-10.7861
▁담은	-10.7861
▁저희	-10.7862
▁넘겨	-10.7864
▁오른쪽	-10.7865
▁점검	-10.7866
▁드러내	-10.7866
▁상대방	-10.7869
▁풀려	-10.7869
▁NK	-10.7869
소리	-10.7871
▁백신	-10.7873
▁집권당	-10.7874
58	-10.7877
▁놓여	-10.7878
▁거부하	-10.7879
▁매출	-10.7881
59	-10.7881
▁군함	-10.7883
▁고속	-10.7884
▁멀리	-10.7884
▁포함됐다	-10.7885
▁군복	-10.7887
▁처한	-10.7891
▁카르	-10.7892
▁강세	-10.7893
▁운동가들	-10.7897
▁존경	-10.79
CC	-10.79
▁표면	-10.7901
▁연계	-10.7901
▁지원하는	-10.7906
▁요구하며	-10.7909
▁실린	-10.791
▁밀어	-10.7911
▁도심	-10.7915
AM	-10.7921
▁국가들이	-10.7921
▁제시했다	-10.7927
▁나이트	-10.7928
▁모금	-10.7929
몬드	-10.7929
▁이틀간	-10.793
▁흔	-10.7933
▁대학생	-10.7939
인들에게	-10.7949
▁중요성	-10.7953
▁다음주	-10.7959
▁내려진	-10.7962
▁기울	-10.7962
▁밝혔	-10.7965
▁로브	-10.7966
son	-10.7971
▁법원에서	-10.7973
업계	-10.7977
▁제리	-10.7982
▁참여할	-10.7987
▁갈라	-10.7988
▁대통령직	-10.7992
55	-10.7994
▁전역에서	-10.8012
줬	-10.8015
▁서장	-10.8016
▁유지하고	-10.802
▁제보	-10.8021
`	-10.8022
금융	-10.8024
서비스	-10.8024
▁UEFA	-10.8032
▁140	-10.8037
▁기소된	-10.8042
분께	-10.8042
업자들	-10.8047
▁감소했다	-10.8049
▁유도	-10.8054
▁각자	-10.8056
▁41	-10.8072
칙	-10.8073
닷	-10.8076
▁Obama	-10.8076
▁경기침체	-10.8076
▁루아얄	-10.8076
▁뮤지컬	-10.8076
▁싶지	-10.8076
▁옮기	-10.8076
▁허커비	-10.8076
딴	-10.8076
랩	-10.8076
톨	-10.8076
펴	-10.8076
▁아테네	-10.8076
▁테네시	-10.8076
▁게릴라	-10.8076
▁옐친	-10.8076
▁징후	-10.8076
▁포르노	-10.8076
▁시라크	-10.8076
▁불가리아	-10.8076
▁2005.10	-10.8076
▁벽돌	-10.8077
▁공룡	-10.8077
▁본격적	-10.8078
▁데일리	-10.8079
▁살아남	-10.8079
코프	-10.8079
▁탄광	-10.808
▁용의자로	-10.8081
▁있었습니다	-10.8082
▁함유	-10.8084
베르토	-10.8084
▁제출한	-10.8087
▁사망했	-10.8088
▁제압	-10.8089
▁히트	-10.8092
▁국방성	-10.8095
▁형식	-10.8096
American	-10.8096
▁승부	-10.8098
▁자신감	-10.81
▁점거	-10.8104
▁벌어졌다	-10.8109
▁살해했다	-10.8112
▁조절	-10.8112
▁한국은행	-10.8112
▁공판	-10.8113
▁얼마전	-10.8115
▁접수	-10.8116
▁대전	-10.8116
96	-10.8116
▁소동	-10.8122
▁1,000	-10.8122
▁범위	-10.8123
▁통보	-10.8123
▁실무	-10.8125
▁좋아하는	-10.8125
▁연간	-10.8126
기위해	-10.8127
red	-10.8127
▁냉	-10.8128
▁발표했습니다	-10.8128
▁호소했다	-10.8129
▁정기적	-10.8137
▁희망한다	-10.8139
▁지지하고	-10.8151
아직	-10.8151
▁사체	-10.8157
포르	-10.8162
▁사용하고	-10.8165
▁PKK	-10.8166
▁동성	-10.8168
▁유인	-10.8168
코트	-10.817
자료	-10.8176
▁고려하고	-10.8179
▁남편이	-10.818
▁7000	-10.8181
사무소	-10.8183
▁계속된	-10.8192
▁지대	-10.8198
▁동맹국	-10.8206
▁탄도	-10.8206
▁포트	-10.8211
▁나선	-10.8214
▁뱀	-10.822
▁본다	-10.8227
늘	-10.8234
▁곰	-10.8235
form	-10.8237
▁도시인	-10.8245
아프간	-10.825
어떤	-10.8251
▁160	-10.8253
사령관	-10.8254
2000	-10.8256
▁테러리스트들	-10.8258
▁지원하고	-10.826
사람	-10.8264
IS	-10.8265
▁승인했다	-10.8275
49	-10.8278
▁43	-10.8282
▁해소	-10.8283
생산	-10.8287
ting	-10.8293
덤	-10.8294
▁덧붙	-10.8295
▁매춘	-10.8295
▁떼	-10.8297
▁계기	-10.8297
▁금메달	-10.8298
▁디자이너	-10.8298
▁루이지애나	-10.8298
▁아닙니다	-10.8298
▁지지선언	-10.8298
▁카트리나	-10.8298
▁멈추	-10.8298
▁앤더슨	-10.8298
▁알렉스	-10.8298
▁보이콧	-10.8298
▁징계	-10.8298
▁퇴원	-10.8299
▁이자율	-10.8299
2006.08	-10.8299
▁잠재적	-10.83
▁개막	-10.8301
▁막대한	-10.8301
▁기상청	-10.8302
강전에서	-10.8302
▁떠날	-10.8303
▁디스크	-10.8303
▁흘러	-10.8303
▁양곤	-10.8304
▁래리	-10.8304
▁핵개발	-10.8306
▁내렸	-10.8307
▁선수로	-10.8308
▁경향	-10.8309
▁오스카	-10.8311
▁않으며	-10.8311
▁사우스	-10.8311
▁러드	-10.8312
▁상담	-10.8313
▁브로	-10.8314
way	-10.8315
▁인터	-10.8315
▁사이클	-10.8315
▁플레이어	-10.8317
▁미첼	-10.8319
▁통과시켰다	-10.832
▁쏘	-10.832
▁클리	-10.8321
▁준수	-10.8323
▁서류	-10.8325
▁장교	-10.8326
▁발발	-10.8328
▁포함하여	-10.8333
▁도청	-10.8333
리안	-10.8334
▁우즈	-10.8344
▁참석하지	-10.8344
▁탄소	-10.8345
▁위원	-10.8345
▁대법원장	-10.8348
업체들	-10.8353
▁챔피언십	-10.8359
▁흔적	-10.8362
▁타임	-10.8382
▁확산되고	-10.8384
▁정계	-10.8389
▁정보부	-10.8396
▁레바논군	-10.8413
다란	-10.8428
호프	-10.843
▁서서	-10.8434
▁WHO	-10.8448
▁dis	-10.8453
스런	-10.846
▁59	-10.8464
회전	-10.8465
적이며	-10.8476
▁취한	-10.848
▁56	-10.848
축구	-10.8486
old	-10.8494
BO	-10.8495
▁당국자들	-10.8501
픈	-10.8506
해달라	-10.8506
널리	-10.8524
뒀	-10.8525
World	-10.8525
▁로드리게스	-10.8525
▁베네딕	-10.8525
▁아마디네자드	-10.8525
▁에티오피아	-10.8525
▁오클라호마	-10.8525
▁이브라힘	-10.8525
▁최첨단	-10.8525
▁평화유지군	-10.8525
▁히틀러	-10.8525
셨	-10.8525
▁심장마비	-10.8525
▁의약품	-10.8525
▁압바스	-10.8525
PGA	-10.8525
▁따뜻	-10.8525
▁빼앗	-10.8525
▁중남미	-10.8525
▁2008.10	-10.8526
▁품목	-10.8526
▁인터폴	-10.8526
▁스크린	-10.8526
2007.12	-10.8527
▁터널	-10.8527
▁이루어진	-10.8527
▁NBA	-10.8527
▁메일	-10.853
▁술집	-10.853
▁거짓	-10.8531
▁가짜	-10.8531
▁1989	-10.8531
▁장관과	-10.8532
▁세탁	-10.8534
▁새롭	-10.8534
▁들어갈	-10.8536
▁채취	-10.8536
▁연례	-10.8536
▁부탁	-10.8536
▁벌여	-10.8537
▁준비하고	-10.8537
▁구름	-10.8539
▁계산	-10.854
▁풍부	-10.8542
▁조항	-10.8544
▁암호	-10.8544
▁플로	-10.8545
▁테러단체	-10.8548
▁뿐이다	-10.8553
▁발급	-10.8553
▁단행	-10.8557
▁일이라고	-10.856
▁휴대	-10.8562
▁문구	-10.8562
▁회수	-10.8563
▁대대적	-10.8564
범들	-10.8565
▁언급하며	-10.8565
ah	-10.8566
▁변호	-10.8574
29	-10.858
▁게리	-10.8585
야드	-10.8586
▁스토	-10.8588
▁해체	-10.8589
▁보건부	-10.8592
▁임대	-10.8593
▁당해	-10.8596
천명	-10.8605
노조	-10.8609
▁경비원	-10.861
▁결승전에서	-10.862
위원	-10.8623
▁경사	-10.8633
▁신화	-10.8657
▁조지아	-10.8659
▁달간	-10.8671
▁줄리	-10.8679
학생	-10.8689
▁법정에서	-10.8701
▁선거법	-10.8703
▁유기	-10.8707
푸르	-10.8713
죽	-10.8717
해리포터	-10.872
PPP	-10.872
공화국	-10.8722
쥐	-10.8722
못	-10.8722
▁메리	-10.8723
▁선고받	-10.873
▁휩싸	-10.8734
▁넘기	-10.874
▁여행객들	-10.8744
첩	-10.8755
낭	-10.8758
뷰	-10.8758
2,000	-10.8758
▁고이즈미	-10.8758
▁뉴올리언스	-10.8758
▁느낌	-10.8758
▁망원경	-10.8758
▁불확실	-10.8758
▁우울증	-10.8758
▁저질렀다	-10.8758
▁조승희	-10.8758
샬	-10.8758
옳	-10.8758
칩	-10.8758
5,000	-10.8758
▁노트북	-10.8758
▁두려움	-10.8758
▁성추행	-10.8758
▁쇠고기	-10.8758
▁again	-10.8758
▁무승부	-10.8758
▁시나리오	-10.8758
▁기숙사	-10.8758
▁허드슨	-10.8758
▁수류탄	-10.8758
▁소행성	-10.8758
▁활발	-10.8758
▁무너지	-10.8758
▁저항세력	-10.8759
▁당부했다	-10.8759
▁교섭	-10.8759
▁남아프리카	-10.8759
▁모르는	-10.876
▁맥캔	-10.876
▁지식	-10.8761
▁구호단체	-10.8762
▁무덤	-10.8762
▁취했다	-10.8763
▁사라졌다	-10.8763
▁목사는	-10.8764
▁박탈	-10.8765
▁받아왔다	-10.8765
▁아니지만	-10.8766
▁머무	-10.8768
▁타밀	-10.8769
▁사육	-10.877
▁체류	-10.8772
▁붙여	-10.8773
▁고위급	-10.8774
▁모술	-10.8775
▁시인했다	-10.8776
연패	-10.8777
▁밀려	-10.8778
▁바탕	-10.8778
▁신장	-10.878
TA	-10.8782
▁동성애	-10.8782
▁낮아	-10.8784
▁코치	-10.8784
▁경비대	-10.8787
▁빠졌다	-10.8787
▁때문이라	-10.8788
▁전반적인	-10.879
▁예약	-10.879
▁열심	-10.8793
▁구류	-10.8793
▁위하여	-10.8794
▁총장	-10.8797
▁신도들	-10.8798
▁모래	-10.8801
▁가중	-10.8806
▁유통	-10.8806
▁모터	-10.8806
▁전해지	-10.8807
▁부당	-10.8809
▁경쟁력	-10.881
▁일어나는	-10.8818
▁착수했다	-10.8822
▁요원들	-10.8831
▁나타내는	-10.8834
▁실종됐다	-10.885
같	-10.8858
▁달한다	-10.8867
US	-10.8868
게임	-10.8872
▁군인들이	-10.8872
▁가로	-10.8879
▁중심지	-10.8882
▁우세	-10.8882
▁있을지	-10.8883
▁가족들과	-10.8887
27	-10.8891
▁부검	-10.8893
▁패스	-10.8895
▁동료들	-10.8897
블리	-10.8899
▁사면	-10.8905
▁수행할	-10.8906
▁66	-10.8907
▁힘들다	-10.8922
▁바위	-10.8926
▁슈퍼	-10.8927
▁예술가	-10.8928
▁공안	-10.8935
▁향한	-10.895
▁부족하다	-10.8958
최근	-10.8966
탐	-10.8967
▁모자	-10.8968
▁느끼고	-10.8977
폭력	-10.8988
▁동물들	-10.8989
섭	-10.8991
▁상금	-10.8991
옹	-10.8994
삭	-10.8994
▁담당자	-10.8995
깃	-10.8996
▁talks	-10.8996
▁높게	-10.8996
▁뉴델리	-10.8996
▁비서실장	-10.8996
▁빅토리아	-10.8996
▁위스콘신	-10.8996
▁유죄판결	-10.8996
▁출구조사	-10.8996
▁펼친	-10.8996
▁플루토늄	-10.8996
▁확률	-10.8996
박근혜	-10.8996
찌	-10.8996
텍	-10.8996
▁자르다리	-10.8996
▁국립공원	-10.8996
▁1987	-10.8996
▁도요타	-10.8996
▁대서양	-10.8996
▁삭감	-10.8996
▁알바니아	-10.8997
▁두려워	-10.8997
▁숨졌으며	-10.9
▁중앙은행	-10.9
▁부사장	-10.9001
▁강진이	-10.9001
▁남학생	-10.9002
카를로스	-10.9002
▁모른다고	-10.9003
▁맡았다	-10.9003
▁물고기	-10.9003
됐는지	-10.9004
▁증강	-10.9005
▁델타	-10.9006
▁취급	-10.9006
▁압도적	-10.9007
▁하원의장	-10.9009
▁교외	-10.901
▁출연했다	-10.901
▁예배	-10.901
▁왕세자비	-10.9011
▁이내에	-10.9012
▁For	-10.9014
호주	-10.9016
▁입지	-10.9016
has	-10.9017
▁복원	-10.9021
▁의상	-10.9021
▁방문해	-10.9023
▁완성	-10.9023
▁업적	-10.9024
▁아담	-10.9026
▁양쪽	-10.9026
▁포터	-10.9027
▁후송	-10.9029
▁총통	-10.9031
▁물체	-10.9032
▁분야에서	-10.9033
43	-10.9045
▁남아있다	-10.9047
▁차질	-10.9052
▁정리	-10.9053
▁배제	-10.9053
▁농민들	-10.9055
▁남자아이	-10.9062
▁목격했다	-10.9064
달라	-10.9064
▁상관	-10.907
세포	-10.9078
ese	-10.9087
▁도구	-10.909
83	-10.9091
▁상당수	-10.9091
▁제작사	-10.9095
▁양보	-10.9097
▁써	-10.9099
▁남아있는	-10.9101
▁안내	-10.9104
▁도디	-10.9106
▁암시	-10.9108
▁대리인	-10.9109
▁턱	-10.9122
▁선고했다	-10.9127
▁기아	-10.9133
▁파리에서	-10.915
▁테리	-10.915
▁도착할	-10.9154
▁웨인	-10.9157
▁상황이다	-10.9159
▁악화되	-10.9161
▁정상들	-10.9162
▁아프	-10.9163
▁제시한	-10.9163
퍼스	-10.9166
▁점수	-10.9167
레이크	-10.9186
▁참가자들	-10.9191
▁당황	-10.9191
▁체포되었다	-10.9197
▁나타났	-10.92
▁제치	-10.9203
▁관객	-10.9209
팔레스타인	-10.9215
빠	-10.9217
눈	-10.9218
태평양	-10.9218
올림픽	-10.9218
번호	-10.9222
빗	-10.9239
head	-10.924
▁visit	-10.924
▁나눴다	-10.924
▁메드베데프	-10.924
▁않았습니다	-10.924
▁앞섰다	-10.924
▁온실가스	-10.924
▁잃어버	-10.924
▁최루탄	-10.924
▁하이브리드	-10.924
·	-10.924
▁글로벌	-10.924
▁2-0	-10.924
▁해수면	-10.924
▁우간다	-10.924
▁첩보	-10.924
MDC	-10.924
▁개체수	-10.924
▁교착상태	-10.924
▁염려	-10.924
▁에드워드	-10.924
▁유명인사	-10.9241
됨에따라	-10.9241
▁재미있	-10.9241
▁Roh	-10.9242
▁수색작업	-10.9242
▁아마존	-10.9242
▁권총	-10.9243
▁its	-10.9243
▁금융위기	-10.9243
▁이뤄질	-10.9243
▁급습	-10.9244
▁워너	-10.9245
▁갈등	-10.9248
▁호송	-10.9248
▁송금	-10.9251
내내	-10.9252
▁갑작스	-10.9252
▁추격	-10.9252
▁줄이기	-10.9252
▁국정원	-10.9252
▁금속	-10.9253
AP	-10.9253
▁모욕	-10.9253
▁연구원은	-10.9253
▁지역사회	-10.9255
열차	-10.9255
▁60%	-10.9255
▁데리고	-10.9257
▁뚫	-10.9257
▁밝혀내	-10.9259
▁실현	-10.9259
▁톰슨	-10.926
Pro	-10.9261
▁매매	-10.9261
▁정밀	-10.9261
▁연출	-10.9263
▁포스트	-10.9265
▁증진	-10.927
▁보증	-10.9279
▁군사력	-10.9279
기때문에	-10.928
▁가난한	-10.9282
오르	-10.9286
▁둔화	-10.9287
▁부처	-10.9288
▁고안	-10.929
▁장려	-10.929
▁해저	-10.9292
▁20%	-10.9298
▁실려	-10.9299
▁남부지역	-10.9299
▁부품	-10.9302
▁도살	-10.9303
▁진지	-10.9304
▁유행	-10.9306
▁페르	-10.9314
시장에서	-10.9316
▁너무나	-10.9316
▁얻게	-10.9318
▁사과했다	-10.9319
▁공개하지	-10.9325
▁Ca	-10.9333
OS	-10.9334
▁일대	-10.9348
ame	-10.9351
주전	-10.9352
▁열었다	-10.9364
벨리	-10.9365
▁응답	-10.9377
▁담당자는	-10.9386
▁위험성	-10.9387
▁물어	-10.9391
▁상세	-10.94
▁판매량	-10.9401
▁남측	-10.9402
▁이슈	-10.9409
▁종교적	-10.942
▁중이며	-10.9422
31	-10.9428
▁제공했다	-10.943
~2	-10.943
▁인정하지	-10.9439
메르	-10.9441
레오	-10.9464
딸	-10.947
ung	-10.9475
▁해적들	-10.9477
▁차지하는	-10.9477
▁사용자들	-10.9479
정권	-10.9484
똑	-10.9489
샘	-10.949
▁IBM	-10.949
▁IMF	-10.949
▁국가비상사태	-10.949
▁국제우주정거장	-10.949
▁메릴랜드	-10.949
▁서브프라임	-10.949
▁파파라치	-10.949
눌	-10.949
FIFA	-10.949
▁무장괴한	-10.949
▁바티칸	-10.949
▁미성년자	-10.949
▁깨끗	-10.949
▁윈도우	-10.949
▁주유소	-10.949
▁좌석	-10.949
▁야생동물	-10.949
▁퇴진	-10.949
▁자전거	-10.9491
▁똑같	-10.9491
▁치솟	-10.9491
▁바꿀	-10.9491
time	-10.9491
▁행렬	-10.9491
▁켈리	-10.9492
▁데뷔	-10.9492
▁인접	-10.9492
▁긴밀	-10.9492
▁국민투표	-10.9493
▁Ex	-10.9494
유엔	-10.9494
▁석방됐다	-10.9495
▁가택	-10.9497
▁동참	-10.9497
▁다룬	-10.9498
▁유괴	-10.9499
▁오리	-10.95
▁서식하	-10.9502
▁설계	-10.9502
▁재배치	-10.9502
▁절약	-10.9507
▁단독	-10.9507
성근	-10.9511
▁위생	-10.9517
▁수행하	-10.9523
▁재무	-10.9523
▁연임	-10.9524
▁토대	-10.9526
시키며	-10.9527
▁상병	-10.9528
▁야구	-10.9529
▁무슨	-10.9536
▁외상	-10.9539
▁불교	-10.9544
▁크다	-10.9546
ER	-10.9552
air	-10.9557
▁이뤄	-10.9557
스텔	-10.9572
▁권고했다	-10.9578
▁공정한	-10.9579
▁광부	-10.958
당시	-10.9603
▁돌아와	-10.9604
▁출장	-10.9608
연승	-10.9609
▁공무원	-10.9609
▁절도	-10.9613
▁조선	-10.9616
학자들	-10.9626
▁양성	-10.9627
▁고조	-10.9645
치료	-10.9649
▁반전	-10.966
▁결정적인	-10.9664
▁전격	-10.9666
▁고조되	-10.9669
▁휴일	-10.9676
▁알바	-10.9686
▁폴리	-10.9687
▁매수	-10.9691
▁지위	-10.9696
▁경영자	-10.9702
▁수감된	-10.9707
마크	-10.9707
▁사라지	-10.9719
▁네바다	-10.973
윤	-10.973
▁산악	-10.9732
▁미국인들은	-10.9734
▁나치	-10.9736
▁경주	-10.9739
멈	-10.9746
▁믿는다	-10.9746
팜	-10.9746
▁Minister	-10.9746
▁아웅산수치	-10.9746
▁인명피해	-10.9746
▁창기라이	-10.9746
굿	-10.9746
랫	-10.9746
렁	-10.9746
툼	-10.9746
▁국세청	-10.9746
▁버몬트	-10.9746
▁선거관리위원회	-10.9746
▁최우선	-10.9746
▁세속주의	-10.9746
▁모니터	-10.9746
▁언덕	-10.9746
▁아스날	-10.9746
▁적합한	-10.9746
▁김치	-10.9746
▁국무총리	-10.9747
▁내무장관	-10.9747
▁윈프리	-10.9747
▁시티그룹	-10.9747
▁거부한	-10.9747
환경	-10.9748
▁AIG	-10.9748
▁포셋	-10.9748
▁앨런	-10.9748
▁던졌다	-10.9748
▁주차장	-10.9749
▁구조작업	-10.9749
▁숙박	-10.9749
▁환율	-10.975
▁돌아갈	-10.975
▁재활용	-10.975
▁메이저	-10.9751
쳤으며	-10.9751
▁산맥	-10.9752
▁개막식	-10.9752
▁1986	-10.9753
바라데이	-10.9754
▁교착	-10.9754
해준	-10.9755
▁존스턴	-10.9755
▁걸렸다	-10.9755
▁창설	-10.9756
▁역임	-10.9757
▁의심되는	-10.9757
▁않습니다	-10.9758
▁발생했	-10.9762
▁약혼	-10.9763
▁투표율	-10.9763
▁시민권	-10.9763
▁연말	-10.9764
▁수컷	-10.9765
▁발령	-10.9765
▁던진	-10.9765
▁못했지만	-10.9766
▁지속되	-10.9768
대원들	-10.9769
▁by	-10.977
▁심판	-10.9773
▁찾아내	-10.9774
▁모집	-10.9775
▁여러번	-10.978
▁시골	-10.978
▁돌아왔다	-10.9783
▁관객들	-10.9786
▁정교	-10.9791
투데이	-10.9792
▁윌슨	-10.9795
▁종파	-10.9797
받아	-10.9801
▁진행될	-10.9804
▁출전하지	-10.9807
▁도난	-10.9808
▁입었	-10.9808
▁리버	-10.9814
▁남성들	-10.9815
분야	-10.9819
▁발견되지	-10.982
분경	-10.982
▁불가능하다	-10.982
▁해석	-10.9824
▁주거	-10.9829
▁파커	-10.9829
▁산하	-10.9833
▁관련하여	-10.9836
▁불과하다	-10.9841
▁정유	-10.9845
▁학생들에게	-10.9855
be	-10.9855
▁주류	-10.986
트릭	-10.9867
▁독재	-10.9867
문화	-10.9873
▁달아	-10.989
▁진행중	-10.991
▁루니	-10.9911
▁지냈	-10.992
▁상위	-10.9923
▁피하기	-10.9924
▁교도소에서	-10.9926
▁지원금	-10.9928
05	-10.9938
▁열기	-10.995
▁업체들	-10.9964
▁감기	-10.9964
사이트	-10.9965
중앙	-10.9969
▁유물	-10.9971
▁72	-10.9977
DR	-10.9993
휘	-10.9993
▁전범	-10.9994
하드	-10.9994
ub	-10.9997
빅	-11.0002
아프리카	-11.0003
말리키	-11.0004
FBI	-11.0004
체제	-11.0004
잘	-11.0005
뉴욕	-11.0006
흡	-11.0007
꼬	-11.0009
전략	-11.0009
보고서	-11.0009
▁Seoul	-11.0009
▁박격포	-11.0009
▁스타벅스	-11.0009
▁없애	-11.0009
▁찾았다	-11.0009
▁토크쇼	-11.0009
▁호나우두	-11.0009
▁후지모리	-11.0009
껏	-11.0009
둑	-11.0009
뻐	-11.0009
섞	-11.0009
캄	-11.0009
▁켄터키	-11.0009
▁음주운전	-11.0009
WTO	-11.001
▁일원	-11.001
▁고유가	-11.001
시즌	-11.001
▁포획	-11.0011
웨스트	-11.0011
▁터뜨	-11.0012
▁돌아올	-11.0012
▁자동차업계	-11.0012
▁가끔	-11.0012
▁가져올	-11.0012
▁기획	-11.0012
▁캐롤	-11.0012
▁안드레	-11.0013
▁워렌	-11.0013
▁자발적	-11.0016
▁참배	-11.0016
▁드레스	-11.0017
▁대변	-11.0017
▁연구결과	-11.0018
▁포경선	-11.0018
▁로켓포	-11.0019
▁연극	-11.0019
▁처형	-11.0021
▁카라치	-11.0021
▁결합	-11.0022
놨다	-11.0022
관광	-11.0025
▁클라크	-11.0025
▁예선	-11.0026
▁독감	-11.0026
▁개헌안	-11.0026
▁마찰	-11.0027
▁던져	-11.0028
▁매입	-11.0028
▁치매	-11.0028
까요	-11.0029
▁위치해	-11.003
▁설정	-11.003
▁넣었다	-11.0031
▁맞았다	-11.0031
▁피랍된	-11.0033
▁밀러	-11.0035
▁재배	-11.0036
▁유입	-11.004
▁코너	-11.004
▁AI	-11.0041
▁pre	-11.0041
▁약탈	-11.0044
있으며	-11.0044
▁반등	-11.0047
▁부결	-11.0051
▁기증	-11.0055
▁전형적	-11.0057
부분	-11.006
En	-11.0063
▁부속	-11.0069
▁서브	-11.007
▁소유주	-11.0077
하러	-11.0084
▁해방	-11.0085
▁이득	-11.0085
▁일시적	-11.0086
▁대비해	-11.0088
▁강간	-11.0091
▁정체	-11.0094
▁정부군과	-11.0113
▁의제	-11.012
34	-11.0121
생물학	-11.0135
▁대우	-11.0145
▁분석했다	-11.0151
36	-11.0159
죄로	-11.0162
▁표시했다	-11.0162
▁하비	-11.0179
▁일단	-11.0184
ile	-11.0193
▁ex	-11.0195
▁세운	-11.0206
스럽다	-11.021
▁개성	-11.0217
였지만	-11.0222
감시	-11.0226
▁배상	-11.0227
▁주권	-11.0228
▁보유한	-11.0246
▁사살했다	-11.0251
장비	-11.0252
Con	-11.0252
reat	-11.0254
▁An	-11.0258
▁재정적	-11.026
▁아미	-11.0271
냥	-11.0274
아버지	-11.0278
▁개발도상국	-11.028
▁Bush	-11.028
▁러닝메이트	-11.028
▁맨해튼	-11.028
▁애완동물	-11.028
▁활성화	-11.028
끔찍한	-11.028
닭	-11.028
쉐	-11.028
▁유람선	-11.028
▁비공식	-11.028
▁라호르	-11.028
▁하버드	-11.028
▁섹시	-11.028
APEC	-11.028
▁라모스	-11.028
▁남아프리카공화국	-11.028
▁기다려	-11.028
▁알제리	-11.028
▁슈퍼볼	-11.0281
떼	-11.0281
▁브레이크	-11.0281
▁넬슨	-11.0281
▁침수	-11.0281
▁미주리	-11.0281
그것은	-11.0282
▁걸려	-11.0283
▁밝혀냈다	-11.0283
착륙	-11.0283
▁머레이	-11.0283
able	-11.0284
3000	-11.0284
▁통근	-11.0285
▁시민단체	-11.0286
▁미셸	-11.0287
▁아빠	-11.0287
▁생명체	-11.0289
▁먼지	-11.0289
▁외쳤다	-11.0291
▁못하다	-11.0294
▁수사관들은	-11.0296
▁연령	-11.0297
▁진료	-11.0298
▁대테러	-11.0299
▁승점	-11.03
▁만료	-11.0301
▁불안정	-11.0301
▁이어졌다	-11.0302
▁발매	-11.0304
▁응원	-11.0306
▁영구	-11.0307
▁케이시	-11.0308
▁사이버	-11.0316
▁기념식	-11.0323
▁평화상	-11.0326
▁파키스탄군	-11.0327
▁교내	-11.0327
▁거친	-11.0328
▁사회당	-11.0329
ai	-11.0332
▁총리직	-11.0336
▁지지자들에게	-11.034
▁남쪽으로	-11.0342
▁있음	-11.0344
▁공직	-11.0347
▁위장	-11.035
▁탈레반측	-11.035
▁받아들이지	-11.035
▁화제	-11.0353
▁버지니아주	-11.0353
▁사라진	-11.0353
체계	-11.0354
▁인도분	-11.0355
▁피신	-11.0356
▁소유한	-11.0358
▁제작자	-11.0362
tions	-11.0364
▁war	-11.0371
▁단식	-11.0372
▁명성	-11.0374
▁예측했다	-11.0375
올해	-11.0379
▁생성	-11.0389
▁소화	-11.0393
▁선택했다	-11.0393
문서	-11.04
▁거래됐다	-11.0403
▁산소	-11.0404
▁성분	-11.0408
▁그랜드	-11.0417
▁입어	-11.0426
▁파크	-11.043
▁성명서	-11.0431
▁최고위	-11.0432
▁상사	-11.0438
▁지불하	-11.0463
▁눈물	-11.0465
▁일어나지	-11.0465
▁인정받	-11.0465
▁확인하기	-11.0467
방식	-11.0473
건설	-11.048
되도록	-11.0483
MS	-11.0489
▁사안	-11.049
륙	-11.0502
▁이민자들	-11.0507
▁본드	-11.051
NA	-11.0514
건물	-11.0521
▁철수시키	-11.0535
2005.1	-11.0535
랍	-11.0548
▁취소했다	-11.0555
겔	-11.0557
▁고등법원	-11.0558
▁느낀다	-11.0558
▁디트로이트	-11.0558
▁럼스펠드	-11.0558
▁억만장자	-11.0558
▁최고경영자	-11.0558
▁텔레비전	-11.0558
▁피츠버그	-11.0558
▁헬리콥터	-11.0558
닛	-11.0558
잎	-11.0558
3,000	-11.0558
▁스탈린	-11.0558
▁브루니	-11.0558
▁근본주의	-11.0558
▁딜러	-11.0558
▁덴버	-11.0558
▁낭비	-11.0558
▁코카인	-11.0558
▁돌아다니	-11.0558
▁미시건	-11.0558
▁티벳	-11.0558
2007.09	-11.0558
▁왜곡	-11.0559
▁텐트	-11.0559
▁친환경	-11.0559
▁이른다	-11.0561
▁요르단강	-11.0561
▁장벽	-11.0561
▁동굴	-11.0562
▁대선주자	-11.0563
▁복합	-11.0563
잠	-11.0565
▁70%	-11.0566
▁57	-11.0566
아메리칸	-11.0567
▁구호품	-11.0567
클린턴	-11.0568
▁생겨	-11.0568
▁그곳에서	-11.057
▁절감	-11.057
▁위축	-11.0573
▁소총	-11.0573
▁불황	-11.0574
▁치른	-11.0575
▁추천	-11.0577
실질적인	-11.058
▁기름	-11.0581
▁유혈	-11.0581
▁보수당	-11.0582
▁시청자들	-11.0583
▁유골	-11.0584
▁반환	-11.0584
▁필수	-11.0586
▁문제점	-11.0588
▁첫날	-11.0589
▁비평	-11.059
▁라울	-11.059
건강	-11.0591
▁출국	-11.0592
▁다가오	-11.0597
▁배포	-11.0598
▁파편	-11.0599
▁합의문	-11.0604
폴리스	-11.0613
▁명백한	-11.0615
▁휴식	-11.0617
94	-11.062
▁유명하다	-11.0624
▁아니며	-11.0628
▁과제	-11.0628
▁호전	-11.0643
클레	-11.0644
네트	-11.0656
▁대안	-11.066
▁구타	-11.0661
ick	-11.0663
▁조직원	-11.0669
▁선적	-11.0671
▁확산되	-11.0676
▁심화	-11.0678
▁시작될	-11.0688
소득	-11.0691
▁전합니다	-11.0697
▁고수	-11.0698
웃	-11.0701
▁순례	-11.0704
ash	-11.0709
▁리비	-11.0709
▁장성	-11.0712
▁구단	-11.0716
▁제프	-11.0722
ise	-11.0722
▁입수한	-11.0722
수단	-11.0724
UN	-11.0735
▁피고인	-11.0742
▁반미	-11.0749
▁경제학자	-11.0768
▁군중들	-11.077
▁취하지	-11.0784
▁명백	-11.0798
▁중단됐다	-11.0816
▁브랜	-11.0827
ease	-11.0839
▁복장	-11.084
▁끝났다	-11.0843
▁버냉키	-11.0843
▁스튜디오	-11.0843
▁안토니오	-11.0843
前	-11.0843
빵	-11.0843
킴	-11.0843
▁느껴	-11.0843
▁부양책	-11.0843
▁브래드	-11.0843
▁침묵	-11.0843
뚜	-11.0843
▁규칙	-11.0843
▁유수프	-11.0843
▁바하마	-11.0843
▁take	-11.0843
▁태우고	-11.0844
▁국방위원장	-11.0844
▁휴스턴	-11.0845
▁스콧	-11.0845
▁놀랄	-11.0845
▁투기	-11.0848
▁반체제	-11.0848
▁집필	-11.0851
봐야	-11.0851
▁가혹	-11.0852
▁90%	-11.0852
▁장거리	-11.0857
▁화석	-11.0857
▁민간인들	-11.0859
▁새겨	-11.086
아메리카	-11.0861
▁네바다주	-11.0862
보좌관	-11.0865
▁보조금	-11.0865
▁처분	-11.0865
▁추문	-11.0876
▁예선전	-11.0877
▁밝히며	-11.0878
▁대령	-11.0881
▁개설	-11.0882
▁청소	-11.0883
비행기	-11.0883
ical	-11.0889
ney	-11.089
▁모았다	-11.0891
▁환수	-11.09
▁구경	-11.0905
▁가족들에게	-11.091
▁지나치	-11.091
터키	-11.091
▁comm	-11.0915
▁아민	-11.0919
▁증언했다	-11.0929
▁제외하고	-11.093
▁무산	-11.0938
part	-11.0939
▁나체	-11.0941
▁해역	-11.0945
▁은행들	-11.0949
▁교육부	-11.0949
아웃	-11.0951
▁페리	-11.0963
▁180	-11.0968
▁참여했다	-11.0968
▁원하지	-11.098
▁군중	-11.0981
▁밝히기	-11.0986
▁피어	-11.0987
ga	-11.0993
▁난민들	-11.0993
▁자녀들	-11.0995
▁Ro	-11.0997
▁공무원들	-11.0999
▁선출된	-11.1
▁적극	-11.1
08	-11.1
▁비극	-11.1011
▁경찰청	-11.1045
▁대답했다	-11.1064
▁이송됐다	-11.1064
▁단장	-11.1071
뤄	-11.1087
▁선원들	-11.1097
▁170	-11.1116
▁명령했다	-11.1124
▁가기	-11.1132
셉	-11.1133
훔	-11.1134
예프	-11.1135
셋	-11.1135
▁재선	-11.1136
뮤	-11.1137
▁애틀랜타	-11.1137
▁엔지니어	-11.1137
뚱	-11.1137
▁military	-11.1137
▁괜찮	-11.1137
▁끊임없	-11.1137
▁내셔널	-11.1137
▁뒷받침	-11.1137
▁마이스페이스	-11.1137
▁마케팅	-11.1137
▁에르도간	-11.1137
▁풀려났다	-11.1137
맘	-11.1137
down	-11.1137
▁브리트니	-11.1137
▁호날두	-11.1137
▁기준금리	-11.1137
▁무소속	-11.1137
덩어리	-11.1137
▁1-0	-11.1137
▁퇴역	-11.1138
▁나눠	-11.1138
▁좌파	-11.1138
▁신용카드	-11.1138
▁바바라	-11.1138
▁밝혔으나	-11.1139
▁요즘	-11.114
▁재활	-11.114
9000	-11.114
▁소방대원	-11.1141
▁화염	-11.1142
되었는데	-11.1142
▁Day	-11.1142
▁미치지	-11.1142
▁코스피	-11.1143
▁영광	-11.1143
▁돌아온	-11.1145
▁월터	-11.1145
▁조짐	-11.1146
▁도핑	-11.1146
▁레이저	-11.1147
▁때문입니다	-11.1148
▁갖기	-11.115
ook	-11.115
하였으며	-11.1152
▁감바	-11.1153
▁대기업	-11.1154
▁소유권	-11.1154
▁잡았다	-11.1154
▁로렌	-11.1154
▁잔디	-11.1154
▁나와즈	-11.1158
▁들어온	-11.1161
▁타결	-11.1163
또	-11.1166
▁쉬운	-11.1168
▁급진	-11.1168
▁배심원단	-11.117
▁배급	-11.1171
▁전시회	-11.1174
▁예정되어	-11.1177
사람들이	-11.118
▁제작된	-11.1185
▁장기간	-11.1189
▁당연	-11.1195
▁앞선	-11.1197
▁포위	-11.1201
▁리더	-11.1202
▁주주들	-11.1204
▁저지르	-11.1205
증권	-11.1207
AU	-11.1207
▁칼라	-11.1214
▁스카이	-11.122
▁여유	-11.1221
▁좋아한다	-11.1224
▁약품	-11.1224
▁식수	-11.1227
▁di	-11.1227
얼리	-11.123
▁연방정부	-11.1242
▁8%	-11.1244
▁여아	-11.1249
▁복지	-11.125
▁발달	-11.1253
▁대폭	-11.1253
▁확신했다	-11.1253
▁조씨	-11.1258
▁제조업	-11.1275
▁나간	-11.1284
▁공학	-11.1292
▁참사	-11.131
달간	-11.1315
▁독재자	-11.1317
▁기본적	-11.1317
교수	-11.1324
▁파손됐다	-11.1329
타이거	-11.1332
▁항의하	-11.1338
▁죽었다	-11.134
부족	-11.1358
▁보좌관들	-11.1369
▁입원했다	-11.1375
▁농민	-11.1376
머리	-11.1381
▁줄이는	-11.1388
보드	-11.1414
▁지원하기	-11.1415
탈리아	-11.1428
▁그곳에	-11.1432
공장	-11.1437
끔	-11.1437
▁득표	-11.144
옐	-11.144
▁Show	-11.144
▁가즈프롬	-11.144
▁끌려	-11.144
▁원자바오	-11.144
륜	-11.144
톡	-11.144
▁골든글로브	-11.144
▁되돌아	-11.144
▁떨어질	-11.144
▁베탕쿠르	-11.144
▁시애틀	-11.144
▁애니메이션	-11.144
▁엘리베이터	-11.144
▁일으켜	-11.144
▁캔자스	-11.144
▁테러지원국	-11.144
긋	-11.144
셈	-11.144
캘	-11.144
풋	-11.144
▁1988	-11.144
▁미끄러	-11.144
▁아칸소	-11.144
▁식민지	-11.144
▁맥케인	-11.144
▁받아들였다	-11.144
스프링스	-11.144
▁혈액	-11.1441
▁고릴라	-11.1441
▁관점에서	-11.1441
▁북극곰	-11.1441
▁양키스	-11.1441
▁트로피	-11.1441
▁크레이그	-11.1441
▁인도주의적	-11.1441
▁얼룩	-11.1441
▁멸종위기	-11.1441
▁유적지	-11.1441
▁차원에서	-11.1441
▁몸값	-11.1443
▁군사작전	-11.1444
▁가죽	-11.1445
▁운반	-11.1445
▁대략	-11.1445
▁적응	-11.1446
▁저택	-11.1446
▁열렸	-11.1447
▁논문	-11.1447
▁숨겨	-11.1447
▁현지경찰	-11.1448
▁패리스	-11.1448
▁폭등	-11.1448
▁남녀	-11.1449
▁출범	-11.1449
▁개념	-11.1451
▁입었으며	-11.1452
▁거둔	-11.1455
▁탐사선	-11.1455
▁모험	-11.1456
▁참모	-11.1457
low	-11.1458
▁때마다	-11.146
▁영감	-11.1461
▁면제	-11.1463
▁통신사	-11.1464
▁지낸	-11.1465
▁편안	-11.1466
▁입학	-11.1467
▁창조	-11.1468
▁설문	-11.1471
▁주장했지만	-11.1472
▁겪었다	-11.1473
알카에다	-11.1478
스페인	-11.1479
페이지	-11.148
시키는데	-11.148
몸	-11.148
▁입력	-11.1482
▁1950	-11.1483
▁알려주	-11.1485
▁평소	-11.1489
▁신병	-11.1489
▁분실	-11.149
대부분	-11.149
▁타이어	-11.1491
▁열려	-11.1502
주택	-11.1509
▁여야	-11.1517
▁여단	-11.152
▁파문	-11.1521
▁베어	-11.1524
▁폴슨	-11.1526
되었지만	-11.1528
▁하산	-11.153
▁붕괴된	-11.1535
▁가져다	-11.1538
▁제공하기	-11.1538
▁개최된	-11.154
▁라파	-11.1549
있던	-11.155
▁싶어한다	-11.1556
수준	-11.1562
▁공조	-11.1569
론자들	-11.157
▁유용	-11.1572
▁있었기	-11.1577
▁우승자	-11.1588
▁권위	-11.1593
벨트	-11.1605
▁나빠	-11.1609
▁물었다	-11.1615
▁남아있	-11.162
부르크	-11.1629
있거나	-11.1632
▁토레	-11.1632
▁안된다	-11.1654
▁에디	-11.1677
▁벌어졌	-11.1706
▁사용한다	-11.1707
▁남자들	-11.1711
▁유지하기	-11.172
쁜	-11.1748
▁불러일으	-11.175
▁국회의사당	-11.1753
▁느꼈다	-11.1753
댐	-11.1753
▁troops	-11.1753
▁구호물품	-11.1753
▁다운로드	-11.1753
▁맥도날드	-11.1753
▁머리카락	-11.1753
▁베어스턴스	-11.1753
▁에스토니아	-11.1753
▁티셔츠	-11.1753
▁펭귄	-11.1753
▁평화협상	-11.1753
▁흰색	-11.1753
홉	-11.1753
2006.02	-11.1753
▁베이루트	-11.1753
▁비즈니스	-11.1753
▁슈퍼대의원	-11.1753
▁덕분에	-11.1753
▁have	-11.1753
▁니케이	-11.1753
NFL	-11.1753
▁추산했다	-11.1753
▁그린피스	-11.1753
▁착취	-11.1753
▁2008.11	-11.1753
▁오렌지	-11.1753
▁상반기	-11.1753
▁원문기사	-11.1753
▁대한민국	-11.1753
WFP	-11.1753
▁실업수당	-11.1753
▁간호사	-11.1753
2007.08	-11.1753
▁소탕작전	-11.1754
2007.07	-11.1754
▁바꿔	-11.1754
▁칭찬	-11.1754
2006.05	-11.1754
▁진흙	-11.1754
▁마사지	-11.1755
▁취득	-11.1755
▁충족	-11.1756
▁묘지	-11.1756
▁오늘밤	-11.1757
▁동유럽	-11.1757
▁같습니다	-11.1758
▁하얀	-11.176
▁괴한	-11.176
2006.10	-11.176
▁명칭	-11.1761
▁담겨	-11.1762
▁발효	-11.1762
▁금융시장	-11.1763
▁역설	-11.1764
▁오프라	-11.1764
▁볼튼	-11.1766
▁받았지만	-11.1767
▁아이돌	-11.1768
▁근교	-11.1769
▁모르겠다	-11.1774
▁조국	-11.1775
▁불평	-11.1777
▁천연	-11.1778
▁다이애나비	-11.1782
▁인체	-11.1782
▁죄수	-11.1784
▁외출	-11.1784
돌프	-11.1784
▁마침	-11.1785
▁현행	-11.1785
▁기습	-11.1786
▁고민	-11.1789
▁회부	-11.1789
▁영원	-11.1795
▁예상보다	-11.1796
▁미셀	-11.1796
▁테마	-11.1796
▁방문객들	-11.1799
▁제프리	-11.1799
▁뒤집	-11.18
▁우방	-11.1804
▁코피	-11.1805
▁참여하지	-11.1806
▁조속	-11.1809
▁확실하지	-11.1811
▁예보	-11.1814
▁추락했다	-11.1816
▁알렌	-11.1823
▁복수	-11.1823
▁호화	-11.1828
장애	-11.1832
▁적십자사	-11.1833
▁채권	-11.1834
▁죽어	-11.1837
▁시판	-11.1841
▁격리	-11.1842
▁폭격기	-11.1844
▁줄여	-11.1847
ext	-11.1853
▁과시	-11.1854
배우	-11.1856
line	-11.1857
▁헤어	-11.1862
▁경제학자들	-11.1865
▁기권	-11.1873
▁제방	-11.1877
▁지문	-11.1892
▁국회의원들	-11.192
▁감시단	-11.1931
DH	-11.1936
▁선장	-11.1947
▁실력	-11.1962
ator	-11.1991
마이어	-11.2008
스러워	-11.2008
▁김씨	-11.2008
▁건수	-11.2022
었기	-11.203
략	-11.2039
붕	-11.207
융	-11.2072
▁모가디슈	-11.2075
쯔	-11.2075
▁Secretary	-11.2075
▁로스앤젤레스	-11.2075
▁뮌헨	-11.2075
▁불렀다	-11.2075
▁브리티시	-11.2075
▁상관없이	-11.2075
▁오케스트라	-11.2075
▁유니세프	-11.2075
▁이르기까지	-11.2075
▁이르렀다	-11.2075
▁재확인	-11.2075
▁칸다하르	-11.2075
▁크로아티아	-11.2075
▁트라볼타	-11.2075
돋	-11.2075
믹	-11.2075
쉴	-11.2075
▁AFP	-11.2075
▁무너져	-11.2075
▁항생제	-11.2075
▁황우석	-11.2075
핏	-11.2075
▁정해지지	-11.2075
▁집무실	-11.2075
▁가속화	-11.2075
▁계열사	-11.2075
▁매머드	-11.2075
▁1981	-11.2075
▁어두운	-11.2075
▁되풀이	-11.2076
▁1/4	-11.2076
▁중산층	-11.2076
▁크로커	-11.2076
▁유조선	-11.2076
▁국가주석	-11.2076
▁다행히	-11.2076
▁대주교	-11.2076
마누엘	-11.2076
▁세비야	-11.2076
스트리트	-11.2076
▁흐름	-11.2076
▁침범	-11.2076
▁브루스	-11.2076
(25)	-11.2076
▁히드로	-11.2076
사령부	-11.2077
▁잔혹	-11.2077
▁효력	-11.2077
▁면접	-11.2077
▁맞붙	-11.2077
▁공군기지	-11.2077
▁벌어들	-11.2078
공항	-11.2078
▁피닉스호	-11.2079
▁프린스	-11.2079
ncy	-11.2081
▁녹색	-11.2081
▁요새	-11.2082
▁밤새	-11.2084
▁정상회의	-11.2089
▁2011	-11.209
버릴	-11.2093
▁풍선	-11.2093
▁다녀	-11.2097
▁가축	-11.2099
▁라이프	-11.21
▁없었던	-11.2101
▁줄이고	-11.2103
▁USA	-11.2104
리틀	-11.2104
▁감량	-11.2105
▁제패	-11.2107
▁가결	-11.2108
▁소방서	-11.2108
▁폐기물	-11.211
시켜야	-11.2112
▁난동	-11.2113
▁레이더	-11.2114
▁인계	-11.2115
▁우리베	-11.2119
▁개인적으로	-11.2125
▁정치범	-11.2125
▁전설적	-11.2127
▁comp	-11.2128
붙	-11.213
▁천문학자들	-11.213
FARC	-11.2133
폭탄테러	-11.2134
흔	-11.2136
검찰	-11.2137
▁참석하기	-11.2138
▁소란	-11.2138
▁입구	-11.214
개혁	-11.2146
사람들은	-11.2146
▁서약	-11.2162
대학교	-11.217
=	-11.2178
92	-11.2181
▁의원들에게	-11.2183
▁걸었다	-11.2185
▁감원	-11.2186
▁노동부	-11.2189
제작	-11.22
▁고정	-11.2201
▁국정	-11.2204
▁한쪽	-11.222
▁포기하	-11.2229
▁버전	-11.2231
▁넣어	-11.2237
▁팔려	-11.2243
▁선정됐다	-11.2243
▁성공회	-11.2244
▁허위	-11.2249
▁파손되	-11.2255
▁회원들	-11.2258
▁본국	-11.2273
▁차관보	-11.2291
ever	-11.2299
▁비교해	-11.2309
▁아기들	-11.232
▁정보국	-11.2324
▁동맹국들	-11.2366
▁do	-11.237
▁불가피	-11.2372
▁탈출했다	-11.2407
윗	-11.2409
▁Foreign	-11.2409
▁attack	-11.2409
▁광우병	-11.2409
▁글래스고	-11.2409
▁상파울루	-11.2409
▁야스쿠니	-11.2409
▁양육권	-11.2409
▁우주정거장	-11.2409
▁인종차별	-11.2409
▁카자흐스탄	-11.2409
▁커뮤니티	-11.2409
▁수퍼대의원	-11.2409
▁스튜어트	-11.2409
▁왕복선	-11.2409
▁당나귀	-11.2409
▁몸무게	-11.2409
▁부작용	-11.2409
▁3-0	-11.2409
▁kill	-11.2409
▁무너진	-11.2409
▁마라도나	-11.2409
▁예언자	-11.2409
인디아나	-11.2409
▁몬테	-11.2409
ough	-11.2409
▁일축했다	-11.2409
▁침투	-11.2409
▁카지노	-11.2409
▁닉슨	-11.2409
count	-11.2409
▁교과서	-11.2409
▁모로코	-11.2409
▁콜롬	-11.241
▁쇼핑몰	-11.241
▁State	-11.241
▁동북아	-11.241
▁힌두교	-11.241
▁수비수	-11.241
▁쿠르드족	-11.2412
▁도와주	-11.2412
▁있었는지	-11.2413
▁높아졌다	-11.2413
▁필리스	-11.2414
▁농담	-11.2414
줘야	-11.2414
▁활기	-11.2414
ISS	-11.2415
▁연휴	-11.2415
▁소방관	-11.2415
▁할아버지	-11.2417
▁회색	-11.2417
▁호킹	-11.2417
▁풍경	-11.2418
글리	-11.2418
▁임박	-11.2419
▁하더라도	-11.2419
▁바람직	-11.2421
▁버튼	-11.2422
▁회피	-11.2423
▁지닌	-11.2423
▁헌신	-11.2424
▁유효	-11.2424
▁지속될	-11.2425
▁재벌	-11.2425
방안	-11.2426
▁토양	-11.2427
▁극단주의자들	-11.2429
▁추출	-11.243
▁종양	-11.2431
군데	-11.2432
▁구단주	-11.2434
▁차림	-11.2436
▁후퇴	-11.2442
▁면적	-11.2448
▁책정	-11.2452
▁유예	-11.2453
▁복사	-11.2454
▁확실하다	-11.2454
▁이례적	-11.2455
▁부른	-11.2456
▁문신	-11.2459
▁재발	-11.2468
▁구형	-11.247
▁감면	-11.2473
▁강연	-11.2475
▁수십억	-11.2476
UEFA	-11.2477
뼈	-11.2478
CIA	-11.2478
▁가려	-11.2479
넘	-11.2481
▁일상적	-11.2481
▁교량	-11.249
oint	-11.2504
▁녹화	-11.2524
▁여자아이	-11.2533
▁협상단	-11.2538
▁mor	-11.2546
▁효율적	-11.2553
▁군부대	-11.2564
▁페레	-11.2569
▁부상자들	-11.2579
▁개최되	-11.2604
imp	-11.2604
▁효율	-11.2607
▁시작되었다	-11.2621
▁물리치	-11.2622
▁장기적	-11.2624
베라	-11.2644
▁무장대원들	-11.2696
cial	-11.2708
▁학위	-11.2719
dge	-11.2722
▁북부지역	-11.2723
▁취소됐다	-11.2738
아이들	-11.274
▁호위	-11.2746
줘	-11.2748
멍	-11.275
▁과장	-11.2753
돔	-11.2754
팽	-11.2754
&#8226;	-11.2754
▁Party	-11.2754
▁election	-11.2754
▁protest	-11.2754
▁뉴캐슬	-11.2754
▁도미니카	-11.2754
▁동계올림픽	-11.2754
▁매코맥	-11.2754
▁맥코맥	-11.2754
▁미드필더	-11.2754
▁악영향	-11.2754
▁암스트롱	-11.2754
▁포괄적	-11.2754
엽	-11.2754
쿼	-11.2754
2006.06	-11.2754
▁도널드	-11.2754
▁세계보건기구	-11.2754
▁종신형	-11.2754
▁친선경기	-11.2754
넥	-11.2754
▁빠뜨	-11.2754
▁앵커	-11.2754
▁촛불	-11.2754
▁아스널	-11.2754
▁총기난사	-11.2754
▁제니퍼	-11.2754
PML	-11.2754
▁바쿠바	-11.2754
▁안락사	-11.2754
▁흥행	-11.2754
▁린제이	-11.2754
▁퇴직	-11.2754
▁맹세	-11.2754
▁여파로	-11.2754
▁속옷	-11.2754
▁크라우	-11.2754
▁꼬리	-11.2754
▁중서부	-11.2755
▁기후변화	-11.2755
▁수하물	-11.2755
▁퇴장	-11.2755
▁품질	-11.2755
▁여배우	-11.2756
▁둘째	-11.2756
▁틀림	-11.2756
▁계곡	-11.2757
▁뒤따	-11.2757
2008.06	-11.2758
▁Kim	-11.2758
▁환경보호	-11.2759
▁대피령	-11.2759
2006.12	-11.276
▁가난	-11.2761
▁받았으나	-11.2761
▁허블	-11.2761
▁생겼다	-11.2762
▁정보기관	-11.2762
▁면역	-11.2762
▁만찬	-11.2763
▁연방법원	-11.2763
▁존드로	-11.2766
▁불안감	-11.2766
▁배제하지	-11.2767
▁피셔	-11.2767
▁몰래	-11.2768
▁복권	-11.2769
▁성행위	-11.2769
▁아끼	-11.2769
▁외교관계	-11.277
▁해킹	-11.2771
▁아닐	-11.2777
▁격려	-11.2778
▁공백	-11.2781
▁취약	-11.2786
▁산악지역	-11.2786
▁가르치	-11.2787
▁과실	-11.279
▁식물	-11.2791
▁인명	-11.2793
▁교토	-11.2797
▁결장	-11.2833
FRB	-11.2834
▁관료	-11.2837
책임자	-11.2838
▁아카데미상	-11.2844
▁leader	-11.2846
2008	-11.2849
▁운하	-11.2849
회사들	-11.2876
▁포기하지	-11.2876
▁저널	-11.2884
물리학	-11.2898
▁여기서	-11.2914
학회	-11.2915
▁청소년들	-11.2921
▁변호사들	-11.2923
▁거주하	-11.2939
▁현안	-11.2957
▁확인되	-11.2966
병력	-11.2971
▁피의자	-11.298
▁동부지역	-11.2986
▁소식통들	-11.2993
▁광부들	-11.3029
국가들	-11.3035
▁일으켰	-11.3042
법에따라	-11.3066
▁승자	-11.3076
역대	-11.3076
▁싶어하	-11.3102
흙	-11.3109
숭	-11.3111
(32)	-11.3111
7,000	-11.3111
▁House	-11.3111
▁갤런당	-11.3111
▁모하마드	-11.3111
▁무하메드	-11.3111
▁미네소타	-11.3111
▁사형집행	-11.3111
▁슈워제네거	-11.3111
▁않았을	-11.3111
▁알자와히리	-11.3111
▁오키나와	-11.3111
▁유럽축구연맹	-11.3111
▁재정경제부	-11.3111
▁침팬지	-11.3111
▁터미널	-11.3111
▁퍼트레이어스	-11.3111
▁펼칠	-11.3111
▁피추시킨	-11.3111
▶	-11.3111
꽤	-11.3111
팍	-11.3111
•	-11.3111
▁승용차	-11.3111
▁클루니	-11.3111
▁호르몬	-11.3111
뻔	-11.3111
헴	-11.3111
▁냄새	-11.3111
▁방사능	-11.3111
▁생중계	-11.3111
▁뉴욕타임스	-11.3111
▁블로거	-11.3111
▁페이스북	-11.3111
▁북동쪽	-11.3111
NEW	-11.3111
▁깃발	-11.3111
▁앗아	-11.3111
▁787	-11.3111
▁지중해	-11.3111
▁첨단	-11.3111
▁영부인	-11.3111
▁북서쪽	-11.3111
▁염두	-11.3111
▁미망인	-11.3112
▁노왁	-11.3112
▁타이완	-11.3113
왔지만	-11.3113
▁제트기	-11.3113
2006.07	-11.3113
illion	-11.3113
▁패널	-11.3114
▁공략	-11.3115
▁어려워	-11.3115
▁면밀	-11.3115
▁say	-11.3116
▁조셉	-11.3116
2007.10	-11.3116
▁페리노	-11.3116
▁같았다	-11.3116
폭발	-11.3117
▁교황청	-11.3118
▁왔습니다	-11.3118
▁항복	-11.3119
▁밀림	-11.312
▁준장은	-11.3122
▁주치의	-11.3122
▁냉전	-11.3122
▁라틴	-11.3123
▁토론토	-11.3123
▁제라드	-11.3125
▁건립	-11.3125
▁완공	-11.3126
▁요격	-11.3126
▁세균	-11.3126
▁총알	-11.3127
▁변함	-11.3129
▁어디서	-11.313
▁적대적	-11.3133
▁중단하라	-11.3136
▁타입	-11.3138
▁행방	-11.3138
▁발목	-11.3139
▁병역	-11.314
▁베스트	-11.314
▁탄약	-11.3141
▁크리스티나	-11.3141
▁사법부	-11.3149
▁통역	-11.3153
▁생존자들	-11.3156
▁대피소	-11.3157
▁보상금	-11.3157
▁비준	-11.3158
▁순찰대	-11.3163
▁우연	-11.3164
ami	-11.3164
버렸	-11.3166
브리지	-11.3177
▁지연되	-11.319
fire	-11.3197
NATO	-11.3204
흘	-11.3204
미얀마	-11.3206
클럽	-11.3211
민족	-11.3214
▁부장관	-11.3222
▁사회주의	-11.323
프레스	-11.3236
▁밝혔었	-11.324
대사관	-11.3245
밀리에	-11.3276
▁중단시키	-11.3285
▁착용하	-11.329
▁고고학자들	-11.3301
▁피해지역	-11.3311
▁사진들	-11.3313
▁지속된	-11.332
요원들	-11.3327
▁민주당원	-11.3342
▁추정되	-11.3369
▁du	-11.338
▁KT	-11.3426
▁피닉스	-11.3478
펀	-11.3481
International	-11.3481
eneral	-11.3481
▁200806.0	-11.3481
▁work	-11.3481
▁그루지아	-11.3481
▁그루지야	-11.3481
▁넘어섰다	-11.3481
▁놀랐다	-11.3481
▁뉴멕시코	-11.3481
▁마흐무드	-11.3481
▁만장일치	-11.3481
▁메사추세츠	-11.3481
▁박테리아	-11.3481
▁벨몬트	-11.3481
▁블룸버그	-11.3481
▁빨간색	-11.3481
▁올랐으며	-11.3481
▁캥거루	-11.3481
▁케르비엘	-11.3481
▁클리블랜드	-11.3481
▁탈라바니	-11.3481
갓	-11.3481
둬	-11.3481
띠	-11.3481
팰	-11.3481
▁이스탄불	-11.3481
▁캠벨	-11.3481
▁프로듀서	-11.3481
▁스피처	-11.3481
▁오징어	-11.3481
▁전염병	-11.3481
▁구조조정	-11.3481
▁앙겔	-11.3481
▁김계관	-11.3481
▁심사위원	-11.3481
▁겁니다	-11.3481
▁피아노	-11.3481
▁비영리	-11.3481
▁셰이크	-11.3481
▁닥터	-11.3481
▁월드시리즈	-11.3481
▁셔츠	-11.3481
▁year	-11.3481
▁김선일	-11.3482
▁흡수	-11.3482
▁자서전	-11.3482
2007.05	-11.3482
▁사마라	-11.3482
▁습관	-11.3482
▁하리리	-11.3482
▁담겨있다	-11.3483
▁디스커버리호	-11.3483
▁무엇인지	-11.3485
▁불쾌	-11.3486
▁후계자	-11.3486
▁간섭	-11.3486
▁국영방송	-11.3486
▁압승	-11.3487
▁다뤄	-11.3487
▁두뇌	-11.3487
▁모르지만	-11.3489
겼으며	-11.3489
▁선데이	-11.3489
▁격추	-11.349
▁벌금형	-11.3491
▁영입	-11.3491
▁결백	-11.3492
▁평결	-11.3494
▁평범	-11.3494
▁데니스	-11.3495
▁놓았다	-11.3497
▁감추	-11.3497
▁장관급	-11.35
▁LG	-11.35
▁곡물	-11.3502
▁생각합니다	-11.3503
▁악재	-11.3503
▁국토	-11.3506
▁분출	-11.3509
사이드	-11.3514
▁참전	-11.3515
▁남았다	-11.3517
▁번역	-11.3518
▁걸려있	-11.3518
천억원	-11.352
▁안겨	-11.3523
▁불가피하다	-11.3523
▁지침	-11.3525
▁육상	-11.3525
▁독점	-11.353
▁십대	-11.3544
Inter	-11.3544
꾸	-11.358
헬	-11.3583
곰	-11.3588
땅	-11.359
캘리포니아	-11.3593
미사일	-11.3594
특별	-11.3594
처음	-11.361
▁파악하	-11.3648
▁환영한다	-11.3659
▁분리주의	-11.3688
경기장	-11.3751
▁장관들	-11.3779
국민들	-11.3781
용의자	-11.3793
▁들었	-11.3806
▁치명적	-11.3816
▁펼쳤	-11.3828
▁방문객	-11.3832
▁편집자	-11.3851
순위	-11.3858
(23)	-11.3866
▁YORK	-11.3866
▁first	-11.3866
▁과테말라	-11.3866
▁구스마오	-11.3866
▁늘어났다	-11.3866
▁댈러스	-11.3866
▁수하르토	-11.3866
▁알렉산드	-11.3866
▁애틀란타	-11.3866
▁에탄올	-11.3866
▁인플루엔자	-11.3866
▁자메이카	-11.3866
▁조선중앙통신	-11.3866
겹	-11.3866
4,000	-11.3866
▁Court	-11.3866
▁나타낸	-11.3866
▁여동생	-11.3866
놔	-11.3866
푼	-11.3866
▁agree	-11.3866
▁세실리아	-11.3866
▁정동영	-11.3866
▁토마토	-11.3866
무장혁명군	-11.3866
▁따돌리	-11.3866
▁열렬한	-11.3866
▁뉴욕증시	-11.3866
▁애쓰고	-11.3866
▁비공개	-11.3866
▁검찰총장	-11.3866
▁좌익	-11.3866
▁이벤트	-11.3866
▁하반기	-11.3866
▁이른바	-11.3866
▁검출	-11.3866
▁러셀	-11.3866
▁ETA	-11.3867
▁호주오픈	-11.3868
▁결렬	-11.3868
2006.09	-11.3869
▁돌아갔다	-11.3869
▁코미디언	-11.3869
▁펠리	-11.3869
▁노리에가	-11.3869
▁과잉	-11.3869
▁연합뉴스	-11.3869
▁블록	-11.387
▁태양열	-11.387
▁제이미	-11.387
▁워커	-11.387
▁열쇠	-11.3871
▁레논	-11.3871
▁냉동	-11.3871
▁뜨거	-11.3872
▁메뉴	-11.3872
▁혼합	-11.3874
▁사진기자	-11.3875
▁삼림	-11.3875
▁글렌	-11.3876
▁설교	-11.3877
▁밀집	-11.3878
▁계층	-11.3878
▁영예	-11.3878
▁매춘부	-11.3879
▁머피	-11.388
▁규명	-11.388
▁80%	-11.3881
▁유혹	-11.3881
▁방북	-11.3882
▁바퀴	-11.3883
▁광경	-11.3883
▁맡아	-11.3886
▁고백	-11.3889
▁저격	-11.3893
▁메달	-11.3896
▁지폐	-11.3898
▁석상	-11.3916
▁노동력	-11.3917
▁대도시	-11.3924
▁You	-11.393
▁전략적	-11.3947
▁구제안	-11.3954
프로그램	-11.3989
월드컵	-11.399
큰	-11.3991
NU	-11.3997
슈퍼	-11.3997
에너지	-11.4005
▁범죄자들	-11.4012
그램	-11.4078
▁농구	-11.409
▁블로그	-11.4097
▁테러범들	-11.4099
▁당원들	-11.413
▁살해하겠다	-11.4157
▁개헌	-11.4255
콕	-11.4264
▁200806.1	-11.4266
▁BMW	-11.4266
▁FTSE	-11.4266
▁라왈핀디	-11.4266
▁보건복지부	-11.4266
▁부딪혀	-11.4266
▁아웅산수지	-11.4266
▁웨스트버지니아	-11.4266
▁이끌었던	-11.4266
▁집행유예	-11.4266
▁초등학교	-11.4266
▁카톨릭	-11.4266
▁페널티킥	-11.4266
딱	-11.4266
룽	-11.4266
멕	-11.4266
멧	-11.4266
오피니언	-11.4266
찔	-11.4266
탬	-11.4266
▁갤럭시	-11.4266
▁곤돌라	-11.4266
▁동남아시아	-11.4266
▁무너졌다	-11.4266
▁싱가폴	-11.4266
낫	-11.4266
뇨	-11.4266
듬	-11.4266
벡	-11.4266
쩌	-11.4266
퓨	-11.4266
▁단백질	-11.4266
▁로페즈	-11.4266
▁안타까	-11.4266
▁원내대표	-11.4266
▁제너럴	-11.4266
▁조코비치	-11.4266
▁카라카스	-11.4266
▁퍼레이드	-11.4266
▁농작물	-11.4266
▁마닐라	-11.4266
▁원정경기	-11.4266
▁작곡가	-11.4266
▁크누트	-11.4266
▁카리스마	-11.4266
▁내비쳤다	-11.4266
▁월마트	-11.4266
▁수족관	-11.4266
▁콜레라	-11.4266
▁1/3	-11.4266
▁종업원	-11.4266
▁빠질	-11.4266
▁빈민가	-11.4266
▁숨지게	-11.4266
▁잡혀있	-11.4266
▁살모넬라균	-11.4266
▁도덕적	-11.4266
▁대지진	-11.4267
▁검진	-11.4267
▁신용위기	-11.4267
▁가자시티	-11.4267
▁낙찰	-11.4268
▁부회장	-11.4268
▁부정선거	-11.4268
▁티켓	-11.4268
▁밀접	-11.4269
2008.09	-11.4269
▁꾸준	-11.4269
▁관광산업	-11.4269
▁결승골	-11.4269
▁참패	-11.427
▁면허	-11.4271
▁윤리적	-11.4271
▁삼엄	-11.4271
▁배럭	-11.4272
▁경제성장률	-11.4274
▁세레나	-11.4275
▁당분간	-11.4275
▁울머	-11.4276
▁입찰	-11.4276
▁오스틴	-11.4276
▁1984	-11.4276
▁기둥	-11.4277
▁태양계	-11.4277
▁결별	-11.4277
▁도착했을	-11.4277
▁2014	-11.4278
▁남겼다	-11.4278
▁밀매	-11.4279
▁이정인	-11.4279
▁몸집	-11.4279
▁비싸	-11.4281
▁포스터	-11.4282
Po	-11.4282
▁삼았다	-11.4283
▁연구조사	-11.4285
▁직무	-11.4289
▁권유	-11.4294
▁생물학자	-11.4296
▁연립	-11.4298
▁보석금	-11.4298
게이트	-11.4314
▁가이드	-11.4318
▁뿐이라	-11.4323
▁줄어들었다	-11.4345
관리국	-11.4398
WHO	-11.4405
IOC	-11.4406
사드르	-11.4408
뱀	-11.441
▁근무하	-11.4417
오픈	-11.4429
▁was	-11.4431
320	-11.4449
▁비극적	-11.4482
eac	-11.4483
▁자랑스럽	-11.4631
▁공급받	-11.4669
획	-11.4671
▁경제성장	-11.4676
Space	-11.4682
▁캠퍼스	-11.4682
쿤	-11.4682
퀘	-11.4682
2007.06	-11.4682
▁SUV	-11.4682
▁가톨릭	-11.4682
▁국가보안법	-11.4682
▁대중교통	-11.4682
▁대통합민주신당	-11.4682
▁리얼리티	-11.4682
▁마호메트	-11.4682
▁무크타다	-11.4682
▁베테랑	-11.4682
▁브로드웨이	-11.4682
▁사카쉬빌리	-11.4682
▁얀코비치	-11.4682
▁엉덩이	-11.4682
▁이데올로기	-11.4682
▁추수감사절	-11.4682
▁컨퍼런스	-11.4682
▁프리메라리가	-11.4682
▁합참의장	-11.4682
궐	-11.4682
뭉	-11.4682
캣	-11.4682
콥	-11.4682
펫	-11.4682
▁동점골	-11.4682
▁올바른	-11.4682
솜	-11.4682
켐	-11.4682
▁백화점	-11.4682
▁저작권	-11.4682
▁페르난도	-11.4682
ship	-11.4682
▁금융제재	-11.4682
▁임산부	-11.4682
▁두개골	-11.4682
▁횡단	-11.4682
▁휴양지	-11.4682
▁의구심	-11.4682
▁제네바	-11.4682
▁링컨	-11.4682
▁팔루자	-11.4682
▁최우수	-11.4683
▁뮤직	-11.4683
▁번호판	-11.4683
▁테이블	-11.4683
Brit	-11.4683
▁도메인	-11.4683
▁뒤덮	-11.4683
▁소수민족	-11.4683
▁억압	-11.4683
▁엄중	-11.4683
▁활력	-11.4683
터무니	-11.4683
▁와중에	-11.4683
▁이소연	-11.4683
▁쟁점	-11.4684
▁낙관적	-11.4684
▁표적이	-11.4684
▁범람	-11.4684
▁아지즈	-11.4684
호르타	-11.4685
▁근접	-11.4685
▁농촌	-11.4685
▁홈런	-11.4686
▁참가국들	-11.4687
▁지뢰	-11.4687
▁제재조치	-11.4687
▁액수	-11.4688
▁홀랜드	-11.4689
2006.11	-11.4689
▁초대형	-11.469
▁흉기	-11.469
▁궁금	-11.4691
▁창립	-11.4693
▁없었지만	-11.4694
▁심장병	-11.4695
▁inter	-11.47
▁디에고	-11.47
▁휩싸였다	-11.4725
되었으나	-11.4733
▁영역	-11.4741
▁판사들	-11.4742
▁걸음	-11.4751
뇌	-11.4838
몇	-11.4838
딕	-11.4839
인터넷	-11.4842
댄	-11.4845
앨	-11.4846
▁투자가들	-11.4866
▁경찰청장	-11.488
▁장악하	-11.4924
pose	-11.4953
▁이해하	-11.5007
▁0.2	-11.5018
▁발견되	-11.5024
▁관료들	-11.5036
▁보여준	-11.5061
ncer	-11.5069
▁겪었	-11.5071
▁다국적	-11.51
롯	-11.5111
▁괴한들	-11.5113
튠	-11.5117
▁said	-11.5117
▁그린스펀	-11.5117
▁닌텐도	-11.5117
▁몬타나	-11.5117
▁버시바우	-11.5117
▁브뤼셀	-11.5117
▁앨라배마	-11.5117
▁엔데버호	-11.5117
▁엔터테인먼트	-11.5117
▁오차범위	-11.5117
▁의료보험	-11.5117
▁짝짓기	-11.5117
▁콘크리트	-11.5117
▁콜레스테롤	-11.5117
▁타블로이드	-11.5117
▁태어났다	-11.5117
늄	-11.5117
옌	-11.5117
짙	-11.5117
OECD	-11.5117
ject	-11.5117
▁낙하산	-11.5117
▁루마니아	-11.5117
▁여객선	-11.5117
▁프란시스	-11.5117
촨	-11.5117
▁급상승	-11.5117
▁무차별	-11.5117
▁무책임	-11.5117
▁벤자민	-11.5117
▁보스니아	-11.5117
▁안젤리	-11.5117
▁자이툰	-11.5117
▁수마트라	-11.5117
▁저녁식사	-11.5117
▁줄어든	-11.5117
WWF	-11.5117
▁힉스	-11.5117
▁검열	-11.5117
▁유태인	-11.5117
(27)	-11.5118
(29)	-11.5118
▁가볍	-11.5118
=31	-11.5118
▁사냥꾼	-11.5118
▁황교수	-11.5118
▁기번스	-11.5118
▁싱글	-11.5119
▁이루어질	-11.512
▁별도로	-11.512
▁아르빌	-11.512
▁무엇인가	-11.512
▁나중에	-11.512
▁냉각	-11.5121
▁자본주의	-11.5121
▁자살폭탄	-11.5121
▁state	-11.5121
▁동맹관계	-11.5121
▁토끼	-11.5121
▁보도자료	-11.5122
▁Star	-11.5122
▁간첩	-11.5123
▁싸울	-11.5124
▁get	-11.5124
▁보였지만	-11.5124
▁토로했다	-11.5124
▁총격사건	-11.5126
▁평창	-11.5127
▁중태라	-11.5132
▁앙리	-11.5133
light	-11.5135
▁소방관들	-11.5142
▁상업적	-11.5146
▁증가시키	-11.517
▁안되	-11.518
▁진정시키	-11.5182
▁일반인들	-11.5196
▁제작자들	-11.5245
즐	-11.5293
학생들	-11.5294
카메라	-11.5297
한나라당	-11.5297
티베트	-11.5297
FTA	-11.53
투쟁	-11.5302
▁후보자들	-11.5312
eep	-11.5317
스위스	-11.532
▁순례객	-11.5343
into	-11.5357
▁제조회사	-11.539
Com	-11.5426
▁수백만명	-11.5456
▁숨졌	-11.5466
▁대학생들	-11.5469
▁피랍됐	-11.5495
dom	-11.5522
▁America	-11.5528
컷	-11.5538
▁검문	-11.5557
▁2~3	-11.5569
됨	-11.557
▁두려워하	-11.557
벳	-11.5571
갱	-11.5572
앵	-11.5572
긍	-11.5572
▁England	-11.5572
▁국제사면위원회	-11.5572
▁신행정수도	-11.5572
덱	-11.5572
파이낸셜	-11.5572
2007.03	-11.5572
Australia	-11.5572
United	-11.5572
▁Association	-11.5572
▁issue	-11.5572
▁president	-11.5572
▁그렇다면	-11.5572
▁내다봤다	-11.5572
▁대량살상무기	-11.5572
▁로맨틱	-11.5572
▁롱고리아	-11.5572
▁선거캠페인	-11.5572
▁손해배상	-11.5572
▁슈나이더	-11.5572
▁스탠리	-11.5572
▁아이슬란드	-11.5572
▁애널리스트	-11.5572
▁언색호	-11.5572
▁자이언트	-11.5572
▁참모총장	-11.5572
둠	-11.5572
밭	-11.5572
셜	-11.5572
썩	-11.5572
쥬	-11.5572
쳇	-11.5572
츄	-11.5572
펙	-11.5572
훌	-11.5572
▁BBK	-11.5572
▁가금류	-11.5572
▁검시관	-11.5572
▁돈세탁	-11.5572
▁부정부패	-11.5572
▁선제골	-11.5572
▁솔로몬	-11.5572
▁카메론	-11.5572
▁크리켓	-11.5572
▁클레이코트	-11.5572
▁플레이오프	-11.5572
▁몰디브	-11.5572
onsumer	-11.5572
Human	-11.5572
▁황박사	-11.5572
▁올랜도	-11.5572
▁전화통화	-11.5572
▁갱신	-11.5572
▁곳곳에서	-11.5572
▁발레리	-11.5572
▁유시프	-11.5572
▁태어나	-11.5572
▁탑재	-11.5572
▁선진국	-11.5572
▁정부청사	-11.5572
(21)	-11.5572
(24)	-11.5572
▁프리킥	-11.5572
▁접어들	-11.5572
▁진원지	-11.5572
▁라시드	-11.5572
▁리더십	-11.5572
▁설문조사	-11.5573
▁페인트	-11.5573
▁격돌한	-11.5573
▁삼성그룹	-11.5573
▁소요사태	-11.5573
▁공동성명	-11.5573
▁방위군	-11.5573
▁퇴치	-11.5574
▁푸켓	-11.5574
▁주립대학	-11.5575
▁쓰러졌	-11.5575
▁이틀째	-11.5575
▁불쾌감	-11.5575
▁Lee	-11.5575
▁있겠지만	-11.5576
▁통계청	-11.5576
▁지방선거	-11.5578
▁51%	-11.5578
후쿠다	-11.558
▁투항	-11.5582
ull	-11.5628
므	-11.5664
따	-11.5765
▁피고인들	-11.5767
홈	-11.577
무샤라프	-11.5772
톰	-11.5773
시리즈	-11.5773
▁조직원들	-11.5897
▁외교관들	-11.5956
▁일본인들	-11.5965
▁격렬	-11.5991
▁확신하	-11.6035
뷔	-11.6044
봇	-11.6046
앗	-11.6047
툰	-11.6048
윙	-11.6048
world	-11.6048
inancial	-11.6048
ould	-11.6048
▁death	-11.6048
▁high	-11.6048
▁minister	-11.6048
▁soldier	-11.6048
▁가라앉	-11.6048
▁가로질러	-11.6048
▁가이트너	-11.6048
▁갇혀있	-11.6048
▁디얄라	-11.6048
▁떨어뜨	-11.6048
▁라스무센	-11.6048
▁라우터바흐	-11.6048
▁레드삭스	-11.6048
▁밀리밴드	-11.6048
▁불필요	-11.6048
▁빈라덴	-11.6048
▁선생님	-11.6048
▁스콜세지	-11.6048
▁와지리스탄	-11.6048
▁지구온난화	-11.6048
▁질렀다	-11.6048
▁코네티컷	-11.6048
▁콘텐트	-11.6048
▁테헤란	-11.6048
▁텔레콤	-11.6048
▁페르난데스	-11.6048
▁포틀랜드	-11.6048
▁푸에르토리코	-11.6048
꼈	-11.6048
덟	-11.6048
봅	-11.6048
▁로널드	-11.6048
▁유네스코	-11.6048
▁점유율	-11.6048
하였으나	-11.6048
NYMEX	-11.6048
▁가석방	-11.6048
▁농산물	-11.6048
▁음란물	-11.6048
▁인디언	-11.6048
▁주미대사	-11.6048
부적절한	-11.6048
▁무중력	-11.6048
▁브라더스	-11.6048
▁졸릭	-11.6048
WTI	-11.6048
깜짝	-11.6048
▁주머니	-11.6048
▁획기적	-11.6048
ECB	-11.6048
▁자부심	-11.6048
▁meet	-11.6048
▁본거지	-11.6048
▁아메드	-11.6048
▁비평가들은	-11.6048
▁오마바	-11.6048
▁남동쪽	-11.6048
▁나이로비	-11.6048
▁위안화	-11.6048
▁남서쪽	-11.6049
▁놀랍	-11.6049
▁주니어	-11.6049
▁아이팟	-11.6049
▁블레이크	-11.6049
이건희	-11.6049
▁떠오르	-11.6049
▁소아과	-11.6049
▁강아지	-11.6049
▁지저스	-11.6049
▁딜리	-11.6049
▁트레이드	-11.6051
▁may	-11.6052
▁납북	-11.6052
▁불러일으키	-11.6052
▁포옹	-11.6052
▁않으려	-11.6053
▁화폐	-11.6053
스테이트	-11.6054
&#4	-11.6058
▁시청률	-11.6078
▁분리주의자들	-11.6102
▁웃음	-11.6117
▁여러분들	-11.613
▁보건당국	-11.617
훈련	-11.6235
▁앉아있	-11.6239
뒤	-11.6273
Korea	-11.6273
하마스	-11.6276
▁경호원들	-11.6284
▁고고학자	-11.6286
▁집행위원	-11.6305
▁알려졌	-11.6349
▁이용자들	-11.6402
평화로운	-11.6467
▁자원봉사	-11.647
▁선보였	-11.6512
▁중국인들	-11.6535
욱	-11.6538
▁메모리	-11.6539
life	-11.6548
▁resign	-11.6548
▁UFO	-11.6548
▁WASHINGTON	-11.6548
▁peace	-11.6548
▁갖췄다	-11.6548
▁그랜드슬램	-11.6548
▁네그로폰테	-11.6548
▁뉴욕상업거래소	-11.6548
▁맞교환	-11.6548
▁매카트니	-11.6548
▁메디컬	-11.6548
▁베스트셀러	-11.6548
▁소렌스탐	-11.6548
▁식이요법	-11.6548
▁신용경색	-11.6548
▁신천옹	-11.6548
▁아라파트	-11.6548
▁아흐마디네자드	-11.6548
▁않았기	-11.6548
▁얼어붙	-11.6548
▁우비넨	-11.6548
▁윌리암	-11.6548
▁증권거래소	-11.6548
▁평론가들은	-11.6548
▁포츠머스	-11.6548
굽	-11.6548
낀	-11.6548
맙	-11.6548
배아줄기세포	-11.6548
샴	-11.6548
쩔	-11.6548
콴	-11.6548
▁김경준	-11.6548
▁생태계	-11.6548
▁쓰러져	-11.6548
▁현수막	-11.6548
▁영유권	-11.6548
▁국가정보원	-11.6548
▁만델라	-11.6548
▁알자지라	-11.6548
▁해리왕자	-11.6548
▁about	-11.6548
▁마리화나	-11.6548
▁파이프라인	-11.6548
▁훔쳐	-11.6548
▁마스터스	-11.6548
▁start	-11.6548
▁눈보라	-11.6548
▁갱단	-11.6548
▁프리츨	-11.6548
▁2/3	-11.6548
사관학교	-11.6548
UAE	-11.6548
Two	-11.6548
▁발자국	-11.6548
▁몰아넣	-11.6548
▁매도프	-11.6548
▁이뤄져야	-11.6549
▁추종자들	-11.6549
▁함부르크	-11.6549
2007.04	-11.6549
▁프레슬리	-11.6549
▁땅콩	-11.6549
▁에어웨이	-11.6549
▁가르시아	-11.655
▁혜성	-11.655
▁있느냐	-11.655
▁투옥	-11.6551
▁파이프	-11.6551
▁거세지	-11.6551
▁삭스	-11.6552
▁참의원	-11.6552
ific	-11.6553
▁농부들	-11.6554
▁소행이라	-11.6559
▁솔직하	-11.6559
▁우호적	-11.656
▁생물학적	-11.6564
프라이스	-11.6574
앞	-11.6759
턱	-11.6797
끝	-11.6798
꿈	-11.6798
왜	-11.6799
룡	-11.7071
늬	-11.7074
뜯	-11.7074
럿	-11.7074
륭	-11.7074
벵	-11.7074
빔	-11.7074
삽	-11.7074
폼	-11.7074
떠	-11.7352
낙	-11.7353
넣	-11.7359
즌	-11.7612
뢰	-11.7615
캇	-11.763
햇	-11.763
헝	-11.763
흠	-11.763
잇	-11.7942
셸	-11.8202
反	-11.8218
英	-11.8218
뚝	-11.8218
샨	-11.8218
쉘	-11.8218
퐁	-11.8218
띤	-11.8218
팻	-11.8218
깊	-11.8567
써	-11.8818
섯	-11.8837
콧	-11.8839
쑤	-11.8843
윅	-11.8843
텀	-11.8843
펑	-11.8843
市	-11.8843
늑	-11.8843
랏	-11.8843
팡	-11.8843
퀸	-11.9233
듀	-11.9233
솟	-11.9508
킥	-11.9509
뉘	-11.951
뎌	-11.951
둡	-11.951
엉	-11.951
옴	-11.951
쟈	-11.951
줌	-11.951
녹	-11.9945
숨	-11.9946
첫	-11.9949
껴	-12.0224
뜰	-12.0224
샹	-12.0224
퉁	-12.0224
헥	-12.0224
눕	-12.0224
랴	-12.0224
뭘	-12.0224
샵	-12.0224
셍	-12.0224
쿡	-12.0224
듭	-12.0989
옵	-12.0993
챈	-12.0993
故	-12.0993
뎀	-12.0993
륨	-12.0993
샷	-12.0993
싹	-12.0993
쏠	-12.0993
씬	-12.0993
쥔	-12.0993
쪼	-12.0993
性	-12.0993
퍽	-12.0993
벗	-12.1548
쓸	-12.155
웹	-12.1551
즉	-12.1554
횡	-12.1826
넛	-12.1827
랠	-12.1827
벙	-12.1827
싯	-12.1827
줍	-12.1827
칫	-12.1827
핼	-12.1827
新	-12.1827
삐	-12.1827
엣	-12.1827
엿	-12.1827
젼	-12.1827
쿵	-12.1827
묻	-12.2455
옷	-12.2458
냉	-12.2458
겸	-12.2459
녕	-12.2736
뭇	-12.2736
궂	-12.2736
렝	-12.2736
밥	-12.3459
윌	-12.346
벼	-12.3732
왁	-12.3733
펭	-12.3736
훼	-12.3736
좁	-12.4567
깨	-12.4568
낮	-12.457
美	-12.4571
곧	-12.4572
섹	-12.4815
냄	-12.4847
깅	-12.4847
찮	-12.4847
묵	-12.5819
샌	-12.582
꼭	-12.582
좀	-12.5821
갖	-12.5823
놨	-12.6034
댈	-12.6097
휠	-12.6097
맛	-12.7247
뛰	-12.7248
빼	-12.7249
쌀	-12.7249
멀	-12.7249
q	-12.7522
팟	-12.7523
탤	-12.7525
깜	-12.9192
촛	-12.9192
낄	-12.9192
룻	-12.9192
셴	-12.9192
귄	-12.9192
볕	-12.9192
잭	-13.0915
쓴	-13.0916
밑	-13.0917
삶	-13.0917
꿀	-13.1184
맡	-13.3402
쏘	-13.3415
숲	-13.3416
큼	-13.3672
꿔	-13.3684
눠	-13.3687
볍	-13.3689
숫	-13.369
츨	-13.3691
덧	-13.3692
뚫	-13.6749
넓	-13.675
*	-13.675
뜻	-13.6751
룹	-13.6999
깁	-13.7023
끗	-13.7025
걱	-13.7025
덮	-14.1748
빚	-14.1751
맺	-14.1753
밝	-14.1754
힉	-14.2023
많	-15.1672
팝	-15.1769
숀	-15.177
봄	-15.177
끓	-15.1811
갚	-15.1812
쾰	-15.1813
찼	-15.1814
찢	-15.1815
잰	-15.1816
웸	-15.1817
샐	-15.1818
깥	-15.1819
겉	-15.182
팸	-15.1821
몹	-15.1822
꼴	-15.1823
씌	-15.1824
맷	-15.1825
뀐	-15.1826
깎	-15.1827
콸	-15.1828
쏴	-15.1829
썹	-15.183
슭	-15.1831
킷	-15.1832
챌	-15.1833
얇	-15.1834
씀	-15.1835
뀔	-15.1836
꽉	-15.1837
꽂	-15.1838
±	-15.1839
뭐	-15.184
댕	-15.1841
꿨	-15.1842
꾀	-15.1843
깐	-15.1844
얹	-15.1845
쐈	-15.1846
뱃	-15.1847
긱	-15.1848
씻	-15.1849
뻗	-15.185
렷	-15.1851
낚	-15.1852
꼼	-15.1853
$	-15.1854
잦	-15.1855
엎	-15.1856
숍	-15.1857
뭔	-15.1858
맑	-15.1859
핫	-15.186
핍	-15.1861
몫	-15.1862
짖	-15.1863
샀	-15.1864
낡	-15.1865
곁	-15.1866
컸	-15.1867
캡	-15.1868
쏜	-15.1869
젭	-15.187
싣	-15.1871
맵	-15.1872
닮	-15.1873
젖	-15.1874
쁨	-15.1875
릅	-15.1876
궈	-15.1877
탓	-15.1878
캥	-15.1879
웍	-15.188
굶	-15.1881
뮬	-15.1882
릇	-15.1883
횟	-15.1884
췌	-15.1885
틈	-15.1886
댓	-15.1887
붓	-15.1888
́	-15.1889
챙	-15.189
앰	-15.1891
닿	-15.1892
펌	-15.1893
흩	-15.1894
뮌	-15.1895
뤼	-15.1896
뿔	-15.1897
괜	-15.1898
뤘	-15.1899
튀	-15.19
꼽	-15.1901
굳	-15.1902
굉	-15.1903
녔	-15.1904
랬	-15.1905
곱	-15.1906
픔	-15.1907
밸	-15.1908
닙	-15.1909
낌	-15.191
띄	-15.1911
넹	-15.1912
밟	-15.1913
눴	-15.1914
싫	-15.1915
윔	-15.1916
괄	-15.1917
옛	-15.1918
탔	-15.1919
썼	-15.192
핸	-15.1921
딪	-15.1922
잊	-15.1923
깝	-15.1924
멤	-15.1925
벅	-15.1926
흰	-15.1927
갇	-15.1928
췄	-15.1929
묶	-15.193
뱅	-15.1931
닫	-15.1932
왼	-15.1933
뀌	-15.1934
렴	-15.1935
읽	-15.1936
깔	-15.1937
궤	-15.1938
탱	-15.1939
탠	-15.194
쌓	-15.1941
쫓	-15.1942
짧	-15.1943
쏟	-15.1944
뭄	-15.1945
뒷	-15.1946
걷	-15.1947
슴	-15.1948
훨	-15.1949
릎	-15.195
뽑	-15.1951
뿌	-15.1952
붉	-15.1953
앓	-15.1954
얘	-15.1955
옆	-15.1956
멋	-15.1957
꺾	-15.1958
낳	-15.1959
곽	-15.196
휩	-15.1961
돕	-15.1962
녁	-15.1963
듣	-15.1964
춰	-15.1965
끊	-15.1966
됩	-15.1967
젝	-15.1968
늦	-15.1969
앉	-15.197
슷	-15.1971
렵	-15.1972
쿄	-15.1973
밴	-15.1974
옮	-15.1975
봤	-15.1976
젊	-15.1977
챔	-15.1978
촬	-15.1979
빨	-15.198
찍	-15.1981
떻	-15.1982
렀	-15.1983
웠	-15.1984
겪	-15.1985
믿	-15.1986
펼	-15.1987
섰	-15.1988
먹	-15.1989
렇	-15.199
̋	-15.1991
잃	-15.1992
캠	-15.1993
싶	-15.1994
랐	-15.1995
끌	-15.1996
갔	-15.1997
켰	-15.1998
밖	-15.1999
얻	-15.2
쇄	-15.2001
좋	-15.2002
찾	-15.2003
떨	-15.2004
높	-15.2005
맞	-15.2006
났	-15.2007
혐	-15.2008
협	-15.2009
확	-15.201
없	-15.2011
떤	-15.2012
았	-15.2012
