<unk>	0
<s>	0
</s>	0
.	-3.41763
▁	-3.42566
을	-3.86065
의	-3.93105
에	-4.21397
이	-4.30059
를	-4.31728
는	-4.37286
가	-4.45251
은	-4.5735
,	-4.62851
고	-4.65943
에서	-4.97965
로	-5.07592
한	-5.08389
▁“	-5.25631
인	-5.27505
”	-5.30002
일	-5.33568
)	-5.4206
(	-5.42974
과	-5.43308
▁이	-5.50314
와	-5.60684
으로	-5.60738
▁있다	-5.65804
지	-5.66854
도	-5.73474
▁수	-5.74864
할	-5.77102
했다	-5.85108
▁밝혔다	-5.88477
▁말했다	-5.90467
하고	-5.94368
년	-5.94745
다	-5.95148
하는	-6.06214
▁있는	-6.08812
기	-6.13374
리	-6.1501
▁그	-6.15617
자	-6.15802
▁전	-6.15907
며	-6.18655
스	-6.1895
해	-6.20495
▁2	-6.289
▁그는	-6.29531
▁1	-6.29574
만	-6.33133
▁대한	-6.38769
된	-6.39041
▁위해	-6.4081
월	-6.42279
▁전했다	-6.47533
▁미국	-6.49949
▁한	-6.5097
▁미	-6.51415
▁3	-6.53047
▁이번	-6.54795
▁중	-6.54851
▁지난	-6.56506
현지시간	-6.58247
시	-6.58447
라	-6.59767
에게	-6.64063
나	-6.65256
▁대해	-6.66355
어	-6.67959
"	-6.68104
사	-6.68136
s	-6.70862
주	-6.71198
▁것으로	-6.73391
▁‘	-6.74418
트	-6.77863
명이	-6.78319
▁것이라고	-6.79015
▁것	-6.79188
이라고	-6.80269
게	-6.80273
들이	-6.8121
▁"	-6.81229
▁4	-6.81644
드	-6.83089
대	-6.83592
▁있다고	-6.85324
하기	-6.86631
르	-6.87106
수	-6.88209
▁것을	-6.88589
아	-6.89281
서	-6.89501
▁이라크	-6.90395
▁주	-6.91564
적인	-6.9168
▁6	-6.92232
하지	-6.93041
히	-6.93714
’	-6.94044
세	-6.94181
▁5	-6.95043
상	-6.96526
▁더	-6.98819
▁그러나	-6.99205
들은	-7.01882
부	-7.01892
하게	-7.0256
▁다른	-7.0337
▁대통령	-7.03468
운	-7.0432
적	-7.04462
▁중국	-7.05613
치	-7.06073
비	-7.07424
e	-7.08646
명	-7.12138
▁한편	-7.1231
▁10	-7.12366
전	-7.12495
라고	-7.12974
던	-7.13427
성	-7.15208
▁북한	-7.15624
프	-7.16433
▁후	-7.16885
▁내	-7.1696
-	-7.17246
원	-7.18135
명의	-7.18416
소	-7.18796
됐다	-7.19204
▁바	-7.20028
미	-7.20777
정	-7.21594
▁이후	-7.22866
선	-7.23183
했다고	-7.23374
▁아	-7.23629
크	-7.24273
▁정부	-7.2448
▁영국	-7.24758
니	-7.25861
보	-7.26172
▁7	-7.26241
▁한국	-7.2796
▁통해	-7.2798
▁알	-7.28566
마	-7.28988
▁일	-7.30364
▁제	-7.3092
▁두	-7.30971
▁많은	-7.31089
장	-7.31233
▁또	-7.31522
이다	-7.31826
▁8	-7.32054
▁위한	-7.32118
될	-7.32364
▁대통령은	-7.32391
분	-7.33752
위	-7.34011
▁부시	-7.34369
진	-7.34369
화	-7.34474
야	-7.34588
▁등	-7.3626
하	-7.36371
▁가장	-7.36537
▁비	-7.37221
▁동안	-7.37902
까지	-7.37973
오	-7.38695
▁같은	-7.39217
▁것이다	-7.39244
제	-7.40043
▁대변인은	-7.40621
에는	-7.41454
▁대	-7.41498
당	-7.41894
바	-7.4213
조	-7.42838
면	-7.43
국	-7.43146
개	-7.43545
▁지	-7.43591
▁유	-7.43924
디	-7.44732
들을	-7.45033
▁약	-7.45328
▁나	-7.465
▁시	-7.47216
했으며	-7.47228
▁세계	-7.48156
파	-7.48445
하며	-7.48526
▁부	-7.49297
▁말	-7.49546
▁주장했다	-7.49959
▁문제	-7.50562
▁사	-7.50891
▁오바마	-7.51519
▁정	-7.52451
▁때	-7.52531
▁될	-7.52603
내	-7.52768
적으로	-7.53149
우	-7.53188
즈	-7.53299
▁것은	-7.53482
간	-7.53816
타	-7.54483
▁19	-7.54559
▁영화	-7.54743
▁할	-7.55384
▁한다	-7.55384
▁또한	-7.55544
▁뒤	-7.55552
o	-7.55796
▁오	-7.55944
▁9	-7.5601
▁마	-7.5616
▁12	-7.57089
▁조사	-7.57197
▁현재	-7.57303
▁관련	-7.57399
▁것이	-7.58271
구	-7.58658
▁경제	-7.58826
▁최근	-7.58951
▁경우	-7.59974
▁보도했다	-7.60075
들	-7.60388
여	-7.60483
▁일본	-7.60609
▁덧붙였다	-7.61156
레	-7.61225
▁공격	-7.61333
▁이상	-7.61573
▁반	-7.62021
▁않았다	-7.62046
A	-7.62156
▁있었다	-7.62181
▁무	-7.62289
및	-7.62291
차	-7.62415
한다	-7.62558
식	-7.63156
에서는	-7.63651
1	-7.63803
▁불	-7.63968
그	-7.64135
용	-7.64598
a	-7.64637
단	-7.64728
러	-7.64759
▁국가	-7.64909
d	-7.65253
려	-7.65439
했던	-7.6567
▁보	-7.65868
유	-7.66403
'	-7.66818
었다	-7.67065
권	-7.67111
문	-7.67487
▁11	-7.67709
약	-7.67785
▁기	-7.67942
▁20	-7.68362
▁일부	-7.68448
계	-7.68586
티	-7.69296
▁자신의	-7.69623
▁안	-7.70055
하다	-7.70278
▁해	-7.70558
▁거	-7.71459
2	-7.7156
▁공	-7.71584
관	-7.71802
▁함께	-7.72549
▁조	-7.72976
3	-7.73356
신	-7.73534
브	-7.73877
▁당시	-7.74825
모	-7.74862
▁했다	-7.75076
카	-7.75265
안	-7.75423
▁'	-7.75494
▁재	-7.75722
▁계속	-7.76293
▁새로	-7.7682
▁다	-7.76872
▁모든	-7.77344
▁파	-7.77468
▁그리고	-7.77469
방	-7.77509
▁후보	-7.77957
노	-7.78137
▁없다	-7.78545
▁하	-7.78892
회	-7.78974
실	-7.79135
▁때문에	-7.79168
m	-7.79332
▁지원	-7.79451
직	-7.79469
S	-7.79579
코	-7.79748
보다	-7.79823
해야	-7.79939
▁신	-7.80358
▁미군	-7.8046
▁파키스탄	-7.81028
무	-7.8104
▁예정이다	-7.81548
▁수도	-7.8195
린	-7.82218
▁상	-7.82565
억	-7.82876
▁프랑스	-7.83168
▁자	-7.83238
▁모두	-7.83353
호	-7.83376
▁있습니다	-7.83444
▁설명했다	-7.83609
▁몇	-7.84498
▁결과	-7.84564
▁러시아	-7.84908
▁계획	-7.85651
▁있으며	-7.85665
▁구	-7.85708
▁이스라엘	-7.8577
▁경찰	-7.85878
체	-7.86449
▁모	-7.86571
▁경찰은	-7.86894
산	-7.87392
점	-7.87798
토	-7.87837
▁지역	-7.87838
물	-7.88064
▁세	-7.88122
▁클린턴	-7.88573
▁카	-7.88936
▁유엔	-7.89293
질	-7.89459
▁정부는	-7.90276
▁민주당	-7.91072
경	-7.91274
동	-7.91788
▁테러	-7.92101
▁큰	-7.92495
▁도	-7.92592
▁피	-7.92828
▁우리	-7.92842
C	-7.92874
법	-7.93342
▁사고	-7.9339
▁결정	-7.93656
▁선거	-7.93742
t	-7.9381
▁연구	-7.93997
들의	-7.94105
▁여성	-7.94288
y	-7.94821
▁성	-7.9498
▁30	-7.94994
▁데	-7.95404
▁핵	-7.95493
피	-7.95735
더	-7.96219
▁군	-7.96327
명을	-7.96342
학	-7.96359
연	-7.96854
감	-7.97017
u	-7.97082
▁지난해	-7.97095
되는	-7.97252
c	-7.97564
에따르면	-7.97677
력	-7.97754
▁이들	-7.97804
▁시작	-7.98131
에도	-7.98201
▁강	-7.98284
i	-7.98295
▁않을	-7.98377
▁열린	-7.99353
했습니다	-7.99693
▁줄	-7.99755
▁방문	-8.00113
▁발표	-8.00117
▁달러	-8.00223
군	-8.00354
▁당	-8.00402
▁경기	-8.00467
지만	-8.00597
▁대통령이	-8.0063
공	-8.00974
교	-8.01002
버	-8.01554
▁이란	-8.01601
▁달	-8.0166
▁올해	-8.02114
▁스	-8.02603
라는	-8.02983
n	-8.03676
▁양	-8.03716
루	-8.03788
▁배	-8.03942
▁발생한	-8.03982
▁있을	-8.04166
▁이날	-8.04239
▁물	-8.04427
▁총리는	-8.04498
데	-8.04515
란	-8.04561
▁하는	-8.04667
▁원	-8.04754
▁소	-8.05108
행	-8.05157
▁the	-8.05462
▁노	-8.05526
키	-8.0607
▁발표했다	-8.06073
시간	-8.06732
중	-8.07135
▁15	-8.07197
심	-8.07292
재	-8.07971
▁리	-8.08124
▁초	-8.08145
6	-8.08217
▁발	-8.08221
▁받고	-8.08361
▁존	-8.08505
난	-8.09303
D	-8.09456
살	-8.09958
▁실	-8.10008
l	-8.10198
▁회담	-8.10261
이나	-8.10391
하면서	-8.10489
▁(	-8.10522
▁채	-8.1076
▁A	-8.10848
▁국제	-8.10876
▁총리	-8.10982
터	-8.11524
▁서	-8.11546
하여	-8.11625
▁유럽	-8.11805
▁총	-8.12243
▁관계	-8.13182
았다	-8.13325
되고	-8.13549
▁to	-8.13609
포	-8.13696
▁가운데	-8.14049
들에게	-8.14392
▁미국의	-8.14524
길	-8.14687
P	-8.14714
▁아프간	-8.15448
▁S	-8.1583
▁라	-8.15842
으며	-8.1585
▁간	-8.15882
▁조치	-8.1595
▁타	-8.16092
▁기록	-8.16166
▁코	-8.16167
▁16	-8.16252
▁주장	-8.16669
종	-8.16829
▁첫	-8.16921
▁메	-8.16979
역	-8.17099
▁개	-8.17281
▁of	-8.17499
M	-8.18064
▁포	-8.18067
▁의해	-8.18072
▁18	-8.18205
면서	-8.18261
▁아이	-8.18496
워	-8.1872
▁인도	-8.1876
▁된다	-8.18761
▁입	-8.18893
▁매	-8.18956
▁사람들이	-8.18956
▁주요	-8.1898
부터	-8.19138
▁사건	-8.19182
든	-8.19209
▁차	-8.19339
▁프로그램	-8.19626
.”	-8.19647
▁정부가	-8.19785
건	-8.20035
임	-8.20103
▁시위	-8.2056
)’	-8.20732
▁다시	-8.20926
요	-8.20977
▁감독	-8.21216
였다	-8.21258
ing	-8.21323
5	-8.21326
▁인해	-8.21362
er	-8.21402
f	-8.21465
▁차량	-8.21624
▁승리	-8.21693
되어	-8.21743
▁보고	-8.21944
들과	-8.22251
입니다	-8.22392
형	-8.22399
▁동	-8.23154
▁회사	-8.23212
▁않은	-8.23451
설	-8.23589
▁열	-8.23946
▁13	-8.24211
▁투표	-8.24323
저	-8.24646
▁여	-8.24725
석	-8.24994
ed	-8.25286
발	-8.25448
▁있다는	-8.2547
▁예정	-8.25539
거	-8.25649
p	-8.25692
돼	-8.25709
▁피해	-8.25869
▁혐의로	-8.25878
7	-8.25905
▁어	-8.2599
▁우	-8.26014
▁하고	-8.26113
▁위	-8.26539
번	-8.26955
네	-8.27127
▁시간	-8.27622
▁활동	-8.27647
▁지지	-8.27773
▁혐의	-8.27823
▁외	-8.2808
▁반대	-8.28206
배	-8.28394
g	-8.28404
금	-8.28475
▁중단	-8.28641
▁독일	-8.28653
▁협상	-8.28739
▁전쟁	-8.28754
al	-8.28781
▁산	-8.28987
▁생각	-8.29019
반	-8.29029
두	-8.29123
▁합의	-8.29135
▁in	-8.29286
되지	-8.29344
품	-8.29405
장은	-8.29434
▁됐다	-8.29713
▁상원의원	-8.29816
▁시장	-8.29841
▁선	-8.29845
▁14	-8.29972
슨	-8.30119
%	-8.30122
너	-8.30149
r	-8.30164
▁이미	-8.30634
민	-8.30731
▁대학	-8.30872
▁호주	-8.31123
래	-8.31236
km	-8.31586
▁위치한	-8.31615
▁받았다	-8.31799
▁관리	-8.31869
▁대선	-8.31947
▁경	-8.32206
▁뉴욕	-8.32285
▁탈레반	-8.32516
료	-8.32665
ar	-8.32675
▁우려	-8.3268
▁연	-8.32724
▁명	-8.32776
/	-8.32783
년간	-8.32959
▁팔레스타인	-8.33206
▁W	-8.33486
▁없는	-8.33871
▁호	-8.33912
됐다고	-8.34138
스트	-8.34139
달러	-8.34245
▁페	-8.34264
▁여러	-8.3444
병	-8.34636
▁우주	-8.3472
습니다	-8.34851
▁석방	-8.34963
론	-8.35071
달	-8.35169
▁최고	-8.35482
I	-8.35517
▁아직	-8.3561
4	-8.35643
청	-8.35658
▁조지	-8.35835
▁내용	-8.36063
▁TV	-8.36179
0	-8.36566
▁새	-8.36943
▁소속	-8.37006
이라며	-8.37188
▁잘	-8.37565
▁추가	-8.37891
an	-8.37963
로부터	-8.38095
▁연방	-8.3814
급	-8.38153
작	-8.38235
▁25	-8.38321
▁사실을	-8.38398
▁레	-8.38521
▁점	-8.38764
E	-8.38806
▁위협	-8.38844
▁단	-8.38872
통	-8.39104
이며	-8.39336
▁매케인	-8.39412
▁관계자는	-8.39655
▁김	-8.39833
▁사용	-8.39919
속	-8.39927
▁남	-8.40219
▁않고	-8.403
▁17	-8.40421
▁확인	-8.40592
▁포함	-8.40643
F	-8.40679
지는	-8.40784
▁노력	-8.40786
다고	-8.40856
▁방송	-8.4099
▁많	-8.41129
릴	-8.41234
생	-8.41293
▁인터넷	-8.41473
판	-8.41512
▁지적했다	-8.41581
▁맞	-8.41613
▁''	-8.41617
▁이용	-8.41984
▁적	-8.42253
▁한다고	-8.42339
류	-8.42495
▁저	-8.42532
▁버	-8.42554
▁지금	-8.42647
▁도시	-8.42656
▁이슬람	-8.42969
▁남부	-8.43275
?	-8.43285
▁사이	-8.43299
스는	-8.43318
▁장	-8.43338
▁판매	-8.43353
T	-8.43662
▁인근	-8.43685
▁비난	-8.43687
클	-8.43908
▁정치	-8.43966
▁매우	-8.44142
했었다	-8.44191
출	-8.44303
▁당국	-8.44396
▁폭발	-8.44634
N	-8.44753
▁사람	-8.44907
▁올림픽	-8.45136
▁심	-8.45271
▁기술	-8.45273
천	-8.45316
▁하나	-8.45327
범	-8.45368
▁개발	-8.45547
▁보도	-8.45606
▁당국은	-8.45719
▁입장	-8.45851
▁대부분	-8.45955
▁볼	-8.46
▁발견	-8.46167
츠	-8.46242
온	-8.4626
or	-8.46318
▁사망	-8.4657
▁증가	-8.46778
했지만	-8.46913
메	-8.46982
▁부상	-8.4712
에따라	-8.47238
개월	-8.4731
했고	-8.47359
량	-8.47408
▁감	-8.47765
▁없다고	-8.47768
양	-8.47807
▁이어	-8.47909
된다	-8.47942
▁살	-8.48075
▁명의	-8.48102
▁B	-8.48108
▁올	-8.48148
▁정책	-8.48218
▁받은	-8.48638
▁자동차	-8.48956
▁2006	-8.49184
처럼	-8.49288
색	-8.49312
K	-8.49389
▁않는다	-8.49448
▁손	-8.49618
▁못했다	-8.49632
▁이는	-8.49725
되었다	-8.49838
결	-8.50051
▁100	-8.50103
8	-8.50144
▁24	-8.50339
▁준비	-8.50688
퍼	-8.50873
증	-8.50878
▁M	-8.50888
위원회	-8.50973
▁루	-8.51026
▁교	-8.51114
강	-8.51518
▁C	-8.51624
▁날	-8.51882
▁남자	-8.52064
▁성명	-8.52166
▁어떤	-8.52248
▁생산	-8.52277
▁집	-8.52312
▁평화	-8.52376
▁발생	-8.525
▁가족	-8.52651
▁오늘	-8.52779
베	-8.5283
편	-8.52848
했으나	-8.52854
▁금융	-8.52902
▁기자	-8.53169
▁건물	-8.53313
날	-8.53522
▁폭탄	-8.53688
친	-8.53773
▁하지만	-8.53964
▁21	-8.53997
▁이름	-8.54128
▁있던	-8.54163
울	-8.54417
▁본	-8.54521
▁베	-8.5454
▁오후	-8.54601
개의	-8.54749
하기로	-8.54856
▁지도자	-8.54899
G	-8.54972
명은	-8.55143
이었다	-8.5518
▁해결	-8.55189
▁언론	-8.55711
▁P	-8.55865
B	-8.5615
▁의사	-8.56199
▁50	-8.56367
▁방법	-8.56462
en	-8.56591
▁검찰	-8.57011
▁23	-8.57211
하는데	-8.57243
머	-8.5732
▁27	-8.57424
▁미얀마	-8.57899
h	-8.57969
▁자신	-8.58241
▁법원	-8.58265
▁변화	-8.583
▁법	-8.58326
▁공화당	-8.58486
▁앞서	-8.58492
▁공개	-8.5851
▁대표	-8.58641
와의	-8.58682
▁행사	-8.58687
▁필요	-8.58715
▁상태	-8.58794
▁안전	-8.58846
처	-8.58865
▁토	-8.58888
영	-8.58998
▁북부	-8.5913
▁이에	-8.5921
▁22	-8.59241
립	-8.59318
▁있어	-8.59372
복	-8.59473
▁보호	-8.59511
▁방	-8.5977
▁분	-8.59788
▁종	-8.60069
▁치	-8.60226
▁건강	-8.60257
격	-8.60369
▁만	-8.60478
▁치료	-8.60505
▁인터뷰에서	-8.60542
▁병원	-8.60588
▁하지	-8.60596
절	-8.61086
▁컴퓨터	-8.61182
▁T	-8.61258
:	-8.61418
▁강조했다	-8.61537
▁다음	-8.61539
▁상승	-8.61675
합	-8.61703
기를	-8.61966
▁단체	-8.61975
테	-8.6199
▁갖고	-8.62005
▁아시아	-8.62074
▁이러	-8.62379
b	-8.62446
▁그들은	-8.62499
▁살해	-8.62587
▁현	-8.62607
▁납치	-8.6263
▁처음	-8.62658
▁들어	-8.62708
각	-8.62717
예	-8.62736
는데	-8.62769
지역	-8.62888
겨	-8.63026
층	-8.63089
▁떨어진	-8.6333
▁것에	-8.63361
투	-8.6339
▁요구	-8.63555
▁학교	-8.6361
언	-8.63623
▁2005	-8.63756
▁추	-8.6381
▁힐러리	-8.63814
렌	-8.64035
▁원문기사보기	-8.64056
▁있도록	-8.64064
▁반군	-8.64092
O	-8.6425
▁오전	-8.64351
하도록	-8.64351
▁사태	-8.64501
▁D	-8.64642
▁거래	-8.64658
▁마지막	-8.64788
▁조직	-8.64851
in	-8.64923
탄	-8.65049
팀	-8.65272
▁여행	-8.6544
▁비난했다	-8.65473
져	-8.6565
▁논의	-8.65697
▁정보	-8.65773
▁터키	-8.65837
▁발언	-8.66052
▁금지	-8.66075
▁취	-8.6626
▁상황	-8.66295
▁북한이	-8.66376
▁가진	-8.66495
▁지구	-8.66527
and	-8.66819
▁은행	-8.66905
▁경찰이	-8.67034
측	-8.67191
집	-8.6776
이라는	-8.67858
▁최대	-8.67865
▁진	-8.67956
▁팀	-8.67973
▁요청	-8.68205
▁오는	-8.68334
▁미국과	-8.68369
하자	-8.6865
업	-8.68778
ic	-8.68782
▁F	-8.69054
▁처음으로	-8.69176
▁장관은	-8.69182
on	-8.69241
거나	-8.69283
▁영	-8.69442
▁각	-8.69477
▁진행	-8.69506
▁자신이	-8.696
▁연기	-8.69794
▁그녀는	-8.69795
▁그녀	-8.69817
▁이를	-8.6989
▁막	-8.69942
▁충돌	-8.7007
▁판결	-8.70079
▁출신	-8.70093
▁앞	-8.70179
▁온	-8.70207
으로부터	-8.70397
L	-8.70518
▁사회	-8.70539
▁버락	-8.70605
▁규모	-8.70612
R	-8.70671
v	-8.70727
▁생	-8.7073
▁담	-8.70747
▁a	-8.70755
▁친	-8.70813
졌다	-8.70814
번째	-8.70854
▁지난달	-8.71043
됐으며	-8.71192
▁불법	-8.71208
▁용의자	-8.71381
열	-8.71494
▁없었다	-8.71496
▁26	-8.71651
▁행동	-8.71653
▁이탈리아	-8.71665
▁밤	-8.7167
▁최소	-8.71841
매	-8.71902
▁결	-8.71909
▁40	-8.7204
▁폴	-8.72261
le	-8.72304
▁국민	-8.72311
▁보내	-8.72313
▁난	-8.72554
▁자금	-8.72573
▁성공	-8.72727
▁유지	-8.72916
▁앞으로	-8.72966
▁있지만	-8.73053
▁영향	-8.73128
▁야당	-8.73269
▁발사	-8.73393
▁번	-8.73472
▁없이	-8.73478
▁지역에서	-8.73565
▁공항	-8.73699
박	-8.73725
▁CNN	-8.73744
▁보인다	-8.73865
w	-8.7396
▁투자	-8.74032
▁서울	-8.74074
▁된	-8.74206
▁들	-8.74261
▁̋	-8.74282
상을	-8.74314
등	-8.74323
▁H	-8.74334
먼	-8.74538
▁사망했다	-8.7457
▁예	-8.74577
▁주둔	-8.74592
▁관한	-8.74651
▁공급	-8.74888
▁N	-8.74891
▁투	-8.74943
준	-8.74987
림	-8.75123
it	-8.75191
▁군사	-8.75222
런	-8.75226
함	-8.75351
리는	-8.75406
▁스페인	-8.75646
추	-8.75707
k	-8.75726
▁환경	-8.75998
락	-8.76035
▁의회	-8.76141
위를	-8.76145
령	-8.76342
▁좋은	-8.76459
▁사망자	-8.76586
▁29	-8.76641
▁G	-8.76742
▁않다	-8.76775
해서	-8.76786
▁공식	-8.76822
승	-8.76913
케	-8.7692
▁통	-8.76978
▁미사일	-8.77017
▁제공	-8.77057
초	-8.77128
▁지방	-8.77199
5%	-8.77339
▁걸	-8.77376
▁가격	-8.77445
▁만에	-8.77552
_	-8.77567
▁회장	-8.77638
▁돈	-8.77747
▁현지	-8.77766
우리는	-8.77823
▁사람들	-8.77835
▁무샤라프	-8.78032
포인트	-8.78131
▁돌	-8.78136
한다고	-8.78206
re	-8.78313
▁미국이	-8.78388
▁수사	-8.78414
▁출연	-8.78428
▁하루	-8.78495
주의	-8.78573
▁L	-8.7859
자가	-8.78619
자들은	-8.78624
▁문	-8.78697
후	-8.78821
▁런던	-8.79059
▁공동	-8.79073
▁비행기	-8.79148
▁관심	-8.79283
▁가능성	-8.79291
▁팔	-8.79346
▁인정	-8.79477
▁사람들은	-8.79582
▁선수	-8.79601
▁동영상	-8.79816
▁28	-8.8
▁코리아	-8.80128
외	-8.80207
▁관	-8.80299
미국	-8.80375
▁제작	-8.80413
▁백악관	-8.80555
▁변	-8.80612
article	-8.80673
록	-8.80745
▁행위	-8.80779
▁범죄	-8.81036
입	-8.81136
▁인질	-8.81249
▁알려졌다	-8.81254
음	-8.81369
▁이들은	-8.81468
회의	-8.81679
▁AP	-8.81743
긴	-8.81874
독	-8.81921
▁무기	-8.81936
▁평	-8.82127
▁우승	-8.82148
▁하락	-8.82236
▁벌이	-8.82443
혀	-8.82697
▁표	-8.82705
▁불구하고	-8.83033
본	-8.83051
▁중요한	-8.83173
▁패	-8.83358
▁정상	-8.83553
▁오바마는	-8.83607
▁바그다드	-8.83945
▁말했습니다	-8.84011
▁정치적	-8.84086
▁위험	-8.84258
▁나라	-8.84263
받	-8.84289
▁빌	-8.84326
▁박사는	-8.84328
있는	-8.84378
▁장관	-8.8438
▁속	-8.84441
▁게임	-8.84502
▁체포	-8.84534
▁남성	-8.84566
▁발생했다	-8.84578
간의	-8.84712
▁대통령과	-8.84764
▁독립	-8.84787
▁사망한	-8.84852
▁고위	-8.84877
▁이전	-8.85028
▁사진	-8.85131
▁미국은	-8.85168
▁자살	-8.85172
▁것입니다	-8.85285
▁헤	-8.85633
ch	-8.85661
▁통과	-8.85859
▁시도	-8.85864
▁이런	-8.85877
▁인용	-8.86031
▁여부	-8.86038
하겠다고	-8.86087
▁의원	-8.86146
른	-8.86182
하면	-8.86185
▁역할	-8.86188
▁밀	-8.86379
▁반면	-8.86492
▁2008	-8.86545
렸다	-8.86571
▁병력	-8.86641
▁운동	-8.86659
at	-8.86715
▁정도	-8.86769
▁강화	-8.86776
▁잠	-8.86787
▁드	-8.86865
시켰다	-8.86874
50	-8.86888
▁폐쇄	-8.86888
▁워싱턴	-8.86938
▁보안	-8.86941
▁눈	-8.8729
표	-8.87322
▁곳	-8.87437
H	-8.87442
▁직접	-8.87504
커	-8.87653
▁천	-8.87795
▁역사	-8.87816
▁이야기	-8.87825
▁부토	-8.87968
~	-8.87978
▁예상	-8.87986
▁부족	-8.88186
’’	-8.88204
▁기업	-8.88461
▁회의	-8.88631
▁부인	-8.88663
▁애	-8.88742
▁사실	-8.88745
2005.08	-8.89011
말	-8.8914
있다	-8.89326
▁사망했다고	-8.89643
▁개인	-8.89668
플	-8.8974
목	-8.89766
자인	-8.89815
했을	-8.89903
▁딸	-8.90071
▁서비스	-8.90134
남	-8.90247
CNN	-8.90307
백	-8.90428
▁누	-8.90449
▁보다	-8.90824
▁기간	-8.90952
▁의하면	-8.91005
▁모습을	-8.91091
마리	-8.91109
▁알카에다	-8.91167
▁확보	-8.91257
▁골	-8.91509
▁재판	-8.91518
un	-8.91616
▁c	-8.91698
▁해안	-8.91764
▁감소	-8.91802
만명	-8.91817
으나	-8.91866
▁것이라는	-8.91966
시킬	-8.91986
랜드	-8.92042
▁사업	-8.9205
됐	-8.92136
▁아이들	-8.92187
▁2005.08	-8.92258
하던	-8.92267
▁힘	-8.92351
억원	-8.9247
▁자신들	-8.92549
▁뉴스	-8.92558
▁청	-8.92731
▁높은	-8.92865
▁더욱	-8.92871
▁통신	-8.92925
▁가능성이	-8.9294
망	-8.92958
▁못	-8.93216
▁뜻	-8.93217
▁국경	-8.93353
▁지나	-8.93403
쳐	-8.93454
▁전체	-8.9348
▁지난주	-8.9355
▁상원	-8.9358
▁길	-8.936
리아	-8.93758
▁참여	-8.93772
’(	-8.93803
▁야	-8.94035
곳	-8.94161
▁보고서	-8.94252
▁별	-8.94273
▁건	-8.94274
▁하마스	-8.945
▁성명에서	-8.94566
▁출전	-8.94572
골	-8.9462
장을	-8.94779
▁아버지	-8.94866
▁&	-8.94966
▁왔다	-8.94988
▁참가	-8.95019
▁비행	-8.95066
▁언급	-8.95145
▁의견	-8.95196
만달러	-8.95442
▁K	-8.95468
▁구조	-8.95631
▁아들	-8.95633
▁호텔	-8.95676
차례	-8.95706
▁위기	-8.95714
졌	-8.95808
▁죽	-8.95814
▁신문	-8.95841
▁아침	-8.95889
▁지역에	-8.95904
▁맥	-8.95944
이번	-8.96289
▁거리	-8.96317
▁아니다	-8.9635
였던	-8.96351
하려	-8.96442
▁승인	-8.96483
▁인쇄	-8.96496
▁것이며	-8.96529
성을	-8.96563
as	-8.96621
정부	-8.96625
▁for	-8.96678
▁베이징	-8.96731
▁2004	-8.96861
▁총리가	-8.97248
▁검사	-8.97251
▁전화	-8.97348
▁말을	-8.97378
▁한나라당	-8.9741
합니다	-8.97413
▁마을	-8.97527
▁알고	-8.97561
▁잡	-8.97647
▁않는	-8.9771
▁이와	-8.97778
▁마련	-8.97866
▁않았다고	-8.98145
▁석유	-8.98209
▁주택	-8.98234
▁제안	-8.98289
자들이	-8.98454
▁폭탄테러	-8.98531
▁캘리포니아	-8.9864
세의	-8.98832
맨	-8.98875
태	-8.99038
현	-8.99055
▁키	-8.99079
나는	-8.99156
▁요	-8.9924
▁건설	-8.99252
es	-8.99264
▁철수	-8.9928
▁시신	-8.99438
▁디	-8.99462
▁기자회견에서	-8.9951
▁핵무기	-8.99568
▁어제	-8.99748
▁않	-8.99834
▁번째	-8.99881
돌	-8.99931
▁되는	-8.99971
▁국회	-9.00062
▁시작했다	-9.0027
▁보였다	-9.00327
설명	-9.00433
▁s	-9.00801
▁사람이	-9.00808
▁필요한	-9.0085
▁라이스	-9.00862
▁관련된	-9.00965
▁아니라	-9.01139
자는	-9.01166
▁올라	-9.0125
▁결혼	-9.01274
▁너무	-9.01319
▁테	-9.01372
▁수행	-9.01453
씨	-9.01544
is	-9.01574
폭	-9.01651
▁선택	-9.01681
“	-9.01693
▁증거	-9.01716
▁국방부	-9.01719
▁생활	-9.01728
하라	-9.01754
튼	-9.02015
▁해외	-9.02087
▁재개	-9.02334
ation	-9.0251
▁박	-9.02554
왔다	-9.02565
레이	-9.02639
JO	-9.02749
그러나	-9.02797
▁전에	-9.0281
에서도	-9.02868
도록	-9.0287
▁사르코지	-9.02907
▁쓰	-9.02993
▁농	-9.03006
▁도착	-9.03139
단체	-9.0315
년대	-9.03151
▁시설	-9.03307
▁협력	-9.03455
▁브라운	-9.03456
▁우리는	-9.03478
▁타고	-9.03709
▁교육	-9.03713
INS	-9.0382
▁남편	-9.03854
▁인권	-9.03868
글	-9.03899
▁넘	-9.04017
▁받을	-9.04128
사는	-9.04289
▁원문	-9.04314
▁있고	-9.04355
▁티베트	-9.04434
▁이동	-9.04475
▁연합	-9.04492
불	-9.045
▁크	-9.04524
▁작전	-9.04577
년까지	-9.04625
▁아프가니스탄	-9.04711
▁시위대	-9.04819
▁개최	-9.04898
▁노무현	-9.04907
인한	-9.04986
▁결국	-9.04998
블	-9.05013
▁콜롬비아	-9.05094
▁도로	-9.05169
평	-9.0531
▁거부	-9.05406
스타	-9.05417
였	-9.05501
▁변호사	-9.05706
▁참	-9.05727
▁역시	-9.05754
▁삼	-9.05794
▁직원	-9.06084
▁주변	-9.0609
자들	-9.06118
▁네	-9.06278
▁체	-9.06287
▁에너지	-9.06381
▁허	-9.06614
▁내년	-9.06979
▁친구	-9.07064
▁목표	-9.07097
기로	-9.07127
▁2003	-9.07167
▁곧	-9.07229
▁이유로	-9.07243
년에	-9.0726
▁열리는	-9.07302
&	-9.07339
탈	-9.07348
들에	-9.07362
▁경쟁	-9.07404
족	-9.07459
▁참석	-9.07469
링	-9.07499
▁숨졌다	-9.07513
▁격	-9.07688
▁몰	-9.0772
액	-9.07864
▁수준	-9.07942
항	-9.07983
극	-9.08062
별	-9.08098
환	-9.08119
혈	-9.08253
▁인도네시아	-9.08253
▁국무부	-9.0829
축	-9.08389
갈	-9.08404
▁사건에	-9.08425
▁60	-9.08504
기도	-9.08508
비아	-9.08576
▁타임즈	-9.08635
▁몸	-9.08641
▁산업	-9.08741
▁Korea	-9.08842
습	-9.08907
▁암	-9.08913
렸	-9.09048
▁운영	-9.09179
엔	-9.09204
쿠	-9.0929
회사	-9.0936
ri	-9.09467
▁연설	-9.09473
▁편	-9.09819
▁탄	-9.10046
애	-9.10083
센터	-9.10112
▁문제에	-9.10132
▁광	-9.10171
▁이제	-9.10316
▁왕	-9.10347
▁예정이라고	-9.10424
▁전망	-9.10545
▁어떻게	-9.10548
▁행	-9.10658
▁판사	-9.10678
▁최초	-9.10708
독해	-9.10823
▁훈련	-9.10935
▁화요일	-9.10935
밀	-9.11035
▁있	-9.11056
▁E	-9.11075
▁극	-9.11095
▁R	-9.11179
씨는	-9.11249
▁자유	-9.11336
▁근	-9.11582
▁소유	-9.11598
▁시스템	-9.1163
▁회복	-9.11732
▁경선	-9.11763
▁I	-9.11914
▁같다	-9.12062
장이	-9.12092
▁대회	-9.1218
▁re	-9.12271
▁경고	-9.12282
▁레바논	-9.12295
ur	-9.12464
▁알리	-9.12603
하려는	-9.12675
et	-9.12749
율	-9.12768
▁한국인	-9.12772
▁동물	-9.12802
되기	-9.12804
30	-9.12916
▁전문가들은	-9.12986
▁또는	-9.13168
침	-9.13174
▁성장	-9.13202
▁원인	-9.13262
흐	-9.13293
▁임무	-9.13328
일간	-9.13416
▁국영	-9.1342
▁지명	-9.13461
▁커	-9.1347
▁방안	-9.13543
익	-9.1362
▁빈	-9.13651
▁게	-9.13675
▁학생	-9.13747
▁인구	-9.13768
▁태국	-9.13768
▁정보를	-9.1387
만원	-9.13901
▁일정	-9.13918
▁요구했다	-9.14053
▁태	-9.14104
명과	-9.14115
▁U	-9.14129
W	-9.14148
▁이같	-9.14161
▁만나	-9.14182
슈	-9.14188
▁있게	-9.14208
▁사임	-9.14243
▁음악	-9.1429
▁있기	-9.14354
▁31	-9.14395
▁포기	-9.14422
▁멕시코	-9.14493
▁데이비드	-9.14493
▁대선후보	-9.14499
잡	-9.14517
로서	-9.1469
틀	-9.14838
▁200	-9.15057
▁2000	-9.15089
▁제재	-9.15097
▁대신	-9.15154
com	-9.15383
▁국민들	-9.15402
▁중심	-9.15611
▁질	-9.15697
사를	-9.15724
▁주말	-9.15841
▁어린이	-9.15854
▁아프리카	-9.15941
ro	-9.15969
▁받아	-9.15981
▁과학자들	-9.16024
▁무장	-9.16111
▁비디오	-9.16116
▁앞두고	-9.16116
하거나	-9.16247
▁수술	-9.16327
▁정권	-9.16366
st	-9.16488
▁여객기	-9.16526
▁비롯	-9.16532
▁대변인	-9.16533
▁파괴	-9.16544
누	-9.16585
▁칼	-9.16637
▁사망하고	-9.16641
▁양국	-9.16733
우리	-9.16801
se	-9.16904
이자	-9.16916
▁추락	-9.16965
▁발견했다	-9.17003
▁까지	-9.17011
▁배우	-9.17107
▁바로	-9.17131
▁생각한다	-9.17167
▁벌	-9.17309
▁샤	-9.17316
▁사과	-9.17359
▁나타났다	-9.17428
▁구성	-9.17459
시키는	-9.1748
▁부분	-9.17714
▁민간인	-9.17728
▁스타	-9.17814
▁대사관	-9.17849
▁면	-9.17973
▁관할	-9.18264
▁용	-9.18268
▁b	-9.1837
빌	-9.18383
▁갈	-9.18451
▁동부	-9.18457
▁아기	-9.18557
▁촬영	-9.186
▁일이	-9.18666
▁항공	-9.18705
▁제품	-9.18722
▁US	-9.18789
▁전투	-9.18903
랑	-9.18913
▁폭력	-9.18922
능	-9.18926
▁있었던	-9.19065
▁전세계	-9.19068
▁금	-9.19107
9	-9.19182
▁여자	-9.19311
▁자리	-9.19334
▁감시	-9.19392
▁작업	-9.19415
▁북	-9.19422
▁독	-9.19437
▁포함한	-9.19483
▁처	-9.19549
▁행정부	-9.1967
▁정당	-9.19677
▁도움	-9.1972
억달러	-9.19814
안을	-9.19829
한다는	-9.19858
▁대규모	-9.19884
▁쿠	-9.19891
▁주도	-9.19979
▁고려	-9.20007
페	-9.20008
채	-9.20043
▁소식	-9.20237
▁선고	-9.20252
업체	-9.20466
ra	-9.20498
냈다	-9.20533
▁만들어	-9.2058
▁화재	-9.20641
▁아닌	-9.20752
▁국내	-9.20802
패	-9.2084
▁주민	-9.20949
월에	-9.20968
▁총격	-9.21077
▁약속	-9.21361
▁여전	-9.21366
▁가지	-9.21518
사건	-9.21521
▁로버트	-9.21583
▁기대	-9.21621
▁f	-9.21805
▁책임	-9.2186
름	-9.21922
북	-9.21943
▁살고	-9.21943
▁교수는	-9.22166
▁특별	-9.22272
▁복	-9.22369
▁찾아	-9.22393
el	-9.22434
펠	-9.22447
▁무장세력	-9.22451
▁가지고	-9.22582
▁내려	-9.22656
▁의원은	-9.22678
▁출	-9.22695
▁촉구했다	-9.22835
▁밝혀졌다	-9.22896
퍼센트	-9.22911
▁보여주	-9.23091
리스	-9.23108
센	-9.23117
톤	-9.23186
▁부대	-9.23235
▁세력	-9.23235
엘	-9.23243
▁온라인	-9.23323
▁국	-9.23334
▁작품	-9.23339
▁계약	-9.23365
▁2002	-9.23372
▁실시	-9.23383
▁항의	-9.234
올	-9.23624
규	-9.23648
)'	-9.23681
엄	-9.23758
▁규정	-9.23766
시켜	-9.23807
▁총선	-9.2416
▁0	-9.2417
담	-9.24198
▁가자지구	-9.24207
▁수치	-9.24229
▁수단	-9.24232
▁특히	-9.24283
▁순	-9.24326
200	-9.24413
▁선정	-9.24413
▁인간	-9.24584
▁안보	-9.24612
▁붕괴	-9.2465
총	-9.2465
▁연료	-9.24714
▁그들의	-9.24757
▁수감	-9.24804
▁최	-9.24836
해왔다	-9.24936
▁입은	-9.24938
▁맡	-9.24987
창	-9.25032
▁입었다	-9.25041
us	-9.25073
▁월요일	-9.25096
▁수입	-9.25145
관계	-9.25156
▁악	-9.25173
▁앤	-9.25204
이어	-9.25291
20	-9.25332
▁LA	-9.25358
레스	-9.25402
▁놓	-9.25423
▁되	-9.25487
▁캐	-9.25581
자회담	-9.25632
랜	-9.25711
▁경기에서	-9.25779
▁인수	-9.25833
▁말한다	-9.2597
▁부통령	-9.25995
ion	-9.26053
▁설치	-9.26073
▁나이	-9.26099
▁받았	-9.26117
▁이상이	-9.26129
▁안에	-9.26298
▁책	-9.26316
힌	-9.26443
▁홍콩	-9.26448
▁차지	-9.26532
술	-9.26594
경기	-9.26599
하겠다	-9.26641
▁작은	-9.26703
il	-9.26894
▁웹사이트	-9.26914
▁최종	-9.26931
빈	-9.26937
샤	-9.2694
▁시험	-9.26952
▁관계자가	-9.26961
하다고	-9.27029
▁퍼	-9.27074
▁가족들	-9.27223
▁심각한	-9.27297
▁부부	-9.27318
허	-9.27361
▁푸틴	-9.27363
▁노동	-9.27488
스터	-9.2756
▁열차	-9.2763
셔	-9.27817
▁기소	-9.27847
▁세금	-9.27898
▁외교	-9.27928
▁증시	-9.2794
▁담당	-9.28057
▁창	-9.28081
▁필요하다	-9.28255
▁메시지	-9.2828
▁밝힌	-9.28283
▁대의원	-9.28317
▁경고했다	-9.28387
▁인기	-9.28418
▁글	-9.28583
▁병	-9.28657
ent	-9.28659
▁p	-9.28686
▁없을	-9.28741
▁가치	-9.28796
▁파업	-9.28821
▁숨	-9.28836
▁환자	-9.28878
▁플로리다	-9.28961
▁개선	-9.28974
▁반응	-9.29223
▁과거	-9.29245
▁짐바브웨	-9.29352
책	-9.29438
▁아무	-9.29522
기구	-9.29544
▁미국인	-9.2962
▁기념	-9.29658
▁주식	-9.29737
줄	-9.29948
▁엘	-9.30084
▁학생들	-9.30108
▁캐나다	-9.30143
ter	-9.30146
션	-9.30243
▁중인	-9.30249
▁회	-9.30281
▁일을	-9.30296
례	-9.30379
▁발표한	-9.3048
▁슈	-9.30501
▁마이클	-9.30616
▁움직임	-9.30621
▁암살	-9.30653
대로	-9.30693
▁다양	-9.3073
슬	-9.30773
▁문화	-9.30816
▁광고	-9.30839
▁임명	-9.30906
향	-9.30938
▁벌였다	-9.30952
▁외국인	-9.30965
시장	-9.30997
▁비해	-9.31001
때	-9.3102
릭	-9.31041
▁라디오	-9.31089
▁구속	-9.31188
변	-9.31374
시키	-9.31385
▁얼마	-9.3147
▁섬	-9.31509
▁폭	-9.31654
로운	-9.32117
▁보수	-9.32178
여명	-9.32221
폐	-9.32315
▁콜	-9.32482
▁대만	-9.32491
▁국가들	-9.3254
▁돌아	-9.32639
▁프로	-9.32656
▁서부	-9.32871
염	-9.3292
▁통제	-9.33049
▁기록했다	-9.33084
▁강제	-9.33245
년부터	-9.33328
▁지역의	-9.33367
▁브라질	-9.33493
▁서로	-9.33528
▁식량	-9.33533
▁위반	-9.33573
▁중동	-9.33622
▁힐	-9.33659
쉬	-9.3369
▁진압	-9.33773
▁브	-9.33846
▁이라크에서	-9.33892
▁헬기	-9.33944
▁어머니	-9.3398
▁스미스	-9.33982
▁씨	-9.34009
▁여름	-9.34011
▁지지자들	-9.34245
▁관리들	-9.34268
시키기	-9.34297
▁가스	-9.34307
500	-9.34388
▁했다고	-9.34422
▁이유	-9.34446
▁케냐	-9.34476
▁실험	-9.34498
▁유명	-9.34503
▁지불	-9.34565
▁취소	-9.34625
▁휴	-9.34646
▁머리	-9.34659
▁파리	-9.34675
▁수출	-9.3477
겼다	-9.34832
▁외국	-9.34832
▁그런	-9.34857
▁선언	-9.34905
드는	-9.34978
▁명령	-9.35011
▁선출	-9.35031
▁국무장관	-9.35035
▁w	-9.3504
이었던	-9.35065
▁울	-9.35085
▁추진	-9.35099
▁기관	-9.35195
▁법안	-9.35215
▁내렸다	-9.35249
럼	-9.35404
앙	-9.35484
▁각각	-9.35494
광	-9.35557
▁관광	-9.35562
▁위치	-9.35602
▁같이	-9.35629
거리	-9.35663
▁비용	-9.35754
국가	-9.35896
움	-9.359
▁시아파	-9.35958
되	-9.35976
▁소송	-9.35987
수가	-9.36252
로스	-9.36296
▁대변인이	-9.363
▁제한	-9.36329
▁밖에	-9.36336
▁뉴	-9.36391
▁감염	-9.3641
▁제출	-9.36442
▁평균	-9.36466
▁후보가	-9.36517
▁일반	-9.36543
▁해군	-9.36594
▁역	-9.36741
▁장소	-9.36747
▁권리	-9.36802
▁de	-9.36894
은행	-9.3705
▁위성	-9.37056
▁시즌	-9.37062
▁축구	-9.37153
▁배치	-9.3731
▁수십	-9.37336
▁하원	-9.37355
▁미국에서	-9.37377
▁인상	-9.37404
▁접근	-9.37469
▁경험	-9.37487
▁탈	-9.37555
▁목적	-9.3756
▁임	-9.37575
▁쇼	-9.37642
▁제기	-9.37653
▁차례	-9.37727
▁전달	-9.37768
=2	-9.37801
협회	-9.37864
▁여론조사	-9.37924
▁프리	-9.37929
검	-9.3795
▁과정에서	-9.38059
▁나온	-9.38123
▁전시	-9.38249
▁텍사스	-9.38259
im	-9.38278
착	-9.38295
동안	-9.38312
▁않아	-9.38332
ol	-9.3861
th	-9.38718
▁처리	-9.38768
▁식	-9.38789
▁차이	-9.38911
▁파병	-9.39117
▁급	-9.39122
▁나는	-9.39157
▁발견됐다	-9.39195
▁향	-9.39279
▁사건이	-9.39282
것	-9.39301
▁일본의	-9.39363
▁거주	-9.39424
일까지	-9.39451
▁사원	-9.39454
텔	-9.39484
▁내무부	-9.3951
▁결의안	-9.3952
었	-9.39647
벨	-9.39649
▁신고	-9.39658
▁무역	-9.39678
학자	-9.39693
▁공연	-9.39698
▁사형	-9.39699
▁h	-9.39762
니다	-9.39864
▁버스	-9.39972
▁걸쳐	-9.40052
▁당신	-9.40123
시키고	-9.40157
▁자료	-9.40167
ir	-9.40177
▁귀	-9.40269
턴	-9.40368
이드	-9.40418
하지만	-9.40519
▁파견	-9.40588
개국	-9.40726
▁경찰에	-9.40773
었습니다	-9.40857
▁제조	-9.40903
이란	-9.40976
했다는	-9.40986
x	-9.41049
▁항공사	-9.41072
▁2007	-9.41104
▁의미	-9.41208
▁제시	-9.4131
가지	-9.4145
퇴	-9.41494
▁전국	-9.416
▁헌법	-9.41621
▁음식	-9.41626
▁다리	-9.41705
▁상황이	-9.41784
리고	-9.41803
5000	-9.4183
▁사이에	-9.41885
▁사실이	-9.41903
▁수상	-9.41906
▁설명	-9.41948
▁주재	-9.41991
▁살인	-9.42052
▁개혁	-9.42143
▁설립	-9.42146
▁허용	-9.42197
▁사랑	-9.42202
▁집중	-9.42206
▁센터	-9.42232
▁500	-9.42241
▁대비	-9.42253
대가	-9.42314
측은	-9.42323
▁대상으로	-9.42341
▁부상했다	-9.42369
▁긴장	-9.42387
▁안정	-9.42582
새	-9.42658
▁이에앞서	-9.42659
▁논쟁	-9.42659
▁수요일	-9.42689
지도	-9.42737
▁위원회	-9.42738
▁발전	-9.42742
▁80	-9.42796
▁평가	-9.4286
스가	-9.42951
▁J	-9.42953
▁주지사	-9.43001
▁대피	-9.4308
하였다	-9.43092
중인	-9.43124
▁바이러스	-9.43198
▁부모	-9.43245
▁사퇴	-9.43254
트는	-9.43267
▁터	-9.43389
▁것과	-9.43452
▁/	-9.43514
사가	-9.43562
▁넘어	-9.43645
10	-9.43685
기가	-9.43692
▁관계자들은	-9.43709
▁성폭행	-9.43732
▁공습	-9.43796
장에서	-9.43834
▁그룹	-9.4389
송	-9.43917
▁따	-9.43936
▁명이	-9.44065
▁희망	-9.44097
▁교수	-9.4414
률	-9.44238
▁아내	-9.44238
냐	-9.44259
▁교황	-9.44289
▁대해서는	-9.44306
▁알려진	-9.44311
▁목	-9.44409
▁결정했다	-9.44419
▁The	-9.44433
▁인물	-9.44474
▁받는	-9.44577
▁차베스	-9.44816
▁환영	-9.44831
▁혼란	-9.44843
조사	-9.44851
▁후세인	-9.44853
▁압력	-9.4486
▁발견된	-9.44882
▁집회	-9.44966
했	-9.44997
킹	-9.45007
세기	-9.45048
▁유일	-9.45158
▁m	-9.45198
▁한다는	-9.45238
십	-9.4525
째	-9.45317
▁단계	-9.45326
▁완전	-9.45364
▁관해	-9.45379
킨	-9.45492
쳤다	-9.45587
▁황	-9.45724
까	-9.45809
▁당선	-9.45815
낼	-9.45862
▁바란다	-9.45915
▁주민들	-9.45926
▁EU	-9.45936
▁상대로	-9.45972
알	-9.46035
▁익명	-9.46037
▁요청했다	-9.46104
ID	-9.46123
명으로	-9.46128
▁교통	-9.46137
▁교전	-9.46219
▁그들이	-9.46235
▁마약	-9.46236
▁교회	-9.46279
sp	-9.46389
▁신원	-9.46494
손	-9.46557
▁변호사는	-9.4668
이라크	-9.46704
라며	-9.46796
었다고	-9.46866
▁대응	-9.47044
▁야후	-9.4705
ate	-9.47177
▁죽음	-9.47192
▁예상된다	-9.47212
▁집단	-9.47212
벌	-9.47234
▁이래	-9.47354
문제	-9.47406
칠	-9.47418
있	-9.47419
▁질문	-9.47436
▁기지	-9.47482
▁되어	-9.47494
▁복귀	-9.47587
▁시리아	-9.47686
▁기사	-9.47806
▁왕자	-9.47899
험	-9.47939
하기도	-9.47975
▁절	-9.48043
▁on	-9.48074
▁이명박	-9.48141
▁밝혔습니다	-9.48146
▁후보는	-9.48186
▁구매	-9.48226
악	-9.4823
▁로마	-9.48317
▁아직까지	-9.48333
▁크게	-9.48346
▁불만	-9.48479
2%	-9.48588
▁남북	-9.48609
▁미래	-9.48629
▁탑승	-9.48683
▁있지	-9.48689
▁필	-9.48708
▁북핵	-9.48709
▁끝	-9.48781
▁고용	-9.48895
찰	-9.48915
▁설	-9.49027
▁업체	-9.49037
▁접	-9.49048
▁받지	-9.49074
▁정신	-9.49104
▁나가	-9.49117
수를	-9.49175
▁일어나	-9.49278
▁폭력사태	-9.4928
▁증	-9.49294
▁특	-9.49362
lo	-9.49387
▁이곳	-9.4942
▁남한	-9.49425
되었습니다	-9.49464
볼	-9.49521
3%	-9.4953
방송	-9.49591
▁가정	-9.49657
▁인터뷰	-9.49684
▁중앙	-9.49778
▁저장	-9.49807
▁심장	-9.4982
U	-9.49834
햄	-9.49845
▁부정	-9.49886
▁계	-9.49911
▁사람은	-9.49976
▁뇌	-9.50022
▁임시	-9.50036
▁중국은	-9.50218
자와	-9.50259
일부터	-9.5029
되었다고	-9.50412
▁이집트	-9.50421
대의	-9.50425
▁효과	-9.50433
▁표현	-9.50445
▁따라	-9.50448
▁시민	-9.50453
la	-9.50471
▁연결	-9.50488
▁허가	-9.5053
▁베네수엘라	-9.5058
녀	-9.50631
▁아니라고	-9.50901
▁사람들을	-9.50945
롭	-9.50963
▁민주주의	-9.51011
▁따른	-9.51013
▁비밀	-9.51109
견	-9.51174
기관	-9.51235
ut	-9.51279
델	-9.51287
▁내리	-9.51317
▁관계자	-9.51332
충	-9.51339
▁측	-9.51364
▁위해서는	-9.51428
▁홀	-9.51503
▁마크	-9.51527
효	-9.51559
▁목요일	-9.51579
▁교도소	-9.5158
▁여론	-9.51659
성이	-9.51723
존	-9.51729
서는	-9.51733
▁때까지	-9.51757
▁정부와	-9.51806
으로서	-9.519
▁판	-9.52107
칭	-9.52137
얼	-9.5214
▁사이트	-9.52151
▁검토	-9.52165
▁시카고	-9.52167
▁최악	-9.52174
▁모델	-9.52204
▁권력	-9.52227
▁쿠바	-9.52249
▁받게	-9.52252
▁적이	-9.52256
▁여사	-9.52261
▁실패	-9.52306
▁팬들	-9.5238
리자	-9.52409
이지만	-9.52558
욕	-9.52697
시아	-9.52733
▁여기	-9.52766
▁과정	-9.52801
▁합니다	-9.5285
▁2001	-9.52902
▁임기	-9.52995
자로	-9.5301
▁만들	-9.5304
▁비판	-9.53066
었던	-9.53168
으	-9.53188
폰	-9.53313
▁장면	-9.53322
op	-9.53337
▁프라이머리	-9.53343
▁높이	-9.53344
▁무장단체	-9.53361
▁분야	-9.53531
▁슬	-9.53552
▁g	-9.53605
▁가졌다	-9.53644
▁깊	-9.53649
몬	-9.537
▁웨	-9.53716
▁내부	-9.53751
낸	-9.5376
▁매년	-9.53774
숙	-9.53806
▁사는	-9.53917
▁상원의원이	-9.53967
▁못하고	-9.53981
▁진출	-9.53996
▁이해	-9.54034
▁사라	-9.54119
▁해리	-9.54123
▁병사	-9.54139
만이	-9.54149
순	-9.54171
▁동료	-9.54246
▁입원	-9.54247
▁수색	-9.54251
인들이	-9.54276
ist	-9.54308
되면서	-9.5433
▁완	-9.5435
▁백	-9.54396
그는	-9.54456
▁계획이다	-9.54467
▁철	-9.54492
▁일요일	-9.5454
▁분쟁	-9.54558
▁사무실	-9.54562
▁두고	-9.54565
북한	-9.54577
▁거대	-9.54619
▁예측	-9.54679
▁뿐	-9.5479
▁자체	-9.5479
▁넣	-9.54804
▁공격으로	-9.54806
▁시행	-9.54812
▁언급했다	-9.54812
▁be	-9.54836
▁보냈다	-9.54867
헌	-9.5498
▁강력한	-9.55052
▁보건	-9.55062
▁필리핀	-9.5514
▁이끄는	-9.55143
▁아랍	-9.55166
▁국립	-9.5517
인들은	-9.55176
▁선박	-9.55202
▁수많은	-9.55248
▁유권자들	-9.55252
▁분석	-9.55264
▁소방	-9.55328
▁도움이	-9.55405
▁나왔다	-9.5542
ers	-9.55533
▁들어가	-9.55547
▁밝혀	-9.55574
▁못한	-9.55576
▁민	-9.5565
찬	-9.55655
치는	-9.55674
거래	-9.55707
▁라이	-9.55735
▁버지니아	-9.55746
다면	-9.55784
쟁	-9.55793
인지	-9.55813
ow	-9.55883
▁밝히지	-9.5604
▁지도자들	-9.56077
▁달리	-9.56099
▁장기	-9.56108
통신	-9.56244
‘	-9.56247
▁보고서는	-9.56294
▁사항	-9.563
느	-9.56317
좌	-9.56343
▁오른	-9.56446
4%	-9.56456
▁벤	-9.56503
▁의료	-9.56506
▁학	-9.56562
▁향해	-9.56594
▁바다	-9.56767
▁강한	-9.56944
▁주가	-9.56958
▁한반도	-9.56971
▁관계자들	-9.56977
-1	-9.57016
▁보여	-9.5702
▁선두	-9.57068
▁폐	-9.57093
기간	-9.57126
▁형	-9.5713
금을	-9.57171
▁떠나	-9.57182
▁되고	-9.57202
▁이루	-9.57227
▁항공기	-9.5725
법원	-9.57299
▁의장	-9.57407
다른	-9.57409
▁수익	-9.57469
객	-9.5747
▁전력	-9.57488
봉	-9.57488
논	-9.57521
냉	-9.57587
▁확인했다	-9.57605
겠다	-9.57619
▁과학	-9.57799
▁관광객	-9.57821
▁상대	-9.57847
▁군대	-9.57949
지에	-9.57983
▁심리	-9.58013
ment	-9.58131
철	-9.58151
▁비슷	-9.58208
딘	-9.58208
▁빠져	-9.58209
▁흑인	-9.58221
▁긴급	-9.58225
▁힘들	-9.58294
▁누구	-9.5831
▁약물	-9.58362
주의자	-9.58368
▁가져	-9.58388
▁정부에	-9.58434
ot	-9.58506
▁작년	-9.58521
람	-9.58556
▁UN	-9.58559
id	-9.58723
스크	-9.58739
▁제거	-9.58821
▁나머지	-9.58834
▁칸	-9.5893
▁저지	-9.58964
▁종교	-9.59017
▁전략	-9.59038
▁주지사는	-9.59073
▁레이	-9.59282
▁지진	-9.59297
▁올랐다	-9.59462
▁사우디	-9.59483
▁전자	-9.59485
▁맺	-9.59493
이라	-9.59554
▁범인	-9.59573
▁고통	-9.59851
▁소년	-9.59935
▁부상자	-9.59936
▁막기	-9.59967
▁유권자	-9.59984
▁목숨	-9.60095
▁숨지고	-9.60099
경찰	-9.60111
▁육	-9.60206
▁선수들	-9.60251
▁소재	-9.60252
▁소리	-9.60347
▁소비자	-9.60494
여명이	-9.60588
▁희생자	-9.60608
음을	-9.60689
▁도쿄	-9.60732
▁다음달	-9.60795
▁만든	-9.6083
▁오르	-9.60857
▁진행되	-9.60884
▁갖	-9.61131
▁1000	-9.61151
▁대사	-9.61187
관리	-9.61235
▁대중	-9.6128
▁O	-9.61371
싱	-9.61372
▁정상회담	-9.61381
▁분리	-9.61428
▁국방장관	-9.6148
르는	-9.6152
ig	-9.61574
▁시기	-9.61614
▁감사	-9.61865
▁혼	-9.61974
랄	-9.62012
▁제임스	-9.62019
▁어느	-9.6205
▁근무	-9.62086
섬	-9.62094
▁제외	-9.62174
▁악화	-9.62247
▁북한에	-9.62282
▁받았다고	-9.62339
▁없었	-9.62341
▁사람들에게	-9.62422
ck	-9.62437
행위	-9.62468
▁주장하고	-9.62488
▁가능한	-9.62523
ve	-9.62523
▁있다며	-9.62578
ive	-9.62841
▁법정	-9.6289
▁올리	-9.6298
ce	-9.63044
베이	-9.63141
리가	-9.63184
▁준	-9.63188
▁싶다	-9.63321
▁외무부	-9.63321
▁경찰관	-9.63322
▁충격	-9.63336
▁출발	-9.63363
▁총기	-9.63376
▁만큼	-9.63402
▁인질들	-9.63413
▁착륙	-9.63427
위에	-9.63485
▁질문에	-9.63571
▁이라크전	-9.63606
▁넘는	-9.63646
▁집행	-9.63715
▁노조	-9.63727
▁항	-9.63748
취	-9.63863
분기	-9.63902
▁아니	-9.63913
▁현대	-9.63927
Ch	-9.63957
만한	-9.63972
▁적어도	-9.6398
▁뛰어	-9.64029
▁정도로	-9.64048
한다면	-9.64076
▁군부	-9.64106
자금	-9.64283
▁끝에	-9.64414
널	-9.64416
▁풍	-9.64438
▁것이라	-9.64448
▁작가	-9.64482
▁되었다	-9.64487
▁동의	-9.64524
▁붙	-9.64559
▁인사	-9.64643
▁곳에서	-9.64668
▁보낸	-9.64695
되며	-9.6472
안에	-9.64744
척	-9.64789
마다	-9.64825
▁여당	-9.64895
▁불안	-9.64897
▁자국	-9.64947
▁권	-9.64956
▁가까	-9.65002
사회	-9.65218
들도	-9.65307
▁어떠한	-9.65307
▁허리케인	-9.65307
▁작업을	-9.65313
▁수천	-9.65351
▁의혹	-9.65358
▁패배	-9.65366
40	-9.65555
선거	-9.65693
▁공장	-9.65693
스와	-9.65709
▁후에	-9.65808
ap	-9.65821
장관	-9.65873
▁접촉	-9.65982
▁떠	-9.66076
▁동결	-9.66095
▁중에	-9.66117
▁직원들	-9.66137
▁직	-9.66171
▁수천명	-9.66204
▁공공	-9.6622
였습니다	-9.66301
▁발생했다고	-9.66347
▁하기	-9.66393
Y	-9.66512
황	-9.66605
▁무엇	-9.6663
씩	-9.66654
▁전문가	-9.66682
▁일자리	-9.66713
▁보장	-9.6672
▁출마	-9.66768
▁되지	-9.66782
어질	-9.66787
▁전기	-9.66799
둔	-9.66828
▁다이애나	-9.6707
▁양측	-9.67071
70	-9.6713
▁여성들	-9.67176
▁끌어	-9.67335
▁없어	-9.67335
▁확대	-9.67335
▁모른다	-9.67335
▁폭풍	-9.67342
▁압박	-9.67348
▁승객	-9.67382
▁st	-9.67426
▁삶	-9.67435
▁유명한	-9.67513
▁여성이	-9.67571
▁나와	-9.67581
귀	-9.67582
▁이달	-9.67656
▁푸	-9.67782
▁발생해	-9.67783
all	-9.67949
컵	-9.68017
▁증언	-9.68043
▁입고	-9.68081
▁300	-9.68166
스톤	-9.68233
▁고문	-9.68242
▁합의했다	-9.68254
대통령	-9.6826
▁35	-9.68316
스키	-9.68382
▁유로	-9.68427
▁쉬	-9.68429
▁지속	-9.68474
▁합	-9.68496
▁방문한	-9.68531
▁사상	-9.6864
빙	-9.68649
▁어려움	-9.68714
▁환	-9.68724
7%	-9.68726
▁유죄	-9.68745
니스	-9.68758
▁사진을	-9.68785
▁완화	-9.68824
▁찰스	-9.68892
겠다고	-9.68926
▁구호	-9.6893
ay	-9.6895
▁피해자	-9.68962
▁자연	-9.68973
ly	-9.68991
J	-9.68999
▁주의	-9.69008
▁등의	-9.69043
▁동원	-9.69049
▁오바마가	-9.6924
이것은	-9.69283
▁외무장관	-9.69404
▁확신	-9.69464
▁아주	-9.69491
▁마리	-9.69517
▁수백	-9.69519
▁미군이	-9.69527
▁작성	-9.69529
▁묻	-9.69644
▁지배	-9.69691
▁대표는	-9.69814
▁십	-9.69837
기에	-9.69918
▁군인	-9.69957
▁듯	-9.70029
▁로켓	-9.70093
▁소말리아	-9.70103
▁목소리	-9.70103
▁소녀	-9.70145
었으며	-9.70147
▁경매	-9.70171
▁홍보	-9.70182
est	-9.70244
스러운	-9.70276
▁것인지	-9.70299
▁지도자인	-9.70322
▁대해서	-9.7037
▁병원에	-9.70383
였다고	-9.70442
테러	-9.70501
해졌다	-9.70507
▁끝나	-9.70546
▁마음	-9.70581
마일	-9.70607
▁바라	-9.70761
백만	-9.70789
▁주민들이	-9.70789
▁않았지만	-9.70807
▁시상식	-9.70808
▁능력	-9.70812
▁대화	-9.70821
▁전반	-9.70886
▁바람	-9.70895
근	-9.70946
▁체포됐다	-9.70974
▁가질	-9.71035
▁그리스	-9.71045
센트	-9.71046
▁존스	-9.71075
원은	-9.71334
▁화	-9.71339
▁현장	-9.71386
▁시간이	-9.71413
▁연장	-9.71485
j	-9.71516
▁신뢰	-9.71531
월부터	-9.71554
▁평양	-9.71568
▁나오	-9.71609
▁숨진	-9.71618
운동	-9.71655
▁총재	-9.71671
▁등록	-9.71675
▁심각	-9.71678
▁적용	-9.71715
▁모르	-9.71737
▁망명	-9.71764
▁의원들	-9.71779
▁해제	-9.71801
주는	-9.71801
▁공군	-9.71867
▁언론은	-9.71973
부는	-9.72078
징	-9.72171
▁승	-9.72175
켓	-9.72211
균	-9.72214
▁게이츠	-9.72233
▁취임	-9.72259
▁머물	-9.7227
▁연구소	-9.72282
▁절차	-9.72297
▁카운티	-9.72381
▁티	-9.72427
왔	-9.72483
타임	-9.72496
막	-9.72578
▁관련해	-9.72649
힐	-9.72684
표를	-9.72714
▁카메라	-9.72737
▁대법원	-9.72739
▁사건은	-9.72799
옥	-9.72891
▁말레이시아	-9.7295
싼	-9.7295
▁걱정	-9.7295
▁프로젝트	-9.7295
▁휴대폰	-9.72952
▁트럭	-9.72956
▁법적	-9.7297
슨은	-9.72997
조치	-9.73063
▁상당	-9.73075
▁못하	-9.73083
▁존재	-9.73112
드로	-9.73114
▁잔	-9.73126
▁목표로	-9.73155
▁아베	-9.732
▁서명	-9.73202
▁그것은	-9.73212
▁반대하는	-9.73225
▁강력	-9.73256
했는데	-9.73275
▁유세	-9.73284
▁기억	-9.73308
▁전문	-9.7341
쇼	-9.73412
▁소비	-9.73441
▁최고의	-9.73523
럽	-9.73567
▁보이는	-9.73624
닝	-9.73675
▁느끼	-9.73675
▁청와대	-9.73676
▁아무런	-9.73699
▁여왕	-9.73701
▁물론	-9.73808
▁오래	-9.73901
▁신용	-9.74013
▁당선인	-9.7404
▁크리스	-9.74104
▁블	-9.7412
60	-9.74174
영화	-9.74246
▁젊은	-9.74311
틴	-9.74322
갑	-9.74362
▁힐튼	-9.74423
▁순간	-9.74494
▁항상	-9.74516
었고	-9.74543
스턴	-9.74561
▁영어	-9.74769
제도	-9.74773
도시	-9.74847
중국	-9.74859
The	-9.74922
▁등을	-9.74934
▁운전	-9.74978
▁술	-9.75072
▁바이	-9.75122
▁신화통신	-9.7514
웰	-9.7514
▁마드리드	-9.7514
▁촉구	-9.75201
▁추정	-9.7524
6%	-9.75346
▁옷	-9.75394
▁즐	-9.75432
으려	-9.75457
▁이라크에	-9.75491
▁사기	-9.75519
장에	-9.75638
#	-9.75671
활동	-9.75703
연합	-9.75746
셀	-9.75765
정책	-9.75801
▁들고	-9.75839
▁수석	-9.75843
텐	-9.75874
젤	-9.75881
▁밝혀지지	-9.75882
▁지하	-9.7589
▁운행	-9.75896
▁오픈	-9.75918
▁투입	-9.75923
세트	-9.75945
▁지역을	-9.75956
▁경제적	-9.7599
▁놓고	-9.75997
▁신청	-9.76051
▁자주	-9.76137
▁그린	-9.76161
물을	-9.76171
▁수용	-9.76185
▁박물관	-9.76333
11	-9.7642
ia	-9.76468
념	-9.76543
X	-9.76627
젠	-9.76627
▁법률	-9.76655
▁국제사회	-9.76664
▁상징	-9.76672
관은	-9.76687
▁고래	-9.76756
▁법안을	-9.7676
75	-9.76804
▁도중	-9.76878
19	-9.7693
▁해야	-9.77083
제를	-9.77139
시설	-9.77175
궁	-9.77181
완	-9.77227
▁만약	-9.7725
뉴	-9.77268
공격	-9.77323
럴	-9.77345
▁챔피언	-9.77379
▁나타나	-9.7738
▁수니파	-9.77381
▁이수지	-9.77407
▁판단	-9.77475
▁집권	-9.77487
▁시작된	-9.7751
대표	-9.77513
▁도전	-9.77553
▁좀	-9.77565
▁선거에서	-9.77567
▁비상	-9.7771
스코	-9.77778
▁프	-9.77791
▁확산	-9.7784
▁굴	-9.77874
▁좋아	-9.77901
당한	-9.77918
왕	-9.77972
▁있음을	-9.77974
▁본부	-9.77991
접	-9.7804
▁90	-9.78099
80	-9.78101
뤄	-9.78132
팅	-9.78136
▁얼굴	-9.78136
▁미군은	-9.78144
▁베컴	-9.7815
▁토론	-9.7816
▁작	-9.78208
▁연속	-9.78237
▁이전에	-9.78238
국장은	-9.7826
▁헌	-9.78301
▁집계	-9.78303
▁피터	-9.78332
▁비자	-9.78354
▁벌금	-9.78489
)/	-9.78509
▁윌리엄	-9.78516
▁조건	-9.78661
▁회담에서	-9.78765
▁수반	-9.78818
▁동시	-9.78821
▁늘어	-9.78831
으면	-9.78865
▁올메르트	-9.789
▁잉글랜드	-9.789
닐	-9.789
▁아파트	-9.78901
▁억류	-9.78905
▁애플	-9.78935
로써	-9.78972
▁전까지	-9.78985
▁부패	-9.79004
▁구입	-9.79007
▁타이	-9.79008
▁정말	-9.79038
▁진정	-9.79151
▁가수	-9.79179
해진	-9.79189
학교	-9.79216
었지만	-9.79336
회사인	-9.7958
만명이	-9.79599
▁연설에서	-9.7963
▁기회	-9.79642
▁스포츠	-9.79669
달러를	-9.79727
산업	-9.79732
▁자녀	-9.79738
▁물질	-9.79776
위로	-9.79791
▁찬성	-9.79799
▁영상	-9.79804
▁분노	-9.79827
장관은	-9.7986
▁전통	-9.79911
▁소식통	-9.79912
쪽	-9.79969
▁차기	-9.80035
▁연합군	-9.80074
▁부문	-9.80153
▁사상자	-9.80178
전에	-9.80215
▁겪고	-9.80444
▁크리스마스	-9.80444
▁직후	-9.80467
▁확실	-9.80512
▁마무리	-9.80542
들로	-9.80615
te	-9.80637
▁깨	-9.80661
▁정부군	-9.80664
▁민주	-9.80669
자들의	-9.80741
▁대형	-9.80749
▁개의	-9.80768
▁체포했다	-9.80935
▁한미	-9.81007
▁낮	-9.81067
▁땅	-9.81101
V	-9.81133
▁곳에	-9.81186
▁강조	-9.8121
▁블레어	-9.81225
▁블랙	-9.81228
▁주민들은	-9.81309
▁머	-9.8135
보호	-9.81384
시킨	-9.81416
트리	-9.81422
니는	-9.81422
▁핵심	-9.81426
▁대처	-9.81441
700	-9.81518
▁외교부	-9.81533
▁모여	-9.81589
▁축하	-9.81594
▁수정	-9.816
cat	-9.8166
▁한국은	-9.81763
▁마감	-9.8177
드리	-9.81781
킬	-9.81794
▁있는지	-9.81815
▁선포	-9.81965
윈	-9.82003
▁고양이	-9.82015
▁시대	-9.82039
▁늘	-9.82075
▁임신	-9.82088
ver	-9.821
▁휴전	-9.82182
▁당했다	-9.82221
▁경계	-9.82229
▁사살	-9.82343
▁밝히	-9.82355
▁동맹	-9.82359
▁가능	-9.82402
▁영국의	-9.82442
▁구제	-9.8268
놓	-9.82727
▁찬	-9.82792
▁협의	-9.82806
라운드	-9.82812
▁비상사태	-9.82812
▁언제	-9.82813
▁몇몇	-9.82814
▁스스로	-9.82816
▁놀	-9.8285
▁원자로	-9.82863
▁산불	-9.82864
트로	-9.82942
▁그러	-9.82972
▁나토	-9.83058
▁때문	-9.83213
했는지	-9.83278
▁병원에서	-9.83353
▁con	-9.83391
▁약간	-9.83428
▁씨는	-9.83429
어진	-9.8347
▁요원	-9.83508
▁맞아	-9.83509
▁이밖에	-9.83606
▁빠른	-9.83607
▁보이고	-9.83607
▁클럽	-9.83607
▁탁신	-9.83607
▁빠르	-9.83609
몰	-9.83613
▁BBC	-9.8362
▁처벌	-9.83622
▁감축	-9.83652
▁난민	-9.83663
▁소지	-9.83682
▁최신	-9.83686
▁성인	-9.83726
▁노출	-9.8374
니아	-9.8379
▁소장	-9.83812
▁팬	-9.83816
▁녹	-9.83917
▁무사	-9.83963
상의	-9.84096
mo	-9.84122
▁문서	-9.84132
▁유사	-9.84187
▁풀	-9.84208
▁실시된	-9.84309
▁헬	-9.84344
군이	-9.84346
▁보안관	-9.84359
▁높다	-9.84413
▁떨어져	-9.84413
▁협정	-9.84413
▁할리우드	-9.84413
▁일어난	-9.84413
▁업무	-9.84417
▁고속도로	-9.84427
함으로써	-9.84439
▁절반	-9.84452
암	-9.84466
사의	-9.84498
특	-9.84519
▁엔	-9.84523
▁보이지	-9.84536
끼	-9.84545
▁단지	-9.84571
▁조금	-9.8463
▁현상	-9.84771
▁이란이	-9.84823
▁차지했다	-9.84891
▁대책	-9.84968
▁이틀	-9.84995
▁트레	-9.85015
▁돌아가	-9.85036
▁케	-9.85043
필	-9.85059
원이	-9.85064
▁받	-9.85118
였으며	-9.85118
이었다고	-9.85135
롤	-9.85216
joins	-9.85225
▁스피어스	-9.85226
겐	-9.85226
▁코소보	-9.85226
혹	-9.85264
▁나타냈다	-9.85297
▁오랜	-9.85325
하길	-9.85362
▁조작	-9.85425
ies	-9.8547
▁내각	-9.85495
▁중이다	-9.85519
▁알려지	-9.85553
▁강타	-9.85576
▁발생할	-9.85588
선수	-9.8561
▁가량	-9.8561
▁나무	-9.85621
▁실수	-9.85638
▁압	-9.85643
▁의원이	-9.85654
▁치안	-9.85702
월까지	-9.85726
택	-9.85771
스카	-9.85786
▁아마	-9.858
국인	-9.85889
▁받기	-9.85911
▁컨	-9.8597
▁이와같	-9.86017
▁북한과	-9.86025
▁대화를	-9.86041
렉	-9.86045
▁찾기	-9.86046
▁크리스토퍼	-9.86046
▁샤리프	-9.86046
▁민병대	-9.86047
ight	-9.86054
ak	-9.86074
▁이미지	-9.86115
▁결론	-9.86123
▁개정	-9.8627
▁부인했다	-9.86278
▁사망했으며	-9.86287
▁벨	-9.86289
▁낮은	-9.86317
▁이송	-9.86363
▁장군	-9.86413
화를	-9.86419
▁윌리엄스	-9.8646
▁지켜	-9.86467
▁그에게	-9.86549
▁70	-9.86588
▁실제	-9.86611
▁놀라	-9.86639
▁보좌관	-9.86667
▁않겠다	-9.86762
▁초기	-9.86848
헤	-9.86867
▁아카데미	-9.86872
▁오랫동안	-9.86872
꺼	-9.86872
cnn	-9.86873
▁개봉	-9.86912
▁공원	-9.86913
▁태양	-9.86917
▁그들	-9.86929
ht	-9.8694
▁Korean	-9.86943
지르	-9.86966
▁확실히	-9.86976
지역에서	-9.86991
▁매일	-9.87014
▁노래	-9.8703
뉴스	-9.87038
▁의심	-9.87214
▁원조	-9.87273
▁납	-9.8728
▁알게	-9.87523
▁죄	-9.87527
▁소식을	-9.8754
압	-9.877
▁그렇게	-9.87705
▁지지율	-9.8776
▁대표팀	-9.8777
▁개입	-9.87792
▁위기에	-9.87806
▁추방	-9.87853
▁고든	-9.87869
력이	-9.87901
▁충	-9.87938
즈는	-9.87976
▁상황에서	-9.88018
▁후반	-9.88087
▁니	-9.88149
▁이용해	-9.88206
▁보기	-9.88235
▁수백명	-9.88273
▁케이	-9.88282
▁말하고	-9.88299
▁약속했다	-9.88391
해주	-9.88406
▁해당	-9.88437
상태	-9.88459
tp	-9.88476
딩	-9.8853
덕	-9.88543
▁나섰다	-9.88546
▁네덜란드	-9.88546
▁집에서	-9.88593
▁다쳤다	-9.88625
▁기자회견	-9.88687
▁화성	-9.88714
▁지도	-9.88721
▁민간	-9.88723
▁보유	-9.88734
한국	-9.8877
▁소식통은	-9.88796
▁기반	-9.8881
▁블로그에	-9.88813
▁원유	-9.88868
▁목사	-9.88869
▁트	-9.88919
▁왔	-9.88924
▁손상	-9.88929
▁둔	-9.88949
▁이혼	-9.8897
▁지키	-9.8898
▁마르	-9.8906
▁증가했다	-9.89068
▁수백만	-9.89074
물이	-9.89142
▁단어	-9.89151
▁월드컵	-9.89229
▁대통령에게	-9.89242
▁경찰과	-9.89341
▁쿠르드	-9.89382
://	-9.89392
▁확정	-9.89393
▁무가베	-9.89395
▁먼저	-9.89396
▁하워드	-9.89413
▁부르	-9.89436
▁보험	-9.89468
▁담배	-9.89478
풍	-9.8948
▁성적	-9.89487
25	-9.89513
▁예산	-9.89518
▁탐사	-9.89543
▁즉	-9.89558
▁수는	-9.89809
up	-9.89829
▁시점	-9.89856
▁실종	-9.89885
▁희생	-9.89886
▁후보에	-9.8999
▁150	-9.9003
▁기회를	-9.90033
TA	-9.90042
▁모습	-9.90088
▁참석한	-9.90165
▁방해	-9.90204
▁찾는	-9.90248
▁캠프	-9.90248
▁세르비아	-9.90248
Total	-9.90249
code	-9.90255
겠지만	-9.90263
▁배럴	-9.90286
▁있었으며	-9.90289
▁속에	-9.90309
▁철회	-9.9031
▁사례	-9.90356
▁알아	-9.90395
▁베이	-9.90465
▁후보로	-9.90504
TV	-9.90551
우스	-9.90626
▁함	-9.90691
▁대북	-9.90701
▁크기	-9.90706
▁연구진	-9.9071
▁휴가	-9.90726
▁대체	-9.90727
사태	-9.90803
▁날씨	-9.90809
▁증명	-9.9081
▁박사	-9.90869
▁외교관	-9.90871
▁금리	-9.90876
▁요구한	-9.90913
▁조정	-9.90921
▁구성된	-9.90965
주년	-9.90976
탕	-9.90997
▁쥐	-9.91009
▁곤	-9.91069
▁못할	-9.91094
▁우크라이나	-9.9111
▁펜실베이니아	-9.9111
▁태풍	-9.91121
▁알려져	-9.91127
▁대기	-9.91147
하려고	-9.91163
▁통합	-9.91169
▁위험한	-9.91176
웨이	-9.91195
됐지만	-9.91201
▁사용하는	-9.91209
▁위원장은	-9.91272
▁교체	-9.91273
▁연루	-9.91276
▁그것	-9.9131
줬다	-9.91386
▁보상	-9.91387
달하는	-9.91403
항공	-9.9143
▁지급	-9.91435
버그	-9.91438
▁명단	-9.91503
▁45	-9.9162
▁있는데	-9.91752
▁남성이	-9.91771
▁의한	-9.91782
▁데이	-9.9179
▁대표단	-9.91817
▁2009	-9.91881
촌	-9.91974
▁모하메드	-9.9198
▁스티븐	-9.9198
▁침체	-9.91982
▁피랍	-9.91998
파운드	-9.92004
▁1999	-9.92014
▁진입	-9.92038
▁기후	-9.92142
▁손실	-9.92154
위원회는	-9.92157
▁휘	-9.92157
▁#	-9.92212
명에	-9.92254
▁벌인	-9.92266
▁이행	-9.92291
▁재산	-9.92319
▁다수	-9.92336
자들에게	-9.92401
▁중국이	-9.92454
▁홍수	-9.92513
▁폐기	-9.92527
▁니콜라	-9.92527
▁실시한	-9.92749
▁시작됐다	-9.92782
▁웹사이트에	-9.92835
▁400	-9.92842
▁빨리	-9.92857
▁정확한	-9.92857
몽	-9.92857
▁조종사	-9.92858
▁마이크	-9.92867
▁분위기	-9.92874
▁질병	-9.92914
필드	-9.92917
▁경찰서	-9.92927
▁해변	-9.9295
▁그래	-9.92952
▁진술	-9.92966
▁견	-9.93032
브라	-9.93054
▁삼성	-9.93079
▁궁	-9.93088
라스	-9.93091
▁분명	-9.93108
▁영향력	-9.93166
▁어린	-9.93175
▁전역	-9.93202
▁재정	-9.93207
▁진전	-9.93209
▁표시	-9.93288
▁NASA	-9.93377
데이	-9.93543
▁32	-9.93658
닉	-9.9374
▁얻었다	-9.93742
쯤	-9.93742
▁스티브	-9.93743
▁부동산	-9.93743
▁엄마	-9.93746
▁흔들	-9.93749
▁규제	-9.93752
▁국왕	-9.93755
▁군인들	-9.93766
▁기자는	-9.93778
▁인정했다	-9.93783
짜리	-9.93876
▁특사	-9.93883
으로써	-9.94076
▁현장에	-9.94169
▁그중	-9.94228
사인	-9.94298
▁들었다	-9.94371
▁당선자	-9.94482
같은	-9.9449
▁사무총장은	-9.94571
▁저녁	-9.94634
▁장난감	-9.94635
▁자살폭탄테러	-9.94638
▁콘돌	-9.94647
▁대답	-9.94677
mp	-9.94698
어야	-9.94728
▁응	-9.9475
▁테러로	-9.94783
세계	-9.94825
경제	-9.94841
▁긴	-9.94859
참	-9.94862
▁알려	-9.94863
▁위원장	-9.94873
▁통치	-9.94941
▁하락했다	-9.94952
▁충분	-9.94988
▁무력	-9.95062
▁스테	-9.95078
▁위해서	-9.9509
라도	-9.95106
▁왜	-9.95176
▁말한	-9.95293
ant	-9.95351
▁있었	-9.95354
▁태도	-9.95393
▁승무원	-9.95453
멘	-9.95519
렛	-9.95535
▁줄어들	-9.95537
▁아바스	-9.95538
▁며칠	-9.95546
▁형태	-9.95556
▁가격이	-9.95586
▁장애	-9.95593
ill	-9.956
▁예방	-9.95681
▁이웃	-9.95681
▁인식	-9.95702
▁근처	-9.95726
▁기울	-9.95755
대에	-9.95756
▁지도부	-9.95803
▁않기	-9.95823
15	-9.95841
잔	-9.95955
카르	-9.95967
▁도착했다	-9.96029
tr	-9.96036
▁아부	-9.96042
사람	-9.9626
▁시청	-9.96317
혼	-9.96363
프라	-9.96423
▁토요일	-9.96446
▁네팔	-9.96453
2009.06	-9.96461
개월간	-9.96515
2008.0	-9.96595
ry	-9.96717
▁문제로	-9.96763
▁최소한	-9.96767
푸	-9.96793
▁떨어졌다	-9.969
▁살해한	-9.96901
폴	-9.96927
휴	-9.96937
▁방어	-9.96982
▁않으면	-9.96993
▁강도	-9.97
▁색	-9.9702
▁자신들이	-9.97078
▁수사관	-9.97091
▁아직도	-9.97155
▁공정	-9.97157
졌으며	-9.97163
▁하며	-9.97178
▁콘	-9.97315
▁징역	-9.97336
▁청소년	-9.97363
▁시리즈	-9.97364
▁테이프	-9.97365
▁파타	-9.97393
더라도	-9.97401
▁노대통령	-9.97406
▁점령	-9.97443
▁FBI	-9.97543
웨	-9.97555
▁반발	-9.9764
▁지출	-9.97685
▁시민들	-9.97766
▁입국	-9.97849
▁돼	-9.97856
▁낙	-9.9788
▁무시	-9.97912
▁기타	-9.97968
▁전망이	-9.97973
▁송	-9.98064
▁생명	-9.98074
44	-9.98103
▁지휘	-9.982
▁일본은	-9.98214
;	-9.98288
▁가자	-9.98303
▁순찰	-9.98304
업자	-9.98319
▁장악	-9.98328
▁노벨	-9.98347
군은	-9.98432
▁형성	-9.98452
de	-9.98489
▁만들었다	-9.98533
▁내린	-9.98745
ity	-9.98799
▁결승	-9.98857
▁사용할	-9.98863
구역	-9.98942
소를	-9.99016
되면	-9.99111
단은	-9.99164
잉	-9.99173
▁대상	-9.99181
ess	-9.99186
▁쉽게	-9.99225
▁근거	-9.99225
▁침해	-9.99238
▁탈출	-9.99264
▁솔	-9.99294
▁살아	-9.99298
▁타격	-9.99345
▁감행	-9.99373
▁즉시	-9.99375
혔다	-9.99596
주간	-9.99597
▁통화	-9.99726
시티	-9.99765
걸	-9.99787
65	-9.99802
계획	-9.99828
오바마	-9.99829
▁요구하는	-9.99848
▁싸	-9.99866
▁상황에	-9.99897
▁당한	-9.99905
▁오하이오	-9.99909
64	-9.99947
▁끼	-9.99984
▁꾸	-10.0002
덴	-10.0013
州	-10.0017
셰	-10.0017
▁나타내	-10.0017
진다	-10.0017
▁한번	-10.0019
▁유럽연합	-10.002
▁연락	-10.0025
▁실망	-10.0026
▁직면	-10.0027
▁복제	-10.0033
▁기준	-10.0035
▁몰아	-10.0042
▁추측	-10.0046
▁사령관	-10.0046
▁웹	-10.0052
▁전문가들	-10.0053
▁것처럼	-10.0068
age	-10.0071
리오	-10.0072
▁주에서	-10.0074
▁의문	-10.008
그룹	-10.0084
77	-10.0091
▁방식	-10.0096
준다	-10.0097
der	-10.0097
▁소수	-10.0099
대회	-10.0105
헨	-10.0111
딜	-10.0112
▁엘리자베스	-10.0112
램	-10.0112
픽	-10.0112
Z	-10.0112
▁한국과	-10.0113
▁폭격	-10.0116
▁선거운동	-10.0117
▁만족	-10.0118
▁의장은	-10.0118
▁지지자	-10.0119
▁복용	-10.0122
▁상품	-10.0136
▁남북한	-10.0137
▁연관	-10.0137
▁중요하다	-10.0142
49	-10.0143
ne	-10.015
▁토니	-10.015
▁우주선	-10.015
주에서	-10.0159
▁공화당의	-10.0167
달러에	-10.017
곡	-10.0172
린다	-10.0174
400	-10.0177
▁차관	-10.0185
▁봉	-10.0201
번째로	-10.0204
53	-10.0206
▁소프트웨어	-10.0208
▁협조	-10.0208
컬	-10.0208
▁활용	-10.0208
▁스위스	-10.0208
▁론스타	-10.0208
▁말라	-10.0208
▁잭슨	-10.0208
된다고	-10.0209
지수	-10.0211
▁예술	-10.0211
▁끝난	-10.0213
▁In	-10.0215
▁화산	-10.0215
▁구글	-10.0219
▁육군	-10.0219
▁MS	-10.0227
ear	-10.0228
▁짐	-10.0232
▁속에서	-10.0234
국민	-10.0234
▁대출	-10.0238
쳤	-10.0239
▁현장에서	-10.0241
▁회담은	-10.0243
▁자산	-10.0249
들어	-10.0249
어스	-10.0256
▁결과가	-10.0256
육	-10.0265
▁주로	-10.028
▁실제로	-10.0282
괴	-10.0293
▁총선에서	-10.0293
원들이	-10.0293
▁매장	-10.0296
▁밝	-10.0297
▁이르는	-10.03
▁핵실험	-10.0305
▁페르베	-10.0305
▁김정일	-10.0305
▁갖추	-10.0307
▁축제	-10.0316
함에따라	-10.0318
베리	-10.0325
▁자격	-10.0325
▁""	-10.0326
▁대사는	-10.0329
52	-10.0335
▁신경	-10.034
ma	-10.0342
▁우선	-10.035
▁영국군	-10.0352
▁킹	-10.0369
46	-10.037
▁홈	-10.0371
▁장치	-10.0373
▁일부는	-10.0383
▁시위자들	-10.0383
▁모습이	-10.0385
닌	-10.0396
▁지적	-10.0399
▁잘못	-10.0399
드라	-10.0403
▁일으키	-10.0403
▁기독교	-10.0403
12	-10.0404
▁사이클론	-10.0404
▁되면	-10.0406
▁1997	-10.0406
tion	-10.0409
려고	-10.041
ho	-10.0412
▁등이	-10.0414
▁t	-10.0416
▁귀국	-10.0416
▁결혼식	-10.0417
▁공식적으로	-10.0422
▁가는	-10.0424
▁신속	-10.0425
▁유리	-10.0431
▁조사하고	-10.0434
▁동물원	-10.0445
▁아래	-10.0446
▁상점	-10.0457
사고	-10.046
▁관광객들	-10.0467
▁주는	-10.047
▁지연	-10.0489
▁뉴질랜드	-10.0502
▁헤럴드	-10.0502
▁Iraq	-10.0502
▁매들린	-10.0502
▁North	-10.0502
qu	-10.0502
▁1998	-10.0505
▁내놓	-10.0512
▁체포된	-10.0519
▁구체적인	-10.053
▁받아들이	-10.053
▁아르헨티나	-10.053
득	-10.0535
▁파손	-10.0543
대사	-10.0554
원들은	-10.0556
▁요구를	-10.0558
▁걸어	-10.0569
▁총리와	-10.0569
비치	-10.0578
▁포함되어	-10.0585
칸	-10.0587
생활	-10.0589
개발	-10.0594
▁길이	-10.0595
정보	-10.0599
▁CBS	-10.0602
▁드러났다	-10.0602
▁외곽	-10.0602
▁이끌어	-10.0602
▁해고	-10.0603
600	-10.0605
7000	-10.0605
▁있으나	-10.0606
▁올렸다	-10.0609
▁같	-10.0612
▁의료진	-10.0613
▁가입	-10.0615
▁압둘라	-10.0618
▁수용소	-10.0619
ine	-10.0621
▁기구	-10.063
▁나달	-10.0635
장인	-10.064
▁지지하는	-10.0642
▁해산	-10.0647
리그	-10.0657
▁인하	-10.0658
▁마치	-10.0667
▁대단	-10.0672
▁사무	-10.0678
▁중이라고	-10.0682
▁r	-10.0688
만큼	-10.0691
둘	-10.0693
▁얘기	-10.0703
▁캠페인	-10.0703
켄	-10.0703
`	-10.0703
PPP	-10.0703
▁가르	-10.0706
▁빛	-10.0709
▁V	-10.071
▁벗어나	-10.0715
▁변경	-10.0716
▁성화	-10.0729
▁강경	-10.0733
▁보석	-10.0734
▁즐기	-10.0735
800	-10.0737
▁이곳에서	-10.0739
▁성공했다	-10.0748
BA	-10.0762
▁이민	-10.0765
▁의도	-10.0771
▁권고	-10.078
▁중국과	-10.0782
객들	-10.0795
캐	-10.0795
혁	-10.0799
▁리버풀	-10.0805
▁싱가포르	-10.0805
▁좋지	-10.0805
▁케네디	-10.0805
꾼	-10.0805
쾌	-10.0805
▁답변	-10.0806
▁달성	-10.0808
▁루이스	-10.0808
▁행정	-10.0809
▁주인공	-10.0809
▁국제적	-10.081
▁불참	-10.0811
▁에이즈	-10.0811
▁폭행	-10.0812
▁지진으로	-10.0814
kg	-10.0815
▁기자들	-10.0815
▁만드는	-10.0815
▁대부분은	-10.0818
▁민주화	-10.0821
▁상업	-10.0823
▁관여	-10.0825
▁비교	-10.0827
▁영국에서	-10.0829
▁실행	-10.0829
▁투자자들	-10.083
▁경선에서	-10.0837
▁포함해	-10.0838
▁학대	-10.0849
려는	-10.0852
▁등장	-10.0852
▁해결하기	-10.0854
▁소개	-10.0854
39	-10.0855
▁중요	-10.0858
▁어린이들	-10.0863
▁곳으로	-10.0867
▁주석	-10.087
▁혹	-10.089
탁	-10.0898
ard	-10.09
47	-10.0901
▁전해	-10.0904
뜨	-10.0906
렬	-10.0907
훈	-10.0908
▁DNA	-10.0908
▁맨체스터	-10.0908
▁우라늄	-10.0908
▁열린우리당	-10.0908
▁드라마	-10.0909
되었	-10.0909
▁벌어진	-10.091
▁음반	-10.0911
▁않도록	-10.0912
ain	-10.0913
▁방침	-10.0914
슬리	-10.0915
▁1980	-10.0916
▁반정부	-10.0924
▁안보리	-10.0924
▁행진	-10.0927
▁소요	-10.0931
-3	-10.0932
▁회담에	-10.0934
▁장식	-10.0937
▁목격	-10.0938
4000	-10.0951
▁결승전	-10.0955
▁포드	-10.0961
▁주고	-10.0963
▁음	-10.0968
▁그와	-10.0969
▁맞서	-10.0971
▁수영	-10.0975
결과	-10.0976
▁회원국	-10.0978
▁is	-10.0988
co	-10.099
▁지수는	-10.099
▁터키군	-10.0992
조직	-10.0995
포트	-10.1
핑	-10.1007
▁포르투갈	-10.1012
▁휘발유	-10.1012
▁페일린	-10.1013
▁첼시	-10.1013
EU	-10.1014
분간	-10.1015
▁질환	-10.1016
▁가득	-10.1016
▁음모	-10.1017
▁요구하고	-10.1021
▁때문이다	-10.1022
▁웃	-10.1026
▁화학	-10.1027
▁조각	-10.1032
검사	-10.1035
겼	-10.104
▁잔해	-10.1042
부시	-10.1044
바르	-10.1046
▁기본	-10.1051
▁감정	-10.1057
▁언급하지	-10.1057
ang	-10.1058
▁자세	-10.1061
▁장비	-10.1063
▁중에는	-10.1072
67	-10.1077
▁다이	-10.1087
▁저는	-10.1089
▁덮	-10.1097
▁테러가	-10.1104
▁거절	-10.1109
▁영화제	-10.1113
▁석	-10.1115
당국	-10.1117
▁믿고	-10.1118
▁훨씬	-10.1118
▁베트남	-10.1118
죠	-10.1118
흉	-10.1118
해리포터	-10.1118
▁국제유가	-10.1118
▁향후	-10.1121
▁1990	-10.1123
▁문제는	-10.1123
폭탄	-10.1126
68	-10.1133
▁계획이	-10.1135
▁유치	-10.1137
포드	-10.1152
▁파악	-10.1153
바이	-10.1156
▁거주하는	-10.1166
▁폐지	-10.1182
▁생존자	-10.1188
▁250	-10.1193
▁회담이	-10.1194
▁경기에	-10.1199
당국은	-10.1205
▁장관이	-10.1211
▁크리스티	-10.1213
픈	-10.1219
흑	-10.1222
켈	-10.1223
▁획득	-10.1224
▁샌프란시스코	-10.1224
▁페더러	-10.1224
▁로봇	-10.1225
▁묘사	-10.1225
▁운항	-10.1225
▁전면	-10.1226
주일	-10.1227
▁주인	-10.1231
오늘	-10.1232
라드	-10.1232
▁공개했다	-10.1233
▁밀란	-10.1236
▁지시	-10.1238
국이	-10.124
14	-10.124
▁영토	-10.124
▁예정이며	-10.1241
▁불리는	-10.1246
▁지목	-10.1248
▁기상	-10.1249
po	-10.1251
측이	-10.1252
장치	-10.1255
▁내용이	-10.1261
▁곡	-10.1263
▁추적	-10.1264
man	-10.1269
▁병사들	-10.1269
ab	-10.1278
▁광장	-10.1279
▁외부	-10.1285
▁소니	-10.1294
▁프레	-10.1297
▁입수	-10.13
56	-10.1305
▁노동자	-10.1308
▁초대	-10.1323
▁존슨	-10.1326
회담	-10.1326
됐고	-10.1328
▁테러범	-10.1328
▁한국군	-10.1329
▁중부	-10.133
룰	-10.1332
!	-10.1332
▁모스크바	-10.1332
▁밖으로	-10.1332
핀	-10.1332
▁랭킹	-10.1332
▁콘서트	-10.1332
▁검색	-10.1332
▁반기문	-10.1332
▁얼음	-10.1332
▁맨유	-10.1332
곤	-10.1332
▁집에	-10.1333
▁나쁜	-10.1334
콘	-10.1336
콜	-10.1336
▁빚	-10.1337
▁작동	-10.1338
네스	-10.1341
▁pro	-10.1341
▁폭우	-10.1344
▁이것이	-10.1347
스티	-10.1351
▁치르	-10.1352
▁빅	-10.1353
▁샌	-10.1358
▁시절	-10.136
들로부터	-10.136
▁대결	-10.1364
▁단체는	-10.1364
▁워싱턴에서	-10.1366
▁주장하는	-10.1369
▁편지	-10.1375
▁행성	-10.1396
▁학생들이	-10.1398
▁희생자들	-10.1401
작전	-10.1405
▁도달	-10.1424
▁주간	-10.1433
▁전개	-10.1435
▁목격자	-10.1437
었으나	-10.1438
▁South	-10.144
둥	-10.144
튜	-10.144
▁온난화	-10.144
▁세계대전	-10.144
▁금요일	-10.144
▁이메일	-10.1441
▁둘러	-10.1444
▁접속	-10.1445
▁중재	-10.1445
▁목격자들	-10.1448
▁토론회	-10.1449
▁야생	-10.1449
맥	-10.1449
▁것보다	-10.1449
▁소환	-10.145
듯	-10.1452
▁입양	-10.1455
▁탐	-10.1456
▁밑	-10.1456
▁지정	-10.1462
▁협회	-10.1463
▁예비	-10.1466
▁고객	-10.1475
z	-10.1479
▁n	-10.1481
▁에이	-10.1481
▁잃었다	-10.1484
▁하이	-10.1486
▁방문할	-10.1486
▁당선인은	-10.1488
▁남쪽	-10.1492
대학	-10.1503
적이고	-10.1505
▁꿈	-10.1507
▁방법으로	-10.151
58	-10.1511
국은	-10.1513
▁무대	-10.1515
▁방지	-10.1515
""	-10.1516
▁충분한	-10.1516
▁잡지	-10.1522
▁바그다드에서	-10.1526
▁심슨	-10.1532
년에는	-10.1536
▁속도	-10.154
아메리칸	-10.155
현지시각	-10.155
▁특파원	-10.155
▁9.11	-10.155
▁측근	-10.1551
▁앨범	-10.1552
▁주식시장	-10.1553
▁영변	-10.1554
▁학살	-10.1557
▁성향	-10.1559
▁주문	-10.1561
▁리비아	-10.1561
펜	-10.1564
홀	-10.1565
▁말합니다	-10.1568
▁밖에서	-10.1577
▁조사에서	-10.1585
▁부근	-10.1587
기술	-10.1589
▁신체	-10.1592
모든	-10.1597
▁방문했다	-10.1603
▁사법	-10.1605
러스	-10.1607
▁생각하고	-10.1609
▁의무	-10.1616
▁이들이	-10.1616
되자	-10.1617
▁선물	-10.1618
are	-10.1621
이션	-10.1634
▁의원들은	-10.1639
▁38	-10.1642
▁남아	-10.1645
▁CIA	-10.1654
▁이란은	-10.1659
탑	-10.1661
아메리카	-10.1661
▁용의자들	-10.1663
▁리콜	-10.1665
▁허락	-10.1666
▁합동	-10.1668
▁저항	-10.1668
▁사무총장	-10.1669
▁카페	-10.1672
트라	-10.1672
▁진행된	-10.1674
그들은	-10.1677
100	-10.1684
▁취할	-10.1685
▁수집	-10.1692
▁내전	-10.1697
▁주목	-10.1698
▁공중	-10.1698
▁미국에	-10.1698
▁출시	-10.1699
▁예상했다	-10.17
▁체니	-10.1702
▁특별한	-10.1709
므로	-10.1716
▁윤	-10.1717
련	-10.1717
▁생존	-10.172
▁논란	-10.1723
82	-10.1753
▁성과	-10.176
▁원하는	-10.1762
미군	-10.1763
▁레이스	-10.1768
▁경기장	-10.177
컴	-10.1771
▁않았으며	-10.1774
▁유나이티드	-10.1774
밍	-10.1774
um	-10.1775
▁편집	-10.1779
▁계획에	-10.1779
지구	-10.1784
우드	-10.1786
▁자기	-10.1788
59	-10.1789
작업	-10.1789
▁이익	-10.179
▁모양	-10.1795
▁시작한	-10.1807
▁에어	-10.183
▁후임	-10.183
전에서	-10.1832
▁대부분이	-10.1833
▁철도	-10.1837
▁다니	-10.1844
▁마시	-10.1859
▁에드	-10.1862
빠	-10.187
▁사건과	-10.1873
럭	-10.1886
넬	-10.1887
▁붉은	-10.1887
▁찾고	-10.1887
▁쿠데타	-10.1887
▁헤즈볼라	-10.1887
롱	-10.1887
짝	-10.1887
▁대다수	-10.1888
▁이사	-10.1889
▁회견	-10.1889
▁봄	-10.1889
▁핵시설	-10.1893
▁사건으로	-10.1893
죄	-10.1899
▁기능	-10.1902
▁격차	-10.1903
▁다우	-10.1904
▁보면	-10.1907
놀	-10.1912
ong	-10.1913
싸	-10.1915
원인	-10.1917
▁이번주	-10.192
▁처음이다	-10.1921
▁서방	-10.1924
량이	-10.1948
▁아일랜드	-10.1959
사항	-10.1964
▁바라고	-10.1976
▁Re	-10.1981
▁보이	-10.1984
ial	-10.1996
▁발표된	-10.1997
▁수요	-10.2001
▁멸종	-10.2002
[	-10.2002
▁with	-10.2002
▁우주비행사	-10.2002
▁장례식	-10.2002
셉	-10.2002
첸	-10.2002
▁여자친구	-10.2002
▁아이오와	-10.2002
▁겨울	-10.2003
▁가까이	-10.2006
cm	-10.2007
▁교사	-10.2008
▁마틴	-10.2011
▁걸릴	-10.2012
▁체결	-10.2013
▁만날	-10.2015
▁복구	-10.2016
어져	-10.2017
res	-10.2018
▁차드	-10.2021
▁나서	-10.2021
▁전투기	-10.2022
▁37	-10.2023
▁tr	-10.2024
▁폭발물	-10.2033
조차	-10.2034
▁산타	-10.204
▁어디	-10.205
▁의회의	-10.2053
▁린	-10.2056
▁파티	-10.2056
▁클라	-10.2061
지수는	-10.2064
▁톰	-10.2069
300	-10.2076
▁현재까지	-10.209
▁프라	-10.2095
▁중국에서	-10.21
▁CEO	-10.2119
▁다이아몬드	-10.2119
▁떨어지	-10.2119
▁알래스카	-10.2119
▁옮겨	-10.2119
엑	-10.2119
▁적십자	-10.2119
▁일환으로	-10.2119
▁다르푸르	-10.2119
▁경찰서장	-10.2119
ke	-10.2129
자리	-10.213
연맹	-10.2134
▁특정	-10.2134
▁나누	-10.2136
▁동반	-10.2138
▁물러	-10.2138
되어야	-10.214
츠는	-10.2146
▁심문	-10.2147
▁수감자	-10.2148
쓰	-10.215
장의	-10.2154
13	-10.2159
▁추정되는	-10.2164
▁신호	-10.2164
▁절대	-10.2179
▁최초로	-10.2192
85	-10.2199
▁평화적	-10.2207
학생	-10.2213
▁36	-10.2225
져야	-10.223
▁다우존스	-10.2236
▁달라이라마	-10.2236
▁설득	-10.2237
▁FTA	-10.2239
▁답	-10.2241
▁그레	-10.2241
▁자치	-10.2241
▁교환	-10.2243
▁증권	-10.2247
tor	-10.2248
▁오염	-10.225
▁일주일	-10.225
▁치러진	-10.225
▁식당	-10.2253
▁물건	-10.2261
▁웨스트	-10.2264
▁보통	-10.2267
▁생물	-10.2275
▁희	-10.2277
▁사실상	-10.2278
타르	-10.228
▁니콜	-10.2281
민주당	-10.2282
▁파산	-10.2282
▁잠시	-10.229
▁불과	-10.2293
했기	-10.2294
▁요인	-10.2301
▁회원	-10.2315
▁아이들이	-10.2337
▁St	-10.2337
our	-10.2343
▁이스라엘군	-10.2345
▁달라	-10.2345
54	-10.2347
16	-10.2348
▁이스라엘과	-10.2349
45	-10.235
춘	-10.2352
섭	-10.2353
▁내에	-10.2354
]	-10.2355
▁얻어	-10.2355
퀴	-10.2355
▁더불어	-10.2355
▁쇼핑	-10.2356
▁발굴	-10.2357
▁바꾸	-10.2358
▁폭락	-10.2359
▁둘	-10.236
▁행복	-10.2362
▁어려운	-10.2364
ational	-10.2364
▁커피	-10.2366
▁않지만	-10.2367
정부는	-10.2367
▁그리	-10.2369
▁50%	-10.2369
시키려	-10.2371
원제	-10.2372
▁기도	-10.238
▁통신은	-10.2381
▁강요	-10.2382
76	-10.2384
▁세워	-10.2387
▁재건	-10.2389
▁취하	-10.2391
▁제안했다	-10.2393
삼	-10.2395
농	-10.2395
홍	-10.2401
라이브	-10.2403
▁경보	-10.2406
▁업계	-10.2412
오는	-10.2417
▁친구들	-10.2423
▁광산	-10.2429
▁보고했다	-10.2431
84	-10.2442
요원	-10.2449
▁국회의원	-10.2452
▁목적으로	-10.2456
63	-10.2462
닥	-10.2468
PA	-10.2471
▁FARC	-10.2472
묘	-10.2474
▁됩니다	-10.2476
▁스리랑카	-10.2476
▁앉아	-10.2476
▁에드워즈	-10.2476
▁코미디	-10.2476
▁갑자	-10.2477
▁멜	-10.2478
위기	-10.2478
▁사냥	-10.2478
▁북극	-10.2479
▁기업들	-10.248
▁출석	-10.2484
▁담당자	-10.2484
▁열리	-10.249
▁매각	-10.249
out	-10.2495
▁도입	-10.2495
▁배출	-10.2496
▁밝히고	-10.2498
▁조합	-10.2499
부대	-10.2501
▁항소	-10.2501
후드	-10.2504
차전	-10.2505
▁거두	-10.2508
▁신임	-10.2509
90	-10.2509
▁계속되고	-10.2511
▁적절한	-10.2515
▁소비자들	-10.252
▁확산되	-10.2523
뿐	-10.2524
▁선보	-10.253
▁투어	-10.2533
▁시장에서	-10.2534
▁결정은	-10.254
라면	-10.2544
▁의회는	-10.2555
▁지상	-10.2557
▁지점	-10.2559
▁된다고	-10.2559
▁의식	-10.2561
년이	-10.2562
▁고대	-10.2571
▁있어서	-10.2571
▁기분	-10.2573
▁벽	-10.2582
▁48	-10.2587
▁공격이	-10.2588
▁윈	-10.2591
▁회사들	-10.2591
룬	-10.2592
님	-10.2596
멸	-10.2598
쇠	-10.2598
▁방글라데시	-10.2598
▁오스트리아	-10.2598
떼	-10.2598
렐	-10.2598
콤	-10.2598
▁칠레	-10.2598
▁NBC	-10.2599
▁것이라며	-10.2601
▁데이터	-10.2602
▁단순	-10.2603
빠진	-10.2605
18	-10.2605
▁성관계	-10.2608
▁기존	-10.2609
▁서울에서	-10.2616
▁자본	-10.2618
▁북측	-10.2632
만약	-10.2634
▁협상이	-10.2635
최	-10.2636
▁원한다	-10.2638
납	-10.2646
이슬람	-10.2651
▁윌	-10.2652
▁사인	-10.2662
▁호세	-10.2667
▁사전	-10.2673
▁아동	-10.2676
▁넓	-10.2682
페이지	-10.2688
▁부근에서	-10.269
▁사용한	-10.2692
▁테러리스트	-10.2692
▁그림	-10.2695
▁외교적	-10.2701
79	-10.2717
랭	-10.2721
▁노스캐롤라이나	-10.2721
▁봉쇄	-10.2721
▁공산당	-10.2722
▁sh	-10.2722
▁시드	-10.2725
▁합류	-10.2726
▁적은	-10.273
▁폭동	-10.2731
▁치열	-10.2731
▁방영	-10.2732
▁의존	-10.2734
▁부담	-10.2738
▁화물	-10.2738
ure	-10.274
ance	-10.2743
▁예상되	-10.2745
▁해양	-10.2752
▁피난	-10.2754
했음	-10.2755
▁美	-10.2756
▁고소	-10.2758
▁제도	-10.2766
▁버마	-10.2766
▁노력하고	-10.2767
▁이하	-10.2767
▁각국	-10.2769
▁후원	-10.2776
냈	-10.2777
▁되기	-10.2778
파키스탄	-10.2779
▁중독	-10.2783
BC	-10.2787
900	-10.279
▁해병대	-10.2791
됐을	-10.2794
▁수송	-10.2796
▁본사	-10.2801
▁상승했다	-10.2804
▁부여	-10.2806
수사	-10.2808
▁수상자	-10.2811
▁시위에	-10.2812
세력	-10.2813
▁스키	-10.2821
78	-10.2822
69	-10.2822
▁말까지	-10.2823
▁아르	-10.2825
▁펜	-10.283
▁책임자	-10.2833
께	-10.2839
아야	-10.284
흘	-10.2846
룩	-10.2846
▁없으며	-10.2846
▁나이지리아	-10.2846
▁카르자이	-10.2846
▁마카오	-10.2846
▁흡연	-10.2846
▁재무장관	-10.2846
▁검거	-10.2846
▁하늘	-10.2849
▁농축	-10.285
▁가옥	-10.2853
▁식품	-10.2853
▁낸	-10.2859
▁실시되	-10.2859
ha	-10.286
▁노동자들	-10.2863
조원	-10.2866
▁나갈	-10.2866
▁대항	-10.2867
▁통계	-10.2868
▁현실	-10.2868
▁많다	-10.2869
-2	-10.2872
▁세상	-10.2872
▁승리했다	-10.2873
▁소설	-10.2873
▁묵	-10.2877
▁어려	-10.2879
▁일본에서	-10.2883
▁사용되	-10.2884
▁측정	-10.2889
▁보관	-10.2891
ress	-10.2894
▁골드	-10.2897
▁조성	-10.2899
된다면	-10.2905
됐었다	-10.2906
▁세우	-10.2911
▁잇	-10.2914
▁공항에서	-10.2922
▁구조대	-10.2926
상황	-10.2928
▁소식이	-10.293
▁대통령에	-10.2936
▁일본이	-10.2937
▁북쪽	-10.2937
▁연주	-10.2937
▁오브	-10.294
one	-10.294
ts	-10.2941
레나	-10.2945
▁만화	-10.2945
▁의지	-10.2946
▁의회에	-10.2949
▁로한	-10.2952
관련	-10.2953
▁전날	-10.297
▁고등학교	-10.2973
▁네트워크	-10.2973
▁훌륭	-10.2973
큐	-10.2973
장으로	-10.2973
▁파예드	-10.2973
▁카스트로	-10.2973
▁습격	-10.2973
▁복잡	-10.2976
▁관람	-10.2976
▁목록	-10.2976
▁혁명	-10.2977
▁건축	-10.2977
▁극복	-10.2979
▁시드니	-10.2981
▁인류	-10.2983
▁취재	-10.2988
▁51	-10.2991
▁최선	-10.2994
▁페루	-10.2996
▁구출	-10.2998
▁보복	-10.3
▁망	-10.3008
▁증가하고	-10.3008
▁개방	-10.301
정도	-10.3014
▁유가	-10.3015
ie	-10.3018
▁하다	-10.3019
▁내릴	-10.3025
▁베르	-10.303
▁트리	-10.3036
칼	-10.3036
안전	-10.304
▁체제	-10.3042
▁기다리고	-10.3045
브레	-10.3048
▁국경지역	-10.3049
러시아	-10.3053
▁이유는	-10.3059
기지	-10.3062
위원장	-10.3063
▁모인	-10.3064
▁지수	-10.307
▁자리에서	-10.3071
▁사드르	-10.3072
▁야기	-10.3073
▁맞이	-10.3077
▁부과	-10.3087
▁왕세자	-10.3093
끄	-10.31
넷	-10.3101
덜	-10.3101
▁스웨덴	-10.3101
▁훼손	-10.3101
▁거뒀다	-10.3101
▁북동부	-10.3101
▁혜택	-10.3101
IOC	-10.3101
▁숫자	-10.3101
New	-10.3101
▁콩고	-10.3104
▁남아공	-10.3105
▁패션	-10.3105
▁경쟁자	-10.3107
▁클레	-10.3107
▁말하는	-10.3108
▁출판	-10.3108
▁있었고	-10.3109
▁순방	-10.3113
▁인종	-10.3115
▁움직이	-10.3116
▁풀어	-10.3119
▁발병	-10.3124
▁돌려	-10.3124
▁상처	-10.3125
▁모색	-10.3125
워터	-10.3126
▁선언했다	-10.3131
▁의학	-10.3134
▁태평양	-10.3139
▁조기	-10.3151
26	-10.3153
▁그동안	-10.3155
▁나아	-10.3156
다시	-10.3157
▁유감	-10.3164
▁불러	-10.3171
ba	-10.3172
값	-10.3172
왔으며	-10.3178
해줄	-10.3183
▁일간	-10.3186
▁방화	-10.3197
▁유대인	-10.3203
▁털	-10.3207
▁분석가	-10.3211
생물학	-10.3218
지난	-10.3221
가격	-10.3222
흔	-10.3227
흥	-10.323
첨	-10.3231
혜	-10.3231
▁되찾	-10.3231
▁덴마크	-10.3231
▁얻기	-10.3231
▁이렇게	-10.3231
▁정확히	-10.3231
▁펼치	-10.3231
나갔다	-10.3231
릿	-10.3231
FRB	-10.3231
▁이재민	-10.3231
닷컴	-10.3231
▁이뤄지	-10.3231
스틴	-10.3234
▁이주	-10.3235
전쟁	-10.3238
▁고향	-10.3239
▁의회에서	-10.324
AN	-10.3241
▁2010	-10.3242
아나	-10.3245
▁명예	-10.3245
▁사담	-10.3248
▁지도자들은	-10.3252
▁비율	-10.3253
▁진실	-10.3255
▁지진이	-10.3261
▁AC	-10.3266
▁세포	-10.3268
▁베이징에서	-10.3271
▁로비	-10.3282
장과	-10.3283
▁현금	-10.3288
▁10%	-10.3292
기업	-10.3293
시위	-10.3293
▁올린	-10.3296
▁미국인들	-10.3298
▁경호원	-10.3301
답	-10.3305
하고자	-10.3307
플레	-10.3308
현재	-10.3321
▁반군이	-10.3329
▁시내	-10.3332
명에게	-10.3345
▁환자들	-10.3348
▁말해	-10.3351
▁플레이	-10.3354
콩	-10.3359
웅	-10.3361
NATO	-10.3362
UEFA	-10.3362
▁마찬가지	-10.3362
▁챔피언스리그	-10.3362
틸	-10.3362
▁will	-10.3364
▁주제	-10.3367
▁커플	-10.3367
▁레알	-10.3368
▁영업	-10.3371
▁일리노이주	-10.3379
▁자극	-10.3379
▁인공	-10.3379
▁입증	-10.338
▁대가로	-10.3382
▁만난	-10.3385
▁고발	-10.3387
▁선발	-10.3388
▁말리키	-10.3389
▁노리	-10.3392
▁발생했으며	-10.3399
세인	-10.34
62	-10.341
▁유력	-10.3426
▁거부했다	-10.3428
▁시위대는	-10.3429
희	-10.3443
연구소	-10.3451
▁앨	-10.3457
▁주최	-10.3458
▁향하	-10.346
▁제공하는	-10.3468
▁실패했다	-10.3473
평화	-10.348
▁마치고	-10.349
▁가했다	-10.3495
▁Japan	-10.3496
▁예루살렘	-10.3496
갤	-10.3496
▁청문회	-10.3496
▁남동부	-10.3496
▁plan	-10.3496
▁엄청	-10.3496
2008.12	-10.3497
▁코커스	-10.3498
▁새끼	-10.3499
섹스	-10.35
▁장착	-10.3502
▁과격	-10.3504
▁노예	-10.3514
▁체계	-10.3515
24	-10.3521
▁임금	-10.3522
▁숙	-10.3524
▁초점	-10.3533
드시	-10.3533
▁배경	-10.3533
▁공화국	-10.3544
▁진화	-10.3547
▁카드	-10.3563
스테	-10.3564
IS	-10.3566
▁보인다고	-10.3573
▁남아있	-10.3573
▁보안군	-10.3575
지금	-10.3576
74	-10.3578
▁IAEA	-10.358
팔	-10.3583
▁발생하지	-10.3587
▁권한	-10.3597
▁있다면	-10.3603
▁본선	-10.3605
정부가	-10.3619
21	-10.362
▁그것이	-10.3629
▁성화봉송	-10.3631
▁외교통상부	-10.3631
▁활주로	-10.3631
뱀	-10.3631
웬	-10.3631
▁디즈니	-10.3631
▁폴란드	-10.3631
▁네바다	-10.3631
▁완벽	-10.3631
▁다니엘	-10.3632
▁민족	-10.3634
▁멀	-10.3639
▁600	-10.364
▁분열	-10.3642
▁사장은	-10.3642
▁압수	-10.3648
▁소매	-10.3649
▁셀	-10.3652
▁받아야	-10.3653
▁봉사	-10.3654
▁이양	-10.3657
99	-10.3661
▁중순	-10.3664
▁대회에서	-10.3666
▁수업	-10.3668
본부	-10.3669
민주	-10.367
리스트	-10.3674
▁달려	-10.3682
▁델	-10.3684
ice	-10.3701
▁경영	-10.3713
▁열대	-10.3723
ell	-10.3728
▁노인	-10.373
▁방향	-10.3736
▁대선에서	-10.3744
축구	-10.3747
▁갖는	-10.3762
▁인디애나	-10.3768
렘	-10.3768
▁크루즈	-10.3768
▁아이디어	-10.3768
▁리조트	-10.3768
▁삭제	-10.3768
▁싸움	-10.3769
▁납치된	-10.377
▁타이틀	-10.377
▁중간	-10.377
▁관찰	-10.3772
ood	-10.3773
▁합병	-10.3773
▁모기지	-10.3773
▁무죄	-10.3774
▁있었지만	-10.3775
▁보잉	-10.3775
▁생긴	-10.3776
안보	-10.3777
▁관영	-10.3778
▁빙하	-10.378
▁아니면	-10.3781
▁출산	-10.3781
▁복무	-10.3781
▁군정	-10.3782
▁분명히	-10.3783
▁철군	-10.3784
▁고립	-10.3786
행사	-10.3789
▁이중	-10.3789
▁조사에	-10.379
▁PC	-10.3791
6000	-10.3792
▁연행	-10.3794
▁실적	-10.38
▁견해	-10.3801
천만	-10.3802
av	-10.3803
▁드러	-10.3803
▁대량	-10.381
▁높아지	-10.3811
▁구금	-10.3817
되었고	-10.382
▁발간	-10.3822
▁따르	-10.3823
▁중지	-10.3832
▁공유	-10.3837
디아	-10.3837
▁캘리포니아주	-10.384
▁착용	-10.3842
ome	-10.3843
▁유전자	-10.3845
37	-10.3846
수록	-10.3848
으면서	-10.385
▁기차	-10.3852
피트	-10.3855
▁난사	-10.3856
▁Co	-10.3857
▁전통적	-10.3862
▁런던에서	-10.3862
▁수상했다	-10.387
범죄	-10.3873
짜	-10.388
마르	-10.3886
미니	-10.389
▁폭탄이	-10.3897
▁인사들	-10.3899
▁승객들	-10.3899
쉽	-10.3901
곰	-10.3906
▁라스베이거스	-10.3907
▁봤다	-10.3907
▁크라이슬러	-10.3907
▁태어난	-10.3907
▁토마스	-10.3907
▁운송	-10.3907
▁뉴욕에서	-10.391
▁과학자	-10.3911
▁채택	-10.3912
▁피해가	-10.3913
▁했지만	-10.3913
▁은퇴	-10.3915
▁독재	-10.3917
▁표했다	-10.3918
▁방송국	-10.3918
▁회동	-10.3918
▁계획이라고	-10.392
▁일반적으로	-10.3922
▁지시했다	-10.3923
▁청구	-10.393
▁갖게	-10.3931
▁위원회는	-10.3932
▁주지사가	-10.3935
금지	-10.3935
IC	-10.3936
▁제조업체	-10.3947
▁총격전	-10.3948
▁돌아오	-10.3949
▁서신	-10.3954
▁위조	-10.3961
▁축	-10.3966
▁주한	-10.3978
버스	-10.3987
▁기대하고	-10.3993
▁보고서에서	-10.3998
oll	-10.3998
응	-10.3999
▁안전한	-10.4006
짐	-10.4008
디스	-10.4009
▁주지	-10.4012
▁부서	-10.4013
벤	-10.4013
앤	-10.4014
▁의미한다	-10.4021
미터	-10.403
▁고어	-10.4031
캔	-10.4046
▁사우디아라비아	-10.4048
▁쏟아	-10.4048
▁협박	-10.4048
댄	-10.4048
▁이루어지	-10.4048
▁심지어	-10.4048
▁보여줬다	-10.4049
▁빈곤	-10.4049
▁하원의원	-10.405
▁매춘	-10.4051
▁수감자들	-10.4051
▁면담	-10.4051
▁응급	-10.4051
▁2012	-10.4054
영국	-10.4055
▁항구	-10.4059
▁명백	-10.4059
▁누리	-10.406
▁보낼	-10.406
▁지역으로	-10.4062
▁카불	-10.4063
▁거쳐	-10.4067
▁실종된	-10.4075
▁대학교	-10.4086
▁재난	-10.4092
▁보유하고	-10.4092
22	-10.4097
▁유발	-10.4099
일본	-10.4101
ide	-10.4106
▁기금	-10.4108
▁시장에	-10.4108
17	-10.4111
▁싶어	-10.4118
▁재단	-10.4119
▁돼지	-10.4126
명도	-10.4126
▁크레	-10.413
▁자세한	-10.4133
타운	-10.415
▁하면	-10.4152
현지	-10.4154
▁척	-10.4155
▁안에서	-10.4157
김	-10.4159
▁로드	-10.4159
카운티	-10.4161
▁이사회	-10.4165
▁무선	-10.4167
▁나오는	-10.417
시대	-10.4173
▁치러	-10.4176
▁뼈	-10.4181
담당	-10.4182
▁바르셀로나	-10.419
▁펼쳐	-10.419
▁휴대전화	-10.419
▁논평	-10.419
▁누군가	-10.4191
▁엄격	-10.4191
▁베를린	-10.4191
느냐	-10.4192
▁케이블	-10.4192
▁1994	-10.4193
▁해결책	-10.4196
▁철저	-10.4197
▁하와이	-10.4198
▁명은	-10.42
▁작용	-10.4201
▁마쳤다	-10.4205
▁기부	-10.4206
▁단속	-10.4209
▁CD	-10.4212
▁형제	-10.4213
▁사장	-10.4215
▁생각하는	-10.4219
mb	-10.422
▁추정된다	-10.4222
▁승리한	-10.4227
▁신발	-10.4227
▁무료	-10.4231
▁만들어진	-10.4247
▁못하게	-10.4252
▁값	-10.4254
▁듀	-10.426
▁호텔에서	-10.4262
▁영장	-10.4284
▁리그	-10.4302
밤	-10.4309
▁시사	-10.4311
▁42	-10.4312
▁동성애자	-10.4319
▁이것	-10.432
▁동티모르	-10.4335
▁펼쳤다	-10.4335
끈	-10.4335
춤	-10.4335
WHO	-10.4335
▁쓰나미	-10.4335
▁파트너	-10.4335
▁에어버스	-10.4336
▁주한미군	-10.4336
▁외환은행	-10.4336
▁바스라	-10.4336
▁요리	-10.4337
▁급등	-10.434
▁디자인	-10.4343
▁th	-10.4344
▁두바이	-10.4347
기록	-10.4348
▁상태에	-10.4349
▁사령관은	-10.4352
되었으며	-10.4356
스타인	-10.4362
▁대학생	-10.4362
▁3000	-10.4364
▁골프	-10.4372
▁시각	-10.4373
▁중심부	-10.4377
▁여권	-10.4379
▁신중	-10.438
▁간단	-10.4385
▁한때	-10.4388
▁의석	-10.4391
▁책임이	-10.4397
▁하던	-10.4398
되었던	-10.44
▁논란이	-10.4402
병원	-10.441
차량	-10.441
▁회의에서	-10.4412
▁기계	-10.4419
위안	-10.4426
더스	-10.4427
점으로	-10.4437
▁말하며	-10.4444
활	-10.4451
짓	-10.4456
▁공간	-10.4462
▁발생하는	-10.4465
아버지	-10.4468
있었다	-10.447
학자들	-10.447
▁비용이	-10.4481
틱	-10.4482
▁그렇지	-10.4482
▁일으킨	-10.4482
엠	-10.4482
킬로미터	-10.4482
▁이루어졌다	-10.4482
▁불능화	-10.4482
▁차관보는	-10.4482
▁송환	-10.4484
▁저지른	-10.4486
▁(=	-10.4486
▁당신이	-10.4488
ence	-10.4488
ast	-10.449
▁바닥	-10.4492
▁처해	-10.4493
스케	-10.4502
▁나올	-10.4503
▁기밀	-10.4503
▁참석했다	-10.4506
▁보트	-10.4508
▁초래	-10.4509
해왔	-10.4511
▁맛	-10.4514
▁앞에	-10.4515
▁존중	-10.4516
▁첫번째	-10.4517
슬러	-10.4519
▁점차	-10.4523
▁공포	-10.4529
▁130	-10.4529
돼있다	-10.4541
▁못한다	-10.4543
▁사회적	-10.4552
▁응답자	-10.4554
▁도시에서	-10.4557
▁자문	-10.4558
▁우리당	-10.4558
▁지켜보	-10.4561
▁케리	-10.4561
▁마비	-10.4567
95	-10.4567
▁높아	-10.4583
▁운전자	-10.4588
▁마감했다	-10.4594
▁유전	-10.4594
▁예수	-10.4596
▁서울시	-10.4598
▁이곳에	-10.4598
▁검사는	-10.4604
이었으며	-10.4605
이스라엘	-10.4615
솔	-10.4616
▁리처드	-10.4616
규모	-10.462
따	-10.4622
▁한국에서	-10.4624
▁레스토랑	-10.4632
▁선거캠프	-10.4632
▁휩싸	-10.4632
꽃	-10.4632
▁김대중	-10.4632
▁흥분	-10.4632
▁벌어지	-10.4632
▁우리나라	-10.4632
▁적극적	-10.4633
▁여학생	-10.4635
28	-10.4638
▁못해	-10.4641
▁받았으며	-10.4641
▁검은	-10.4641
교회	-10.4643
▁종류	-10.4647
▁세계은행	-10.4649
▁노동당	-10.4652
▁개표	-10.4653
▁위로	-10.4654
▁북미	-10.4656
▁신부	-10.4658
8000	-10.4661
▁특수	-10.4664
▁발전소	-10.4671
▁표명	-10.4671
▁유출	-10.4677
▁su	-10.4682
▁상공	-10.4682
▁답했다	-10.4683
▁아니었다	-10.4699
받았다	-10.4699
35	-10.47
베나	-10.4702
▁가구	-10.4702
▁자유를	-10.4702
▁공약	-10.4706
▁제기했다	-10.4707
▁선전	-10.4719
▁백악관은	-10.4728
▁불가능	-10.4735
▁국방	-10.4739
▁라고	-10.4744
ail	-10.4748
▁전사	-10.4749
제대로	-10.4753
▁비판했다	-10.4754
▁압둘	-10.476
mm	-10.4762
▁측은	-10.4764
▁일리노이	-10.4764
▁생일	-10.4773
빛	-10.4775
촉	-10.4782
첩	-10.4783
▁곤잘레스	-10.4783
▁만났다	-10.4783
0,000	-10.4783
▁콜로라도	-10.4783
▁구제금융	-10.4784
▁헨리	-10.4784
▁핵프로그램	-10.4785
▁부정적	-10.4786
▁숀	-10.4786
▁고위관리	-10.4787
▁강풍	-10.4789
▁경영진	-10.479
▁미국측	-10.4792
▁테스트	-10.4794
해질	-10.4795
▁1970	-10.4795
▁인생	-10.4796
▁것이었다	-10.4797
▁죽은	-10.4798
▁그래서	-10.4801
▁도망	-10.4805
▁이슬람교	-10.4809
▁보도에따르면	-10.481
▁피트	-10.4813
▁따라서	-10.4815
▁벗	-10.4816
act	-10.4818
▁백인	-10.482
▁상어	-10.4821
▁뇌물	-10.4826
ti	-10.4827
▁34	-10.4827
▁예전	-10.483
▁불길	-10.4833
▁기자들에게	-10.4833
▁차단	-10.484
▁나이트	-10.484
▁다루	-10.4842
달라고	-10.4843
▁요소	-10.4856
▁지질	-10.4877
▁총장은	-10.4878
▁신분	-10.488
iz	-10.4883
▁사망자수	-10.4883
스탄	-10.4889
▁근로자	-10.4891
총리	-10.4894
국제	-10.4897
연대	-10.4902
▁당수	-10.4903
▁주기	-10.4905
▁시티	-10.4927
흡	-10.4934
▁들어갔다	-10.4937
▁나스닥	-10.4937
▁북서부	-10.4937
▁침입	-10.4937
▁와인하우스	-10.4937
▁방콕	-10.4938
▁뿐만아니라	-10.494
▁자유롭	-10.494
▁화장실	-10.494
▁ABC	-10.4941
▁직업	-10.4942
▁전역에	-10.4942
▁법안이	-10.4942
변화	-10.4942
▁출입	-10.4943
▁과도	-10.4944
▁사막	-10.495
▁진영	-10.495
▁40%	-10.4952
▁산림	-10.4952
▁화면	-10.4955
▁개장	-10.4958
ther	-10.496
▁쓴	-10.496
ca	-10.4965
▁돌파	-10.497
▁칼리	-10.4973
▁올려	-10.4973
노동	-10.4982
▁해임	-10.4988
▁미술	-10.4989
▁사용될	-10.499
▁내정	-10.4991
▁자원	-10.4999
▁논의하기	-10.5
▁가능하다	-10.5005
▁세대	-10.5013
ens	-10.503
▁해적	-10.5035
▁33	-10.5048
▁고객들	-10.5056
▁집으로	-10.5058
lu	-10.506
▁시민들이	-10.506
▁사용자	-10.507
▁경비	-10.5071
▁벌였	-10.5078
▁두번째	-10.5084
핵	-10.5089
▁800	-10.5089
뿐만아니라	-10.509
멜	-10.5091
▁요르단	-10.5091
랙	-10.5093
▁President	-10.5093
▁궤도	-10.5093
▁떠났다	-10.5093
▁블라디미	-10.5093
▁스코틀랜드	-10.5093
▁없지만	-10.5093
룸	-10.5093
▁법무부	-10.5093
▁촉발	-10.5093
▁활약	-10.5093
▁둘러싸	-10.5094
▁성직자	-10.5095
▁라이벌	-10.5095
▁언어	-10.5096
▁가졌	-10.5096
▁대륙	-10.5097
▁자치정부	-10.5098
▁필립	-10.5098
▁급증	-10.51
▁아프가니스탄에서	-10.51
▁열어	-10.5101
▁리드	-10.5102
▁환호	-10.5103
▁축소	-10.5105
▁맞추	-10.5106
▁체중	-10.5108
▁왕실	-10.5111
▁약화	-10.5113
▁짓	-10.5117
▁성격	-10.5119
▁다우지수	-10.5119
▁불편	-10.5129
▁자랑	-10.5132
▁꼭	-10.5132
▁정전	-10.5134
▁엘리	-10.514
▁직전	-10.5142
연방	-10.5142
▁상호	-10.5156
▁연금	-10.5163
베르	-10.5165
▁공모	-10.5166
페이스	-10.5167
▁일어났	-10.5174
▁맥주	-10.5177
▁자신에게	-10.5185
▁보호하기	-10.5185
▁연안	-10.5198
▁120	-10.5207
▁감지	-10.5208
▁백악관에서	-10.5216
▁독도	-10.5221
48	-10.5227
즉각적인	-10.5228
▁생각했다	-10.5233
▁시기에	-10.5236
▁진술했다	-10.5239
▁코트	-10.5239
▁개시	-10.5246
옹	-10.5252
▁가택연금	-10.5252
▁샤라포바	-10.5252
▁패트릭	-10.5252
넨	-10.5252
퀸	-10.5252
Q	-10.5252
▁겨냥	-10.5252
▁남서부	-10.5252
▁받아들일	-10.5252
▁리차드	-10.5252
▁촉진	-10.5252
▁월스트리트	-10.5252
▁천주교	-10.5253
▁거듭	-10.5253
▁수석대표	-10.5253
▁봉송	-10.5253
▁붙잡	-10.5255
여성	-10.5255
▁구축	-10.5269
▁낸시	-10.5271
▁리치	-10.5272
▁벌여	-10.5272
▁몰려	-10.5273
▁즉각	-10.5276
▁월드	-10.5276
▁라이트	-10.5283
▁들여	-10.5285
매우	-10.5288
▁걸리	-10.5288
▁가해	-10.5295
▁홍	-10.5303
됐으나	-10.5305
스럽게	-10.5305
레이크	-10.531
▁주장하며	-10.5312
위성	-10.5326
후보	-10.5326
▁대치	-10.5327
투표	-10.5329
▁날아	-10.5331
▁조약	-10.5332
우주	-10.5341
▁전환	-10.5343
▁여행객	-10.5344
▁대상이	-10.5347
▁만들고	-10.535
▁포함된	-10.5357
▁사람에게	-10.536
▁성공적	-10.5369
▁다르	-10.5377
▁인원	-10.5379
▁출동	-10.5379
▁농장	-10.538
▁주었다	-10.5392
83	-10.5392
▁잡고	-10.5393
▁지내	-10.5393
삭	-10.5413
겁	-10.5413
▁쌍둥이	-10.5413
▁오사마빈라덴	-10.5413
▁알코올	-10.5413
▁스파이	-10.5414
▁탄핵	-10.5414
▁다섯	-10.5415
▁상하이	-10.5415
▁영웅	-10.5415
▁케빈	-10.5415
▁동쪽	-10.5416
▁타임스	-10.542
풀	-10.5422
동맹	-10.5422
pr	-10.5423
▁애도	-10.5426
▁정착	-10.5431
▁폭파	-10.5434
▁감염된	-10.5435
헤드	-10.5437
▁소득	-10.5438
▁것인가	-10.5439
▁일제	-10.5442
▁초반	-10.5443
▁스타일	-10.5448
▁나토군	-10.545
▁카터	-10.5457
▁역사적	-10.546
▁맡은	-10.5461
▁비난하고	-10.5467
▁하락세	-10.5478
▁레드	-10.548
▁국민들에게	-10.5485
▁자제	-10.5486
▁던지	-10.5495
▁떨어졌	-10.5495
돼야	-10.5508
▁Mo	-10.5515
티아	-10.5519
▁들어오	-10.5529
▁입법	-10.553
▁상태로	-10.5533
▁평가했다	-10.5535
▁확실한	-10.5542
가족	-10.5543
▁자사	-10.5551
▁폭스	-10.5561
버렸다	-10.5573
컷	-10.5576
턱	-10.5577
▁디지털	-10.5577
▁마이애미	-10.5577
▁미시시피	-10.5577
▁애리조나	-10.5577
▁유튜브	-10.5577
▁천연가스	-10.5577
▁캄보디아	-10.5577
빼	-10.5577
왓	-10.5577
▁사찰단	-10.5577
▁비타민	-10.5577
▁침몰	-10.5577
▁중앙일보	-10.5577
▁오딩가	-10.5577
▁로이터	-10.5577
▁졸업	-10.5578
▁지하철	-10.5579
▁새벽	-10.5579
▁날짜	-10.558
때문에	-10.5582
▁소련	-10.5582
▁산사태	-10.5582
▁보지	-10.5583
▁급격	-10.5584
▁채널	-10.5585
▁취임식	-10.5588
▁종합	-10.5591
▁엔진	-10.5591
자동차	-10.5592
▁게재	-10.5594
▁공개된	-10.5594
▁연예	-10.5595
▁분류	-10.5595
▁55	-10.5597
▁감금	-10.5598
▁전세계적으로	-10.5598
▁완전한	-10.5599
▁뛰	-10.56
▁연구팀	-10.5601
▁추모	-10.5608
▁쌀	-10.5613
▁미칠	-10.5622
나무	-10.5624
부르크	-10.5628
▁향상	-10.5632
▁장면이	-10.564
▁전부터	-10.5642
▁와인	-10.5643
▁상승세	-10.5644
▁도착한	-10.5648
재판소	-10.5651
▁경력	-10.5659
▁이론	-10.5662
▁가리	-10.5664
제품	-10.5666
PS	-10.5672
▁증상	-10.5678
▁원화	-10.5681
▁경호	-10.5694
라이트	-10.5696
▁딕	-10.57
장소	-10.5706
▁합의했다고	-10.5715
▁정신적	-10.5722
▁서쪽	-10.573
정치	-10.5733
▁전원	-10.5733
쪽으로	-10.5743
낭	-10.5744
▁결선투표	-10.5744
▁뿌리	-10.5744
▁쓰촨성	-10.5744
놈	-10.5744
쌍	-10.5744
▁비핵화	-10.5744
▁이뤄졌다	-10.5744
▁뉴저지	-10.5744
▁가즈니	-10.5744
▁재무부	-10.5744
▁호랑이	-10.5744
▁흥미	-10.5744
▁over	-10.5744
▁걸린	-10.5744
▁근육	-10.5746
▁받으며	-10.575
▁부총리	-10.575
▁돌입	-10.5753
▁다윈	-10.5755
벽	-10.5757
해야만	-10.5758
▁오늘날	-10.5759
컨	-10.5759
▁끝내	-10.576
쥐	-10.5764
▁소집	-10.5767
▁부채	-10.5767
2009.0	-10.5769
년만에	-10.5771
▁포경	-10.5778
▁가상	-10.5779
▁공개적으로	-10.5783
▁조류	-10.5784
▁호소	-10.5785
사진	-10.5789
▁대립	-10.579
▁좁	-10.5791
▁2-1	-10.5795
▁가동	-10.5797
▁프레스	-10.5805
▁방식으로	-10.581
▁마무	-10.581
▁기다리	-10.5821
▁형사	-10.5836
▁변호인	-10.5855
▁무리	-10.5866
당신	-10.5867
략	-10.5878
맹	-10.5884
▁만들기	-10.5891
첼	-10.5897
업체들	-10.5897
▁나오지	-10.5902
▁전복	-10.5904
얀	-10.5909
CC	-10.5909
롬	-10.5912
▁후보들	-10.5912
쁘	-10.5913
▁늦게	-10.5913
▁브라이언	-10.5913
▁블라고예비치	-10.5913
▁알렉산더	-10.5913
▁에베레스트	-10.5913
▁인플레이션	-10.5913
▁토네이도	-10.5913
▁필라델피아	-10.5913
줘	-10.5913
▁골키퍼	-10.5913
▁키바키	-10.5913
▁원숭이	-10.5913
▁리히터	-10.5913
▁스캔들	-10.5913
▁오히려	-10.5913
▁2-0	-10.5913
▁최저	-10.5914
.8%	-10.5914
▁갖춘	-10.5914
▁합법적	-10.5914
▁탄압	-10.5916
▁이라크군	-10.5918
카드	-10.5919
▁국가안보	-10.5919
비용	-10.5923
▁무엇보다	-10.5924
▁보스턴	-10.5925
▁만남	-10.5926
▁*	-10.5928
▁들어있	-10.5933
물질	-10.5946
▁물품	-10.5947
▁구조대원들	-10.595
▁반영	-10.5951
▁들어간	-10.5951
▁이에따라	-10.5952
감독	-10.5959
▁공사	-10.5964
▁겸	-10.5973
▁참여한	-10.5973
▁소문	-10.5977
▁표명했다	-10.5987
▁일간지	-10.5987
써	-10.5998
▁그대로	-10.5998
▁노선	-10.6009
여행	-10.6013
▁사람들과	-10.6037
▁것임	-10.6038
▁주연	-10.6056
▁소위	-10.6058
▁간부	-10.606
버리	-10.6069
▁상상	-10.6076
▁정치인들	-10.6082
즘	-10.6084
잭	-10.6085
▁마이크로소프트	-10.6086
▁이슬라마바드	-10.6086
슐	-10.6086
▁남자친구	-10.6086
▁은신처	-10.6086
▁아름다	-10.6086
▁통일부	-10.6086
▁화이트	-10.6087
port	-10.6087
▁보여준다	-10.6087
▁순례	-10.6089
▁중대한	-10.609
▁있었으나	-10.609
▁징역형	-10.6091
▁라이언	-10.6091
▁벗어	-10.6094
▁블루	-10.6094
▁가족과	-10.6095
▁다음날	-10.61
▁종결	-10.6102
▁클리	-10.6106
▁지휘관	-10.6107
▁로저	-10.6107
▁결심	-10.6107
▁체코	-10.6108
▁젊은이들	-10.6108
▁키스	-10.611
리언	-10.6113
▁초청	-10.6116
털	-10.6117
▁기소됐다	-10.612
▁소형	-10.6123
▁기각	-10.6125
▁동기	-10.6128
언론	-10.6133
▁알카에다와	-10.614
▁밥	-10.614
▁투르	-10.6155
수술	-10.6157
▁조사에따르면	-10.6159
▁게시	-10.6165
▁호수	-10.6166
▁매력	-10.6169
민들	-10.617
▁공대	-10.6172
▁시체	-10.6182
▁홍수로	-10.6187
▁해병	-10.6192
▁정식	-10.6197
▁부상으로	-10.62
속도로	-10.6209
▁국무	-10.6238
랍	-10.625
▁가게	-10.6254
▁브리	-10.6256
우디	-10.6261
펀	-10.6261
븐	-10.6261
▁국제공항	-10.6261
▁후진타오	-10.6261
숲	-10.6261
▁선관위	-10.6261
▁법무장관	-10.6261
▁펀드	-10.6262
▁불가피	-10.6262
▁원칙	-10.6264
▁성장률	-10.6265
▁1996	-10.6266
▁소탕	-10.6268
▁출생	-10.6271
▁황금	-10.6271
▁남극	-10.6272
▁사육	-10.6272
▁가담	-10.6276
▁보고서에따르면	-10.628
▁브랜드	-10.6282
▁배후	-10.6282
▁제공할	-10.6283
▁음주	-10.629
▁물러나	-10.6297
ous	-10.6298
▁진단	-10.6299
▁피고인	-10.6299
시스템	-10.63
▁일으켰다	-10.6302
시킨다	-10.6303
▁화재로	-10.6304
▁기온	-10.6308
▁비행사	-10.6309
▁근로자들	-10.6317
▁주최측	-10.6326
역사적인	-10.6327
▁쓸	-10.6328
▁화해	-10.6332
▁불어	-10.6334
▁날개	-10.634
▁일어났다	-10.6348
▁카라	-10.6349
▁부산	-10.6354
▁받는다	-10.6371
▁일치	-10.6376
렸으며	-10.6399
▁양국간	-10.64
09	-10.6401
▁확인됐다	-10.6403
▁지속적	-10.6411
▁화상	-10.6429
▁직장	-10.6435
▁뭄바이	-10.644
▁탱크	-10.644
얄	-10.644
톱	-10.644
▁섭취	-10.644
▁줄리아니	-10.644
▁할머니	-10.644
▁감바리	-10.644
▁택시	-10.6441
▁교통사고	-10.6442
▁구멍	-10.6442
▁캐롤	-10.6442
겠습니다	-10.6442
▁플라	-10.6444
▁소규모	-10.6444
▁1993	-10.6445
▁인권단체	-10.6446
▁라덴	-10.6446
▁벨기에	-10.6448
▁폭설	-10.645
▁사생활	-10.645
많은	-10.6453
▁영양	-10.6455
▁보존	-10.6455
▁여론조사에서	-10.6459
▁GM	-10.6459
▁신문사	-10.646
▁관측	-10.6463
▁기대한다	-10.6476
▁발생하고	-10.6479
▁악어	-10.6492
▁가방	-10.6505
▁노스	-10.6513
▁제공한	-10.6521
▁기원	-10.6523
생산	-10.6524
▁수퍼	-10.653
▁급속	-10.6541
▁총상	-10.6541
▁착수	-10.6551
▁자택	-10.6555
▁살아있	-10.6559
사업	-10.6569
▁피부	-10.658
▁참석할	-10.6591
▁근처에서	-10.6592
켜	-10.6596
▁산악	-10.661
▁초안	-10.6616
조건	-10.6619
ish	-10.662
▁China	-10.6622
▁무슬림	-10.6622
▁밴드	-10.6622
▁재검토	-10.6622
▁횡령	-10.6622
▁기쁘다	-10.6622
▁테일러	-10.6622
▁다시한번	-10.6622
▁쓰레기	-10.6622
▁플래	-10.6622
▁침공	-10.6622
▁가벼	-10.6622
민감한	-10.6624
▁예멘	-10.6625
▁괴한	-10.6625
▁지붕	-10.6626
▁1991	-10.6627
▁비난하는	-10.6627
▁감옥	-10.6627
▁his	-10.6629
▁농업	-10.663
▁아이폰	-10.6631
폴리스	-10.6632
▁포럼	-10.6632
▁결함	-10.6633
▁진행자	-10.6635
▁1%	-10.6636
▁국장	-10.6639
▁에릭	-10.664
긍정적인	-10.6642
▁관중	-10.6644
▁판정	-10.6647
▁적발	-10.665
ian	-10.6659
▁방송사	-10.6659
▁종식	-10.6662
▁반복	-10.6662
▁곳이다	-10.6665
▁개정안	-10.6665
▁선포했다	-10.6667
▁마친	-10.6667
▁나왔	-10.6668
▁재임	-10.6673
▁비교적	-10.6675
▁북쪽으로	-10.6677
=	-10.6679
▁수립	-10.6695
▁늘어나	-10.6696
▁사용하지	-10.6699
▁생기	-10.6705
▁국적	-10.6705
▁제작한	-10.6709
▁부실	-10.6726
▁미국인들이	-10.673
구조	-10.6733
▁총회	-10.674
▁모아	-10.6742
▁근거로	-10.6746
되거나	-10.6748
▁세계적으로	-10.6752
▁대피했다	-10.6756
신문	-10.676
▁구체적	-10.676
▁극장	-10.6761
▁순위	-10.6769
통제	-10.6771
만개	-10.6785
▁문제들	-10.6787
▁재판관	-10.6799
97	-10.6801
▁DVD	-10.6807
▁사우스캐롤라이나	-10.6807
▁안전보장이사회	-10.6807
▁협약	-10.6807
슛	-10.6807
툼	-10.6807
팝	-10.6807
헐	-10.6807
▁광범위	-10.6807
▁메르켈	-10.6807
▁파나마	-10.6807
▁원주민	-10.6807
▁스트레스	-10.6807
▁미디어	-10.6807
▁거짓말	-10.6808
▁세인트	-10.6808
▁발휘	-10.6809
▁사용했다	-10.6809
▁호흡	-10.681
▁수상한	-10.6811
part	-10.6812
▁억제	-10.6812
잘못된	-10.6816
▁싸우	-10.6818
per	-10.6819
▁이용하는	-10.6819
▁차별	-10.6821
▁중이었다	-10.6823
▁금연	-10.6824
▁신규	-10.6825
▁정찰	-10.6825
▁치명적인	-10.6832
▁이륙	-10.6837
▁반박	-10.6842
▁제목	-10.6848
등급	-10.6854
▁관계당국	-10.6857
▁미치는	-10.686
교육	-10.6871
▁자행	-10.6873
▁제출했다	-10.6876
워드	-10.6877
커스	-10.6878
▁정상화	-10.6884
폭력	-10.6894
▁최고치	-10.6895
91	-10.6898
공사	-10.69
었는지	-10.6903
▁혼자	-10.6904
▁많아	-10.6906
▁성당	-10.6907
ber	-10.691
▁생각하지	-10.6914
▁차지하고	-10.6917
▁계속될	-10.693
코프	-10.6942
▁지점에서	-10.6946
▁적절	-10.6954
단계	-10.6961
ary	-10.6961
▁수십명	-10.6964
▁실업	-10.6967
▁연구원들	-10.6994
▁nuclear	-10.6995
▁식료품	-10.6995
▁검문소	-10.6995
▁다큐멘터리	-10.6995
▁스타디움에서	-10.6995
▁왼쪽	-10.6995
▁쿠웨이트	-10.6995
왈	-10.6995
▁불러일으	-10.6995
▁전당대회	-10.6995
▁과반수	-10.6996
▁일어날	-10.6996
▁데이비스	-10.6996
▁사용해	-10.6996
▁옹호	-10.6996
▁균형	-10.6996
▁공산주의	-10.6996
▁위안부	-10.6996
▁롬니	-10.6996
▁승려들	-10.6996
▁난민촌	-10.6997
▁귀환	-10.7
▁1995	-10.7002
▁탑승객	-10.7003
▁완료	-10.7003
▁표준	-10.7006
▁61	-10.7006
▁출두	-10.7007
▁신사	-10.7011
분만에	-10.7011
▁화려	-10.7013
day	-10.7016
▁인민	-10.7019
380	-10.7023
▁동생	-10.7023
▁서안	-10.7025
연구원	-10.7026
▁제정	-10.7028
▁조언	-10.7032
▁고장	-10.7036
▁모래	-10.7039
▁모임	-10.7044
않	-10.7045
해지고	-10.7046
킨스	-10.705
▁있어야	-10.7051
굴	-10.7055
돈	-10.7062
▁부상당	-10.7072
ph	-10.7074
▁주장한다	-10.7092
▁조용	-10.7093
▁선원	-10.7094
Ma	-10.7095
▁보냈	-10.7112
▁단체들	-10.7114
않게	-10.7118
▁실시할	-10.7133
▁달린	-10.7136
▁하미	-10.7138
▁달러화	-10.7139
▁AT	-10.7139
직원	-10.715
동물	-10.7153
겠	-10.7154
▁경관	-10.7155
▁국제원자력기구	-10.7188
▁않았던	-10.7188
▁없게	-10.7188
▁에콰도르	-10.7188
▁이산화탄소	-10.7188
▁캐릭터	-10.7188
▁확장	-10.7188
▁매사추세츠	-10.7188
▁어렵다	-10.7188
▁매니저	-10.7188
▁받아들여	-10.7188
▁펠로시	-10.7188
▁코끼리	-10.7188
▁나타난	-10.7188
▁조지아주	-10.7188
▁퇴임	-10.7188
▁득표율	-10.7188
▁범행	-10.719
▁낮추	-10.7192
▁침대	-10.7192
▁친척	-10.7193
▁급락	-10.7194
▁쉽지	-10.7194
▁떠난	-10.7197
▁레이건	-10.7197
중앙	-10.7197
▁당황	-10.7198
발전	-10.72
▁복역	-10.7201
▁일련	-10.7202
니까	-10.7205
예비선거	-10.7206
▁당초	-10.7213
▁운영하고	-10.722
▁케이트	-10.722
▁신조	-10.7222
▁상영	-10.7225
ound	-10.723
▁매체	-10.7237
범들	-10.7238
▁인력	-10.7239
▁포함돼	-10.724
아시아	-10.724
▁모리	-10.7241
▁뉴욕시	-10.7245
▁무게	-10.7246
▁조건으로	-10.7253
▁계속되는	-10.7255
▁생산량	-10.7255
팬	-10.726
IAEA	-10.7261
아일랜드	-10.7262
▁요금	-10.7262
▁군사적	-10.7265
뇌	-10.7267
▁텍사스주	-10.7272
▁다르다	-10.7277
▁창문	-10.7278
그녀	-10.7279
▁피해자들	-10.728
▁아난	-10.7292
▁운전사	-10.73
▁공개됐다	-10.732
Al	-10.7349
ite	-10.7356
▁발견되었다	-10.7358
▁확신한다	-10.7367
▁유대	-10.7368
▁주위	-10.7368
▁무장대원	-10.737
▁정원	-10.737
엇	-10.7379
템	-10.7384
▁from	-10.7384
▁샌디에이고	-10.7384
▁일으킬	-10.7384
▁마라톤	-10.7384
▁외무성	-10.7384
▁이뤄진	-10.7384
▁여겨지	-10.7384
▁어깨	-10.7384
▁드러냈다	-10.7385
▁용납	-10.7386
▁상륙	-10.7387
▁테니스	-10.7388
▁생방송	-10.739
▁끝날	-10.7391
▁늘리	-10.7391
▁부활	-10.7392
▁창출	-10.7393
▁최저치	-10.7395
▁탄생	-10.7396
ust	-10.7396
▁분석가들은	-10.7398
▁1960	-10.7399
▁추구하	-10.7399
89	-10.7401
▁방출	-10.7404
▁분량	-10.7404
▁음성	-10.7409
▁거부권	-10.7409
▁밝혀진	-10.7416
▁중단했다	-10.7425
▁증세	-10.7426
▁발포	-10.7427
▁알렸다	-10.7429
▁모건	-10.7434
▁오하이오주	-10.7438
▁보게	-10.7439
▁거절했다	-10.7439
▁비난하며	-10.7441
▁상태이다	-10.7445
▁진보	-10.7446
▁마리아	-10.7449
▁예정이었다	-10.7459
▁조명	-10.7461
▁월가	-10.7465
NASA	-10.7466
아프리카	-10.7466
▁전달했다	-10.7467
▁자택에서	-10.7468
넣	-10.7472
▁회원국들	-10.7476
앞으로	-10.7481
86	-10.7495
▁투명	-10.7497
▁기여	-10.7508
ag	-10.7511
▁위대	-10.7524
▁세부	-10.7556
버린	-10.7562
뢰	-10.7573
▁느낄	-10.7584
▁유혈사태	-10.7584
▁줄기세포	-10.7584
▁프리미어리그	-10.7584
▁휩쓸	-10.7584
▁앤드류	-10.7584
▁자카르타	-10.7584
쿨	-10.7584
콰	-10.7584
▁샘플	-10.7584
▁new	-10.7584
▁돌고래	-10.7584
.9%	-10.7584
▁홈페이지	-10.7585
▁실업률	-10.7585
▁로딕	-10.7585
▁중동평화	-10.7585
▁탐험	-10.7585
▁특징	-10.7586
▁계좌	-10.7587
▁밝혔지만	-10.7587
▁MBC	-10.7587
▁축출	-10.7587
▁빌딩	-10.7587
▁동일한	-10.7588
▁다국적군	-10.7591
▁표결	-10.7598
▁건너	-10.76
▁처방	-10.7605
▁회계	-10.7605
▁측면	-10.7607
▁부위	-10.7615
▁서양	-10.7616
에이커	-10.7617
▁선임	-10.762
▁원래	-10.7625
▁치러지	-10.763
▁선호	-10.7636
널리	-10.764
▁발행	-10.764
▁해당하는	-10.7641
▁식사	-10.7652
▁사용된	-10.7655
▁2500	-10.766
힘	-10.7675
1000	-10.7678
유럽	-10.7683
진압	-10.769
▁소유하고	-10.7721
대책	-10.7721
▁보조	-10.773
▁뉴욕주	-10.7743
▁실종자	-10.7761
봐	-10.7781
내용	-10.7786
2006.01	-10.7788
▁HIV	-10.7788
▁멤버	-10.7788
▁않았으나	-10.7788
▁애완견	-10.7788
▁윔블던	-10.7788
▁프랭크	-10.7788
▁항공우주국	-10.7788
넌	-10.7788
쏘	-10.7788
햇	-10.7788
▁노르웨이	-10.7788
▁힘입어	-10.7788
▁격렬한	-10.7788
▁마흐디	-10.7788
▁영화배우	-10.7788
▁예를들어	-10.7788
▁좌절	-10.7788
▁득점	-10.7788
▁검증	-10.7788
▁정거장	-10.7788
▁잇따	-10.7788
▁브리핑	-10.7788
2007.11	-10.7789
▁암컷	-10.7789
▁not	-10.779
▁밝혔으며	-10.7791
▁떠올	-10.7791
▁외치	-10.7791
▁손님	-10.7791
▁음료	-10.7793
▁녹음	-10.7795
▁화합	-10.7795
▁내려졌다	-10.7796
▁오마르	-10.7797
▁동의했다	-10.7797
▁쿠퍼	-10.7798
▁포착	-10.78
▁외환	-10.7801
▁용기	-10.7802
▁통증	-10.7804
▁열렸다	-10.7806
▁리처드슨	-10.7809
▁종료	-10.7811
▁해상	-10.7812
▁개편	-10.7817
▁발표됐다	-10.7819
▁매달	-10.782
▁키우	-10.7823
▁접전	-10.7827
▁고무	-10.7847
▁1500	-10.7861
방위	-10.7864
▁사설	-10.7864
▁운영하	-10.7872
▁추세	-10.7873
▁재직	-10.7874
▁보이며	-10.7887
프랑스	-10.7888
윤	-10.7889
▁판다	-10.7891
▁실시했다	-10.7891
▁88	-10.7893
con	-10.7914
때까지	-10.7915
▁화장	-10.7919
▁부유	-10.7921
하우스	-10.7927
04	-10.7929
연구	-10.7935
▁ex	-10.7963
▁움직	-10.797
▁긍정적	-10.7972
▁포장	-10.7979
버트	-10.7981
▁외국인들	-10.7983
덩	-10.7996
▁government	-10.7996
▁세웠다	-10.7996
▁않았고	-10.7996
▁없습니다	-10.7996
▁피라미드	-10.7996
붐	-10.7996
팩	-10.7996
▁라파엘	-10.7996
▁비틀즈	-10.7996
▁자선단체	-10.7996
▁마돈나	-10.7996
▁침략	-10.7996
드립니다	-10.7996
▁배터리	-10.7996
▁탈북자	-10.7996
▁서식지	-10.7997
▁객실	-10.7997
NS	-10.7997
▁데이빗	-10.7997
▁여섯	-10.7997
2005.09	-10.7998
▁졸리	-10.7998
▁국기	-10.7999
▁1992	-10.8
98	-10.8
93	-10.8
▁빠지	-10.8001
▁촉구하	-10.8002
▁금액	-10.8003
▁탈락	-10.8003
▁테러조직	-10.8004
▁않는다면	-10.8006
분께	-10.8007
▁지분	-10.8007
▁산책	-10.8008
▁막아	-10.8011
07	-10.8011
▁아마디	-10.8011
▁인형	-10.8018
▁전국적으로	-10.8018
▁통행	-10.8022
▁상당히	-10.8025
인들에게	-10.803
▁고급	-10.803
▁못했	-10.8032
▁본토	-10.8033
▁FA	-10.8039
▁30%	-10.804
▁운명	-10.804
포르	-10.804
▁지지한다	-10.8043
▁남용	-10.805
▁강행	-10.8051
▁피살	-10.8052
▁보급	-10.8052
▁방향으로	-10.8053
▁청사	-10.8057
▁잡아	-10.8064
▁자동	-10.8076
프레드	-10.808
▁불구	-10.8091
▁부모들	-10.8101
탈레반	-10.8105
▁플로리다주	-10.8108
▁유산	-10.8109
음악	-10.811
▁잡스	-10.8114
▁밝혔	-10.8121
혔	-10.8122
▁잃었	-10.8123
96	-10.8144
bu	-10.8169
▁배심원	-10.8181
내내	-10.8194
min	-10.8201
▁강세	-10.8204
졸	-10.8206
훔	-10.8209
OPEC	-10.8209
▁경기부양책	-10.8209
▁관타나모	-10.8209
▁오토바이	-10.8209
▁우주왕복선	-10.8209
▁울포위츠	-10.8209
▁파바로티	-10.8209
▁플라스틱	-10.8209
툴	-10.8209
펄	-10.8209
▁자유무역협정	-10.8209
▁준결승	-10.8209
▁퍼거슨	-10.8209
▁펜실베니아	-10.8209
社	-10.8209
▁롤링	-10.8209
▁헌법재판소	-10.821
▁벌써	-10.821
▁낙태	-10.8212
▁저희	-10.8213
▁의뢰	-10.8216
▁오른쪽	-10.8216
▁드러내	-10.8217
▁점검	-10.8219
▁넘겨	-10.822
▁풀려	-10.8222
▁상대방	-10.8224
▁사우스	-10.8224
▁Ar	-10.8225
▁백신	-10.8226
▁NK	-10.8226
▁집권당	-10.8226
▁승무원들	-10.8229
▁놓여	-10.8234
▁의사들	-10.8237
▁군함	-10.8238
▁매출	-10.824
▁멀리	-10.8243
▁고속	-10.8243
▁군복	-10.8244
▁표면	-10.8256
▁요구하며	-10.826
▁운동가들	-10.8263
▁존경	-10.8266
▁연계	-10.8268
▁실린	-10.8273
▁도심	-10.8282
▁포함됐다	-10.8283
몬드	-10.8295
▁이틀간	-10.8298
▁밀어	-10.8301
▁140	-10.8308
▁모금	-10.8311
▁내려진	-10.8312
▁중요성	-10.8315
업계	-10.832
▁다음주	-10.8321
금융	-10.8328
서비스	-10.8328
해달라	-10.834
▁로브	-10.8341
줬	-10.8355
▁갈라	-10.8357
▁제시했다	-10.8371
▁160	-10.8378
▁기소된	-10.8392
▁사망했	-10.8403
칙	-10.8423
닷	-10.8426
▁Obama	-10.8426
▁루아얄	-10.8426
딴	-10.8426
랩	-10.8426
톨	-10.8426
펴	-10.8426
▁경기침체	-10.8426
▁뮤지컬	-10.8426
▁테네시	-10.8426
▁허커비	-10.8426
킴	-10.8426
▁아테네	-10.8426
▁게릴라	-10.8426
▁옐친	-10.8426
▁징후	-10.8427
▁포르노	-10.8427
▁2005.10	-10.8427
▁시라크	-10.8427
▁불가리아	-10.8427
▁공룡	-10.8428
▁벽돌	-10.8429
▁본격적	-10.843
▁살아남	-10.843
▁데일리	-10.843
▁탄광	-10.8432
베르토	-10.8436
▁있었습니다	-10.8437
▁범위	-10.8439
▁함유	-10.844
▁제압	-10.8445
American	-10.8445
▁형식	-10.8446
▁국방성	-10.8447
▁히트	-10.8449
▁점거	-10.8459
▁승부	-10.846
▁자신감	-10.846
▁벌어졌다	-10.8465
▁한국은행	-10.8467
▁조절	-10.847
▁얼마전	-10.8471
▁접수	-10.8477
▁공판	-10.8478
▁호소했다	-10.8484
▁발표했습니다	-10.8485
▁통보	-10.8485
▁소동	-10.849
▁실무	-10.8493
▁좋아하는	-10.8495
▁연간	-10.8496
▁희망한다	-10.85
▁동맹국	-10.8515
▁정기적	-10.8519
▁한국인들	-10.8524
늘	-10.8537
▁동성	-10.8538
form	-10.854
▁사체	-10.8543
아프간	-10.8554
어떤	-10.8554
사령관	-10.8559
2000	-10.8565
사무소	-10.8596
▁감소했다	-10.8608
덤	-10.8644
▁덧붙	-10.8646
2006.08	-10.8649
▁금메달	-10.8649
▁디자이너	-10.8649
▁루이지애나	-10.8649
▁아닙니다	-10.8649
▁지지선언	-10.8649
▁카트리나	-10.8649
▁멈추	-10.8649
▁앤더슨	-10.8649
▁알렉스	-10.8649
▁보이콧	-10.8649
▁흘러	-10.8649
▁징계	-10.8649
▁막대한	-10.8649
▁이자율	-10.8649
▁퇴원	-10.865
▁잠재적	-10.8651
▁흔적	-10.8653
▁개막	-10.8653
강전에서	-10.8653
▁기상청	-10.8654
기때문에	-10.8654
▁디스크	-10.8654
▁떠날	-10.8655
쳤으며	-10.8655
▁양곤	-10.8656
▁핵개발	-10.8657
▁래리	-10.8658
▁통과시켰다	-10.8659
▁경향	-10.8661
▁오스카	-10.8664
▁않으며	-10.8667
▁미첼	-10.8669
▁러드	-10.8669
▁플레이어	-10.867
▁상담	-10.8671
▁사이클	-10.8672
▁인터	-10.8673
▁선고받	-10.8682
▁포함하여	-10.8684
▁서류	-10.8687
▁준수	-10.8687
▁내렸	-10.869
▁장교	-10.8691
▁발발	-10.8692
▁도청	-10.8706
기위해	-10.8707
▁테러리스트들	-10.8707
▁참석하지	-10.8707
업자들	-10.8709
▁탄소	-10.8727
▁대법원장	-10.8738
way	-10.8742
55	-10.8747
▁레바논군	-10.8766
▁계기	-10.8781
▁살해했다	-10.879
▁정보부	-10.8795
▁우즈	-10.881
AM	-10.8817
BO	-10.8825
뒀	-10.8876
▁베네딕	-10.8876
▁빼앗	-10.8876
▁아마디네자드	-10.8876
▁에티오피아	-10.8876
▁오클라호마	-10.8876
▁이브라힘	-10.8876
▁최첨단	-10.8876
▁평화유지군	-10.8876
▁히틀러	-10.8876
뚫	-10.8876
셨	-10.8876
World	-10.8876
▁로드리게스	-10.8876
▁심장마비	-10.8876
▁의약품	-10.8876
▁따뜻	-10.8876
▁압바스	-10.8876
PGA	-10.8876
▁중남미	-10.8876
▁2008.10	-10.8876
▁인터폴	-10.8876
▁스크린	-10.8876
▁품목	-10.8876
2007.12	-10.8877
▁이루어진	-10.8878
▁농민들	-10.8879
▁터널	-10.8879
▁NBA	-10.888
▁술집	-10.8882
▁거짓	-10.8882
▁가짜	-10.8882
▁1989	-10.8882
▁세탁	-10.8885
▁새롭	-10.8885
▁채취	-10.8887
▁들어갈	-10.8887
▁연례	-10.8888
▁부탁	-10.8889
▁플로	-10.8891
▁계산	-10.8895
old	-10.8897
▁dis	-10.8897
▁구름	-10.8898
▁테러단체	-10.89
▁암호	-10.89
▁뿐이다	-10.8904
▁조항	-10.8904
▁풍부	-10.8908
▁발급	-10.8915
▁언급하며	-10.8915
▁단행	-10.8918
▁문구	-10.8923
▁휴대	-10.8926
▁변호	-10.8932
▁대대적	-10.8937
▁선거법	-10.8946
▁회수	-10.8954
▁임대	-10.8954
▁스토	-10.8959
▁보건부	-10.8978
▁해체	-10.898
▁경비원	-10.898
죽	-10.9017
공화국	-10.9024
못	-10.9028
▁당국자들	-10.906
푸르	-10.9098
융	-10.9104
29	-10.9105
뷰	-10.9108
2,000	-10.9108
5,000	-10.9108
▁고이즈미	-10.9108
▁뉴올리언스	-10.9108
▁느낌	-10.9108
▁불확실	-10.9108
▁저질렀다	-10.9108
▁조승희	-10.9108
샬	-10.9108
옳	-10.9108
칩	-10.9108
▁망원경	-10.9108
▁성추행	-10.9108
▁우울증	-10.9108
▁again	-10.9108
▁노트북	-10.9108
▁두려움	-10.9108
▁쇠고기	-10.9108
▁시나리오	-10.9108
▁기숙사	-10.9108
▁무승부	-10.9108
▁수류탄	-10.9109
▁허드슨	-10.9109
▁빠졌다	-10.9109
▁소행성	-10.9109
▁활발	-10.9109
▁무너지	-10.9109
▁저항세력	-10.9109
▁당부했다	-10.911
▁맥캔	-10.9111
▁남아프리카	-10.9111
▁구호단체	-10.9113
▁교섭	-10.9113
▁무덤	-10.9114
▁사라졌다	-10.9115
▁받아왔다	-10.9115
▁박탈	-10.9116
▁아니지만	-10.9121
▁머무	-10.9122
▁체류	-10.9124
▁붙여	-10.9126
▁고위급	-10.9127
▁타밀	-10.9127
▁모술	-10.9129
▁바탕	-10.913
▁때문이라	-10.9131
▁시인했다	-10.9131
▁동성애	-10.9136
천명	-10.9137
연패	-10.9137
▁경비대	-10.9139
▁낮아	-10.9139
같	-10.9141
▁전반적인	-10.9142
▁밀려	-10.9146
▁예약	-10.9151
▁열심	-10.9155
▁위하여	-10.9155
▁구류	-10.9158
▁신도들	-10.9161
▁경쟁력	-10.9168
▁경사	-10.9169
US	-10.9169
▁가중	-10.9172
▁모터	-10.9174
회전	-10.9174
▁유통	-10.9183
▁착수했다	-10.9201
호프	-10.9214
▁두려워	-10.9219
▁여행객들	-10.922
ease	-10.9223
▁총장	-10.9239
▁전해지	-10.924
▁실종됐다	-10.9243
▁부검	-10.9258
탐	-10.9268
최근	-10.927
▁di	-10.9298
스럽다	-10.9299
▁부족하다	-10.933
갱	-10.9346
깃	-10.9346
▁talks	-10.9347
▁비서실장	-10.9347
▁빅토리아	-10.9347
▁위스콘신	-10.9347
▁유죄판결	-10.9347
▁출구조사	-10.9347
▁펼친	-10.9347
▁플루토늄	-10.9347
▁확률	-10.9347
박근혜	-10.9347
찌	-10.9347
텍	-10.9347
▁국립공원	-10.9347
▁알바니아	-10.9347
▁자르다리	-10.9347
▁1987	-10.9347
▁뉴델리	-10.9347
▁도요타	-10.9347
▁대서양	-10.9347
▁삭감	-10.9347
▁숨졌으며	-10.9349
▁남자아이	-10.9349
▁중앙은행	-10.935
▁남학생	-10.9351
▁달한다	-10.9352
▁강진이	-10.9352
▁부사장	-10.9354
카를로스	-10.9355
됐는지	-10.9356
▁증강	-10.9356
▁델타	-10.9357
▁물고기	-10.9359
▁하원의장	-10.9361
▁압도적	-10.9362
▁맡았다	-10.9362
▁왕세자비	-10.9363
▁교외	-10.9365
▁이내에	-10.9367
▁For	-10.9368
▁취급	-10.9368
▁예배	-10.937
▁서장	-10.9371
▁후송	-10.9381
▁업적	-10.9382
▁공안	-10.9383
▁완성	-10.9384
▁양쪽	-10.9385
▁총통	-10.9385
▁아담	-10.9388
▁포터	-10.9395
▁부당	-10.9397
▁복원	-10.9402
Con	-10.9403
▁차질	-10.9409
▁물체	-10.9418
▁상당수	-10.9458
▁관객	-10.9476
▁남아있다	-10.9479
has	-10.9483
na	-10.9489
▁상금	-10.9492
▁동료들	-10.9503
눈	-10.9516
태평양	-10.9518
올림픽	-10.9519
팔레스타인	-10.9519
▁목격했다	-10.952
UN	-10.9529
▁악화되	-10.9543
▁나타났	-10.9544
▁체포되었다	-10.9554
▁제작사	-10.9564
열차	-10.9565
빗	-10.959
head	-10.959
·	-10.959
▁visit	-10.959
▁나눴다	-10.959
▁메드베데프	-10.959
▁않았습니다	-10.959
▁앞섰다	-10.959
▁온실가스	-10.959
▁잃어버	-10.959
▁최루탄	-10.959
▁하이브리드	-10.959
믹	-10.959
벡	-10.959
▁Roh	-10.959
▁글로벌	-10.959
▁이뤄질	-10.9591
▁국정원	-10.9591
▁해수면	-10.9591
▁오렌지	-10.9591
MDC	-10.9591
▁우간다	-10.9591
▁개체수	-10.9591
▁첩보	-10.9591
▁교착상태	-10.9591
▁에드워드	-10.9591
▁염려	-10.9591
▁유명인사	-10.9591
됨에따라	-10.9592
▁워너	-10.9592
▁수색작업	-10.9592
▁아마존	-10.9593
▁재미있	-10.9593
▁its	-10.9594
▁권총	-10.9595
▁금융위기	-10.9595
▁고조되	-10.9595
▁급습	-10.9596
블리	-10.9599
▁줄이기	-10.96
▁갈등	-10.96
▁호송	-10.9602
▁갑작스	-10.9603
▁송금	-10.9604
▁금속	-10.9605
▁지역사회	-10.9606
▁동물들	-10.9606
▁60%	-10.9607
▁모욕	-10.9607
▁연구원은	-10.9609
▁추격	-10.961
번호	-10.9612
▁데리고	-10.9612
▁밝혀내	-10.9612
▁실현	-10.9613
▁톰슨	-10.9614
▁매매	-10.9617
▁둔화	-10.9619
▁증진	-10.9622
▁연출	-10.9622
▁정밀	-10.9627
▁포스트	-10.9631
▁군사력	-10.9639
Pro	-10.9643
▁보증	-10.9648
red	-10.9648
ty	-10.9652
▁부처	-10.9654
▁20%	-10.9657
▁장려	-10.9658
▁고안	-10.9665
▁해저	-10.9668
ame	-10.9686
OS	-10.9689
~2	-10.9711
▁응답	-10.9719
▁남부지역	-10.9721
▁참가자들	-10.973
▁남측	-10.9749
▁판매량	-10.9761
air	-10.9765
▁위험성	-10.9766
▁열었다	-10.9773
딸	-10.9775
▁종교적	-10.9804
유엔	-10.9806
ung	-10.9821
똑	-10.984
숭	-10.984
샘	-10.984
FIFA	-10.984
▁국가비상사태	-10.984
▁국제우주정거장	-10.984
▁디스커버리	-10.984
▁서브프라임	-10.984
퀘	-10.984
▁IBM	-10.984
▁메릴랜드	-10.984
▁바티칸	-10.984
▁파파라치	-10.984
눌	-10.984
▁무장괴한	-10.984
▁미성년자	-10.984
▁깨끗	-10.984
▁재배치	-10.9841
▁윈도우	-10.9841
▁주유소	-10.9841
▁좌석	-10.9841
▁야생동물	-10.9841
▁똑같	-10.9841
▁자전거	-10.9841
▁치솟	-10.9841
▁바꿀	-10.9841
▁퇴진	-10.9841
▁데뷔	-10.9842
time	-10.9843
▁켈리	-10.9843
▁국민투표	-10.9843
▁행렬	-10.9843
▁긴밀	-10.9844
▁인접	-10.9846
▁Ex	-10.9846
▁동참	-10.9849
▁다룬	-10.9851
ah	-10.9851
▁가택	-10.9852
▁유괴	-10.9856
▁서식하	-10.9862
▁단독	-10.9862
▁설계	-10.9863
▁절약	-10.9863
성근	-10.9869
▁위생	-10.9878
▁연임	-10.9882
▁야구	-10.9888
▁상병	-10.9901
▁공무원	-10.9905
ER	-10.9913
벨리	-10.9923
▁발생했	-10.994
▁해적들	-10.9946
▁pre	-10.9957
▁경영자	-10.9958
연승	-10.9973
▁출장	-11.0004
있으며	-11.0045
환경	-11.006
멈	-11.0097
▁Minister	-11.0097
▁버몬트	-11.0097
▁아웅산수치	-11.0097
▁인명피해	-11.0097
▁자원봉사	-11.0097
▁창기라이	-11.0097
굿	-11.0097
랫	-11.0097
렁	-11.0097
팜	-11.0097
▁AIG	-11.0097
▁믿는다	-11.0097
▁선거관리위원회	-11.0097
▁국세청	-11.0097
▁최우선	-11.0097
▁세속주의	-11.0097
▁모니터	-11.0097
▁윈프리	-11.0097
▁언덕	-11.0097
▁적합한	-11.0097
▁아스날	-11.0097
▁국무총리	-11.0097
▁메이저	-11.0097
▁내무장관	-11.0098
▁시티그룹	-11.0098
▁포셋	-11.0099
▁던졌다	-11.0099
▁주차장	-11.01
▁구조작업	-11.01
▁앨런	-11.01
▁숙박	-11.01
▁재활용	-11.0101
▁환율	-11.0101
▁개막식	-11.0103
▁돌아갈	-11.0103
▁산맥	-11.0103
▁돌아왔다	-11.0103
▁1986	-11.0104
▁교착	-11.0107
▁의심되는	-11.0108
바라데이	-11.0109
▁걸렸다	-11.011
▁존스턴	-11.0111
▁창설	-11.0113
▁역임	-11.0113
▁약혼	-11.0114
▁않습니다	-11.0114
▁투표율	-11.0114
▁시민권	-11.0118
▁연말	-11.0118
▁못했지만	-11.0118
▁던진	-11.012
▁by	-11.0121
▁심판	-11.0127
▁발령	-11.0127
▁발견되지	-11.0129
▁찾아내	-11.0129
▁여러번	-11.0134
▁모집	-11.0138
▁시골	-11.0146
▁윌슨	-11.0153
▁사용자들	-11.0155
2005.1	-11.0176
투데이	-11.0178
▁불가능하다	-11.0179
▁파커	-11.0194
▁불과하다	-11.0203
▁인정받	-11.0208
▁관객들	-11.023
사이트	-11.0274
94	-11.0284
휘	-11.0296
말리키	-11.0307
빅	-11.0308
FBI	-11.0308
잘	-11.0309
뉴욕	-11.0311
보고서	-11.0312
웨스트	-11.0315
시즌	-11.0315
전략	-11.0318
▁토대	-11.0323
▁진행중	-11.033
관광	-11.0331
ese	-11.0339
DR	-11.0342
꼬	-11.0359
▁Seoul	-11.036
▁박격포	-11.036
▁스타벅스	-11.036
▁없애	-11.036
▁켄터키	-11.036
▁호나우두	-11.036
깁	-11.036
껏	-11.036
둑	-11.036
뻐	-11.036
섞	-11.036
왁	-11.036
캄	-11.036
▁음주운전	-11.036
▁토크쇼	-11.036
▁후지모리	-11.036
▁개헌안	-11.036
WTO	-11.036
▁워렌	-11.0361
▁고유가	-11.0361
▁포획	-11.0362
▁터뜨	-11.0362
▁자동차업계	-11.0363
▁가끔	-11.0363
▁기획	-11.0363
▁가져올	-11.0364
▁안드레	-11.0365
▁돌아올	-11.0365
▁군중들	-11.0366
▁자발적	-11.0369
▁연구결과	-11.037
▁드레스	-11.0371
▁로켓포	-11.0371
▁포경선	-11.0372
▁카라치	-11.0373
놨다	-11.0375
▁클라크	-11.0377
▁처형	-11.0378
▁연극	-11.0378
▁참배	-11.0378
▁결합	-11.0379
▁치매	-11.0382
▁독감	-11.0383
까요	-11.0384
▁던져	-11.0384
▁대변	-11.0385
▁마찰	-11.0386
▁매입	-11.0387
▁넣었다	-11.039
▁설정	-11.0398
▁맞았다	-11.0401
▁밀러	-11.0403
▁정상들	-11.0411
▁유입	-11.0416
▁전형적	-11.0418
Com	-11.0437
▁일시적	-11.0464
En	-11.0486
물리학	-11.0502
ney	-11.0503
그것은	-11.0586
착륙	-11.0587
3000	-11.059
냥	-11.0624
▁Bush	-11.063
▁개발도상국	-11.063
▁러닝메이트	-11.063
▁맨해튼	-11.063
▁슈퍼볼	-11.063
▁애완동물	-11.063
▁활성화	-11.063
끔찍한	-11.063
닭	-11.063
쉐	-11.063
킥	-11.063
퓨	-11.063
궐	-11.063
▁유람선	-11.063
▁비공식	-11.063
▁라호르	-11.063
▁하버드	-11.063
▁섹시	-11.063
APEC	-11.063
▁남아프리카공화국	-11.0631
▁라모스	-11.0631
▁기다려	-11.0631
▁알제리	-11.0631
▁넬슨	-11.0632
▁브레이크	-11.0632
▁미주리	-11.0633
▁침수	-11.0633
▁밝혀냈다	-11.0635
able	-11.0635
▁머레이	-11.0635
▁시민단체	-11.0636
▁통근	-11.0637
▁미셸	-11.0637
▁생명체	-11.0642
▁외쳤다	-11.0643
▁먼지	-11.0644
reat	-11.0646
▁승점	-11.0646
▁아빠	-11.0649
▁탈레반측	-11.0652
▁이어졌다	-11.0654
▁응원	-11.0654
▁대테러	-11.0655
▁연령	-11.0656
▁기념식	-11.0659
▁진료	-11.066
▁불안정	-11.0661
▁발매	-11.0664
▁만료	-11.0667
▁재정적	-11.067
▁철수시키	-11.0684
▁있음	-11.0705
▁사라진	-11.0725
▁화제	-11.0737
▁war	-11.0739
ick	-11.077
대원들	-11.0819
륙	-11.085
되도록	-11.0854
▁지냈	-11.0855
클린턴	-11.0871
잠	-11.0871
▁지속되	-11.0879
▁이민자들	-11.0891
▁눈물	-11.0905
겔	-11.0908
3,000	-11.0908
▁고등법원	-11.0908
▁디트로이트	-11.0908
▁럼스펠드	-11.0908
▁억만장자	-11.0908
▁최고경영자	-11.0908
▁텔레비전	-11.0908
▁피츠버그	-11.0908
▁헬리콥터	-11.0908
닛	-11.0908
잎	-11.0908
헴	-11.0908
▁느낀다	-11.0908
▁스탈린	-11.0908
▁브루니	-11.0908
▁근본주의	-11.0908
▁덴버	-11.0908
▁미시건	-11.0908
▁코카인	-11.0909
▁낭비	-11.0909
▁딜러	-11.0909
2007.09	-11.0909
▁티벳	-11.0909
▁돌아다니	-11.0909
▁왜곡	-11.091
▁친환경	-11.091
▁텐트	-11.0911
▁요르단강	-11.0912
▁장벽	-11.0912
▁동굴	-11.0912
▁이른다	-11.0912
▁대선주자	-11.0915
▁다가오	-11.0915
▁70%	-11.0917
▁구호품	-11.0918
ash	-11.092
▁복합	-11.092
▁그곳에서	-11.0922
▁절감	-11.0927
▁생겨	-11.0929
▁불황	-11.0929
▁치른	-11.0929
▁위축	-11.0929
▁소총	-11.093
▁추천	-11.0934
▁휴식	-11.0937
하였으며	-11.0954
웃	-11.1002
소득	-11.1034
▁시청자들	-11.1043
92	-11.1056
▁남성들	-11.1125
보좌관	-11.1164
▁브랜	-11.1176
비행기	-11.1189
▁버냉키	-11.1194
▁스튜디오	-11.1194
▁안토니오	-11.1194
前	-11.1194
빵	-11.1194
펙	-11.1194
▁끝났다	-11.1194
▁느껴	-11.1194
▁부양책	-11.1194
▁침묵	-11.1194
뚜	-11.1194
▁브래드	-11.1194
▁규칙	-11.1194
▁반체제	-11.1194
▁바하마	-11.1194
▁take	-11.1194
▁예선전	-11.1194
▁유수프	-11.1194
▁태우고	-11.1194
▁국방위원장	-11.1194
▁스콧	-11.1196
▁놀랄	-11.1196
▁휴스턴	-11.1197
▁집필	-11.1201
봐야	-11.1203
▁90%	-11.1204
▁가혹	-11.1207
▁장거리	-11.1208
▁화석	-11.1209
▁새겨	-11.1222
▁보조금	-11.1223
▁comm	-11.1279
아웃	-11.1304
▁공무원들	-11.1413
▁입었	-11.1446
▁복장	-11.1461
또	-11.1469
셋	-11.1485
▁민간인들	-11.1485
▁자녀들	-11.1486
뮤	-11.1488
▁military	-11.1488
▁괜찮	-11.1488
▁끊임없	-11.1488
▁내셔널	-11.1488
▁뒷받침	-11.1488
▁마이스페이스	-11.1488
▁마케팅	-11.1488
▁애틀랜타	-11.1488
▁에르도간	-11.1488
▁엔지니어	-11.1488
▁풀려났다	-11.1488
뚱	-11.1488
맘	-11.1488
down	-11.1488
▁브리트니	-11.1488
▁호날두	-11.1488
▁기준금리	-11.1488
▁무소속	-11.1488
덩어리	-11.1488
▁코스피	-11.1488
▁1-0	-11.1488
▁퇴역	-11.1488
▁나눠	-11.1489
▁좌파	-11.1489
▁신용카드	-11.1489
▁바바라	-11.1489
▁밝혔으나	-11.149
▁요즘	-11.149
▁재활	-11.1492
9000	-11.1493
▁화염	-11.1493
되었는데	-11.1493
▁소방대원	-11.1495
▁미치지	-11.1495
▁Day	-11.1496
▁난민들	-11.1497
▁조짐	-11.1498
▁때문입니다	-11.1498
▁영광	-11.1498
▁월터	-11.1499
▁방문객들	-11.15
▁돌아온	-11.1501
ook	-11.1501
▁도핑	-11.1501
▁경제학자들	-11.1502
▁레이저	-11.1502
▁조씨	-11.1506
▁대기업	-11.1508
▁로렌	-11.1513
▁배심원단	-11.1528
▁주주들	-11.1578
▁스카이	-11.1587
▁제조업	-11.1614
▁선원들	-11.1657
타이거	-11.171
탈리아	-11.178
몸	-11.178
▁그곳에	-11.1781
▁은행들	-11.1781
알카에다	-11.1782
스페인	-11.1782
끔	-11.1787
▁득표	-11.1791
옐	-11.1791
▁Show	-11.1791
▁가즈프롬	-11.1791
▁골든글로브	-11.1791
▁베탕쿠르	-11.1791
▁애니메이션	-11.1791
▁엘리베이터	-11.1791
▁원자바오	-11.1791
▁일으켜	-11.1791
▁캔자스	-11.1791
▁테러지원국	-11.1791
긋	-11.1791
늄	-11.1791
륜	-11.1791
셜	-11.1791
쩌	-11.1791
캘	-11.1791
톡	-11.1791
풋	-11.1791
▁되돌아	-11.1791
▁미끄러	-11.1791
▁시애틀	-11.1791
셈	-11.1791
▁1988	-11.1791
▁아칸소	-11.1791
▁얼룩	-11.1791
▁식민지	-11.1791
▁맥케인	-11.1791
▁받아들였다	-11.1791
스프링스	-11.1791
▁고릴라	-11.1791
▁혈액	-11.1791
▁관점에서	-11.1791
▁크레이그	-11.1791
▁양키스	-11.1791
▁트로피	-11.1792
▁논문	-11.1792
▁인도주의적	-11.1792
▁북극곰	-11.1792
▁멸종위기	-11.1792
▁차원에서	-11.1792
▁유적지	-11.1793
▁몸값	-11.1794
▁군사작전	-11.1795
▁가죽	-11.1796
▁운반	-11.1796
▁적응	-11.1796
▁현지경찰	-11.1799
▁저택	-11.18
▁폭등	-11.1802
▁패리스	-11.1802
▁대략	-11.1802
▁숨겨	-11.1803
▁남녀	-11.1803
▁개념	-11.1803
▁입었으며	-11.1807
▁출범	-11.1807
되었지만	-11.1821
있거나	-11.1891
▁보좌관들	-11.1899
▁싶어한다	-11.1908
▁기본적	-11.2046
▁벌어졌	-11.2049
쁜	-11.2097
2006.05	-11.2103
2007.08	-11.2103
▁troops	-11.2103
▁구호물품	-11.2103
▁국회의사당	-11.2103
▁느꼈다	-11.2103
▁다운로드	-11.2103
▁맥도날드	-11.2103
▁머리카락	-11.2103
▁베어스턴스	-11.2103
▁슈퍼대의원	-11.2103
▁에스토니아	-11.2103
▁티셔츠	-11.2103
▁펭귄	-11.2103
▁평화협상	-11.2103
댐	-11.2103
썩	-11.2103
홉	-11.2103
2006.02	-11.2103
▁덕분에	-11.2103
▁베이루트	-11.2103
▁비즈니스	-11.2103
▁have	-11.2104
NFL	-11.2104
▁니케이	-11.2104
▁그린피스	-11.2104
▁착취	-11.2104
▁칭찬	-11.2104
▁추산했다	-11.2104
▁2008.11	-11.2104
WFP	-11.2104
▁상반기	-11.2104
▁실업수당	-11.2104
▁원문기사	-11.2104
▁대한민국	-11.2104
▁간호사	-11.2104
2007.07	-11.2104
▁소탕작전	-11.2104
▁바꿔	-11.2104
▁진흙	-11.2105
▁마사지	-11.2106
▁묘지	-11.2107
▁오늘밤	-11.2108
▁동유럽	-11.2108
▁충족	-11.2108
▁취득	-11.2109
2006.10	-11.211
▁같습니다	-11.2111
▁하얀	-11.2112
▁명칭	-11.2118
▁모르겠다	-11.2143
ext	-11.216
론자들	-11.2168
ator	-11.2366
line	-11.2376
붕	-11.2419
▁로스앤젤레스	-11.2426
▁유니세프	-11.2426
▁Secretary	-11.2426
▁모가디슈	-11.2426
▁상관없이	-11.2426
▁오케스트라	-11.2426
▁이르렀다	-11.2426
▁천문학자들	-11.2426
▁칸다하르	-11.2426
▁크로아티아	-11.2426
▁트라볼타	-11.2426
돋	-11.2426
쉴	-11.2426
핏	-11.2426
▁브리티시	-11.2426
▁이르기까지	-11.2426
▁황우석	-11.2426
쯔	-11.2426
▁AFP	-11.2426
▁무너져	-11.2426
▁항생제	-11.2426
▁정해지지	-11.2426
▁집무실	-11.2426
▁계열사	-11.2426
▁가속화	-11.2426
▁되풀이	-11.2426
▁어두운	-11.2426
▁1981	-11.2426
▁매머드	-11.2426
▁중산층	-11.2426
▁1/4	-11.2426
▁크로커	-11.2426
마누엘	-11.2426
▁국가주석	-11.2426
▁다행히	-11.2426
▁세비야	-11.2426
▁3-0	-11.2426
▁대주교	-11.2426
▁유조선	-11.2426
▁흐름	-11.2426
스트리트	-11.2426
▁브루스	-11.2426
▁침범	-11.2427
(25)	-11.2427
▁히드로	-11.2428
사령부	-11.2428
▁공군기지	-11.2428
▁맞붙	-11.2428
▁잔혹	-11.2428
▁벌어들	-11.2429
▁효력	-11.2429
▁피닉스호	-11.243
▁면접	-11.2431
▁프린스	-11.2433
▁comp	-11.2433
붙	-11.2434
▁요새	-11.2434
▁녹색	-11.2434
FARC	-11.2436
폭탄테러	-11.2438
ncy	-11.2438
검찰	-11.2443
스러워	-11.248
▁전설적	-11.2492
▁국회의원들	-11.2496
회사들	-11.2506
▁Foreign	-11.2759
▁극단주의자들	-11.2759
▁글래스고	-11.2759
▁상파울루	-11.2759
▁야스쿠니	-11.2759
▁커뮤니티	-11.2759
윗	-11.2759
▁attack	-11.2759
▁광우병	-11.2759
▁스튜어트	-11.2759
▁양육권	-11.2759
▁왕복선	-11.2759
▁우주정거장	-11.2759
▁인종차별	-11.2759
▁카자흐스탄	-11.2759
▁힌두교	-11.2759
▁당나귀	-11.2759
▁수퍼대의원	-11.2759
▁몸무게	-11.2759
▁부작용	-11.2759
▁마라도나	-11.2759
▁kill	-11.276
▁무너진	-11.276
인디아나	-11.276
▁예언자	-11.276
ough	-11.276
▁몬테	-11.276
▁일축했다	-11.276
▁카지노	-11.276
▁물리치	-11.276
count	-11.276
▁침투	-11.276
▁닉슨	-11.276
▁콜롬	-11.276
▁모로코	-11.276
▁교과서	-11.276
▁여자아이	-11.276
▁동북아	-11.2761
▁쇼핑몰	-11.2761
▁수비수	-11.2762
▁State	-11.2762
▁높아졌다	-11.2763
▁쿠르드족	-11.2764
▁도와주	-11.2764
▁있었는지	-11.2765
▁활기	-11.2767
▁필리스	-11.2767
넘	-11.278
뼈	-11.2781
CIA	-11.2781
▁do	-11.2787
▁이례적	-11.2805
▁동맹국들	-11.2808
▁일상적	-11.2854
oint	-11.2869
▁효율	-11.2884
▁회원들	-11.2895
▁효율적	-11.2977
▁파손되	-11.2989
dge	-11.3079
멍	-11.31
팽	-11.3104
&#8226;	-11.3104
▁Party	-11.3104
▁election	-11.3104
▁leader	-11.3104
▁protest	-11.3104
▁뉴캐슬	-11.3104
▁동계올림픽	-11.3104
▁매코맥	-11.3104
▁맥코맥	-11.3104
▁미드필더	-11.3104
▁악영향	-11.3104
▁암스트롱	-11.3104
▁포괄적	-11.3104
돔	-11.3104
엽	-11.3104
쿼	-11.3104
2006.06	-11.3104
▁세계보건기구	-11.3104
▁촛불	-11.3104
넥	-11.3104
옵	-11.3104
▁도미니카	-11.3104
▁종신형	-11.3104
▁친선경기	-11.3104
▁총기난사	-11.3104
▁도널드	-11.3104
▁바쿠바	-11.3104
▁빠뜨	-11.3104
▁앵커	-11.3104
▁여배우	-11.3104
▁제니퍼	-11.3104
▁아스널	-11.3104
PML	-11.3104
▁안락사	-11.3104
▁흥행	-11.3104
흙	-11.3459
•	-11.3461
▶	-11.3461
꽤	-11.3461
뻔	-11.3461
팍	-11.3461
팟	-11.3461
깜	-11.3832
둬	-11.3832
띠	-11.3832
볍	-11.3832
갓	-11.3832
삽	-11.3832
팰	-11.3832
꾸	-11.3882
헬	-11.3892
땅	-11.3892
덮	-11.3904
겹	-11.4216
놔	-11.4216
푼	-11.4216
퉁	-11.4216
큰	-11.4295
콕	-11.4614
낫	-11.4616
듬	-11.4616
룽	-11.4616
멕	-11.4616
멧	-11.4616
찔	-11.4616
뇨	-11.4616
딱	-11.4616
탬	-11.4616
획	-11.5019
켐	-11.5033
뭇	-11.5033
솜	-11.5033
뭉	-11.5033
츨	-11.5033
캣	-11.5033
콥	-11.5033
펫	-11.5033
쿤	-11.5033
딕	-11.5142
몇	-11.5142
앨	-11.5144
롯	-11.5461
옌	-11.5468
짙	-11.5468
촨	-11.5468
튠	-11.5468
즐	-11.5598
넓	-11.5609
됨	-11.592
벳	-11.5922
뉘	-11.5922
앵	-11.5922
긍	-11.5922
둠	-11.5922
덱	-11.5922
밭	-11.5922
쥬	-11.5922
쳇	-11.5922
츄	-11.5922
훌	-11.5922
홈	-11.6072
톰	-11.6075
윌	-11.6081
므	-11.6163
뷔	-11.6395
봇	-11.6396
앗	-11.6398
툰	-11.6398
꼈	-11.6398
봅	-11.6398
덟	-11.6398
윙	-11.6398
볕	-11.6398
뒤	-11.6576
욱	-11.6889
굽	-11.6898
낀	-11.6898
맙	-11.6898
샴	-11.6898
쩔	-11.6898
콴	-11.6898
앞	-11.7064
꿈	-11.7102
왜	-11.7102
끝	-11.7102
룡	-11.742
늬	-11.7425
뜯	-11.7425
럿	-11.7425
륭	-11.7425
빔	-11.7425
폼	-11.7425
벵	-11.7425
낙	-11.7655
떠	-11.7655
즌	-11.7961
캇	-11.798
헝	-11.798
흠	-11.798
잇	-11.8245
셸	-11.8553
反	-11.8569
깅	-11.8569
띤	-11.8569
쉘	-11.8569
팻	-11.8569
퐁	-11.8569
英	-11.8569
뚝	-11.8569
샨	-11.8569
깊	-11.8867
섯	-11.9186
콧	-11.9189
市	-11.9194
늑	-11.9194
랏	-11.9194
룻	-11.9194
윅	-11.9194
텀	-11.9194
팡	-11.9194
쑤	-11.9194
펑	-11.9194
듀	-11.9534
솟	-11.9858
댈	-11.986
뎌	-11.986
둡	-11.986
쟈	-11.986
줌	-11.986
엉	-11.986
옴	-11.986
녹	-12.0249
숨	-12.025
첫	-12.0252
껴	-12.0575
쿡	-12.0575
눕	-12.0575
랴	-12.0575
뭘	-12.0575
샵	-12.0575
샹	-12.0575
셍	-12.0575
뜰	-12.0575
헥	-12.0575
듭	-12.1339
性	-12.1344
故	-12.1344
뎀	-12.1344
샷	-12.1344
싹	-12.1344
씬	-12.1344
쥔	-12.1344
쪼	-12.1344
퍽	-12.1344
륨	-12.1344
쏠	-12.1344
챈	-12.1344
쓸	-12.1853
벗	-12.1853
웹	-12.1854
즉	-12.1854
횡	-12.2177
넛	-12.2177
삐	-12.2177
싯	-12.2177
엣	-12.2177
줍	-12.2177
핼	-12.2177
新	-12.2177
랠	-12.2177
벙	-12.2177
엿	-12.2177
칫	-12.2177
쿵	-12.2177
젼	-12.2177
옷	-12.2762
겸	-12.2762
묻	-12.2764
q	-12.3083
녕	-12.3086
궂	-12.3086
렝	-12.3086
밥	-12.3762
벼	-12.4082
훼	-12.4086
펭	-12.4086
깨	-12.4872
좁	-12.4873
美	-12.4874
낮	-12.4875
곧	-12.4875
섹	-12.5161
냄	-12.5197
찮	-12.5197
갖	-12.6118
꼭	-12.6124
묵	-12.6124
샌	-12.6124
좀	-12.6125
놨	-12.6372
휠	-12.6447
뛰	-12.7552
쌀	-12.7552
맛	-12.7552
멀	-12.7552
탤	-12.7876
촛	-12.9543
낄	-12.9543
셴	-12.9543
귄	-12.9543
쓴	-13.1219
밑	-13.122
삶	-13.1221
꿀	-13.1535
맡	-13.3715
큼	-13.4023
꿔	-13.4035
눠	-13.4036
숫	-13.404
덧	-13.4043
*	-13.7054
뜻	-13.7055
룹	-13.735
끗	-13.7375
걱	-13.7376
빚	-14.2058
밝	-14.2058
맺	-14.2058
힉	-14.2373
많	-15.1981
숀	-15.2077
봄	-15.2077
끓	-15.2161
갚	-15.2162
쾰	-15.2163
찼	-15.2164
찢	-15.2165
잰	-15.2166
웸	-15.2167
샐	-15.2168
깥	-15.2169
겉	-15.217
팸	-15.2171
몹	-15.2172
꼴	-15.2173
씌	-15.2174
맷	-15.2175
뀐	-15.2176
깎	-15.2177
콸	-15.2178
쏴	-15.2179
썹	-15.218
슭	-15.2181
킷	-15.2182
챌	-15.2183
얇	-15.2184
씀	-15.2185
뀔	-15.2186
꽉	-15.2187
꽂	-15.2188
±	-15.2189
뭐	-15.219
댕	-15.2191
꿨	-15.2192
꾀	-15.2193
깐	-15.2194
얹	-15.2195
쐈	-15.2196
뱃	-15.2197
긱	-15.2198
씻	-15.2199
뻗	-15.22
렷	-15.2201
낚	-15.2202
꼼	-15.2203
$	-15.2204
잦	-15.2205
엎	-15.2206
숍	-15.2207
뭔	-15.2208
맑	-15.2209
핫	-15.221
핍	-15.2211
몫	-15.2212
짖	-15.2213
샀	-15.2214
낡	-15.2215
곁	-15.2216
컸	-15.2217
캡	-15.2218
쏜	-15.2219
젭	-15.222
싣	-15.2221
맵	-15.2222
닮	-15.2223
젖	-15.2224
쁨	-15.2225
릅	-15.2226
궈	-15.2227
탓	-15.2228
캥	-15.2229
웍	-15.223
굶	-15.2231
뮬	-15.2232
릇	-15.2233
횟	-15.2234
췌	-15.2235
틈	-15.2236
댓	-15.2237
붓	-15.2238
́	-15.2239
챙	-15.224
앰	-15.2241
닿	-15.2242
펌	-15.2243
흩	-15.2244
뮌	-15.2245
뤼	-15.2246
뿔	-15.2247
괜	-15.2248
뤘	-15.2249
튀	-15.225
꼽	-15.2251
굳	-15.2252
굉	-15.2253
녔	-15.2254
랬	-15.2255
곱	-15.2256
픔	-15.2257
밸	-15.2258
닙	-15.2259
낌	-15.226
띄	-15.2261
넹	-15.2262
밟	-15.2263
눴	-15.2264
싫	-15.2265
윔	-15.2266
괄	-15.2267
옛	-15.2268
탔	-15.2269
썼	-15.227
핸	-15.2271
딪	-15.2272
잊	-15.2273
깝	-15.2274
멤	-15.2275
벅	-15.2276
흰	-15.2277
갇	-15.2278
췄	-15.2279
묶	-15.228
뱅	-15.2281
닫	-15.2282
왼	-15.2283
뀌	-15.2284
렴	-15.2285
읽	-15.2286
깔	-15.2287
궤	-15.2288
탱	-15.2289
탠	-15.229
쌓	-15.2291
쫓	-15.2292
짧	-15.2293
쏟	-15.2294
뭄	-15.2295
뒷	-15.2296
걷	-15.2297
슴	-15.2298
훨	-15.2299
릎	-15.23
뽑	-15.2301
뿌	-15.2302
붉	-15.2303
앓	-15.2304
얘	-15.2305
옆	-15.2306
멋	-15.2307
꺾	-15.2308
낳	-15.2309
곽	-15.231
휩	-15.2311
돕	-15.2312
녁	-15.2313
듣	-15.2314
춰	-15.2315
끊	-15.2316
됩	-15.2317
젝	-15.2318
늦	-15.2319
앉	-15.232
슷	-15.2321
렵	-15.2322
쿄	-15.2323
밴	-15.2324
옮	-15.2325
봤	-15.2326
젊	-15.2327
챔	-15.2328
촬	-15.2329
빨	-15.233
찍	-15.2331
떻	-15.2332
렀	-15.2333
웠	-15.2334
겪	-15.2335
믿	-15.2336
펼	-15.2337
섰	-15.2338
먹	-15.2339
렇	-15.234
̋	-15.2341
잃	-15.2342
캠	-15.2343
싶	-15.2344
랐	-15.2345
끌	-15.2346
갔	-15.2347
켰	-15.2348
밖	-15.2349
얻	-15.235
쇄	-15.2351
좋	-15.2352
찾	-15.2353
떨	-15.2354
높	-15.2355
맞	-15.2356
났	-15.2357
혐	-15.2358
협	-15.2359
확	-15.236
없	-15.2361
떤	-15.2362
았	-15.2362
