<unk>	0
<s>	0
</s>	0
▁이	-5.08164
▁밝혔다.	-5.17945
▁있다.	-5.21059
▁말했다.	-5.2122
▁수	-5.35996
▁있는	-5.38231
▁그는	-5.57295
▁대한	-5.68052
▁위해	-5.70509
▁전했다.	-5.76421
▁지난	-5.86171
▁이번	-5.86854
▁한	-5.87636
▁대해	-5.95947
▁것으로	-6.02321
▁전	-6.05988
▁것이라고	-6.08741
▁미국	-6.10225
▁있다고	-6.11294
▁것을	-6.14857
▁중	-6.22522
▁미	-6.27728
▁그러나	-6.27916
▁다른	-6.31893
▁더	-6.4078
▁이라크	-6.50125
▁한편	-6.5036
▁많은	-6.59205
▁통해	-6.5972
▁위한	-6.60563
▁대통령은	-6.60889
▁가장	-6.66601
▁같은	-6.67924
▁그의	-6.68981
▁이후	-6.69193
▁그	-6.69264
▁또	-6.69406
▁대변인은	-6.70192
▁후	-6.73101
▁동안	-6.76326
▁주장했다.	-6.8037
▁것은	-6.81007
▁될	-6.81568
▁할	-6.83596
▁부시	-6.84007
▁또한	-6.8676
▁것이다.	-6.87781
▁보도했다.	-6.88553
▁덧붙였다.	-6.89679
▁및	-6.90554
▁영국	-6.90642
▁중국	-6.90642
▁두	-6.93587
▁자신의	-6.9709
▁약	-6.98698
▁현재	-6.98793
▁등	-6.98984
▁함께	-7.05604
▁모든	-7.06218
▁것이	-7.06424
▁최근	-7.07355
▁그리고	-7.08716
▁했다.	-7.10202
▁당시	-7.10738
▁경우	-7.11602
▁예정이다.	-7.11928
▁설명했다.	-7.12583
▁새로운	-7.13574
▁때문에	-7.14463
▁경찰은	-7.14574
▁있다”고	-7.15924
▁세계	-7.16378
▁정부는	-7.1672
▁하는	-7.17063
▁않았다.	-7.19851
▁몇	-7.21394
▁오바마	-7.21874
▁큰	-7.21994
▁것”이라고	-7.23693
▁때	-7.26046
▁수도	-7.26548
▁대통령이	-7.26801
▁대통령	-7.27307
▁않을	-7.29618
▁열린	-7.3132
▁있습니다.	-7.3185
▁하고	-7.32116
▁지난해	-7.32918
▁총리는	-7.33322
▁미국의	-7.33592
▁일부	-7.33998
▁이날	-7.3427
▁발표했다.	-7.3564
▁관련	-7.36332
▁있으며	-7.36332
▁모두	-7.37169
▁주	-7.37169
▁있다는	-7.38012
▁한국	-7.38012
▁the	-7.38295
▁발생한	-7.38295
▁일본	-7.38579
▁받고	-7.39435
▁내	-7.40298
▁뒤	-7.41607
▁있을	-7.42637
▁정부	-7.43529
▁정부가	-7.44881
▁에	-7.46868
▁의해	-7.47642
▁한다.	-7.47642
▁to	-7.4921
▁사람들이	-7.50162
▁인해	-7.50322
▁존	-7.5177
▁다시	-7.52257
▁of	-7.5242
▁그가	-7.52911
▁이는	-7.53239
▁않은	-7.53899
▁올해	-7.54231
▁혐의로	-7.54231
▁가운데	-7.54397
▁있었다.	-7.56414
▁대통령의	-7.56925
▁이에	-7.5761
▁이미	-7.58127
▁주요	-7.58299
▁첫	-7.58473
▁북한	-7.58994
▁위치한	-7.59869
▁파키스탄	-7.61107
▁프랑스	-7.6218
▁핵	-7.63812
▁계속	-7.64362
▁명의	-7.6473
▁사실을	-7.65471
▁미군	-7.65657
▁유엔	-7.65843
▁바	-7.66217
▁없는	-7.66405
▁한다고	-7.66405
▁민주당	-7.66592
▁에서	-7.67158
▁이를	-7.67347
▁아직	-7.68299
▁관계자는	-7.6849
▁이들	-7.69066
▁지적했다.	-7.7062
▁영화	-7.71603
▁매우	-7.71999
▁당국은	-7.72397
▁이상	-7.73398
▁않고	-7.73801
▁것	-7.74206
▁알	-7.74816
▁없다고	-7.75021
▁된	-7.7667
▁이스라엘	-7.76878
▁받은	-7.77505
▁된다.	-7.77715
▁러시아	-7.78347
▁조지	-7.78559
▁지역	-7.78771
▁하지	-7.78983
▁받았다.	-7.79197
▁됐다.	-7.80484
▁경제	-7.81352
▁어떤	-7.82008
▁있던	-7.8311
▁아프간	-7.84001
▁것에	-7.84674
▁북한의	-7.86493
▁데	-7.88111
▁북한이	-7.88813
▁그들은	-7.89048
▁잘	-7.89283
▁이러한	-7.89756
▁정부의	-7.90948
▁여러	-7.91188
▁경찰	-7.91429
▁오는	-7.91912
▁원문기사보기	-7.92154
▁이슬람	-7.92885
▁강조했다.	-7.9313
▁경찰이	-7.9313
▁있도록	-7.93868
▁in	-7.94115
▁갖고	-7.94115
▁떨어진	-7.94115
▁인터뷰에서	-7.94115
▁오늘	-7.94363
▁미국이	-7.94861
▁비난했다.	-7.94861
▁팔레스타인	-7.96115
▁있다”며	-7.96368
▁채	-7.96368
▁클린턴	-7.96368
▁거의	-7.96876
▁대선	-7.96876
▁자신이	-7.97131
▁가진	-7.97386
▁그녀는	-7.97386
▁있어	-7.97642
▁장관은	-7.97642
▁처음으로	-7.97899
▁버락	-7.99193
▁오후	-7.99977
▁소속	-8.00767
▁테러	-8.01831
▁국제	-8.02367
▁많이	-8.02367
▁이상의	-8.02637
▁관한	-8.03448
▁미국은	-8.03448
▁북한은	-8.03721
▁만에	-8.03993
▁2006년	-8.04267
▁지난달	-8.04816
▁이들은	-8.05925
▁문제를	-8.06203
▁최소	-8.06203
▁좋은	-8.06764
▁사람들은	-8.07327
▁오바마는	-8.07327
▁탈레반	-8.07327
▁회담을	-8.09037
▁그를	-8.09324
▁최고	-8.09613
▁뉴욕	-8.10484
▁없이	-8.11069
▁결과	-8.11362
▁알려졌다.	-8.11362
▁지금	-8.11362
▁공격을	-8.11952
▁중요한	-8.12248
▁미국과	-8.12546
▁올림픽	-8.12546
▁박사는	-8.13143
▁새	-8.14045
▁이런	-8.14045
▁있지만	-8.14955
▁사망한	-8.15261
▁성명을	-8.16182
▁사망했다.	-8.16492
▁말을	-8.16802
▁2005.08	-8.17113
▁사망했다고	-8.17425
▁이란	-8.17425
▁오전	-8.18052
▁모습을	-8.18683
▁줄	-8.18683
▁2005년	-8.19317
▁이어	-8.19317
▁12월	-8.19636
▁것이라는	-8.19636
▁여성	-8.19636
▁조치를	-8.19636
▁혐의를	-8.19636
▁가능성이	-8.20278
▁국가	-8.206
▁군	-8.206
▁남부	-8.206
▁폭탄	-8.206
▁보다	-8.20923
▁이와	-8.20923
▁대통령과	-8.21247
▁인한	-8.21247
▁전에	-8.21572
▁하지만	-8.21572
▁“	-8.21898
▁공화당	-8.21898
▁계획을	-8.22226
▁높은	-8.22226
▁다음	-8.22226
▁코리아	-8.22226
▁1월	-8.22884
▁않았다고	-8.22884
▁인근	-8.22884
▁한다”고	-8.22884
▁&	-8.23214
▁더욱	-8.23214
▁앞으로	-8.23214
▁인터넷	-8.23214
▁입장을	-8.23214
▁문제가	-8.23546
▁총리가	-8.23546
▁독일	-8.23878
▁지역에서	-8.23878
▁우리는	-8.24212
▁앞서	-8.24547
▁마지막	-8.24884
▁보인다.	-8.24884
▁성명에서	-8.24884
▁중국의	-8.25221
▁말했습니다.	-8.25899
▁불구하고	-8.26581
▁알고	-8.26581
▁자동차	-8.26581
▁처음	-8.26581
▁보고	-8.26925
▁영향을	-8.27269
▁되는	-8.27961
▁미얀마	-8.27961
▁선거	-8.27961
▁호주	-8.27961
▁관련된	-8.28309
▁지역에	-8.28309
▁있었다고	-8.28658
▁않는	-8.29359
▁발생했다.	-8.29712
▁현지	-8.29712
▁달	-8.30066
▁유럽	-8.30066
▁필요한	-8.30066
▁기자회견에서	-8.30421
▁지난주	-8.30421
▁볼	-8.30778
▁초	-8.31136
▁한국의	-8.31136
▁경기	-8.31855
▁최대	-8.31855
▁문제에	-8.32217
▁인쇄	-8.32217
▁고위	-8.3258
▁추가	-8.3258
▁타고	-8.3258
▁조사	-8.32944
▁for	-8.3331
▁독해설명	-8.3331
▁받을	-8.3331
▁사이	-8.3331
▁원문	-8.3331
▁“이	-8.33677
▁우리	-8.33677
▁또는	-8.34045
▁인도	-8.34045
▁노무현	-8.34415
▁반면	-8.34415
▁없다”고	-8.34415
▁역시	-8.34415
▁사건에	-8.35532
▁열리는	-8.35532
▁의하면	-8.35532
▁조사를	-8.35532
▁이유로	-8.35907
▁했다고	-8.36284
▁힐러리	-8.36284
▁TV	-8.36662
▁우주	-8.37422
▁피해를	-8.37422
▁11월	-8.37805
▁결국	-8.38961
▁1명이	-8.39349
▁a	-8.39349
▁못했다.	-8.39739
▁사고	-8.39739
▁어떻게	-8.39739
▁예정이라고	-8.4013
▁정보를	-8.4013
▁부상을	-8.40523
▁것"이라고	-8.40918
▁명이	-8.40918
▁일을	-8.41314
▁전문가들은	-8.41314
▁공식	-8.42111
▁어제	-8.42111
▁바그다드	-8.42512
▁반	-8.42512
▁자신들의	-8.42512
▁까지	-8.42914
▁무샤라프	-8.42914
▁북부	-8.42914
▁2명이	-8.44131
▁and	-8.44131
▁이탈리아	-8.44131
▁있게	-8.4454
▁직접	-8.4454
▁번째	-8.44951
▁라이스	-8.45777
▁“이번	-8.46193
▁앞두고	-8.47451
▁3월	-8.47874
▁“우리는	-8.47874
▁밤	-8.47874
▁사망하고	-8.47874
▁있었던	-8.47874
▁너무	-8.48298
▁아시아	-8.48298
▁사람이	-8.48725
▁노	-8.49153
▁없다.	-8.49153
▁포함한	-8.49153
▁9월	-8.50015
▁“그러나	-8.50015
▁중인	-8.50015
▁것이며	-8.50449
▁입은	-8.50449
▁총	-8.50449
▁2004년	-8.50885
▁6월	-8.50885
▁곧	-8.50885
▁역할을	-8.50885
▁4월	-8.51322
▁그들의	-8.51322
▁이같은	-8.51322
▁이전	-8.51322
▁정치적	-8.51322
▁지원을	-8.51322
▁7월	-8.51762
▁여전히	-8.51762
▁의원은	-8.51762
▁이상이	-8.51762
▁연방	-8.52203
▁후보	-8.52203
▁가지고	-8.52647
▁관할	-8.52647
▁대부분의	-8.52647
▁3일	-8.53092
▁5월	-8.53092
▁당국이	-8.53092
▁포함,	-8.53092
▁8월	-8.5354
▁교수는	-8.5354
▁스페인	-8.5354
▁살고	-8.53989
▁아침	-8.53989
▁왔다.	-8.53989
▁지역의	-8.53989
▁특히	-8.53989
▁관계자가	-8.5444
▁안에	-8.5444
▁대부분	-8.54894
▁런던	-8.54894
▁나는	-8.5535
▁작은	-8.5535
▁해	-8.5535
▁2003년	-8.55807
▁내년	-8.55807
▁보였다.	-8.55807
▁관련,	-8.56267
▁심각한	-8.56267
▁터키	-8.56267
▁데이비드	-8.56729
▁일본의	-8.56729
▁대학	-8.57193
▁말	-8.57193
▁말한다.	-8.57659
▁세	-8.57659
▁촉구했다.	-8.57659
▁군사	-8.58128
▁나타났다.	-8.58598
▁로버트	-8.58598
▁시작했다.	-8.58598
▁10월	-8.59071
▁경기에서	-8.59071
▁수는	-8.59071
▁시위를	-8.59071
▁바로	-8.59546
▁백악관	-8.59546
▁부토	-8.59546
▁불법	-8.59546
▁차량	-8.59546
▁매케인	-8.60023
▁수가	-8.60023
▁없을	-8.60023
▁대규모	-8.60503
▁발표한	-8.60503
▁후보가	-8.60503
▁경고했다.	-8.60985
▁사건	-8.60985
▁이름을	-8.61469
▁활동을	-8.61469
▁금융	-8.61956
▁한다는	-8.61956
▁회담	-8.61956
▁달러의	-8.62445
▁마이클	-8.62445
▁요구했다.	-8.62445
▁경기를	-8.62936
▁관계를	-8.62936
▁아니라	-8.62936
▁올	-8.62936
▁하루	-8.62936
▁내용을	-8.6343
▁밝혀졌다.	-8.6343
▁상황을	-8.6343
▁아닌	-8.6343
▁있고	-8.6343
▁경찰에	-8.63926
▁미사일	-8.63926
▁비해	-8.63926
▁컴퓨터	-8.63926
▁2월	-8.64425
▁간	-8.64425
▁밝힌	-8.64425
▁사건을	-8.64425
▁우리가	-8.64425
▁클린턴은	-8.64425
▁/	-8.64926
▁결과를	-8.64926
▁베이징	-8.64926
▁상원의원은	-8.64926
▁일이	-8.64926
▁프로그램을	-8.64926
▁감독은	-8.6543
▁W	-8.65936
▁대변인이	-8.65936
▁것”이라며	-8.66957
▁관심을	-8.66957
▁대통령을	-8.66957
▁지지를	-8.66957
▁캘리포니아	-8.66957
▁있다"고	-8.67471
▁이라크에서	-8.67988
▁과정에서	-8.68507
▁김	-8.68507
▁밖에	-8.68507
▁중국은	-8.68507
▁사는	-8.69029
▁있기	-8.69029
▁하기	-8.69029
▁것입니다.	-8.69554
▁공동	-8.69554
▁각각	-8.70082
▁주둔	-8.70082
▁그녀의	-8.70613
▁돈을	-8.70613
▁뜻을	-8.70613
▁안	-8.70613
▁이에앞서	-8.71146
▁중에	-8.71146
▁6자	-8.71682
▁기간	-8.71682
▁사건이	-8.71682
▁사이에	-8.71682
▁관계자들은	-8.72221
▁그들이	-8.72221
▁벌이고	-8.72221
▁시간	-8.72221
▁온	-8.72221
▁총리의	-8.72221
▁(CNN)	-8.72763
▁같이	-8.72763
▁대해서는	-8.73308
▁미국에서	-8.73308
▁지	-8.73308
▁걸쳐	-8.73856
▁대상으로	-8.73856
▁이제	-8.73856
▁on	-8.74407
▁사람들을	-8.74407
▁승리를	-8.74407
▁티베트	-8.74407
▁현	-8.74407
▁발견된	-8.74961
▁상대로	-8.74961
▁있으며,	-8.74961
▁정부에	-8.74961
▁한국인	-8.74961
▁기록했다.	-8.75518
▁알려진	-8.75518
▁2002년	-8.76078
▁국무부	-8.76642
▁받는	-8.76642
▁사람은	-8.76642
▁아직까지	-8.76642
▁적이	-8.76642
▁크게	-8.76642
▁핵무기	-8.76642
▁4일	-8.77208
▁변호사는	-8.77208
▁브라운	-8.77208
▁이명박	-8.77208
▁검찰은	-8.77778
▁북한에	-8.77778
▁아니라고	-8.77778
▁해외	-8.77778
▁후보는	-8.77778
▁Korea	-8.78351
▁것과	-8.78351
▁두고	-8.78351
▁The	-8.78928
▁결정을	-8.78928
▁19일	-8.79507
▁나온	-8.79507
▁달러를	-8.79507
▁외	-8.79507
▁위해서는	-8.79507
▁치료를	-8.79507
▁다양한	-8.8009
▁대신	-8.8009
▁회장은	-8.8009
▁레바논	-8.80677
▁상원의원이	-8.80677
▁에너지	-8.80677
▁되고	-8.81267
▁매년	-8.81267
▁있다며	-8.81267
▁콜롬비아	-8.81267
▁공격으로	-8.8186
▁국영	-8.8186
▁도움을	-8.8186
▁도움이	-8.8186
▁못하고	-8.8186
▁문제	-8.8186
▁벌였다.	-8.8186
▁지구	-8.8186
▁최종	-8.8186
▁달러	-8.82457
▁등의	-8.82457
▁서울	-8.82457
▁자신을	-8.82457
▁제	-8.82457
▁주변	-8.82457
▁강력한	-8.83058
▁강한	-8.83058
▁받게	-8.83058
▁방법을	-8.83058
▁보고서는	-8.83058
▁등을	-8.83662
▁수많은	-8.83662
▁이끄는	-8.83662
▁계획이다.	-8.8427
▁상원	-8.8427
▁온라인	-8.8427
▁이라크에	-8.8427
▁따른	-8.84882
▁밝혔습니다.	-8.84882
▁빌	-8.84882
▁후보를	-8.85497
▁밝히지	-8.86116
▁정부와	-8.86116
▁주재	-8.86116
▁향해	-8.86116
▁협상을	-8.86116
▁5일	-8.86739
▁못한	-8.86739
▁받지	-8.86739
▁없었다.	-8.86739
▁주지사는	-8.86739
▁고	-8.87366
▁관해	-8.87366
▁받아	-8.87366
▁받았다고	-8.87366
▁워싱턴	-8.87366
▁있지	-8.87366
▁2년	-8.87997
▁달하는	-8.87997
▁막기	-8.87997
▁북핵	-8.87997
▁언급했다.	-8.87997
▁오바마가	-8.87997
▁“나는	-8.88632
▁시아파	-8.88632
▁연구	-8.88632
▁영국의	-8.88632
▁미군이	-8.89271
▁북한을	-8.89271
▁숨지고	-8.89271
▁폴	-8.89271
▁한편,	-8.89271
▁힐	-8.89271
▁27일	-8.89914
▁때까지	-8.89914
▁미국을	-8.89914
▁비난을	-8.89914
▁아프가니스탄	-8.89914
▁작업을	-8.89914
▁피해	-8.89914
▁하지만,	-8.89914
▁AP	-8.90561
▁여부를	-8.90561
▁이라크의	-8.90561
▁가지	-8.91213
▁그런	-8.91213
▁되어	-8.91213
▁서로	-8.91213
▁의회	-8.91213
▁주말	-8.91213
▁지역을	-8.91213
▁병력을	-8.91869
▁사실이	-8.91869
▁사진을	-8.91869
▁주장하고	-8.91869
▁총리	-8.91869
▁했던	-8.91869
▁발생했다고	-8.92529
▁사람들의	-8.92529
▁아니다.	-8.92529
▁적어도	-8.92529
▁정도로	-8.92529
▁6일	-8.93193
▁관계	-8.93193
▁날	-8.93193
▁사망자	-8.93193
▁도시	-8.93862
▁되지	-8.93862
▁목숨을	-8.93862
▁사르코지	-8.93862
▁어떠한	-8.93862
▁외국인	-8.93862
▁입고	-8.93862
▁협상	-8.93862
▁마크	-8.94536
▁민간인	-8.94536
▁병원에	-8.94536
▁상황이	-8.94536
▁유일한	-8.94536
▁지도자	-8.94536
▁개의	-8.95214
▁라디오	-8.95214
▁반대	-8.95214
▁시간을	-8.95214
▁요청했다.	-8.95214
▁의	-8.95214
▁전쟁	-8.95214
▁정부를	-8.95214
▁최고의	-8.95214
▁18일	-8.95896
▁사고가	-8.95896
▁유명한	-8.95896
▁이들의	-8.95896
▁이란의	-8.95896
▁2008년	-8.96583
▁7일	-8.96583
▁US	-8.96583
▁내가	-8.96583
▁무장	-8.96583
▁사고로	-8.96583
▁않는다.	-8.96583
▁여성이	-8.96583
▁완전히	-8.96583
▁자살	-8.96583
▁정도	-8.96583
▁최초의	-8.96583
▁29일	-8.97275
▁건물	-8.97275
▁넘는	-8.97275
▁발생해	-8.97275
▁언론은	-8.97275
▁지도자인	-8.97275
▁해야	-8.97275
▁11일	-8.97972
▁1일	-8.97972
▁과학자들은	-8.97972
▁다음달	-8.97972
▁방안을	-8.97972
▁사건은	-8.97972
▁시간이	-8.97972
▁알카에다	-8.97972
▁인용,	-8.97972
▁전체	-8.97972
▁한국은	-8.97972
▁가능한	-8.98674
▁어느	-8.98674
▁오른	-8.98674
▁이래	-8.98674
▁합니다.	-8.98674
▁끝에	-8.99381
▁미군은	-8.99381
▁방문	-8.99381
▁정책을	-8.99381
▁주민들이	-8.99381
▁질문에	-8.99381
▁출신	-8.99381
▁태국	-8.99381
▁간의	-9.00093
▁아주	-9.00093
▁중국이	-9.00093
▁평균	-9.00093
▁12일	-9.00809
▁14일	-9.00809
▁22일	-9.00809
▁내렸다.	-9.00809
▁대표는	-9.00809
▁반대하는	-9.00809
▁방문한	-9.00809
▁않아	-9.00809
▁여름	-9.00809
▁예상된다.	-9.00809
▁우려를	-9.00809
▁전세계	-9.00809
▁13일	-9.01531
▁가질	-9.01531
▁국내	-9.01531
▁되었다.	-9.01531
▁반군	-9.01531
▁숨진	-9.01531
▁야당	-9.01531
▁올랐다.	-9.01531
▁차베스	-9.01531
▁판결을	-9.01531
▁16일	-9.02259
▁것이라	-9.02259
▁그것은	-9.02259
▁법안을	-9.02259
▁사람들에게	-9.02259
▁아무런	-9.02259
▁인도네시아	-9.02259
▁관련해	-9.02991
▁놓고	-9.02991
▁지원	-9.02991
▁최악의	-9.02991
▁25일	-9.03729
▁26일	-9.03729
▁규모의	-9.03729
▁시장	-9.03729
▁의견을	-9.03729
▁필요가	-9.03729
▁항상	-9.03729
▁15일	-9.04473
▁2일	-9.04473
▁LA	-9.04473
▁대해서	-9.04473
▁만큼	-9.04473
▁멕시코	-9.04473
▁점을	-9.04473
▁회사	-9.04473
▁8일	-9.05222
▁들고	-9.05222
▁미국에	-9.05222
▁밝혀지지	-9.05222
▁병원	-9.05222
▁사상	-9.05222
▁산	-9.05222
▁이란이	-9.05222
▁판사는	-9.05222
▁2007년	-9.05977
▁3명이	-9.05977
▁9일	-9.05977
▁각	-9.05977
▁연설을	-9.05977
▁있음을	-9.05977
▁주는	-9.05977
▁21일	-9.06737
▁“그는	-9.06737
▁계속해서	-9.06737
▁나머지	-9.06737
▁보이는	-9.06737
▁성	-9.06737
▁숨졌다고	-9.06737
▁전혀	-9.06737
▁프로그램	-9.06737
▁것도	-9.07503
▁발견했다.	-9.07503
▁오바마의	-9.07503
▁인질	-9.07503
▁차기	-9.07503
▁공격	-9.08276
▁과거	-9.08276
▁씨는	-9.08276
▁않았지만	-9.08276
▁주민들은	-9.08276
▁시장은	-9.09054
▁이달	-9.09054
▁하며	-9.09054
▁가능성을	-9.09838
▁곳에서	-9.09838
▁만든	-9.09838
▁매케인은	-9.09838
▁병원으로	-9.09838
▁이들을	-9.09838
▁자금을	-9.09838
▁찰스	-9.09838
▁푸틴	-9.09838
▁학교	-9.09838
▁미군의	-9.10629
▁아프리카	-9.10629
▁열릴	-9.10629
▁정치	-9.10629
▁책임을	-9.10629
▁케냐	-9.10629
▁평화	-9.10629
▁합의했다.	-9.10629
▁관리들은	-9.11425
▁기자	-9.11425
▁물론	-9.11425
▁부상했다고	-9.11425
▁부시는	-9.11425
▁석유	-9.11425
▁선거에서	-9.11425
▁주장을	-9.11425
▁짐바브웨	-9.11425
▁후보에	-9.11425
▁17일	-9.12229
▁가졌다.	-9.12229
▁공항	-9.12229
▁민주당의	-9.12229
▁병원에서	-9.12229
▁보안	-9.12229
▁사망	-9.12229
▁소식을	-9.12229
▁앤	-9.12229
▁없다는	-9.12229
▁위기에	-9.12229
▁의한	-9.12229
▁전망이다.	-9.12229
▁1년	-9.13038
▁개발	-9.13038
▁겪고	-9.13038
▁난	-9.13038
▁대화를	-9.13038
▁자주	-9.13038
▁제임스	-9.13038
▁한나라당	-9.13038
▁낮은	-9.13855
▁만약	-9.13855
▁목표로	-9.13855
▁발생,	-9.13855
▁보이고	-9.13855
▁빠른	-9.13855
▁시작된	-9.13855
▁우리의	-9.13855
▁젊은	-9.13855
▁필리핀	-9.13855
▁확인했다.	-9.13855
▁2001년	-9.14678
▁곳에	-9.14678
▁국경	-9.14678
▁따라	-9.14678
▁발생할	-9.14678
▁시위	-9.14678
▁아베	-9.14678
▁30일	-9.15508
▁몇몇	-9.15508
▁보낸	-9.15508
▁여론	-9.15508
▁행동을	-9.15508
▁호텔	-9.15508
▁후에	-9.15508
▁그렇게	-9.16344
▁기록을	-9.16344
▁동시	-9.16344
▁들어	-9.16344
▁비슷한	-9.16344
▁새로	-9.16344
▁석방을	-9.16344
▁숨졌다.	-9.16344
▁없다”며	-9.16344
▁오랫동안	-9.16344
▁주택	-9.16344
▁확실히	-9.16344
▁17일(현지시간)	-9.17188
▁20일	-9.17188
▁CNN	-9.17188
▁그에게	-9.17188
▁기회를	-9.17188
▁나왔다.	-9.17188
▁노력을	-9.17188
▁등이	-9.17188
▁라고	-9.17188
▁메시지를	-9.17188
▁부인했다.	-9.17188
▁소식통은	-9.17188
▁의원이	-9.17188
▁이밖에	-9.17188
▁지방	-9.17188
▁후보로	-9.17188
▁3일(현지시간)	-9.18039
▁가까운	-9.18039
▁기자는	-9.18039
▁말하고	-9.18039
▁먼저	-9.18039
▁블로그에	-9.18039
▁속에	-9.18039
▁실시된	-9.18039
▁않다.	-9.18039
▁얻은	-9.18039
▁이수지(JOINS)	-9.18039
▁일본은	-9.18039
▁작년	-9.18039
▁주로	-9.18039
▁해리	-9.18039
▁회담에서	-9.18039
▁경찰과	-9.18898
▁맞아	-9.18898
▁못할	-9.18898
▁위원장은	-9.18898
▁위험한	-9.18898
▁이용해	-9.18898
▁임무를	-9.18898
▁총을	-9.18898
▁테러로	-9.18898
▁팀	-9.18898
▁플로리다	-9.18898
▁후보의	-9.18898
▁개인	-9.19764
▁대의원	-9.19764
▁동부	-9.19764
▁말한	-9.19764
▁매일	-9.19764
▁문제로	-9.19764
▁서비스	-9.19764
▁시	-9.19764
▁앞	-9.19764
▁일부는	-9.19764
▁집에서	-9.19764
▁출신의	-9.19764
▁10일	-9.20637
▁2명의	-9.20637
▁가격이	-9.20637
▁고든	-9.20637
▁구성된	-9.20637
▁국방부	-9.20637
▁기자가	-9.20637
▁남성이	-9.20637
▁당	-9.20637
▁대회	-9.20637
▁도중	-9.20637
▁무기	-9.20637
▁본	-9.20637
▁손을	-9.20637
▁영화를	-9.20637
▁인권	-9.20637
▁일어난	-9.20637
▁차지했다.	-9.20637
▁4명이	-9.21518
▁결과가	-9.21518
▁관리는	-9.21518
▁년	-9.21518
▁다	-9.21518
▁대통령에게	-9.21518
▁만들어	-9.21518
▁미국,	-9.21518
▁법원은	-9.21518
▁사용하는	-9.21518
▁연설에서	-9.21518
▁자신들이	-9.21518
▁정확한	-9.21518
▁중동	-9.21518
▁23일	-9.22407
▁결정했다.	-9.22407
▁당한	-9.22407
▁둔	-9.22407
▁비디오	-9.22407
▁사무총장은	-9.22407
▁않다고	-9.22407
▁알게	-9.22407
▁이들이	-9.22407
▁추가로	-9.22407
▁공화당의	-9.23304
▁발언을	-9.23304
▁불만을	-9.23304
▁비행기	-9.23304
▁빨리	-9.23304
▁살해한	-9.23304
▁스티브	-9.23304
▁얼마나	-9.23304
▁이것은	-9.23304
▁이야기를	-9.23304
▁중이다.	-9.23304
▁19일(현지시간)	-9.24209
▁23일(현지시간)	-9.24209
▁27일(현지시간)	-9.24209
▁가는	-9.24209
▁거대한	-9.24209
▁대통령,	-9.24209
▁문제는	-9.24209
▁블레어	-9.24209
▁수술을	-9.24209
▁실시한	-9.24209
▁아직도	-9.24209
▁알려져	-9.24209
▁압력을	-9.24209
▁월요일	-9.24209
▁전쟁을	-9.24209
▁콘돌리자	-9.24209
▁크리스토퍼	-9.24209
▁테러를	-9.24209
▁행위를	-9.24209
▁10일(현지시간)	-9.25122
▁6일(현지시간)	-9.25122
▁검사를	-9.25122
▁나섰다.	-9.25122
▁남자	-9.25122
▁대통령에	-9.25122
▁변화를	-9.25122
▁사망했으며	-9.25122
▁상황에	-9.25122
▁수석	-9.25122
▁않았다”고	-9.25122
▁투표를	-9.25122
▁11일(현지시간)	-9.26044
▁15일(현지시간)	-9.26044
▁2008	-9.26044
▁건강	-9.26044
▁대형	-9.26044
▁보고서를	-9.26044
▁브라질	-9.26044
▁사용할	-9.26044
▁않는다고	-9.26044
▁차례	-9.26044
▁참석한	-9.26044
▁하게	-9.26044
▁하마스	-9.26044
▁하워드	-9.26044
▁해군	-9.26044
▁25일(현지시간)	-9.26974
▁26일(현지시간)	-9.26974
▁28일	-9.26974
▁경제적	-9.26974
▁기술을	-9.26974
▁나타냈다.	-9.26974
▁내에	-9.26974
▁드	-9.26974
▁미국인	-9.26974
▁신화통신은	-9.26974
▁어린이	-9.26974
▁이번이	-9.26974
▁저장	-9.26974
▁주고	-9.26974
▁준비가	-9.26974
▁직후	-9.26974
▁총격을	-9.26974
▁캐나다	-9.26974
▁회담은	-9.26974
▁2차	-9.27913
▁강제	-9.27913
▁강하게	-9.27913
▁발견됐다.	-9.27913
▁쉽게	-9.27913
▁열차	-9.27913
▁요구하는	-9.27913
▁전까지	-9.27913
▁정말	-9.27913
▁즉시	-9.27913
▁차량을	-9.27913
▁현장에	-9.27913
▁흑인	-9.27913
▁Korean	-9.28861
▁그녀가	-9.28861
▁그와	-9.28861
▁서비스를	-9.28861
▁수천명의	-9.28861
▁여행을	-9.28861
▁요구를	-9.28861
▁요구한	-9.28861
▁이전에	-9.28861
▁자금	-9.28861
▁주민	-9.28861
▁화요일	-9.28861
▁후세인	-9.28861
▁5명이	-9.29818
▁도	-9.29818
▁만나	-9.29818
▁발표할	-9.29818
▁보냈다.	-9.29818
▁비롯한	-9.29818
▁사건의	-9.29818
▁오랜	-9.29818
▁올메르트	-9.29818
▁위협을	-9.29818
▁의사를	-9.29818
▁의장은	-9.29818
▁입었다.	-9.29818
▁최초	-9.29818
▁테러가	-9.29818
▁포함	-9.29818
▁13일(현지시간)	-9.30784
▁2000년	-9.30784
▁29일(현지시간)	-9.30784
▁것처럼	-9.30784
▁경기에	-9.30784
▁단지	-9.30784
▁대사관	-9.30784
▁독립을	-9.30784
▁못했다고	-9.30784
▁보이지	-9.30784
▁소재	-9.30784
▁양국	-9.30784
▁있습니다.”	-9.30784
▁조사하고	-9.30784
▁텍사스	-9.30784
▁한국과	-9.30784
▁회담에	-9.30784
▁그중	-9.31759
▁대부분은	-9.31759
▁베네수엘라	-9.31759
▁빈	-9.31759
▁수요일	-9.31759
▁없었다고	-9.31759
▁여자	-9.31759
▁웹사이트에	-9.31759
▁인터뷰를	-9.31759
▁일반	-9.31759
▁집을	-9.31759
▁했다”고	-9.31759
▁20일(현지시간)	-9.32745
▁담당	-9.32745
▁대사는	-9.32745
▁됐다고	-9.32745
▁떨어져	-9.32745
▁마을	-9.32745
▁상황에서	-9.32745
▁아이들을	-9.32745
▁이르는	-9.32745
▁저는	-9.32745
▁중이라고	-9.32745
▁지지하는	-9.32745
▁진행	-9.32745
▁페르베즈	-9.32745
▁현장에서	-9.32745
▁회담이	-9.32745
▁게이츠	-9.3374
▁대학의	-9.3374
▁법적	-9.3374
▁서부	-9.3374
▁소송을	-9.3374
▁알리	-9.3374
▁정보	-9.3374
▁정상	-9.3374
▁체포된	-9.3374
▁28일(현지시간)	-9.34745
▁구체적인	-9.34745
▁돼	-9.34745
▁선거를	-9.34745
▁속에서	-9.34745
▁수천	-9.34745
▁어린	-9.34745
▁주에서	-9.34745
▁지수는	-9.34745
▁최소한	-9.34745
▁1일(현지시간)	-9.3576
▁21일(현지시간)	-9.3576
▁4일(현지시간)	-9.3576
▁계획에	-9.3576
▁긴	-9.3576
▁명	-9.3576
▁사우디	-9.3576
▁시즌	-9.3576
▁아바스	-9.3576
▁아이를	-9.3576
▁역사상	-9.3576
▁은행	-9.3576
▁있는지	-9.3576
▁중국,	-9.3576
▁지진으로	-9.3576
▁집	-9.3576
▁총선에서	-9.3576
▁타임즈는	-9.3576
▁포함되어	-9.3576
▁한다”며	-9.3576
▁허리케인	-9.3576
▁is	-9.36786
▁것입니다.”	-9.36786
▁경선	-9.36786
▁공식적으로	-9.36786
▁국가의	-9.36786
▁소말리아	-9.36786
▁시작됐다.	-9.36786
▁영화는	-9.36786
▁윌리엄	-9.36786
▁으로	-9.36786
▁이란은	-9.36786
▁이상을	-9.36786
▁중에는	-9.36786
▁특별	-9.36786
▁10년	-9.37822
▁24일	-9.37822
▁EU	-9.37822
▁공격이	-9.37822
▁관리가	-9.37822
▁국회	-9.37822
▁권리를	-9.37822
▁내린	-9.37822
▁발언은	-9.37822
▁사람의	-9.37822
▁실제	-9.37822
▁영국에서	-9.37822
▁이스라엘의	-9.37822
▁이집트	-9.37822
▁일요일	-9.37822
▁포함해	-9.37822
▁계획이	-9.38869
▁국무장관은	-9.38869
▁단체는	-9.38869
▁버지니아	-9.38869
▁벌인	-9.38869
▁입었다고	-9.38869
▁장관이	-9.38869
▁최근의	-9.38869
▁12일(현지시간)	-9.39927
▁16일(현지시간)	-9.39927
▁18일(현지시간)	-9.39927
▁5년	-9.39927
▁거주하는	-9.39927
▁내무부	-9.39927
▁대변인인	-9.39927
▁목요일	-9.39927
▁북한과	-9.39927
▁심한	-9.39927
▁않도록	-9.39927
▁약속했다.	-9.39927
▁일본이	-9.39927
▁집에	-9.39927
▁피터	-9.39927
▁학생들이	-9.39927
▁훨씬	-9.39927
▁힘든	-9.39927
▁단	-9.40997
▁문을	-9.40997
▁반응을	-9.40997
▁불리는	-9.40997
▁사람을	-9.40997
▁세금	-9.40997
▁안보	-9.40997
▁엘리자베스	-9.40997
▁정책	-9.40997
▁정치적인	-9.40997
▁찾기	-9.40997
▁2일(현지시간)	-9.42078
▁9일(현지시간)	-9.42078
▁경선에서	-9.42078
▁끝난	-9.42078
▁남자가	-9.42078
▁대부분이	-9.42078
▁듯	-9.42078
▁밖으로	-9.42078
▁사태가	-9.42078
▁성폭행	-9.42078
▁수단	-9.42078
▁않으면	-9.42078
▁알려지지	-9.42078
▁연료	-9.42078
▁외교	-9.42078
▁외국	-9.42078
▁요구하고	-9.42078
▁용의자	-9.42078
▁이것이	-9.42078
▁익명의	-9.42078
▁있었다”고	-9.42078
▁제안을	-9.42078
▁좋지	-9.42078
▁주장하는	-9.42078
▁하락했다.	-9.42078
▁홍콩	-9.42078
▁1명은	-9.43171
▁22일(현지시간)	-9.43171
▁30일(현지시간)	-9.43171
▁North	-9.43171
▁그들을	-9.43171
▁나와	-9.43171
▁뉴스	-9.43171
▁된다고	-9.43171
▁반기문	-9.43171
▁발견했다고	-9.43171
▁방문할	-9.43171
▁방법으로	-9.43171
▁벌어진	-9.43171
▁병사	-9.43171
▁비밀	-9.43171
▁실제로	-9.43171
▁의원들은	-9.43171
▁자리를	-9.43171
▁충분한	-9.43171
▁"이	-9.44276
▁be	-9.44276
▁가격	-9.44276
▁결정은	-9.44276
▁곳으로	-9.44276
▁관계가	-9.44276
▁무역	-9.44276
▁반정부	-9.44276
▁생각하고	-9.44276
▁선고	-9.44276
▁시험	-9.44276
▁어려움을	-9.44276
▁왜	-9.44276
▁우려가	-9.44276
▁조금	-9.44276
▁특별한	-9.44276
▁필요하다고	-9.44276
▁해안	-9.44276
▁24일(현지시간)	-9.45393
▁5일(현지시간)	-9.45393
▁경찰의	-9.45393
▁국립	-9.45393
▁나쁜	-9.45393
▁때문이다.	-9.45393
▁명은	-9.45393
▁모하메드	-9.45393
▁사건과	-9.45393
▁사건으로	-9.45393
▁스미스	-9.45393
▁신문은	-9.45393
▁아부	-9.45393
▁여행	-9.45393
▁우승을	-9.45393
▁의회가	-9.45393
▁임시	-9.45393
▁있었으며	-9.45393
▁직원	-9.45393
▁취할	-9.45393
▁카운티	-9.45393
▁쿠르드	-9.45393
▁했으며	-9.45393
▁향후	-9.45393
▁회의를	-9.45393
▁7일(현지시간)	-9.46523
▁공개했다.	-9.46523
▁되면	-9.46523
▁믿고	-9.46523
▁바라고	-9.46523
▁수사를	-9.46523
▁스티븐	-9.46523
▁언급하지	-9.46523
▁중국과	-9.46523
▁South	-9.47666
▁갈	-9.47666
▁국민	-9.47666
▁기타	-9.47666
▁담긴	-9.47666
▁당선인은	-9.47666
▁동영상을	-9.47666
▁러시아의	-9.47666
▁발표	-9.47666
▁뿐	-9.47666
▁사망자가	-9.47666
▁스스로	-9.47666
▁의원	-9.47666
▁일은	-9.47666
▁작전을	-9.47666
▁전화를	-9.47666
▁찾는	-9.47666
▁초기	-9.47666
▁14일(현지시간)	-9.48822
▁W.	-9.48822
▁가스	-9.48822
▁강력히	-9.48822
▁관심이	-9.48822
▁네	-9.48822
▁대선후보인	-9.48822
▁만날	-9.48822
▁만한	-9.48822
▁모습이	-9.48822
▁배우	-9.48822
▁보기	-9.48822
▁보여주는	-9.48822
▁생각을	-9.48822
▁시카고	-9.48822
▁압둘라	-9.48822
▁의회는	-9.48822
▁인정했다.	-9.48822
▁장면을	-9.48822
▁적은	-9.48822
▁전화	-9.48822
▁정부,	-9.48822
▁해결하기	-9.48822
▁협상이	-9.48822
▁환경	-9.48822
▁회사인	-9.48822
▁-	-9.49992
▁기술	-9.49992
▁긴급	-9.49992
▁내용이	-9.49992
▁명령을	-9.49992
▁발표된	-9.49992
▁부동산	-9.49992
▁아무	-9.49992
▁여론조사	-9.49992
▁여성은	-9.49992
▁예상했다.	-9.49992
▁원하는	-9.49992
▁유명	-9.49992
▁유사한	-9.49992
▁최초로	-9.49992
▁추정되는	-9.49992
▁토니	-9.49992
▁학생	-9.49992
▁항공	-9.49992
▁"우리는	-9.51175
▁걸릴	-9.51175
▁게임을	-9.51175
▁계획	-9.51175
▁공격에	-9.51175
▁기업	-9.51175
▁기자회견을	-9.51175
▁길을	-9.51175
▁밖에서	-9.51175
▁불을	-9.51175
▁시신을	-9.51175
▁아이들이	-9.51175
▁여성의	-9.51175
▁올렸다.	-9.51175
▁인기	-9.51175
▁조사에	-9.51175
▁주식	-9.51175
▁중국에	-9.51175
▁처음이다.	-9.51175
▁총리와	-9.51175
▁회사의	-9.51175
▁가족	-9.52373
▁거래를	-9.52373
▁골을	-9.52373
▁달러에	-9.52373
▁드러났다.	-9.52373
▁발생	-9.52373
▁생각한다”고	-9.52373
▁생활을	-9.52373
▁수니파	-9.52373
▁시위에	-9.52373
▁아이의	-9.52373
▁예정이며	-9.52373
▁워싱턴에서	-9.52373
▁이곳에서	-9.52373
▁점점	-9.52373
▁중국에서	-9.52373
▁징역	-9.52373
▁차	-9.52373
▁타격을	-9.52373
▁통신은	-9.52373
▁한미	-9.52373
▁8일(현지시간)	-9.53585
▁UN	-9.53585
▁갑자기	-9.53585
▁건설	-9.53585
▁걸친	-9.53585
▁것보다	-9.53585
▁계속되고	-9.53585
▁관련이	-9.53585
▁남은	-9.53585
▁모인	-9.53585
▁방문했다.	-9.53585
▁비행	-9.53585
▁시위가	-9.53585
▁않았으며	-9.53585
▁양	-9.53585
▁연구를	-9.53585
▁연구진은	-9.53585
▁의료	-9.53585
▁의회에	-9.53585
▁이번주	-9.53585
▁이용,	-9.53585
▁찾고	-9.53585
▁체포됐다.	-9.53585
▁쿠바	-9.53585
▁탄	-9.53585
▁폭발로	-9.53585
▁하나의	-9.53585
▁핵심	-9.53585
▁화재가	-9.53585
▁1999년	-9.54812
▁2명을	-9.54812
▁3명의	-9.54812
▁김정일	-9.54812
▁노력하고	-9.54812
▁논의할	-9.54812
▁만드는	-9.54812
▁바그다드에서	-9.54812
▁범죄	-9.54812
▁빠르게	-9.54812
▁수백	-9.54812
▁시설을	-9.54812
▁신원을	-9.54812
▁어려운	-9.54812
▁없어	-9.54812
▁이로	-9.54812
▁이스라엘과	-9.54812
▁적절한	-9.54812
▁진행된	-9.54812
▁투자	-9.54812
▁할리우드	-9.54812
▁현재까지	-9.54812
▁6자회담	-9.56054
▁가격을	-9.56054
▁것이라며	-9.56054
▁경제에	-9.56054
▁나를	-9.56054
▁도착했다.	-9.56054
▁못하는	-9.56054
▁문제의	-9.56054
▁수십	-9.56054
▁언론이	-9.56054
▁위기를	-9.56054
▁의회의	-9.56054
▁이유는	-9.56054
▁인구	-9.56054
▁일자리를	-9.56054
▁일환으로	-9.56054
▁자체	-9.56054
▁톰	-9.56054
▁파키스탄의	-9.56054
▁결정에	-9.57312
▁경제가	-9.57312
▁대북	-9.57312
▁더불어	-9.57312
▁랭킹	-9.57312
▁마이크	-9.57312
▁말레이시아	-9.57312
▁무기를	-9.57312
▁반군이	-9.57312
▁밝히고	-9.57312
▁보고했다.	-9.57312
▁부근에서	-9.57312
▁사실상	-9.57312
▁사진	-9.57312
▁사태를	-9.57312
▁시작한	-9.57312
▁심장	-9.57312
▁웹	-9.57312
▁자리에서	-9.57312
▁증가하고	-9.57312
▁해결을	-9.57312
▁6명이	-9.58586
▁AP의	-9.58586
▁“이는	-9.58586
▁계약을	-9.58586
▁계획은	-9.58586
▁권력을	-9.58586
▁말하는	-9.58586
▁방문을	-9.58586
▁살해	-9.58586
▁안전	-9.58586
▁약간	-9.58586
▁이유를	-9.58586
▁제재를	-9.58586
▁주의	-9.58586
▁지진이	-9.58586
▁치러진	-9.58586
▁클린턴이	-9.58586
▁폭탄이	-9.58586
▁하던	-9.58586
▁한다"고	-9.58586
▁힘을	-9.58586
▁국방부는	-9.59876
▁그동안	-9.59876
▁기다리고	-9.59876
▁깊은	-9.59876
▁남북	-9.59876
▁내용의	-9.59876
▁니콜라	-9.59876
▁로켓	-9.59876
▁말합니다.	-9.59876
▁부상했다.	-9.59876
▁빠진	-9.59876
▁세계대전	-9.59876
▁스포츠	-9.59876
▁시스템을	-9.59876
▁시위대가	-9.59876
▁시위대는	-9.59876
▁시장에	-9.59876
▁아들	-9.59876
▁야당인	-9.59876
▁월드컵	-9.59876
▁위원회는	-9.59876
▁위험이	-9.59876
▁이와같은	-9.59876
▁잉글랜드	-9.59876
▁저녁	-9.59876
▁전직	-9.59876
▁지도자들은	-9.59876
▁체니	-9.59876
▁크리스마스	-9.59876
▁파리	-9.59876
▁폭탄테러가	-9.59876
▁피해가	-9.59876
▁하면	-9.59876
▁훈련을	-9.59876
▁with	-9.61183
▁가자지구	-9.61183
▁고통을	-9.61183
▁과학자들이	-9.61183
▁관계자들이	-9.61183
▁국경을	-9.61183
▁그에	-9.61183
▁나갈	-9.61183
▁맨체스터	-9.61183
▁모두가	-9.61183
▁반드시	-9.61183
▁받기	-9.61183
▁보인다고	-9.61183
▁선거에	-9.61183
▁운동	-9.61183
▁운영하는	-9.61183
▁이렇게	-9.61183
▁이스라엘이	-9.61183
▁이틀	-9.61183
▁준비를	-9.61183
▁해당	-9.61183
▁핵무기를	-9.61183
▁했지만	-9.61183
▁1998년	-9.62508
▁개	-9.62508
▁공개	-9.62508
▁마약	-9.62508
▁마지막으로	-9.62508
▁마치고	-9.62508
▁말까지	-9.62508
▁며칠	-9.62508
▁목적으로	-9.62508
▁보면	-9.62508
▁성공했다.	-9.62508
▁시장에서	-9.62508
▁않지만	-9.62508
▁얻었다.	-9.62508
▁에후드	-9.62508
▁연속	-9.62508
▁외무장관은	-9.62508
▁우라늄	-9.62508
▁우려하고	-9.62508
▁의회에서	-9.62508
▁이후,	-9.62508
▁일	-9.62508
▁일간	-9.62508
▁장을	-9.62508
▁정확히	-9.62508
▁제공하는	-9.62508
▁제안했다.	-9.62508
▁조사에서	-9.62508
▁조치가	-9.62508
▁증거를	-9.62508
▁혐의가	-9.62508
▁회사는	-9.62508
▁후,	-9.62508
▁will	-9.6385
▁美	-9.6385
▁남성	-9.6385
▁내용은	-9.6385
▁능력을	-9.6385
▁당했다.	-9.6385
▁대가로	-9.6385
▁대선에서	-9.6385
▁동영상	-9.6385
▁민주주의	-9.6385
▁변화가	-9.6385
▁사담	-9.6385
▁사장은	-9.6385
▁상태에	-9.6385
▁서울에서	-9.6385
▁승인을	-9.6385
▁아무도	-9.6385
▁아카데미	-9.6385
▁영어	-9.6385
▁유로	-9.6385
▁이라크를	-9.6385
▁전쟁에	-9.6385
▁질문을	-9.6385
▁탁신	-9.6385
▁판매	-9.6385
▁한국이	-9.6385
▁현재의	-9.6385
▁2명은	-9.65211
▁U.S.	-9.65211
▁감독이	-9.65211
▁검찰	-9.65211
▁공연을	-9.65211
▁공항에서	-9.65211
▁그리스	-9.65211
▁내릴	-9.65211
▁다쳤다고	-9.65211
▁됐다”고	-9.65211
▁멋진	-9.65211
▁선언했다.	-9.65211
▁스타	-9.65211
▁승리한	-9.65211
▁시장의	-9.65211
▁안전을	-9.65211
▁언론	-9.65211
▁여부는	-9.65211
▁오브	-9.65211
▁운동을	-9.65211
▁이로써	-9.65211
▁있고,	-9.65211
▁있는데,	-9.65211
▁있으나	-9.65211
▁정	-9.65211
▁주간	-9.65211
▁폭발	-9.65211
▁폭탄테러로	-9.65211
▁한국에	-9.65211
▁한반도	-9.65211
▁3년	-9.6659
▁A	-9.6659
▁결과는	-9.6659
▁관리	-9.6659
▁국방장관은	-9.6659
▁논의를	-9.6659
▁대	-9.6659
▁발생하지	-9.6659
▁방송	-9.6659
▁병력	-9.6659
▁부통령	-9.6659
▁사람	-9.6659
▁살	-9.6659
▁소식이	-9.6659
▁수를	-9.6659
▁안전한	-9.6659
▁암살	-9.6659
▁없으며	-9.6659
▁올린	-9.6659
▁위기	-9.6659
▁주지사가	-9.6659
▁청와대	-9.6659
▁총리를	-9.6659
▁최신	-9.6659
▁프로그램에	-9.6659
▁하원	-9.6659
▁10명이	-9.67989
▁가격은	-9.67989
▁경제를	-9.67989
▁그것이	-9.67989
▁금지	-9.67989
▁기대하고	-9.67989
▁기후	-9.67989
▁나오는	-9.67989
▁납치된	-9.67989
▁됩니다.	-9.67989
▁레알	-9.67989
▁막을	-9.67989
▁말리키	-9.67989
▁미국과의	-9.67989
▁받아야	-9.67989
▁발생했으며	-9.67989
▁법원이	-9.67989
▁베이징에서	-9.67989
▁삶을	-9.67989
▁수익을	-9.67989
▁아니면	-9.67989
▁일하는	-9.67989
▁잃은	-9.67989
▁자료를	-9.67989
▁전했습니다.	-9.67989
▁좀	-9.67989
▁지금은	-9.67989
▁진행되고	-9.67989
▁총기	-9.67989
▁토요일	-9.67989
▁폭력	-9.67989
▁폭탄을	-9.67989
▁후반	-9.67989
▁1997년	-9.69407
▁갖게	-9.69407
▁검사는	-9.69407
▁고대	-9.69407
▁구조	-9.69407
▁남아	-9.69407
▁낸	-9.69407
▁단체	-9.69407
▁당신이	-9.69407
▁대회에서	-9.69407
▁동물	-9.69407
▁로마	-9.69407
▁만들었다.	-9.69407
▁못	-9.69407
▁무가베	-9.69407
▁베나지르	-9.69407
▁보낼	-9.69407
▁보유하고	-9.69407
▁분명히	-9.69407
▁비록	-9.69407
▁비용이	-9.69407
▁수상했다.	-9.69407
▁유엔은	-9.69407
▁이후로	-9.69407
▁일본에서	-9.69407
▁일정을	-9.69407
▁자세한	-9.69407
▁잠시	-9.69407
▁주한	-9.69407
▁중앙	-9.69407
▁지역으로	-9.69407
▁지역은	-9.69407
▁차를	-9.69407
▁충분히	-9.69407
▁통한	-9.69407
▁투표	-9.69407
▁표했다.	-9.69407
▁항공기	-9.69407
▁희생자	-9.69407
▁31일	-9.70846
▁가능성은	-9.70846
▁가치가	-9.70846
▁것인지	-9.70846
▁계획이라고	-9.70846
▁논란이	-9.70846
▁떨어졌다.	-9.70846
▁못하게	-9.70846
▁발견됐다고	-9.70846
▁법원에	-9.70846
▁보고서에서	-9.70846
▁보안관은	-9.70846
▁사령관은	-9.70846
▁선수	-9.70846
▁소비자	-9.70846
▁실종된	-9.70846
▁안에서	-9.70846
▁앓고	-9.70846
▁여성을	-9.70846
▁예정	-9.70846
▁오래된	-9.70846
▁이라크와	-9.70846
▁일반적으로	-9.70846
▁제대로	-9.70846
▁주가	-9.70846
▁주지	-9.70846
▁준	-9.70846
▁총선을	-9.70846
▁호세	-9.70846
▁회의에서	-9.70846
▁4명의	-9.72306
▁것이다”고	-9.72306
▁게임	-9.72306
▁네덜란드	-9.72306
▁동료	-9.72306
▁러시아는	-9.72306
▁민간	-9.72306
▁발언에	-9.72306
▁보는	-9.72306
▁사용한	-9.72306
▁사회	-9.72306
▁상당한	-9.72306
▁수사	-9.72306
▁에도	-9.72306
▁역사적인	-9.72306
▁외무부	-9.72306
▁이라크전	-9.72306
▁익명을	-9.72306
▁있다면	-9.72306
▁자신은	-9.72306
▁주장에	-9.72306
▁찾을	-9.72306
▁책임이	-9.72306
▁측은	-9.72306
▁합의	-9.72306
▁2주	-9.73787
▁것이며,	-9.73787
▁국가가	-9.73787
▁그러한	-9.73787
▁노벨	-9.73787
▁때문에,	-9.73787
▁리처드	-9.73787
▁만난	-9.73787
▁못해	-9.73787
▁바란다”고	-9.73787
▁백악관은	-9.73787
▁상	-9.73787
▁시리아	-9.73787
▁시작할	-9.73787
▁앞에	-9.73787
▁약속을	-9.73787
▁영화의	-9.73787
▁위해서	-9.73787
▁유럽의	-9.73787
▁의사가	-9.73787
▁재판을	-9.73787
▁저지른	-9.73787
▁조	-9.73787
▁주민들에게	-9.73787
▁죽은	-9.73787
▁준비	-9.73787
▁차관보는	-9.73787
▁찾아	-9.73787
▁치료	-9.73787
▁혐의에	-9.73787
▁회사가	-9.73787
▁가까이	-9.75291
▁같다고	-9.75291
▁거뒀다.	-9.75291
▁공격은	-9.75291
▁국민들의	-9.75291
▁기지	-9.75291
▁나토	-9.75291
▁내내	-9.75291
▁뉴욕에서	-9.75291
▁독일의	-9.75291
▁말했다고	-9.75291
▁발생하는	-9.75291
▁벌금을	-9.75291
▁부족	-9.75291
▁비상	-9.75291
▁비용을	-9.75291
▁생각하는	-9.75291
▁선두를	-9.75291
▁세금을	-9.75291
▁소장은	-9.75291
▁승리했다.	-9.75291
▁않는다”고	-9.75291
▁예정된	-9.75291
▁이스라엘은	-9.75291
▁전면	-9.75291
▁중국을	-9.75291
▁체포했다고	-9.75291
▁태어난	-9.75291
▁토마스	-9.75291
▁학생들은	-9.75291
▁헌법	-9.75291
▁호텔에서	-9.75291
▁10대	-9.76818
▁4년	-9.76818
▁가능성에	-9.76818
▁것이다”라고	-9.76818
▁결과에	-9.76818
▁결혼	-9.76818
▁교육	-9.76818
▁국가를	-9.76818
▁기자들에게	-9.76818
