<pad>	0
<s>	0
</s>	0
<unk>	0
▁the	-2.89434
.	-3.14598
,	-3.17949
▁to	-3.77275
▁of	-3.8174
▁a	-3.82162
▁in	-3.91133
▁and	-3.97568
▁s	-4.53524
s	-4.64363
▁said	-4.77046
▁for	-4.85799
▁that	-4.87233
▁on	-4.87365
▁is	-5.06978
ing	-5.08125
▁was	-5.15232
ed	-5.16322
▁with	-5.2749
▁it	-5.31704
▁at	-5.3849
▁he	-5.40635
▁as	-5.4273
▁from	-5.49858
▁by	-5.51801
▁has	-5.56146
▁	-5.61692
▁be	-5.62045
▁an	-5.64032
▁have	-5.6467
▁his	-5.64676
▁are	-5.76892
▁but	-5.8273
▁were	-5.85266
▁will	-5.8697
▁not	-5.95207
▁who	-5.98711
▁they	-5.99938
▁after	-6.0435
▁had	-6.07311
▁been	-6.11824
▁this	-6.14777
▁u	-6.15092
▁its	-6.19275
▁their	-6.19329
▁people	-6.2028
▁about	-6.22706
▁year	-6.22948
▁more	-6.23333
▁i	-6.26627
▁two	-6.27287
▁we	-6.32318
▁korea	-6.32754
▁new	-6.33392
▁which	-6.34657
▁one	-6.35665
▁president	-6.36299
▁would	-6.4012
▁up	-6.41122
▁her	-6.41333
▁government	-6.41847
ly	-6.41866
▁or	-6.44497
▁north	-6.4694
▁also	-6.48919
▁she	-6.49308
d	-6.49935
n	-6.50531
▁than	-6.50757
▁out	-6.54519
▁last	-6.57542
▁t	-6.58675
▁cnn	-6.58913
▁over	-6.59831
▁police	-6.61666
▁when	-6.61789
▁first	-6.62074
▁south	-6.65301
▁there	-6.69029
▁into	-6.72611
▁all	-6.75677
▁other	-6.75786
▁time	-6.80136
▁no	-6.80417
▁told	-6.80862
y	-6.81822
▁some	-6.83447
▁years	-6.85079
▁korean	-6.86668
▁percent	-6.88644
▁world	-6.89726
▁you	-6.91273
▁state	-6.92106
▁united	-6.92722
▁officials	-6.94585
▁could	-6.9484
▁can	-6.95978
▁if	-6.96132
▁according	-6.96158
▁party	-7.00239
▁country	-7.0048
▁three	-7.00755
▁monday	-7.01599
▁iraq	-7.02236
▁says	-7.02449
▁tuesday	-7.03904
▁military	-7.03958
e	-7.04859
▁states	-7.07971
▁them	-7.08111
▁national	-7.08262
▁day	-7.0917
▁obama	-7.09707
▁minister	-7.10102
▁wednesday	-7.12504
▁what	-7.12857
▁before	-7.13393
▁against	-7.15324
▁million	-7.1542
▁sunday	-7.15442
▁since	-7.15677
▁week	-7.18058
▁china	-7.1847
▁bush	-7.18659
▁nuclear	-7.18783
▁old	-7.18844
▁so	-7.19542
▁us	-7.20252
▁where	-7.20496
▁now	-7.20951
▁killed	-7.2198
▁most	-7.23198
▁because	-7.24812
▁city	-7.25013
▁thursday	-7.25482
▁say	-7.25573
▁former	-7.25584
▁may	-7.26696
▁off	-7.26942
▁security	-7.27727
▁while	-7.27865
▁reported	-7.27979
▁down	-7.28202
▁him	-7.28211
▁just	-7.2845
▁between	-7.29533
▁only	-7.29751
▁made	-7.30598
▁under	-7.30615
▁near	-7.3194
▁back	-7.33547
during	-7.33734
▁being	-7.33815
▁official	-7.33893
▁news	-7.34788
▁many	-7.35912
▁house	-7.37156
▁group	-7.37677
▁month	-7.38138
▁re	-7.40415
m	-7.41607
▁al	-7.41714
▁like	-7.42557
▁called	-7.42699
▁including	-7.43412
▁do	-7.45602
▁did	-7.4579
▁four	-7.46473
▁war	-7.46785
▁our	-7.47617
▁international	-7.48027
▁through	-7.4819
▁10	-7.4844
▁home	-7.49898
er	-7.51278
▁reports	-7.51322
al	-7.51848
▁spokesman	-7.5189
▁statement	-7.52378
▁any	-7.52597
▁won	-7.53299
▁man	-7.53412
▁next	-7.54554
▁days	-7.54594
▁six	-7.55325
▁take	-7.55597
▁talks	-7.55683
▁foreign	-7.55896
▁five	-7.56007
▁found	-7.56111
▁japan	-7.5655
▁those	-7.5729
▁still	-7.57475
▁get	-7.57647
▁second	-7.58786
▁high	-7.59201
▁part	-7.59323
▁prime	-7.60222
▁court	-7.60806
▁troops	-7.60962
▁make	-7.61242
▁seoul	-7.62217
▁least	-7.63587
▁report	-7.64175
▁american	-7.64195
▁around	-7.6468
▁end	-7.65829
▁another	-7.65877
▁long	-7.67345
th	-7.6744
a	-7.67636
▁such	-7.68016
▁ministry	-7.68119
▁help	-7.69237
o	-7.69895
▁how	-7.70002
▁top	-7.7004
▁leader	-7.70984
▁clinton	-7.71153
▁way	-7.72299
▁washington	-7.72543
▁office	-7.7255
▁company	-7.73844
▁public	-7.74657
▁set	-7.75175
▁agency	-7.75607
▁expected	-7.75853
▁work	-7.75881
▁presidential	-7.76199
▁un	-7.76486
▁saying	-7.76512
▁forces	-7.77692
▁times	-7.77963
▁very	-7.78425
▁even	-7.7892
▁children	-7.79224
▁york	-7.79917
▁well	-7.79946
▁both	-7.80437
▁should	-7.81247
▁died	-7.82088
▁early	-7.82152
▁press	-7.82392
▁authorities	-7.8262
▁attack	-7.82817
▁british	-7.83457
▁members	-7.83563
▁several	-7.83578
▁saturday	-7.83818
▁chief	-7.83849
▁1	-7.84087
▁earlier	-7.8418
▁billion	-7.84225
▁number	-7.847
▁election	-7.84701
▁white	-7.84908
▁go	-7.85245
▁friday	-7.85398
▁political	-7.86465
▁countries	-7.8663
▁20	-7.86797
▁meeting	-7.87001
▁months	-7.87166
▁iraqi	-7.87177
▁women	-7.87377
▁chinese	-7.87377
▁democratic	-7.88377
▁came	-7.88509
▁my	-7.88909
▁bank	-7.88983
▁then	-7.8901
▁nation	-7.89031
▁look	-7.8922
▁among	-7.89397
▁going	-7.89416
▁3	-7.89974
▁2	-7.90467
▁took	-7.90523
▁kim	-7.90591
t	-7.90596
▁economic	-7.90649
▁family	-7.90808
▁death	-7.90903
▁think	-7.91884
▁show	-7.91934
▁lee	-7.92974
▁later	-7.9337
▁much	-7.9356
▁capital	-7.93627
▁30	-7.94302
▁left	-7.94353
▁night	-7.94363
▁used	-7.94638
▁life	-7.95168
▁fire	-7.95436
▁good	-7.95709
▁ago	-7.96396
▁yesterday	-7.96664
▁campaign	-7.96868
▁general	-7.9727
▁power	-7.97371
▁secretary	-7.98194
▁announced	-7.99611
▁men	-8.00213
▁site	-8.00238
▁pakistan	-8.00402
▁car	-8.01585
▁area	-8.01662
▁john	-8.01719
▁held	-8.01737
▁program	-8.02686
▁head	-8.02824
▁iran	-8.02891
▁health	-8.02925
▁same	-8.03043
▁recent	-8.03163
▁force	-8.03218
▁support	-8.03331
▁team	-8.03564
▁m	-8.03624
▁oil	-8.03914
▁major	-8.04348
▁see	-8.04478
▁de	-8.04694
▁want	-8.0555
▁plan	-8.0561
▁place	-8.05671
▁leaders	-8.05689
▁today	-8.05953
▁university	-8.06298
▁based	-8.06833
▁right	-8.07003
▁deal	-8.07119
▁air	-8.07214
▁department	-8.07499
▁opposition	-8.07666
▁economy	-8.07819
▁don	-8.07852
▁third	-8.07973
▁media	-8.08157
▁released	-8.08411
▁roh	-8.0845
▁use	-8.08846
▁these	-8.09034
▁center	-8.09265
▁past	-8.09291
▁morning	-8.09366
▁half	-8.0967
c	-8.10599
▁until	-8.10617
▁law	-8.10818
▁local	-8.11096
▁know	-8.11125
▁financial	-8.11237
▁me	-8.11342
▁late	-8.12006
▁school	-8.12065
▁london	-8.12205
▁taliban	-8.12205
▁hours	-8.12272
▁6	-8.12309
▁defense	-8.12365
▁put	-8.1238
▁case	-8.12605
▁whether	-8.12687
▁without	-8.12726
▁market	-8.13394
▁run	-8.13559
▁come	-8.13634
es	-8.14158
▁hit	-8.14158
▁5	-8.14948
▁15	-8.14985
▁your	-8.1507
▁taken	-8.15403
▁human	-8.15425
▁attacks	-8.15608
▁beijing	-8.16124
▁workers	-8.1659
▁money	-8.16798
▁nations	-8.1686
▁administration	-8.1696
▁afghanistan	-8.1696
▁visit	-8.17179
▁japanese	-8.17301
i	-8.17527
▁mccain	-8.17973
▁space	-8.18324
▁close	-8.18362
▁does	-8.18374
▁hospital	-8.1856
▁plans	-8.19043
▁led	-8.19568
▁best	-8.19694
▁11	-8.19785
▁free	-8.20239
▁4	-8.20317
▁move	-8.20532
▁central	-8.2055
▁win	-8.20633
▁already	-8.20725
▁water	-8.20814
▁baghdad	-8.209
▁service	-8.21358
▁others	-8.21583
▁give	-8.21807
▁along	-8.21931
▁system	-8.22161
▁began	-8.22508
▁army	-8.23938
▁rights	-8.23948
▁known	-8.24082
▁big	-8.24094
▁march	-8.24264
▁return	-8.24697
▁province	-8.24801
▁miles	-8.25006
▁few	-8.25128
▁decision	-8.25338
▁away	-8.25385
▁vote	-8.25887
▁ap	-8.2626
▁each	-8.26281
▁50	-8.26665
▁conference	-8.27021
▁dead	-8.27046
▁become	-8.27208
▁however	-8.27212
▁israel	-8.27441
▁main	-8.27672
▁across	-8.27954
▁12	-8.2799
▁release	-8.28171
▁eight	-8.28507
▁southern	-8.28519
▁open	-8.288
▁issue	-8.28839
▁weeks	-8.28902
▁soldiers	-8.28945
▁e	-8.29246
▁barack	-8.29275
▁french	-8.29452
▁trade	-8.29462
▁food	-8.29478
▁need	-8.29537
▁face	-8.29704
▁region	-8.29807
▁woman	-8.29855
▁p	-8.29924
▁co	-8.29952
▁business	-8.30184
▁own	-8.30389
▁information	-8.30424
▁far	-8.30992
▁web	-8.31135
▁asked	-8.31346
te	-8.31505
▁violence	-8.31581
▁agreement	-8.32008
▁here	-8.32387
▁weapons	-8.32534
▁arrested	-8.32862
r	-8.32946
▁change	-8.33436
▁russia	-8.33591
▁control	-8.33985
▁militants	-8.34015
▁lead	-8.34111
▁making	-8.34146
▁european	-8.34412
▁park	-8.34487
▁seven	-8.34493
▁100	-8.3496
▁d	-8.35127
▁prices	-8.35131
▁israeli	-8.35152
▁star	-8.35248
▁east	-8.35288
▁sen	-8.35316
▁global	-8.35377
▁video	-8.35416
▁students	-8.35469
▁thousands	-8.35648
▁largest	-8.35762
▁ve	-8.3578
▁killing	-8.35842
▁following	-8.35892
▁bill	-8.35906
▁northern	-8.37177
▁federal	-8.3759
▁peace	-8.37997
▁internet	-8.38002
▁town	-8.38198
▁seen	-8.38284
▁agreed	-8.39284
▁40	-8.39291
▁young	-8.39419
▁large	-8.39635
▁per	-8.39805
▁california	-8.39886
▁added	-8.40187
▁committee	-8.40644
▁britain	-8.40733
▁might	-8.40947
▁7	-8.41752
▁pyongyang	-8.41804
▁points	-8.42043
▁film	-8.42045
▁article	-8.42158
▁director	-8.42165
▁trying	-8.4219
▁small	-8.424
▁start	-8.42449
▁outside	-8.42943
▁ahead	-8.4344
▁final	-8.43622
▁every	-8.44309
▁accused	-8.44317
▁went	-8.44468
▁working	-8.44537
▁border	-8.44587
▁elections	-8.44805
▁palestinian	-8.44811
▁great	-8.44866
▁emergency	-8.44868
▁likely	-8.45095
▁aid	-8.45102
▁research	-8.45685
▁senior	-8.45756
▁must	-8.46014
▁record	-8.46023
▁charges	-8.46191
▁never	-8.46203
▁key	-8.46303
▁little	-8.4643
▁investigation	-8.46849
▁body	-8.46923
▁anti	-8.46997
▁crisis	-8.47109
▁possible	-8.47336
▁france	-8.47417
▁clear	-8.47519
▁keep	-8.47603
▁believe	-8.47639
▁energy	-8.47794
▁point	-8.47971
▁union	-8.48478
▁congress	-8.48929
▁companies	-8.48942
▁again	-8.49159
▁side	-8.49206
▁january	-8.49871
▁cut	-8.49992
▁west	-8.50041
▁associat	-8.50261
▁game	-8.50333
▁got	-8.50356
▁red	-8.51055
▁latest	-8.51066
▁total	-8.51119
▁continue	-8.51367
▁groups	-8.51602
▁council	-8.5174
▁qaeda	-8.51756
▁reporters	-8.51773
▁live	-8.51989
▁line	-8.52176
▁june	-8.52475
▁within	-8.52545
▁july	-8.52725
▁parliament	-8.52853
▁due	-8.5299
▁america	-8.53034
▁gas	-8.53091
▁22	-8.53191
▁18	-8.53206
▁meet	-8.53308
▁sea	-8.5354
▁less	-8.53662
▁further	-8.53677
▁member	-8.53704
▁candidate	-8.53705
▁building	-8.53722
▁toward	-8.53837
▁policy	-8.54161
▁showed	-8.54231
▁too	-8.54352
▁25	-8.54695
▁coast	-8.55004
▁george	-8.55038
▁once	-8.55188
▁race	-8.55188
▁find	-8.55566
▁weekend	-8.55635
▁16	-8.55865
▁england	-8.55883
▁ruling	-8.55883
▁minutes	-8.56207
▁name	-8.56365
▁strong	-8.56411
▁ban	-8.56737
▁efforts	-8.57029
▁gaza	-8.57131
▁order	-8.57157
▁8	-8.57158
▁allow	-8.57331
▁september	-8.57381
▁television	-8.57381
▁13	-8.57423
▁airport	-8.57449
▁w	-8.57479
k	-8.57677
▁stop	-8.57779
▁suicide	-8.58208
en	-8.58249
▁bring	-8.58437
▁medical	-8.58648
▁lost	-8.58677
▁hundreds	-8.5882
▁term	-8.5924
▁child	-8.59932
▁russian	-8.59952
▁station	-8.6027
▁afghan	-8.60803
▁study	-8.60868
▁14	-8.60905
▁future	-8.61068
▁victory	-8.61495
▁travel	-8.61694
▁level	-8.61863
able	-8.62054
▁series	-8.62054
▁better	-8.62291
▁communist	-8.62545
▁call	-8.62562
▁street	-8.62682
▁island	-8.63109
l	-8.63266
▁f	-8.63277
▁sent	-8.6328
▁using	-8.63323
▁round	-8.63469
▁americans	-8.63474
▁full	-8.63499
▁bomb	-8.63827
▁real	-8.6384
▁confirmed	-8.63841
▁industry	-8.63876
▁action	-8.6402
▁person	-8.64195
▁send	-8.64279
▁shot	-8.64291
▁december	-8.64415
▁lot	-8.6455
▁musharraf	-8.64685
▁april	-8.64956
▁almost	-8.65505
▁father	-8.65639
▁process	-8.65867
▁play	-8.66072
▁injured	-8.66402
▁hour	-8.66485
▁wounded	-8.66793
ic	-8.66811
▁able	-8.6691
▁list	-8.6694
▁pro	-8.67047
▁yet	-8.67161
▁really	-8.6734
▁hand	-8.6737
an	-8.67503
▁interview	-8.67572
▁black	-8.67595
▁europe	-8.67691
▁having	-8.67987
▁enough	-8.6799
▁although	-8.68267
▁history	-8.68267
▁chairman	-8.68269
▁tv	-8.68337
▁ever	-8.68452
▁sex	-8.68488
▁inside	-8.68501
▁started	-8.68718
▁result	-8.68733
▁republican	-8.6874
▁involved	-8.68794
▁november	-8.68829
▁david	-8.68829
▁front	-8.68855
▁behind	-8.69112
▁asia	-8.6928
▁soon	-8.6929
▁coming	-8.69317
▁homes	-8.69662
▁sources	-8.69717
▁believed	-8.7017
▁wife	-8.70254
▁special	-8.70262
▁fighting	-8.70469
▁given	-8.70492
▁rice	-8.70538
ers	-8.70554
▁current	-8.70661
▁turn	-8.70688
▁nine	-8.70842
▁job	-8.71035
▁san	-8.71171
▁flight	-8.71328
▁amid	-8.71404
▁search	-8.71659
▁leading	-8.71716
▁test	-8.71766
▁heart	-8.71792
▁mother	-8.722
▁western	-8.72276
▁plane	-8.72337
▁whose	-8.72337
▁important	-8.72398
▁organization	-8.72501
▁pay	-8.72548
▁india	-8.72704
est	-8.72967
▁areas	-8.73153
u	-8.73157
▁60	-8.73874
▁koreans	-8.73934
▁comes	-8.73981
▁grand	-8.74049
▁9	-8.74196
▁august	-8.74338
1	-8.74504
▁hard	-8.74578
▁newspaper	-8.74591
▁fuel	-8.74615
▁problems	-8.74616
▁hyun	-8.74622
▁season	-8.74809
▁hold	-8.74815
▁commission	-8.74866
▁role	-8.74885
▁storm	-8.74947
▁victims	-8.75005
▁though	-8.75497
▁evidence	-8.75537
▁son	-8.75569
▁rate	-8.75675
taking	-8.75767
▁24	-8.76399
▁prison	-8.7665
▁voters	-8.76842
▁mission	-8.77039
▁planned	-8.77061
▁19	-8.77679
▁increase	-8.77803
▁met	-8.77964
▁different	-8.78123
▁scientists	-8.78179
▁gave	-8.78291
▁australia	-8.78449
▁wanted	-8.78842
▁turned	-8.78896
▁mark	-8.78963
▁lower	-8.78983
▁wants	-8.78998
▁middle	-8.79218
▁february	-8.79224
g	-8.79568
▁age	-8.79619
sh	-8.79641
ary	-8.79914
▁2006	-8.79949
com	-8.80019
▁post	-8.8013
▁islamic	-8.80174
▁couple	-8.80199
▁summit	-8.80484
▁senate	-8.80487
▁movie	-8.80493
▁results	-8.80592
▁spokeswoman	-8.80802
▁fell	-8.80806
▁board	-8.80825
▁private	-8.80955
▁incident	-8.80986
▁price	-8.81294
▁received	-8.8151
▁calls	-8.81616
▁problem	-8.81781
▁tried	-8.81791
▁appeared	-8.82072
▁step	-8.82081
▁heavy	-8.82082
▁supporters	-8.8254
▁let	-8.82672
▁situation	-8.82751
▁recently	-8.82764
▁tell	-8.82832
▁attempt	-8.82847
▁protest	-8.83095
▁prosecutors	-8.8311
▁thought	-8.83125
▁negotiations	-8.83132
▁deaths	-8.83138
▁judge	-8.83304
▁development	-8.8342
▁markets	-8.83644
▁vice	-8.83709
▁district	-8.8374
▁relations	-8.8375
▁poll	-8.83902
▁october	-8.84033
▁together	-8.84033
▁protesters	-8.84082
▁low	-8.84343
▁intelligence	-8.84363
▁scheduled	-8.84398
▁disease	-8.84407
▁cause	-8.84613
▁road	-8.84642
▁pressure	-8.85044
▁hotel	-8.85079
▁train	-8.85153
▁florida	-8.85356
▁something	-8.85358
▁stay	-8.85412
▁germany	-8.85455
▁tokyo	-8.85689
▁stock	-8.85743
▁ll	-8.85796
▁needed	-8.86004
▁moo	-8.86026
▁los	-8.86222
▁short	-8.86487
▁ground	-8.86522
▁include	-8.86605
▁hamas	-8.86696
▁operation	-8.86711
st	-8.8673
▁immediately	-8.86783
▁technology	-8.87033
▁caused	-8.87077
▁decided	-8.87178
▁hong	-8.87384
▁growth	-8.87386
▁online	-8.87517
▁land	-8.87537
▁wall	-8.87603
▁aim	-8.87617
▁games	-8.87718
▁eastern	-8.87882
▁tour	-8.8797
▁labor	-8.88039
▁biggest	-8.88054
▁getting	-8.88073
▁services	-8.88177
▁growing	-8.88235
▁17	-8.88287
▁urg	-8.88389
▁issues	-8.88391
▁reached	-8.88498
▁...	-8.88612
▁coalition	-8.8874
▁try	-8.88865
▁hill	-8.88867
▁condition	-8.8918
▁phone	-8.89198
▁paris	-8.89214
▁league	-8.89444
▁strike	-8.89462
▁pakistani	-8.89592
▁claimed	-8.89637
▁alleged	-8.89667
▁exchange	-8.89713
▁lawmakers	-8.89763
▁summer	-8.89868
▁missing	-8.89983
▁brown	-8.9004
▁fight	-8.90139
▁saw	-8.90298
▁provide	-8.90427
▁officers	-8.90718
▁claim	-8.9073
▁polls	-8.90784
5	-8.91058
▁church	-8.9115
▁remain	-8.91177
▁assembly	-8.91178
▁hillary	-8.91194
▁executive	-8.91296
▁girl	-8.91307
▁closed	-8.9151
p	-8.91516
▁asian	-8.91592
▁officer	-8.92092
▁cup	-8.92129
▁angeles	-8.92247
on	-8.92407
▁speech	-8.9257
▁hope	-8.92592
▁battle	-8.9276
▁gen	-8.92762
▁warned	-8.93024
▁trip	-8.93321
▁kind	-8.93405
▁rise	-8.93477
▁cross	-8.93553
▁feel	-8.93582
▁arrest	-8.93621
▁sarkozy	-8.93679
▁charged	-8.93816
▁effort	-8.93824
▁music	-8.9398
▁tax	-8.93987
▁issued	-8.94038
▁failed	-8.94088
▁protests	-8.94366
▁german	-8.94439
▁serious	-8.94967
▁goal	-8.95088
▁olympic	-8.95297
▁staff	-8.95488
▁jobs	-8.95603
▁texas	-8.95873
came	-8.95875
▁running	-8.95879
▁hostages	-8.95934
▁justice	-8.96041
▁match	-8.96226
▁democracy	-8.96243
▁turkey	-8.96615
▁experts	-8.9689
▁speaking	-8.9692
▁lives	-8.96969
▁majority	-8.9738
▁threat	-8.97528
▁drug	-8.97549
▁community	-8.97739
▁host	-8.97773
▁interest	-8.97883
or	-8.98013
▁200	-8.98059
▁opened	-8.98102
▁talk	-8.98275
▁crew	-8.98313
▁event	-8.98433
▁bad	-8.98465
▁launched	-8.98552
▁higher	-8.98711
▁things	-8.98829
▁story	-8.98879
man	-8.98964
▁credit	-8.99075
▁quot	-8.99157
to	-8.99197
▁why	-8.99259
▁named	-8.99315
▁2005	-8.99536
▁continued	-8.9954
▁light	-8.99723
▁base	-8.99772
▁senator	-8.99849
▁safety	-9.00028
▁association	-9.00046
▁doing	-9.00211
▁23	-9.00289
▁county	-9.0046
▁civilians	-9.00619
▁sales	-9.00627
▁room	-9.00664
▁governor	-9.01015
▁leave	-9.01021
▁rule	-9.01227
▁demand	-9.01411
▁robert	-9.01524
▁primary	-9.01578
▁resolution	-9.01579
▁protect	-9.01594
▁damage	-9.01647
▁b	-9.0167
▁sign	-9.01757
▁programs	-9.01757
▁joint	-9.01836
▁2004	-9.01956
▁parties	-9.02011
▁arrived	-9.02012
▁described	-9.02084
▁address	-9.02163
▁residents	-9.022
▁offer	-9.02219
▁himself	-9.02759
▁concerns	-9.02878
▁average	-9.02939
▁delegates	-9.02965
▁king	-9.03
▁daughter	-9.03004
in	-9.03083
▁production	-9.03164
▁earth	-9.03166
▁daily	-9.03168
0,000	-9.03215
▁measures	-9.03236
▁denied	-9.03554
▁bhutto	-9.03554
▁stage	-9.03555
▁often	-9.03563
▁message	-9.03811
▁care	-9.03834
▁watch	-9.03935
▁carrying	-9.04342
▁cost	-9.04363
▁estimated	-9.04414
▁break	-9.04418
▁identified	-9.04448
▁project	-9.0445
▁camp	-9.04462
▁21	-9.04497
▁boy	-9.04681
▁husband	-9.04759
▁radio	-9.04759
h	-9.0499
▁deputy	-9.05164
▁australian	-9.05217
▁shows	-9.05237
▁survey	-9.05276
▁risk	-9.05326
▁previous	-9.05407
▁africa	-9.05419
▁bid	-9.05459
▁fired	-9.05644
▁minute	-9.05858
▁kong	-9.05983
▁ordered	-9.06074
▁concern	-9.06114
▁attorney	-9.06264
▁missile	-9.06266
▁michael	-9.06388
▁always	-9.06389
▁calling	-9.0652
▁parents	-9.06591
▁population	-9.06674
▁am	-9.06948
▁cars	-9.06973
▁done	-9.07099
▁o	-9.07129
▁k	-9.07172
▁families	-9.07213
▁scene	-9.07332
▁similar	-9.07459
▁computer	-9.07516
▁meanwhile	-9.07629
▁myanmar	-9.08045
▁r	-9.08225
▁illegal	-9.08299
▁iranian	-9.0837
▁despi	-9.08379
▁popular	-9.08456
▁push	-9.08687
▁river	-9.08723
▁funds	-9.0895
▁included	-9.09083
▁details	-9.09087
▁suspected	-9.09286
▁brought	-9.09306
▁spent	-9.09316
▁cases	-9.09667
▁royal	-9.09729
▁prince	-9.10146
▁sanctions	-9.10238
▁armed	-9.1045
▁embassy	-9.10582
▁expressed	-9.10824
▁terrorist	-9.10933
▁gold	-9.10999
▁related	-9.11086
▁form	-9.11089
▁followed	-9.11291
▁living	-9.11442
▁reach	-9.11575
▁dow	-9.11698
▁candidates	-9.11824
▁afternoon	-9.11875
▁played	-9.11894
▁rest	-9.12039
▁cell	-9.12243
▁trial	-9.12244
▁english	-9.1231
le	-9.12315
▁nato	-9.12325
▁ready	-9.12409
▁fund	-9.1254
▁worst	-9.1275
▁rally	-9.12753
▁love	-9.12998
▁book	-9.13013
▁prevent	-9.13048
▁nomination	-9.13119
▁activities	-9.13185
▁cabinet	-9.13186
▁st	-9.13217
▁opening	-9.13297
▁fourth	-9.13432
▁begin	-9.13563
▁source	-9.13583
▁rose	-9.13584
▁huge	-9.1368
▁crash	-9.13751
▁legal	-9.1386
▁comments	-9.13995
▁position	-9.14018
▁means	-9.14154
▁refused	-9.14179
▁2008	-9.14182
▁democrats	-9.14587
▁african	-9.14603
▁raised	-9.14631
▁researchers	-9.14675
ar	-9.14805
▁ambassador	-9.1489
▁sexual	-9.14958
▁leaving	-9.14959
▁bodies	-9.14964
▁doctors	-9.15042
8	-9.15198
▁elect	-9.15252
▁quarter	-9.15355
▁allowed	-9.1552
▁question	-9.15539
b	-9.15626
▁streets	-9.15629
carried	-9.15653
▁ended	-9.15659
▁share	-9.15687
▁struck	-9.15858
um	-9.15899
▁claims	-9.16165
▁paul	-9.16205
▁period	-9.16237
▁access	-9.16309
▁putin	-9.16345
▁returned	-9.1635
▁sure	-9.16387
spite	-9.16504
▁rescue	-9.16621
▁announcement	-9.1677
▁terrorism	-9.1677
▁27	-9.16853
▁dr	-9.16921
▁discuss	-9.16938
▁expect	-9.16944
▁matter	-9.17201
▁progress	-9.17213
▁broke	-9.17325
▁peninsula	-9.1768
▁foot	-9.17688
▁view	-9.17877
▁conditions	-9.18013
▁fact	-9.18033
▁focus	-9.18039
▁blast	-9.1812
▁debate	-9.18134
▁80	-9.18177
▁instead	-9.18184
▁murder	-9.18485
▁passengers	-9.18535
▁create	-9.18632
▁course	-9.19038
▁parts	-9.1904
▁rival	-9.19059
▁cities	-9.19073
▁hopes	-9.1938
▁mexico	-9.19536
▁forward	-9.19641
▁operations	-9.19908
▁needs	-9.19977
ion	-9.19992
▁illinois	-9.20006
▁interior	-9.20062
▁published	-9.20063
▁passed	-9.20347
▁trading	-9.20478
▁holding	-9.20485
▁500	-9.20507
za	-9.20567
▁fans	-9.20752
▁fall	-9.20778
▁network	-9.20804
▁accept	-9.21321
▁sites	-9.2134
▁2003	-9.21401
▁millions	-9.21605
▁inter	-9.21611
▁spending	-9.2175
▁saudi	-9.21907
▁feet	-9.21913
▁ship	-9.21966
▁consider	-9.22162
▁2002	-9.22374
▁available	-9.22387
▁nothing	-9.22392
▁mass	-9.22397
▁c	-9.22403
▁warning	-9.22497
▁civil	-9.22859
2	-9.22988
us	-9.22991
ve	-9.23124
▁charge	-9.23358
▁non	-9.23435
▁launch	-9.23606
▁citizens	-9.23645
▁chicago	-9.23843
▁gnp	-9.23844
▁suffered	-9.23972
ies	-9.24136
▁blood	-9.24235
▁data	-9.24335
▁institute	-9.24356
▁treatment	-9.24362
▁investment	-9.24371
▁chance	-9.24373
▁eu	-9.24504
▁banks	-9.24535
▁currently	-9.24612
▁annual	-9.24661
▁education	-9.24771
▁moved	-9.24786
▁rising	-9.24836
▁70	-9.24842
z	-9.24916
▁field	-9.24949
▁ceremony	-9.25321
▁female	-9.25321
▁poor	-9.25581
▁longer	-9.25583
▁jail	-9.25762
▁winning	-9.25821
▁weather	-9.25825
▁square	-9.2585
▁virginia	-9.25852
▁response	-9.25861
▁snow	-9.25861
▁declared	-9.25866
▁muslim	-9.25873
▁lawyer	-9.25876
▁movement	-9.25888
▁sold	-9.25915
▁either	-9.26319
▁themselves	-9.26319
▁cannot	-9.26322
▁signed	-9.26588
▁range	-9.2667
▁thing	-9.26708
▁enter	-9.26758
▁harry	-9.26822
▁italian	-9.26827
▁professor	-9.26881
▁rebels	-9.26929
▁decades	-9.26934
▁affairs	-9.26996
▁difficult	-9.27205
▁social	-9.27223
f	-9.27231
▁smith	-9.27268
▁diplomatic	-9.27326
▁0	-9.27349
▁steps	-9.27372
▁analysts	-9.27381
7	-9.27479
▁moon	-9.27569
▁increased	-9.27588
▁deliver	-9.27714
▁award	-9.27715
▁friends	-9.27725
▁above	-9.27834
▁worked	-9.27848
▁date	-9.27883
▁discovered	-9.27919
▁commander	-9.27943
side	-9.28014
▁players	-9.28104
▁schools	-9.28282
▁gain	-9.28314
▁century	-9.28344
▁injuries	-9.28346
▁probably	-9.28352
▁club	-9.28418
▁ki	-9.2844
▁single	-9.28541
▁employees	-9.286
▁comment	-9.28739
▁adding	-9.28763
▁kilometers	-9.29011
▁g	-9.29094
▁construction	-9.29373
▁italy	-9.2938
▁index	-9.2939
▁mid	-9.29504
▁toll	-9.29962
ial	-9.30002
▁helped	-9.30085
▁investigators	-9.30126
▁90	-9.30158
▁remains	-9.30239
▁2007	-9.30252
▁quickly	-9.30488
▁highest	-9.30501
▁destroyed	-9.30635
▁turki	-9.30688
▁join	-9.30757
▁forc	-9.3087
▁sun	-9.309
▁nasa	-9.30917
▁personal	-9.30928
▁rare	-9.30941
▁questions	-9.30983
▁manager	-9.31066
▁natural	-9.31305
▁worth	-9.31404
▁friend	-9.3142
▁spain	-9.31464
▁industrial	-9.31509
▁dollar	-9.31575
▁dozens	-9.31619
▁shooting	-9.31756
▁giving	-9.3199
▁supreme	-9.31992
▁jones	-9.32
▁accident	-9.32044
▁crowd	-9.32077
▁playing	-9.32119
▁threatened	-9.32194
▁code	-9.3224
▁dollars	-9.32407
▁anything	-9.32524
▁chavez	-9.32524
▁act	-9.3258
▁guard	-9.32603
▁letter	-9.32645
▁vehicle	-9.32647
▁mayor	-9.32731
▁indian	-9.32867
▁especially	-9.33057
▁everything	-9.33058
▁approved	-9.33096
▁request	-9.33156
▁detained	-9.33179
▁blue	-9.33185
▁ice	-9.33277
▁hearing	-9.33558
▁paid	-9.33617
▁seeking	-9.33634
▁idea	-9.3371
▁allegedly	-9.33848
▁seat	-9.34054
▁green	-9.34126
▁nearby	-9.34158
▁considered	-9.34226
▁rain	-9.3427
▁environmental	-9.34453
▁common	-9.34542
▁beat	-9.34675
▁moscow	-9.34679
▁prosecution	-9.34679
▁allegations	-9.34801
▁35	-9.3502
▁additional	-9.35096
▁massive	-9.3524
▁session	-9.35372
el	-9.35422
▁hands	-9.35422
▁pre	-9.35486
less	-9.3559
▁bus	-9.3573
▁title	-9.35768
▁envoy	-9.35775
▁kept	-9.35775
▁carolina	-9.35778
▁lack	-9.35778
▁relationship	-9.35927
▁evening	-9.35979
▁changes	-9.36196
▁posted	-9.36202
▁shut	-9.36251
▁kill	-9.36282
▁attention	-9.36327
▁cancer	-9.36328
▁dropped	-9.36329
▁apparently	-9.36422
▁firm	-9.36492
▁26	-9.36613
▁read	-9.36616
▁levels	-9.36648
▁bin	-9.36682
▁n	-9.36724
▁45	-9.36829
▁aircraft	-9.36884
▁alliance	-9.36884
▁convicted	-9.36917
▁born	-9.36969
ia	-9.36996
▁shiite	-9.37042
▁safe	-9.37238
▁happened	-9.37253
▁potential	-9.37278
▁numbers	-9.37285
▁taiwan	-9.37438
▁driving	-9.37441
▁responsible	-9.37441
▁avoid	-9.37475
▁criticized	-9.37566
▁investors	-9.376
▁remarks	-9.37641
▁size	-9.37646
▁critical	-9.37846
▁loss	-9.37867
▁success	-9.3793
▁8212	-9.38003
▁29	-9.38491
▁pennsylvania	-9.38568
▁responsibility	-9.38568
▁sides	-9.38589
▁uk	-9.38665
▁target	-9.38717
▁stand	-9.38723
▁college	-9.38737
▁ex	-9.39046
▁training	-9.39053
▁tak	-9.39174
▁visitors	-9.39223
▁sell	-9.39303
▁quit	-9.39322
▁voice	-9.39322
▁crime	-9.39334
▁il	-9.39503
▁xinhua	-9.39708
▁society	-9.39716
▁admitted	-9.39758
▁conservative	-9.39909
▁uri	-9.40063
▁makes	-9.40135
▁terror	-9.40159
▁build	-9.40165
▁authority	-9.4029
▁whom	-9.40388
▁appear	-9.40463
▁consumer	-9.40495
▁heard	-9.40511
▁indonesia	-9.40689
▁ohio	-9.40862
▁management	-9.40862
▁planning	-9.40864
▁seek	-9.4092
▁products	-9.40929
▁1,000	-9.40934
▁independence	-9.40988
ous	-9.41001
▁costs	-9.41059
▁student	-9.4108
▁fear	-9.41094
▁animals	-9.41117
▁complete	-9.41136
▁prisoners	-9.41143
▁thailand	-9.41444
▁chung	-9.4145
3	-9.4145
▁arms	-9.41537
▁31	-9.41609
▁ii	-9.41706
▁cho	-9.41717
ive	-9.41827
▁buy	-9.41962
▁tibet	-9.42009
▁jump	-9.42028
▁baby	-9.42034
▁serve	-9.4207
▁h	-9.42235
▁suspect	-9.4229
▁buildings	-9.42551
co	-9.42606
▁criticism	-9.42615
▁pacific	-9.42616
▁worldwide	-9.42618
▁written	-9.42627
▁someone	-9.42628
▁committed	-9.42687
▁offered	-9.4287
citing	-9.42925
▁suspects	-9.42971
▁beginning	-9.43208
▁mail	-9.4323
▁abbas	-9.4326
▁rejected	-9.43364
▁previously	-9.43445
▁nominee	-9.43446
▁bak	-9.436
▁leadership	-9.43811
▁independent	-9.43877
▁drop	-9.44034
▁contact	-9.44077
▁raise	-9.44245
▁constitution	-9.44247
▁plant	-9.44271
▁custody	-9.44401
▁conduct	-9.44408
▁account	-9.44618
▁reactor	-9.44652
▁shortly	-9.44692
▁rock	-9.44782
▁impact	-9.45003
▁rather	-9.45004
▁herald	-9.45005
▁class	-9.45127
▁insurgents	-9.45219
▁reform	-9.45227
▁ruled	-9.45252
▁earthquake	-9.45261
▁explosion	-9.45266
▁seats	-9.45461
▁vehicles	-9.45467
▁ties	-9.45499
ra	-9.45563
▁actually	-9.45645
▁proposed	-9.45678
▁allies	-9.45754
▁tests	-9.45758
▁career	-9.45846
▁rules	-9.45863
▁28	-9.45875
▁satellite	-9.45878
▁giant	-9.4588
▁paper	-9.45891
▁remained	-9.45968
▁attacked	-9.4603
▁includes	-9.46094
▁seem	-9.4619
▁ran	-9.46199
▁occurred	-9.46219
▁corruption	-9.4622
▁combat	-9.46242
▁300	-9.46244
▁store	-9.46335
▁neighbor	-9.46499
▁prize	-9.46508
▁civilian	-9.46511
▁zone	-9.46531
▁environment	-9.46571
▁georgia	-9.46657
▁reduce	-9.4675
▁everyone	-9.46835
▁figure	-9.46956
▁deep	-9.47215
▁moving	-9.4745
▁microsoft	-9.47451
▁regional	-9.47622
▁signs	-9.47698
▁contract	-9.47736
▁linked	-9.47762
▁olympics	-9.47799
▁boost	-9.48016
▁traffic	-9.48069
▁wrote	-9.48071
▁museum	-9.48354
▁effect	-9.48367
▁science	-9.4837
▁dae	-9.48404
▁documents	-9.4858
▁conducted	-9.48655
▁climate	-9.48696
▁fifth	-9.48697
▁spread	-9.48701
▁2001	-9.48755
▁shares	-9.48767
▁elected	-9.48854
▁actor	-9.49022
▁figures	-9.49029
▁immediate	-9.49162
▁starting	-9.49236
▁reason	-9.49296
▁republic	-9.49308
▁built	-9.49325
▁myung	-9.49345
▁brother	-9.49643
▁events	-9.4965
▁bit	-9.49843
▁queen	-9.49958
▁anyone	-9.49965
▁votes	-9.50035
▁brain	-9.50276
▁domestic	-9.50595
▁spanish	-9.50595
▁james	-9.50599
▁surgery	-9.50602
▁carry	-9.50629
ce	-9.50717
▁sale	-9.50725
▁track	-9.5078
▁regime	-9.50901
▁showing	-9.51048
▁player	-9.51059
▁bombing	-9.51111
▁commercial	-9.51555
▁finance	-9.51569
▁marine	-9.51752
▁itself	-9.51881
▁guilty	-9.51893
▁cash	-9.51914
▁marriage	-9.52224
▁girls	-9.52314
▁prompt	-9.52363
▁word	-9.52364
▁spoke	-9.5238
6	-9.52811
▁mosque	-9.52869
▁criminal	-9.52889
ri	-9.52894
▁animal	-9.52894
▁hurt	-9.5302
coming	-9.5306
▁tourists	-9.53066
▁created	-9.53084
▁rates	-9.5327
▁abe	-9.53383
▁corp	-9.53407
▁bombs	-9.53515
tp	-9.53619
▁faces	-9.53796
▁mobile	-9.53855
la	-9.54151
▁bridge	-9.54253
▁fears	-9.54254
▁colombia	-9.54331
▁peaceful	-9.54356
▁suggested	-9.54379
▁complex	-9.54472
▁policies	-9.54504
▁operating	-9.54505
▁self	-9.54507
▁shuttle	-9.54515
▁flights	-9.54674
▁dispute	-9.54726
▁gates	-9.54789
▁owner	-9.55077
▁addition	-9.5511
▁telephone	-9.5517
▁provided	-9.55233
▁filed	-9.55258
▁concerned	-9.55418
▁ben	-9.5545
▁panel	-9.55547
▁terms	-9.55622
re	-9.55792
▁apple	-9.55842
▁supply	-9.55842
▁necessary	-9.55856
x	-9.55937
▁compared	-9.55952
▁id	-9.5599
▁moment	-9.56239
▁patients	-9.56327
▁el	-9.56434
ity	-9.56445
▁lebanese	-9.56517
▁lebanon	-9.56517
▁correspondent	-9.56517
▁powerful	-9.56544
▁winter	-9.56565
ation	-9.56602
▁shown	-9.56611
▁sentence	-9.56768
cat	-9.56788
▁damaged	-9.56803
▁mostly	-9.56842
▁speed	-9.56968
▁dangerous	-9.57203
▁stopped	-9.57203
▁jong	-9.57221
▁protection	-9.57223
▁promised	-9.57284
▁bar	-9.57301
▁confirm	-9.57313
▁words	-9.57506
▁football	-9.57557
▁militant	-9.57626
▁voting	-9.57883
▁bbc	-9.57883
▁ilbo	-9.57886
▁involv	-9.57892
▁understand	-9.5795
▁terrorists	-9.58018
▁kids	-9.58142
▁suspended	-9.58161
▁works	-9.58168
▁conflict	-9.58308
▁suggest	-9.58366
▁dur	-9.58393
▁names	-9.58433
▁affected	-9.58444
▁appeal	-9.58503
▁cover	-9.58537
▁hollywood	-9.58572
▁shin	-9.58799
▁wearing	-9.5889
▁village	-9.58985
▁failure	-9.59
▁performance	-9.5901
▁remaining	-9.5909
▁amount	-9.59123
▁stocks	-9.59141
▁pick	-9.5919
▁regard	-9.59258
▁fbi	-9.59272
ian	-9.59298
▁sought	-9.59312
▁affect	-9.59392
▁drugs	-9.5962
▁truck	-9.59701
▁van	-9.59794
▁certain	-9.59797
▁felt	-9.59966
▁territory	-9.59966
▁opportunity	-9.59966
▁confidence	-9.59967
▁navy	-9.60009
▁vow	-9.60015
▁palestinians	-9.60135
▁ongoing	-9.6016
ch	-9.60229
▁designed	-9.60231
w	-9.60429
▁port	-9.60434
▁rocket	-9.60435
▁resume	-9.60509
▁2000	-9.60574
▁voted	-9.60579
▁richard	-9.60666
▁overseas	-9.6067
▁joined	-9.60719
▁gathered	-9.60833
▁takes	-9.60905
▁activists	-9.60916
▁referr	-9.6092
▁laws	-9.61021
ton	-9.6103
▁separate	-9.61052
▁mountain	-9.61124
▁opinion	-9.61134
▁wide	-9.61214
▁beach	-9.61349
▁lines	-9.61362
▁cooperation	-9.61381
▁caught	-9.61382
▁journalists	-9.61384
▁ht	-9.61427
▁seized	-9.61441
▁pull	-9.61609
▁drive	-9.61685
▁experience	-9.61701
▁holiday	-9.61856
▁li	-9.6198
▁check	-9.6201
▁flu	-9.62048
▁brazil	-9.6208
▁wrong	-9.62088
▁fresh	-9.6209
▁crude	-9.62094
▁possibility	-9.62094
▁placed	-9.6222
▁cold	-9.62226
▁maintain	-9.62246
▁command	-9.62285
▁direct	-9.62358
▁ask	-9.62435
ro	-9.62515
▁quake	-9.62562
▁initial	-9.6265
▁premier	-9.62811
▁olmert	-9.62813
▁investigating	-9.62813
▁anniversary	-9.62814
▁peter	-9.62841
▁headquarters	-9.62864
▁images	-9.62879
▁present	-9.6293
▁constitutional	-9.62997
▁considering	-9.63018
▁defeat	-9.63057
ment	-9.63071
▁receive	-9.6319
▁fine	-9.63194
▁dozen	-9.6332
▁ways	-9.63329
▁review	-9.63466
▁blam	-9.63501
▁coach	-9.63507
▁blame	-9.63584
▁below	-9.63587
▁auto	-9.63591
▁critics	-9.63715
▁customers	-9.63772
▁material	-9.64054
▁violent	-9.641
▁rich	-9.64102
▁pulled	-9.64112
▁double	-9.64123
▁hurricane	-9.64268
▁christmas	-9.64268
▁assistant	-9.64269
▁controversial	-9.64272
▁throughout	-9.64287
▁sentenced	-9.6444
▁type	-9.64549
▁package	-9.64783
▁language	-9.64786
▁art	-9.65002
▁reuters	-9.65003
▁yahoo	-9.65003
▁laden	-9.65004
▁surrounding	-9.65047
▁disaster	-9.65526
▁winner	-9.65547
▁madrid	-9.65744
▁blair	-9.65744
▁famous	-9.65762
▁influence	-9.6579
▁choice	-9.65797
▁ministers	-9.6585
▁directly	-9.65912
▁goes	-9.65924
ist	-9.6607
▁secret	-9.66092
▁meetings	-9.66163
▁severe	-9.66171
▁soldier	-9.66302
▁collapse	-9.6633
▁arab	-9.66337
▁facilities	-9.6649
▁christopher	-9.6649
▁gone	-9.66569
▁declined	-9.66595
▁produced	-9.66628
4	-9.66908
▁appears	-9.66965
▁bear	-9.67022
▁barrel	-9.67053
▁developing	-9.67097
▁speak	-9.67108
asp	-9.67177
▁et	-9.67183
▁sunni	-9.67234
▁extreme	-9.67242
▁straight	-9.67242
▁kidnapped	-9.67242
▁alone	-9.67252
▁burma	-9.67275
▁true	-9.67313
▁fighters	-9.67569
lew	-9.67593
▁behavior	-9.67791
▁deadline	-9.67799
▁scandal	-9.67807
▁honor	-9.67989
▁twice	-9.67999
joins	-9.68151
▁meters	-9.68434
▁formal	-9.68477
▁unit	-9.6853
▁magazine	-9.68564
▁victim	-9.68585
▁positive	-9.68594
▁row	-9.68623
▁champions	-9.68687
▁l	-9.68702
▁winds	-9.68758
▁overall	-9.68789
▁tech	-9.68801
▁selling	-9.68839
ized	-9.69008
▁develop	-9.69041
▁challenge	-9.69099
▁waters	-9.69186
▁32	-9.69318
▁decade	-9.6936
▁significant	-9.69368
▁broadcast	-9.69425
▁lone	-9.69463
▁happy	-9.69525
▁mugabe	-9.69532
▁festival	-9.69532
▁activity	-9.69534
▁resignation	-9.69537
▁sudan	-9.69545
▁species	-9.69545
▁witnesses	-9.69552
▁pass	-9.69983
▁draw	-9.70136
▁rebel	-9.70158
▁traditional	-9.70168
▁blow	-9.70181
▁super	-9.7027
▁software	-9.70307
▁recession	-9.7031
▁assault	-9.70319
▁canada	-9.70327
▁demands	-9.70627
▁attend	-9.70679
▁song	-9.70773
▁helicopter	-9.70925
▁northeast	-9.71065
▁politics	-9.71088
▁multi	-9.71091
▁married	-9.71102
▁require	-9.71117
▁usually	-9.7115
▁bay	-9.71169
▁hu	-9.71253
▁ending	-9.71298
▁missiles	-9.71323
▁bombings	-9.71474
▁measure	-9.71566
▁prepared	-9.71577
▁talking	-9.71582
▁williams	-9.71657
▁ocean	-9.71689
▁headed	-9.71754
▁singapore	-9.71858
▁hussein	-9.71876
▁palace	-9.71876
▁pentagon	-9.71876
▁wound	-9.71951
▁mean	-9.71952
▁imposed	-9.72062
▁finish	-9.72106
▁dog	-9.72262
▁demanding	-9.72333
▁card	-9.72416
▁airline	-9.72463
▁le	-9.72465
▁birth	-9.72486
▁doctor	-9.72502
▁proposal	-9.72519
▁pound	-9.72536
▁jet	-9.72544
▁door	-9.72643
▁zimbabwe	-9.72652
▁targeted	-9.72661
▁cast	-9.7276
▁seed	-9.73
▁wild	-9.73032
tan	-9.73133
▁consumers	-9.73176
▁wa	-9.73194
▁style	-9.73305
▁determine	-9.73318
▁prosecutor	-9.7333
ness	-9.7333
▁male	-9.73346
▁transport	-9.73463
▁smoke	-9.73464
▁gordon	-9.73469
▁knew	-9.73469
▁francisco	-9.73471
▁hair	-9.735
▁gay	-9.7351
▁losses	-9.73513
▁setting	-9.73518
▁pope	-9.73554
▁foreigners	-9.73617
▁records	-9.73623
▁actions	-9.73877
▁improve	-9.74109
▁steve	-9.74124
▁democrat	-9.74124
▁hostage	-9.74149
▁secure	-9.74165
▁agencies	-9.74276
▁controlled	-9.74295
▁400	-9.74298
▁arm	-9.74366
▁particularly	-9.74372
it	-9.74389
▁screen	-9.74506
▁required	-9.74527
▁systems	-9.74547
son	-9.74657
▁author	-9.74672
▁37	-9.74726
▁sports	-9.74771
▁waiting	-9.74776
▁syria	-9.74777
▁lived	-9.74821
▁j	-9.7504
▁beyond	-9.75089
▁presence	-9.75089
▁thai	-9.7509
▁model	-9.75132
▁contain	-9.75227
▁hot	-9.75288
▁william	-9.7532
▁abuse	-9.75323
▁transfer	-9.75445
eastern	-9.75588
▁abu	-9.75693
▁increasing	-9.75745
▁exile	-9.75757
▁resort	-9.7576
▁display	-9.75767
ally	-9.75794
▁welcome	-9.75819
▁fair	-9.75885
▁condoleez	-9.75908
▁declaration	-9.75908
▁draft	-9.75908
▁relief	-9.75909
▁maliki	-9.7591
▁forecast	-9.75936
▁airlines	-9.76063
▁block	-9.76081
▁computers	-9.76131
▁du	-9.76155
▁trust	-9.76201
▁tough	-9.76248
▁150	-9.76439
▁ali	-9.7652
▁competition	-9.76583
▁spark	-9.76591
▁losing	-9.76603
▁resolve	-9.76608
▁owned	-9.76669
▁treasury	-9.76735
▁crackdown	-9.76735
▁serving	-9.76793
▁served	-9.76961
▁establish	-9.76996
▁sense	-9.77019
▁fully	-9.77076
▁forest	-9.77139
▁pictures	-9.77183
▁crimes	-9.77278
▁2006.	-9.77332
▁developed	-9.77352
▁scale	-9.7737
▁christian	-9.77408
▁extra	-9.77437
▁adviser	-9.77453
▁deadly	-9.77466
▁singer	-9.77495
▁ball	-9.77506
▁egypt	-9.77556
▁soviet	-9.77568
▁various	-9.77568
▁dialogue	-9.77568
▁supplies	-9.77569
▁actress	-9.77574
▁withdrawal	-9.77621
▁hall	-9.77638
▁stem	-9.77644
▁cells	-9.77707
▁suffering	-9.77812
▁traveling	-9.7786
▁politicians	-9.7798
▁zoo	-9.78015
▁walk	-9.78019
▁tony	-9.78041
▁stars	-9.78126
▁product	-9.78293
▁neighborhood	-9.78299
▁euro	-9.7831
▁approval	-9.78409
▁demonstrators	-9.78409
▁kosovo	-9.7841
▁sharif	-9.7841
▁1999	-9.78411
▁happen	-9.7846
,000	-9.78594
▁god	-9.7867
is	-9.78671
▁republicans	-9.78698
▁lift	-9.78712
▁isn	-9.78827
▁prove	-9.79088
▁floor	-9.79141
▁apartment	-9.79154
▁analyst	-9.79163
▁tibetan	-9.79167
▁camera	-9.79195
▁charles	-9.79249
▁quality	-9.79256
▁religious	-9.79256
▁kyi	-9.79267
▁bomber	-9.79331
▁flow	-9.79412
▁sometimes	-9.79439
▁determined	-9.79467
▁places	-9.79482
▁parliamentar	-9.79542
▁removed	-9.79545
▁finding	-9.7957
▁net	-9.79647
▁ho	-9.79668
as	-9.79745
▁withdraw	-9.79905
▁struggle	-9.79987
▁sub	-9.80069
▁torch	-9.80112
vez	-9.80121
▁howard	-9.80128
▁fled	-9.80213
▁widely	-9.80308
▁count	-9.80359
▁visited	-9.80396
▁follow	-9.80561
▁whole	-9.80593
▁mine	-9.80666
▁save	-9.80715
▁freedom	-9.8088
▁image	-9.80892
▁historic	-9.80937
▁academy	-9.80973
▁beckham	-9.80973
▁facing	-9.80973
▁kabul	-9.80973
▁property	-9.80975
▁probe	-9.81018
▁changed	-9.8104
▁taxes	-9.81044
▁standing	-9.81062
▁defend	-9.81143
▁caus	-9.81168
▁questioned	-9.81187
▁delay	-9.81198
▁demanded	-9.81352
▁picture	-9.81373
ba	-9.81417
▁users	-9.81529
▁produce	-9.81569
▁route	-9.81603
▁original	-9.81681
▁partner	-9.81786
▁journal	-9.81831
▁encourage	-9.81842
▁planet	-9.819
▁normal	-9.82068
▁houses	-9.82138
▁eye	-9.82222
▁becoming	-9.82335
▁tens	-9.8238
▁lawyers	-9.82623
ful	-9.82673
▁continues	-9.82699
▁fraud	-9.82719
▁diana	-9.82721
▁1980	-9.82723
▁located	-9.82743
▁weight	-9.82758
▁rape	-9.82836
▁provid	-9.82854
▁businesses	-9.82856
▁wing	-9.82905
▁las	-9.83317
▁picked	-9.83451
▁division	-9.8353
▁kurdish	-9.83605
▁michigan	-9.83605
▁struggling	-9.83605
▁saddam	-9.83605
▁tehran	-9.83605
▁1997	-9.83607
▁hear	-9.83627
▁accepted	-9.83764
▁increasingly	-9.83781
▁collapsed	-9.83795
▁items	-9.83796
▁wave	-9.84037
v	-9.84093
▁hop	-9.84123
▁approach	-9.84163
▁demonstrations	-9.8417
▁estimates	-9.84232
▁finally	-9.84268
▁spot	-9.84313
▁pose	-9.84329
▁arabia	-9.84342
▁replace	-9.84417
▁culture	-9.84429
▁boat	-9.84474
▁highway	-9.84485
▁thaksin	-9.84497
▁virtual	-9.84497
▁housing	-9.84497
▁kennedy	-9.84498
▁1990	-9.84503
▁transportation	-9.84505
▁cuts	-9.8452
▁stake	-9.84547
▁alive	-9.84602
▁sleep	-9.84656
▁pounds	-9.84665
▁organizations	-9.84694
▁raid	-9.84787
▁gun	-9.848
▁38	-9.84812
▁stone	-9.84834
▁tensions	-9.84932
▁pledg	-9.84987
▁explosives	-9.85016
▁ra	-9.85044
▁discussions	-9.85045
▁highly	-9.85154
▁value	-9.8519
▁alert	-9.85328
▁channel	-9.85347
▁device	-9.85357
▁uranium	-9.85398
▁heavily	-9.85406
▁fed	-9.85475
▁captured	-9.85521
▁lose	-9.85531
▁initially	-9.85603
ish	-9.85709
▁teams	-9.85751
suu	-9.85766
▁indicated	-9.85809
▁rank	-9.85895
▁pain	-9.86174
▁kidnapping	-9.86257
▁southeast	-9.86274
▁appearance	-9.86274
▁solution	-9.86276
▁page	-9.86282
▁alcohol	-9.86286
▁virus	-9.86287
▁penalty	-9.86307
▁assistance	-9.86308
▁tourism	-9.86317
▁stood	-9.86318
▁minor	-9.86323
▁banned	-9.86415
▁islam	-9.86421
corporate	-9.86457
▁sky	-9.86553
▁broken	-9.86606
▁mile	-9.86753
▁42	-9.86811
▁mind	-9.86895
▁attempted	-9.86977
▁refugees	-9.87012
▁reserve	-9.87031
▁joong	-9.87098
▁cuba	-9.871
▁attempts	-9.87135
▁telling	-9.87137
na	-9.87178
▁counter	-9.87179
▁fellow	-9.87196
▁asking	-9.87212
▁possibly	-9.87225
▁junta	-9.87226
▁speculation	-9.87232
▁foundation	-9.87243
▁exploded	-9.87244
ribal	-9.87246
▁sadr	-9.87296
▁scored	-9.873
▁believes	-9.8734
▁martin	-9.87385
▁decide	-9.87688
▁flying	-9.87786
▁keeping	-9.87878
▁kenya	-9.87998
▁faced	-9.88001
▁rush	-9.88124
▁spring	-9.88126
▁arizona	-9.88151
▁currency	-9.88151
▁islamabad	-9.88151
▁nicola	-9.88151
▁stadium	-9.88151
▁vegas	-9.88154
▁clashes	-9.88165
▁75	-9.8817
▁injury	-9.88201
▁governing	-9.88218
▁photos	-9.88259
▁la	-9.88273
▁spend	-9.88467
▁respect	-9.88469
▁jose	-9.8851
▁threatening	-9.88544
▁warming	-9.88625
▁seems	-9.88663
▁cruise	-9.88889
▁remote	-9.89085
▁journalist	-9.89096
▁personnel	-9.89098
▁band	-9.89104
ter	-9.89107
▁greater	-9.89314
▁wind	-9.89394
▁completed	-9.89449
▁troop	-9.89452
▁leg	-9.89554
▁convention	-9.89619
▁heads	-9.89779
▁apparent	-9.89866
▁fast	-9.8995
▁ensure	-9.89964
▁budget	-9.89996
▁ships	-9.89999
▁jerusalem	-9.90029
▁massachusetts	-9.90029
▁ceo	-9.90043
▁dna	-9.90053
▁holds	-9.90166
ty	-9.90264
▁opposed	-9.90267
▁touch	-9.90381
9	-9.90521
▁finished	-9.90713
▁phones	-9.9072
ine	-9.90803
▁51	-9.90868
▁income	-9.90973
▁ethnic	-9.90975
▁connection	-9.90975
cient	-9.90978
▁crucial	-9.90981
▁trillion	-9.90981
▁equipment	-9.90981
▁nationwide	-9.90983
▁handed	-9.90991
▁negotiator	-9.90997
▁spears	-9.91041
▁commissioner	-9.91203
▁delayed	-9.91604
▁representatives	-9.91618
▁ma	-9.91728
▁tons	-9.91769
▁reaction	-9.91942
▁angry	-9.91945
▁wake	-9.91947
▁iowa	-9.91956
▁jung	-9.91971
ca	-9.92003
▁driver	-9.92005
▁gov	-9.92012
▁hoped	-9.92019
▁ally	-9.92146
▁pledge	-9.92229
▁projects	-9.92271
▁answer	-9.92356
▁table	-9.925
▁goals	-9.925
▁36	-9.92525
▁visiting	-9.92587
▁inc	-9.92846
▁bailout	-9.92915
▁fatah	-9.92915
▁involvement	-9.92916
▁footage	-9.92921
▁version	-9.92925
▁downtown	-9.92933
▁eventually	-9.92949
▁evacuated	-9.92997
▁tonight	-9.93018
▁heat	-9.93238
▁sound	-9.93398
▁executives	-9.93569
▁entire	-9.93729
▁da	-9.93796
▁55	-9.93843
▁mahmoud	-9.93894
▁samsung	-9.93894
▁google	-9.93896
▁carbon	-9.93901
▁estate	-9.93902
▁jury	-9.93906
▁delegation	-9.93912
▁discovery	-9.93926
▁relative	-9.93936
▁lawmaker	-9.93945
▁buying	-9.93948
▁cia	-9.94008
▁dismissed	-9.9402
▁intended	-9.94037
▁books	-9.94041
▁tape	-9.94056
▁closer	-9.94061
▁dogs	-9.94098
▁supporting	-9.94099
▁smaller	-9.94139
▁crashed	-9.94163
▁modern	-9.94181
▁box	-9.94208
▁films	-9.94246
▁treated	-9.9432
▁promote	-9.94596
▁announce	-9.94718
▁surprise	-9.94742
▁surge	-9.94747
▁facility	-9.94884
▁invasion	-9.94884
▁karzai	-9.94884
▁magnitude	-9.94884
▁studies	-9.94885
▁dutch	-9.94885
▁cbs	-9.94887
▁nevada	-9.94888
▁pair	-9.94892
▁orbit	-9.94907
▁santa	-9.94949
▁mike	-9.9496
▁piece	-9.94964
▁53	-9.95268
▁seriously	-9.95329
▁han	-9.95429
▁windows	-9.9546
atomic	-9.95496
▁active	-9.95735
▁fashion	-9.95884
▁detention	-9.95884
▁perhaps	-9.95884
▁favor	-9.95905
▁tight	-9.95905
▁maybe	-9.95908
▁nobel	-9.95911
▁simpson	-9.95915
▁audience	-9.95926
▁tournament	-9.95928
▁concert	-9.95934
▁oscar	-9.95936
▁express	-9.96022
ie	-9.96036
▁canceled	-9.96063
▁brief	-9.96107
▁doubt	-9.96118
▁transition	-9.96118
▁condemned	-9.96151
▁cents	-9.96196
▁boycott	-9.96317
▁fish	-9.96321
▁reasons	-9.96382
▁threats	-9.96397
at	-9.96458
▁provinc	-9.96779
▁goods	-9.96795
ought	-9.96799
▁abroad	-9.96894
▁humanitarian	-9.96894
▁memorial	-9.96894
▁offensive	-9.96894
▁assassination	-9.96895
▁relay	-9.96919
▁content	-9.9694
▁meant	-9.96968
▁speaker	-9.9702
led	-9.971
ne	-9.97114
▁th	-9.97156
▁completely	-9.9718
▁indicate	-9.97501
▁lay	-9.97505
▁offices	-9.97595
▁walking	-9.97644
▁33	-9.97711
▁fly	-9.97731
▁sharp	-9.97889
▁identify	-9.97915
▁insurance	-9.97915
▁sheriff	-9.97915
▁status	-9.97915
▁freed	-9.97915
▁milan	-9.97919
▁catch	-9.97956
▁specific	-9.97995
▁treaty	-9.98001
▁2,000	-9.98014
▁ring	-9.98026
▁yes	-9.98096
▁travelers	-9.98101
▁lake	-9.9813
▁looks	-9.9829
▁watched	-9.9833
▁diplomats	-9.98538
▁48	-9.98747
▁alaska	-9.98749
▁relatives	-9.98903
▁movies	-9.98916
▁advantage	-9.98945
▁presidency	-9.98945
▁strategy	-9.98945
▁dubai	-9.98946
▁babies	-9.98946
▁putting	-9.98969
▁gang	-9.99177
▁haven	-9.9919
▁farmers	-9.99191
▁colombian	-9.99215
time	-9.99376
▁upon	-9.9944
▁extended	-9.99466
▁reporter	-9.99605
▁stations	-9.99606
▁killings	-9.99619
▁walked	-9.99642
▁forum	-9.997
▁exports	-9.9982
▁regular	-9.99829
ling	-9.99841
0	-9.99873
▁nor	-9.99951
▁plot	-9.99967
▁daniel	-9.99981
▁manchester	-9.99987
▁berlin	-9.99987
▁casualties	-9.99987
▁gunmen	-9.99991
▁nbc	-10.0001
▁danger	-10.0007
▁choose	-10.0008
▁champion	-10.0009
▁organizers	-10.0013
▁44	-10.0013
▁seeing	-10.0016
▁100,000	-10.0016
▁roads	-10.0018
▁heading	-10.0023
▁miss	-10.0027
▁aboard	-10.0038
▁limited	-10.0048
▁aide	-10.0059
▁shift	-10.0063
▁ranking	-10.0079
▁represent	-10.009
▁coup	-10.0096
▁jackson	-10.0104
▁kingdom	-10.0104
▁cheney	-10.0104
▁lady	-10.0104
▁cited	-10.0105
▁elector	-10.0108
▁pilot	-10.0116
▁appointed	-10.0117
way	-10.0122
▁watching	-10.0162
▁ang	-10.0169
▁weekly	-10.0169
▁attract	-10.017
▁strongly	-10.0174
▁founder	-10.0175
▁clearly	-10.018
rew	-10.0182
▁covered	-10.019
▁landing	-10.0191
▁venezuela	-10.0192
▁resign	-10.0197
rs	-10.0197
▁dark	-10.0207
▁auction	-10.021
▁anonymity	-10.021
▁smoking	-10.021
▁sydney	-10.021
▁unemployment	-10.021
▁diego	-10.0211
▁exit	-10.0211
▁princess	-10.0213
▁recovery	-10.0216
▁gets	-10.0218
▁3,000	-10.0222
▁commitment	-10.0222
▁standard	-10.0223
▁weapon	-10.0223
▁10,000	-10.0229
▁sister	-10.0233
▁officially	-10.0235
▁survivors	-10.024
▁maker	-10.026
▁toys	-10.0264
▁iraqis	-10.0277
▁worse	-10.028
▁guards	-10.0293
▁standards	-10.0305
ta	-10.031
▁mo	-10.0315
▁trouble	-10.0315
▁mohammed	-10.0318
▁simple	-10.0318
▁entertainment	-10.0318
▁nadal	-10.0319
▁bought	-10.0319
▁hilton	-10.032
▁johnson	-10.0322
▁example	-10.0329
▁visa	-10.033
▁electronic	-10.0331
▁agent	-10.0332
▁prepar	-10.0338
ional	-10.0348
▁revealed	-10.0353
raising	-10.0368
cal	-10.0377
j	-10.0383
▁benefits	-10.0397
▁dis	-10.0402
▁52	-10.0412
▁muslims	-10.0415
▁easy	-10.0427
▁tomorrow	-10.0427
▁widespread	-10.0427
▁buried	-10.0427
▁destruction	-10.0427
▁else	-10.0427
ier	-10.0435
▁color	-10.0441
ur	-10.0457
▁clean	-10.0477
▁dong	-10.0479
▁halt	-10.049
▁contest	-10.0494
▁rome	-10.0506
▁throw	-10.0516
▁internal	-10.0519
nd	-10.0523
▁respond	-10.0533
▁agree	-10.0534
▁negative	-10.0536
▁potter	-10.0537
▁delta	-10.0537
▁cutting	-10.0538
et	-10.0539
▁monks	-10.0543
▁2009	-10.0544
▁task	-10.055
▁catholic	-10.0551
▁favorite	-10.0551
▁passenger	-10.0553
▁insisted	-10.0553
▁newspapers	-10.0554
▁eyes	-10.0561
▁governments	-10.0567
▁43	-10.0575
ma	-10.0576
▁witness	-10.0588
▁ten	-10.0591
ant	-10.0596
▁mount	-10.0598
▁engag	-10.0609
▁suit	-10.062
▁link	-10.0624
▁quick	-10.0626
▁physical	-10.0631
▁awards	-10.0633
▁tested	-10.064
▁vietnam	-10.0647
▁simply	-10.0648
▁soccer	-10.0648
▁debut	-10.0648
▁agenda	-10.0648
▁canadian	-10.0648
▁renew	-10.0648
▁electricity	-10.0648
▁mention	-10.0648
▁continuing	-10.0654
▁creat	-10.0658
▁purchase	-10.0663
▁medicine	-10.0664
▁resources	-10.0664
▁mr	-10.0665
▁acknowledged	-10.0671
▁wait	-10.0682
▁patrol	-10.0695
▁stress	-10.07
▁extend	-10.0703
▁tom	-10.0706
rd	-10.0709
▁export	-10.0712
▁tear	-10.0719
▁die	-10.0721
▁perfect	-10.0744
▁malaysia	-10.0744
▁basic	-10.076
▁jersey	-10.076
▁thomas	-10.076
▁ukraine	-10.076
▁begun	-10.076
▁unclear	-10.076
▁apology	-10.0761
▁organized	-10.0763
▁percentage	-10.0768
▁ba	-10.0774
▁trapped	-10.0777
▁koreas	-10.0778
▁generation	-10.0781
▁drinking	-10.0792
▁none	-10.0793
▁triggered	-10.0799
▁km	-10.0802
▁rooms	-10.0809
▁loans	-10.0821
il	-10.0824
nless	-10.0833
▁landed	-10.0834
▁communications	-10.0841
▁investigate	-10.0857
▁bo	-10.0858
▁era	-10.0859
▁judges	-10.0861
▁tank	-10.0867
▁chelsea	-10.0874
▁liverpool	-10.0874
▁valley	-10.0874
▁plus	-10.0874
▁overnight	-10.0874
▁cultural	-10.0875
▁decline	-10.0876
▁restrictions	-10.0885
▁via	-10.0891
▁dream	-10.0893
▁certainly	-10.09
di	-10.0919
▁returning	-10.092
▁learned	-10.0928
▁jo	-10.0931
li	-10.0936
▁attended	-10.0956
▁trail	-10.0957
▁birds	-10.0961
ung	-10.0973
▁conspiracy	-10.0989
▁enemy	-10.0989
▁yongbyon	-10.0989
▁nature	-10.0989
▁basis	-10.0989
▁atlanta	-10.099
▁lowest	-10.0996
▁en	-10.0998
ad	-10.0999
▁indiana	-10.1001
▁document	-10.101
▁tourist	-10.1012
▁1998	-10.1014
▁debt	-10.1014
▁discussed	-10.1016
▁assets	-10.1021
▁burned	-10.1023
▁46	-10.1029
▁bureau	-10.1031
▁sit	-10.1041
▁grow	-10.1041
▁differences	-10.1064
▁targets	-10.1066
▁humans	-10.1067
▁exist	-10.1068
▁offering	-10.1074
▁calm	-10.1082
▁marked	-10.1083
ural	-10.1087
▁successful	-10.109
▁surface	-10.109
▁unusual	-10.1105
▁legislation	-10.1105
▁closing	-10.1105
▁standoff	-10.1105
▁rescuers	-10.1106
▁lawsuit	-10.1125
▁deployed	-10.1125
▁sa	-10.1126
▁subject	-10.1127
▁regulations	-10.1129
▁fewer	-10.1139
ina	-10.1153
▁pushing	-10.116
ak	-10.1202
▁gains	-10.1204
▁na	-10.1207
▁learn	-10.1222
▁bangkok	-10.1222
▁maryland	-10.1223
▁kang	-10.1224
▁digital	-10.1226
▁khan	-10.1228
▁thank	-10.1228
▁700	-10.1229
▁concluded	-10.1236
▁acting	-10.1241
▁unveiled	-10.1243
▁vessel	-10.1246
▁ticket	-10.1246
▁provinces	-10.1246
▁driven	-10.1247
▁brand	-10.1249
ha	-10.1255
ious	-10.1255
▁ill	-10.1263
▁34	-10.1267
▁filled	-10.1273
ey	-10.128
▁planes	-10.1281
▁interests	-10.1282
▁reduced	-10.1285
▁breaking	-10.1286
▁liberal	-10.1296
▁lifted	-10.1302
▁strip	-10.1303
▁leads	-10.1307
▁cat	-10.1311
▁powers	-10.1317
▁permanent	-10.1325
▁knows	-10.1332
ni	-10.1339
▁herself	-10.1341
▁preliminar	-10.1341
▁bilateral	-10.1342
▁producing	-10.1342
▁federer	-10.1342
▁proud	-10.1342
▁shrine	-10.1343
▁abdullah	-10.1343
▁frozen	-10.1344
▁aides	-10.1346
▁homeland	-10.1346
▁slightly	-10.1347
▁advance	-10.1351
▁hole	-10.1351
▁repeated	-10.1352
▁album	-10.1365
▁suburb	-10.1365
▁exercise	-10.1365
▁location	-10.1367
da	-10.1374
▁questioning	-10.1386
▁teachers	-10.1425
▁healthy	-10.1432
▁limit	-10.1434
▁warm	-10.1443
▁ease	-10.1446
▁remove	-10.1451
▁chances	-10.1452
▁narrow	-10.146
▁controversy	-10.1462
▁tsunami	-10.1462
▁yellow	-10.1462
▁fayed	-10.1462
▁edition	-10.1462
▁hwang	-10.1463
▁inflation	-10.1463
▁pace	-10.1464
▁rivals	-10.1465
▁invited	-10.1466
▁boats	-10.1469
▁edge	-10.147
▁practice	-10.1472
▁ability	-10.1472
▁follows	-10.1473
▁reading	-10.1476
ory	-10.1478
▁fate	-10.1486
▁motor	-10.1489
▁entering	-10.1489
▁guy	-10.1493
▁inspectors	-10.1494
▁edwards	-10.1495
▁opponents	-10.1506
▁rail	-10.1511
▁climb	-10.1514
▁reaching	-10.1514
▁path	-10.1522
▁effects	-10.1524
▁spy	-10.1525
▁plants	-10.1535
▁strikes	-10.155
▁nepal	-10.155
▁allows	-10.1552
▁runs	-10.1558
ah	-10.1562
▁darfur	-10.1584
▁hezbollah	-10.1584
▁miami	-10.1584
▁radical	-10.1584
▁unification	-10.1584
▁palin	-10.1585
▁solar	-10.1586
▁chrysler	-10.1587
▁focused	-10.1611
▁guns	-10.1613
▁tree	-10.1614
▁falling	-10.1621
▁suggests	-10.1629
▁min	-10.1631
azir	-10.1648
▁islands	-10.1651
▁stores	-10.1651
▁recall	-10.1679
▁presented	-10.168
▁seconds	-10.17
▁strength	-10.1706
▁split	-10.1707
▁southwest	-10.1707
▁journey	-10.1707
▁campus	-10.1708
▁bottom	-10.1709
▁hospitalized	-10.1712
▁centers	-10.1712
▁firefighters	-10.1717
▁bird	-10.1718
▁venezuelan	-10.1729
▁profile	-10.1733
▁arrival	-10.1736
▁refugee	-10.1741
▁materials	-10.1744
▁pop	-10.1805
▁sean	-10.1819
▁lama	-10.1831
▁convoy	-10.1832
▁pretty	-10.1832
▁yonhap	-10.1832
▁colorado	-10.1832
▁gulf	-10.1833
▁tiny	-10.1834
▁retired	-10.1835
▁drew	-10.1836
▁fallen	-10.1837
▁2003.	-10.1843
▁emissions	-10.1844
▁celebrate	-10.1845
▁promise	-10.1847
▁failing	-10.1851
▁cleric	-10.1861
▁reporting	-10.1861
▁outbreak	-10.1865
▁indonesian	-10.187
▁boys	-10.1875
▁rockets	-10.1875
▁formed	-10.1879
▁wen	-10.1881
▁flooding	-10.1883
▁hospitals	-10.1896
▁col	-10.1897
▁options	-10.1913
▁41	-10.1934
▁supported	-10.1937
▁youtube	-10.1959
▁captain	-10.1959
▁shopping	-10.1959
▁deployment	-10.1959
dalai	-10.1959
▁macau	-10.196
▁tropic	-10.196
▁gunman	-10.1961
▁inches	-10.1963
▁mph	-10.1963
▁yang	-10.1969
▁lying	-10.1969
▁larger	-10.1974
▁findings	-10.1976
▁repeatedly	-10.1976
▁delivery	-10.1987
▁predicted	-10.1988
▁globe	-10.1991
▁sector	-10.1992
▁restaurant	-10.1992
▁expert	-10.1992
▁zealand	-10.2006
▁wins	-10.2009
▁sony	-10.2012
▁truth	-10.2021
▁ko	-10.2023
▁neighbors	-10.2028
▁resigned	-10.2029
▁65	-10.2036
▁47	-10.2061
▁trains	-10.2066
▁older	-10.2069
▁staying	-10.2069
▁osam	-10.2074
▁warnings	-10.2082
▁northwest	-10.2082
▁gasoline	-10.2087
▁hyundai	-10.2087
▁innocent	-10.2087
▁neither	-10.2087
▁inspire	-10.2087
▁immigration	-10.2087
▁girlfriend	-10.2087
▁requested	-10.2093
▁weak	-10.2103
▁testing	-10.2104
▁professional	-10.2104
▁featur	-10.211
▁drawn	-10.2112
▁corner	-10.212
▁gap	-10.2121
▁label	-10.2121
▁benefit	-10.2122
▁writing	-10.2122
▁temperatures	-10.213
▁800	-10.2132
▁tim	-10.2133
▁ones	-10.2142
ul	-10.2143
▁mars	-10.2159
▁64	-10.2165
▁treat	-10.2182
▁250	-10.2193
▁banking	-10.22
▁escape	-10.2201
▁couples	-10.2215
▁iaea	-10.2217
▁vatican	-10.2217
▁vladimir	-10.2217
▁boston	-10.2217
▁drove	-10.2217
▁scott	-10.2217
▁stability	-10.2217
▁atmosphere	-10.2219
▁reality	-10.222
▁erupted	-10.2226
▁escaped	-10.2233
▁abc	-10.2236
lo	-10.2236
▁add	-10.2237
itting	-10.224
▁aids	-10.2249
▁compound	-10.2251
▁accus	-10.2253
▁degree	-10.2253
▁patient	-10.2255
▁changing	-10.2256
▁destroy	-10.2272
▁remember	-10.2292
▁offers	-10.2302
▁individuals	-10.2305
▁ideas	-10.2316
▁farm	-10.2332
▁electric	-10.2332
▁fires	-10.2333
▁grave	-10.2339
▁length	-10.2347
▁argentina	-10.2349
▁enforcement	-10.2349
▁sarah	-10.2349
▁grew	-10.235
▁islamist	-10.2351
▁jailed	-10.2366
▁fill	-10.238
▁earned	-10.238
▁survived	-10.2382
▁younger	-10.2383
▁recovered	-10.2383
▁reflect	-10.2385
▁astronaut	-10.2387
▁communication	-10.2387
▁friendly	-10.239
▁producer	-10.239
▁import	-10.2401
▁funding	-10.2404
ng	-10.241
▁anger	-10.2449
▁roll	-10.2451
▁thanks	-10.246
▁frank	-10.2465
ism	-10.2469
▁wealth	-10.2471
ted	-10.2479
▁drivers	-10.248
men	-10.2482
▁madeleine	-10.2482
▁jesus	-10.2482
▁scotland	-10.2482
▁bigger	-10.2483
▁vast	-10.2483
▁atlantic	-10.2484
▁fox	-10.2486
ehud	-10.2487
▁targeting	-10.2494
▁observers	-10.2495
▁shock	-10.2497
▁tied	-10.2504
▁estimate	-10.2507
▁holy	-10.2507
▁knee	-10.2519
▁wedding	-10.2522
▁shar	-10.2533
▁flames	-10.2536
▁signal	-10.254
▁pursu	-10.2545
▁responded	-10.2551
▁accord	-10.2555
▁adults	-10.2564
▁astronauts	-10.2578
▁restaurants	-10.2582
sa	-10.261
▁closely	-10.2612
▁1970	-10.2618
▁expectations	-10.2636
▁pirates	-10.2642
▁managed	-10.2651
▁counterpart	-10.2658
▁reduction	-10.2658
▁teacher	-10.266
▁runner	-10.2661
▁messages	-10.2666
▁gore	-10.2683
▁publicly	-10.2683
ham	-10.2687
▁sixth	-10.2688
▁2.5	-10.2695
▁briefing	-10.2701
▁x	-10.2706
land	-10.2707
▁mate	-10.2713
▁maxim	-10.2716
▁ford	-10.2724
▁broadcasting	-10.2727
▁particular	-10.2738
▁disarmament	-10.2754
▁pregnant	-10.2754
▁plastic	-10.2754
▁delhi	-10.2754
▁beef	-10.2765
▁matches	-10.2765
▁introduced	-10.277
▁license	-10.278
▁helicopters	-10.2783
bbed	-10.2784
▁affiliate	-10.2795
▁hundred	-10.2798
▁philippines	-10.281
▁lights	-10.2817
▁papers	-10.283
▁reforms	-10.2832
▁artist	-10.2832
▁fit	-10.2833
▁statements	-10.2835
▁suspend	-10.2837
▁promot	-10.2842
▁established	-10.2848
▁firms	-10.2851
▁orders	-10.2858
▁serbia	-10.2878
age	-10.2891
▁alexander	-10.2893
▁barcelona	-10.2893
▁petraeus	-10.2893
▁jordan	-10.2893
▁boeing	-10.2893
▁memory	-10.2893
▁birthday	-10.2893
▁drama	-10.2893
▁duty	-10.2894
▁neck	-10.2894
▁whatever	-10.2899
▁surrounded	-10.2901
▁palm	-10.2903
▁divided	-10.2908
▁unity	-10.2922
▁firing	-10.2935
▁describe	-10.2936
▁suspicion	-10.2938
▁individual	-10.2939
▁sort	-10.2939
▁ride	-10.2943
▁bond	-10.295
▁gathering	-10.2971
▁accounts	-10.2973
▁skin	-10.2976
▁strain	-10.2977
▁ch	-10.2982
▁corps	-10.2983
▁blocked	-10.2989
pped	-10.2991
▁shared	-10.3003
▁contests	-10.3014
▁54	-10.302
▁regions	-10.3023
no	-10.3023
se	-10.3026
▁bound	-10.3029
▁buddhist	-10.3034
▁elizabeth	-10.3034
▁shanghai	-10.3034
▁kevin	-10.3034
▁federation	-10.3034
▁routine	-10.3034
▁stories	-10.3034
▁punishment	-10.3034
▁brazilian	-10.3036
▁direction	-10.3036
▁feeling	-10.3038
▁beaten	-10.3039
▁uh	-10.304
▁views	-10.3041
▁bob	-10.3046
▁counts	-10.3048
▁gop	-10.305
▁paying	-10.305
▁flag	-10.3052
▁positions	-10.3052
▁troubled	-10.3055
▁stronger	-10.3065
▁2005.	-10.3078
▁adopted	-10.308
▁representative	-10.3082
▁illegally	-10.3089
▁pa	-10.3096
▁wear	-10.3099
▁note	-10.31
ts	-10.3103
▁moderate	-10.313
ka	-10.3156
▁participate	-10.3161
▁farc	-10.3166
▁lt	-10.3168
ting	-10.3175
▁civi	-10.3175
▁abdul	-10.3176
▁ahmadinejad	-10.3177
▁arsenal	-10.3177
▁ghazni	-10.3177
▁hampshire	-10.3177
▁hawaii	-10.3177
▁rallies	-10.3177
▁wildlife	-10.3177
▁marks	-10.3179
▁veto	-10.3186
▁infected	-10.3193
▁character	-10.3194
▁30,000	-10.3197
▁challenges	-10.321
▁registered	-10.3214
zo	-10.3217
▁sam	-10.3217
▁sponsor	-10.3225
▁championship	-10.3226
▁difference	-10.3227
▁villages	-10.3229
▁recorded	-10.3249
▁lab	-10.3251
▁beating	-10.3258
▁abandon	-10.3264
▁metal	-10.3284
▁trees	-10.3288
▁2008.	-10.3288
upper	-10.3297
▁stepp	-10.3298
▁noted	-10.3315
▁survive	-10.332
▁jakarta	-10.3322
▁metropoli	-10.3322
▁reagan	-10.3322
▁watchdog	-10.3322
▁primaries	-10.3322
▁strict	-10.3322
▁morgan	-10.3322
▁basra	-10.3322
▁distance	-10.3322
▁enrichment	-10.3322
▁kerry	-10.3323
▁sensitive	-10.3324
▁successor	-10.3329
ti	-10.3336
▁fun	-10.3343
▁sharply	-10.3345
▁jan	-10.3346
▁expand	-10.3349
▁striker	-10.3349
ko	-10.335
▁hail	-10.3352
▁bloody	-10.3354
▁threaten	-10.3357
▁colleagues	-10.3363
ley	-10.3365
▁burning	-10.337
▁monitoring	-10.3373
▁economist	-10.3373
▁scientist	-10.3374
▁violation	-10.3374
▁highlight	-10.3374
▁engineers	-10.3386
▁cleared	-10.339
▁di	-10.3398
ang	-10.3399
▁commit	-10.341
▁enjoy	-10.341
▁succeed	-10.3411
wept	-10.343
▁crowds	-10.3436
▁somali	-10.3447
io	-10.3449
▁effective	-10.3454
▁woo	-10.3459
▁knock	-10.3468
▁text	-10.3468
▁squad	-10.3468
▁cease	-10.3469
▁capacity	-10.3469
▁disappointed	-10.3469
▁manhattan	-10.3469
▁scientific	-10.3469
▁televised	-10.3469
▁midnight	-10.3469
▁lohan	-10.3469
▁stance	-10.347
▁patrick	-10.3471
▁expensive	-10.3471
▁comedy	-10.3471
▁fortune	-10.3474
▁unlikely	-10.3479
▁abducted	-10.348
▁stalled	-10.3482
▁20,000	-10.349
▁hunt	-10.3492
▁deeply	-10.3508
ong	-10.3512
▁equal	-10.3515
▁option	-10.3518
▁string	-10.3519
▁alternative	-10.3521
▁warrant	-10.3522
▁demonstration	-10.3523
▁eating	-10.3526
▁sets	-10.3537
▁stressed	-10.3543
▁owners	-10.3545
▁floods	-10.356
▁acts	-10.3584
▁worker	-10.3596
▁photo	-10.36
▁understanding	-10.3603
▁knowledge	-10.3616
▁boss	-10.3616
▁dispatch	-10.3618
▁columbia	-10.3618
▁cyclone	-10.3618
▁manufacturing	-10.3618
▁numerous	-10.3618
▁portugal	-10.3618
▁switch	-10.3618
▁chile	-10.3619
▁caucuses	-10.3619
▁everybody	-10.3619
▁egyptian	-10.362
▁capable	-10.3622
▁emerged	-10.3624
▁chosen	-10.3629
▁bell	-10.3638
▁fame	-10.3639
▁begins	-10.3639
▁nominated	-10.364
▁apologized	-10.3642
▁grown	-10.3643
▁bombers	-10.3644
▁pet	-10.3646
▁arrive	-10.3655
ov	-10.3658
▁packed	-10.3665
▁initiative	-10.3671
▁mortgage	-10.3672
▁profit	-10.3672
▁clinic	-10.3673
▁loved	-10.3673
▁features	-10.3706
▁lock	-10.3711
▁design	-10.3718
im	-10.3719
▁letters	-10.3735
▁meaning	-10.3736
de	-10.3737
▁causes	-10.3753
▁glass	-10.3766
▁comfort	-10.3767
▁coffee	-10.3769
▁funeral	-10.3769
▁intense	-10.3769
▁jewish	-10.3769
▁pkk	-10.3769
▁surveillance	-10.3769
▁worried	-10.3769
▁dinner	-10.3769
▁congo	-10.377
▁native	-10.377
▁harsh	-10.377
ac	-10.377
▁bitter	-10.3771
▁fta	-10.3772
▁ronaldo	-10.3772
id	-10.3772
▁deny	-10.3773
▁600	-10.3773
▁detonated	-10.3773
▁circumstances	-10.3776
▁faster	-10.3778
▁factory	-10.3781
▁obtained	-10.3804
▁oh	-10.381
▁restore	-10.3811
▁engineering	-10.3812
ck	-10.3818
▁pump	-10.3825
▁militia	-10.3827
▁machine	-10.3828
▁hiv	-10.3834
▁scores	-10.3844
▁49	-10.3855
▁cool	-10.386
▁invest	-10.3863
▁boom	-10.3864
▁flood	-10.3864
▁implement	-10.3865
▁stands	-10.3872
▁imports	-10.3878
▁airports	-10.3883
▁directed	-10.3891
che	-10.3914
▁120	-10.392
▁depend	-10.3923
▁commerce	-10.3923
▁kibaki	-10.3923
▁mexican	-10.3923
▁mississippi	-10.3923
▁multiple	-10.3923
▁henry	-10.3923
▁whaling	-10.3923
▁supposed	-10.3924
▁entry	-10.3924
▁crown	-10.3925
▁southwestern	-10.3927
▁ages	-10.3928
▁dominated	-10.3934
▁unions	-10.3939
▁spott	-10.3945
▁prepare	-10.3952
▁guests	-10.3972
ju	-10.3975
▁camps	-10.3977
▁sport	-10.398
▁rescued	-10.3982
▁jim	-10.3982
▁waste	-10.3982
▁diplomat	-10.3983
▁mccann	-10.3983
▁chemical	-10.3983
▁adult	-10.3984
▁theater	-10.3985
▁moves	-10.3985
▁dealing	-10.3988
by	-10.3988
▁discussion	-10.3988
bo	-10.3996
ny	-10.4019
▁teen	-10.4019
▁desert	-10.4022
▁videos	-10.4025
▁bu	-10.4027
▁39	-10.4027
▁62	-10.404
▁margin	-10.4046
▁dan	-10.4062
▁urban	-10.4079
▁blagojevich	-10.408
▁breakthrough	-10.408
▁debris	-10.408
▁identity	-10.408
▁false	-10.408
▁1995	-10.408
▁charity	-10.4081
▁castro	-10.4081
▁superdelegates	-10.4091
▁aware	-10.4091
▁gmt	-10.4092
▁rapidly	-10.4092
▁newly	-10.4093
▁musical	-10.4103
▁joe	-10.4109
▁originally	-10.4109
▁willing	-10.411
▁pc	-10.411
▁accuse	-10.411
▁gul	-10.4117
▁ends	-10.412
▁steven	-10.4129
▁replaced	-10.4132
▁citizen	-10.4143
▁section	-10.4144
▁leaves	-10.4147
▁tall	-10.4149
▁talked	-10.4158
ize	-10.4162
▁pursue	-10.4162
▁explain	-10.418
▁kick	-10.4187
lated	-10.4193
▁degrees	-10.4194
▁thinking	-10.4197
▁58	-10.42
mi	-10.4203
▁hotels	-10.4213
▁technical	-10.4222
▁recognize	-10.423
▁chun	-10.4231
▁te	-10.4235
▁disney	-10.4238
▁benedict	-10.4238
▁concrete	-10.4238
▁greece	-10.4238
▁mohamed	-10.4238
▁swiss	-10.4238
▁nasdaq	-10.4238
▁battling	-10.4238
▁gross	-10.4239
▁occupation	-10.4239
▁1950	-10.4239
▁bail	-10.424
▁alex	-10.4242
▁agriculture	-10.4243
▁devices	-10.4246
▁aren	-10.4247
▁participants	-10.425
▁exactly	-10.425
▁partners	-10.4252
▁1.5	-10.4253
▁tend	-10.4287
▁slow	-10.4289
▁yi	-10.4293
▁factor	-10.4297
▁collection	-10.4303
▁resident	-10.4304
▁roman	-10.4304
▁revolution	-10.4306
▁shop	-10.4317
▁towns	-10.4325
▁shops	-10.4333
▁trigger	-10.4343
▁con	-10.4352
▁hills	-10.4357
▁jon	-10.4358
▁rep	-10.436
am	-10.4381
▁conservation	-10.4381
▁divorce	-10.4383
▁capture	-10.4388
▁feared	-10.4395
▁faith	-10.4399
▁stephen	-10.4399
▁benchmark	-10.44
▁confident	-10.44
▁depression	-10.44
▁poverty	-10.44
▁tobacco	-10.44
▁verdict	-10.44
▁apply	-10.44
▁fierce	-10.44
▁unknown	-10.44
▁underground	-10.4401
▁mainland	-10.4403
▁balance	-10.4404
un	-10.441
▁chad	-10.4414
▁chest	-10.4416
▁complained	-10.4426
▁mary	-10.4427
▁normally	-10.443
▁eat	-10.4436
ari	-10.4437
▁1994	-10.4445
▁schedule	-10.4449
▁fan	-10.445
▁tradition	-10.4459
▁error	-10.4467
▁explosive	-10.4469
▁window	-10.4469
▁brothers	-10.448
▁aged	-10.4484
▁del	-10.4488
▁wor	-10.449
▁revolutionar	-10.4494
▁lo	-10.4533
▁nam	-10.4536
ir	-10.4549
▁fields	-10.4549
▁makers	-10.4552
▁59	-10.4558
,200	-10.4559
▁category	-10.4563
▁phoenix	-10.4563
▁stimulus	-10.4563
▁communities	-10.4563
▁airbus	-10.4563
▁boyfriend	-10.4564
▁joseph	-10.4564
▁testimony	-10.4564
▁motion	-10.4564
▁chong	-10.4566
▁authorized	-10.4573
▁pitt	-10.4574
dy	-10.4581
▁cameras	-10.4582
▁somalia	-10.4588
▁argued	-10.4606
quo	-10.4609
▁leak	-10.461
▁sri	-10.4617
▁2007.	-10.4618
▁file	-10.462
▁corporation	-10.4633
▁diamond	-10.4634
▁shelter	-10.4634
▁write	-10.4634
▁runway	-10.4636
▁bills	-10.4668
▁peak	-10.4672
▁classic	-10.4672
▁listen	-10.4677
▁toxic	-10.4703
▁links	-10.4705
ut	-10.471
▁austria	-10.4713
▁declare	-10.4714
▁handle	-10.472
▁sung	-10.4724
▁chris	-10.4727
▁czech	-10.473
▁easily	-10.473
▁plutonium	-10.473
▁striking	-10.473
▁golf	-10.473
▁reconciliation	-10.473
▁sheikh	-10.473
▁stern	-10.473
▁cargo	-10.4733
▁sweep	-10.4733
▁68	-10.4738
▁2004.	-10.4739
▁welcom	-10.4749
▁130	-10.4753
▁decisions	-10.4754
▁investigations	-10.4756
▁performed	-10.4773
▁fix	-10.478
▁associate	-10.4782
▁sons	-10.4789
▁violated	-10.479
▁temple	-10.4803
▁gallon	-10.4803
▁chain	-10.4804
▁denounc	-10.4808
▁pitch	-10.4819
▁61	-10.4822
▁bags	-10.4822
ab	-10.4825
▁dick	-10.4837
ana	-10.4843
▁lu	-10.4844
▁contained	-10.4847
▁beer	-10.4853
▁mar	-10.4859
▁attending	-10.4864
▁cha	-10.4865
▁1,	-10.487
▁retail	-10.4892
▁tackle	-10.4895
▁negotiators	-10.4898
▁outrage	-10.4899
▁dramatic	-10.4899
▁legislative	-10.49
▁otherwise	-10.49
▁legend	-10.49
▁petition	-10.49
▁typhoon	-10.49
▁maj	-10.49
▁worries	-10.49
▁1960	-10.49
▁yong	-10.49
▁familiar	-10.4902
▁transferred	-10.4907
os	-10.4908
▁urge	-10.4908
▁busy	-10.4934
gen	-10.4935
ja	-10.4939
▁bed	-10.4939
▁feature	-10.4943
▁payments	-10.4945
▁dress	-10.4949
▁cloud	-10.4976
▁wonder	-10.4979
▁marines	-10.498
▁pe	-10.4982
▁shots	-10.4985
▁uses	-10.4989
▁fishing	-10.5005
▁adopt	-10.5015
▁reveal	-10.5016
▁95	-10.5021
▁locations	-10.5035
▁compete	-10.5039
ot	-10.5059
▁cave	-10.5067
▁solve	-10.5067
▁celebrity	-10.5072
▁ordinary	-10.5072
▁privacy	-10.5072
▁referendum	-10.5072
▁tennessee	-10.5072
▁administrative	-10.5072
▁departure	-10.5072
▁uefa	-10.5072
▁romney	-10.5072
▁compensation	-10.5072
▁relocation	-10.5072
▁1993	-10.5072
▁priority	-10.5073
▁mouth	-10.5075
▁vital	-10.5075
▁dust	-10.5076
▁absolutely	-10.5077
▁ranging	-10.5083
▁4,000	-10.5093
▁founded	-10.5095
▁briefly	-10.51
▁defendants	-10.5101
do	-10.5103
ap	-10.5104
▁doors	-10.511
▁ryan	-10.5111
.5	-10.5112
▁institutions	-10.512
▁sand	-10.5131
▁bag	-10.5133
▁genetic	-10.5137
po	-10.5145
▁appointment	-10.5149
▁tiger	-10.5152
▁loan	-10.5154
▁campaigning	-10.5159
▁responding	-10.517
▁bowl	-10.5199
▁monitor	-10.5209
▁sick	-10.5218
▁electronics	-10.5225
▁achieve	-10.5236
▁afford	-10.5246
▁except	-10.5246
▁steel	-10.5246
▁jack	-10.5246
▁antonio	-10.5247
▁erdogan	-10.5247
▁mumbai	-10.5247
▁odinga	-10.5247
▁temporary	-10.5247
▁wolfowitz	-10.5247
▁unrest	-10.5247
▁contrast	-10.5248
▁nancy	-10.5248
▁gambari	-10.5248
▁larry	-10.5248
▁clock	-10.5248
▁receiving	-10.5248
▁zero	-10.5248
▁baseball	-10.5248
▁turnout	-10.5249
▁kate	-10.5251
▁shoot	-10.5251
▁rio	-10.5254
▁float	-10.5254
▁yen	-10.5254
▁carter	-10.5255
▁jae	-10.5255
▁slamm	-10.5257
▁increases	-10.5258
▁combined	-10.526
▁paulo	-10.5267
▁57	-10.5274
▁riot	-10.5277
▁generally	-10.528
▁stable	-10.5281
▁improved	-10.5283
▁appropriate	-10.5283
▁advanced	-10.5284
▁borders	-10.5292
▁oldest	-10.5294
▁operate	-10.5315
▁mistake	-10.5315
▁turns	-10.5316
ry	-10.5319
▁writers	-10.5322
▁engine	-10.5323
▁editor	-10.5327
▁bases	-10.533
▁veteran	-10.533
▁household	-10.5331
▁pen	-10.5336
▁hitt	-10.5344
▁teens	-10.5356
▁se	-10.5361
▁greet	-10.5361
▁dump	-10.5364
der	-10.5368
ese	-10.5368
▁sole	-10.5387
▁structure	-10.5396
▁bright	-10.5401
▁aung	-10.5407
hi	-10.5408
▁libya	-10.5409
▁virgin	-10.5414
▁networks	-10.5425
▁advice	-10.5426
▁announcing	-10.5426
▁switzerland	-10.5426
▁athens	-10.5426
▁breach	-10.5426
▁assessment	-10.5426
▁poland	-10.5426
▁negotiate	-10.5428
▁nav	-10.5431
▁isolated	-10.5435
▁endangered	-10.5435
▁raids	-10.5436
▁soil	-10.5438
▁rod	-10.544
▁athletes	-10.5444
▁advertising	-10.5447
▁moore	-10.5449
pa	-10.5452
▁storms	-10.5452
▁promotion	-10.5453
▁pack	-10.5454
▁apart	-10.5457
ance	-10.546
▁oppose	-10.5468
▁barrels	-10.5473
▁ya	-10.5476
▁saved	-10.5479
▁soo	-10.5489
▁pan	-10.5491
▁plays	-10.5503
▁po	-10.5506
▁carrier	-10.5512
▁backing	-10.5512
▁purpose	-10.5512
▁delegate	-10.5513
▁settlement	-10.5515
▁cable	-10.5519
▁profits	-10.554
▁wood	-10.5541
the	-10.5546
▁je	-10.5555
▁chiefs	-10.5561
line	-10.5562
▁containing	-10.5564
mo	-10.5575
▁su	-10.5583
▁correct	-10.5587
▁broad	-10.56
▁shape	-10.5607
▁lobby	-10.5607
▁legs	-10.5608
▁amnesty	-10.5608
▁gonzales	-10.5608
▁mccormack	-10.5608
▁pelosi	-10.5608
▁residence	-10.5608
▁orange	-10.5608
▁donald	-10.5608
▁roger	-10.5608
▁sovereignty	-10.5608
▁sir	-10.5608
▁outcome	-10.5608
▁clothes	-10.5611
▁copy	-10.5612
▁fleet	-10.5614
▁phase	-10.5617
▁villagers	-10.5617
▁rough	-10.5619
▁nowak	-10.562
▁disappeared	-10.5624
▁50,000	-10.5627
▁ousted	-10.5628
▁ro	-10.5629
▁wounds	-10.5644
▁mixed	-10.565
▁shortages	-10.567
▁symbol	-10.5673
▁syrian	-10.5678
▁retain	-10.5684
▁pointed	-10.5692
▁prospect	-10.5697
▁whale	-10.5697
▁thousand	-10.5698
▁complaint	-10.57
▁crossed	-10.5711
▁2010	-10.5729
▁wish	-10.5734
▁ha	-10.5736
▁meter	-10.5737
▁producers	-10.5741
▁fa	-10.5744
▁violat	-10.5749
▁shootings	-10.5754
▁appealed	-10.5759
▁agents	-10.577
ki	-10.5772
▁bangladesh	-10.5773
▁settle	-10.5778
▁torture	-10.5779
▁freeze	-10.5789
▁apologize	-10.579
▁impose	-10.5793
▁spill	-10.5793
▁dictator	-10.5793
▁beauty	-10.5793
▁capitol	-10.5793
▁detroit	-10.5793
▁easier	-10.5793
▁strategic	-10.5793
▁welfare	-10.5793
▁darwin	-10.5793
▁davis	-10.5793
▁improving	-10.5793
▁ireland	-10.5793
▁airways	-10.5793
▁pollution	-10.5793
▁hamid	-10.5793
▁submitted	-10.5793
▁submit	-10.5794
▁mohammad	-10.5794
▁curb	-10.5794
5,000	-10.5798
▁miners	-10.5805
▁diet	-10.5808
handling	-10.5816
▁burn	-10.5818
▁successfully	-10.5819
▁deals	-10.5823
▁surprised	-10.5823
▁peru	-10.5823
▁extremists	-10.5826
▁ka	-10.5834
▁5,000	-10.5836
▁seventh	-10.5837
▁units	-10.5838
▁volunteers	-10.5857
▁dry	-10.5857
▁amounts	-10.5861
▁strengthen	-10.5864
ga	-10.587
op	-10.5881
▁chair	-10.5885
▁root	-10.5886
▁employee	-10.5887
▁missed	-10.5895
▁negotiat	-10.5904
▁weigh	-10.5921
▁trained	-10.5926
▁weaken	-10.5927
▁stag	-10.5928
▁controls	-10.5929
▁hang	-10.5935
▁walls	-10.5939
▁motors	-10.5939
▁andrew	-10.594
▁feed	-10.5949
▁indicat	-10.595
▁lanka	-10.5963
▁fatal	-10.5969
ei	-10.5971
▁incidents	-10.5974
ver	-10.5975
▁confrontation	-10.5976
▁illness	-10.598
▁ambush	-10.5982
▁netherlands	-10.5982
▁philadelphia	-10.5982
▁portuguese	-10.5982
▁seattle	-10.5982
▁tsvangirai	-10.5982
▁twenty	-10.5982
▁variety	-10.5982
▁exposure	-10.5982
▁securities	-10.5982
▁dawn	-10.5982
▁impossible	-10.5982
▁greenhouse	-10.5982
▁copies	-10.5983
▁hugo	-10.5983
▁richardson	-10.5983
▁runoff	-10.5984
▁documentary	-10.5984
▁sweet	-10.5984
▁1,500	-10.5985
▁wireless	-10.5985
▁values	-10.5991
▁wartime	-10.5992
▁inch	-10.5993
▁eighth	-10.5994
▁portion	-10.5997
▁keb	-10.6002
▁accusations	-10.601
▁samples	-10.6011
▁detected	-10.6013
▁pleaded	-10.6015
▁parent	-10.6015
▁mi	-10.6023
▁winners	-10.6035
▁v	-10.6041
▁experienced	-10.6044
▁dressed	-10.6045
▁photographs	-10.6058
▁guarantee	-10.6062
▁dam	-10.6063
▁recalled	-10.6069
ever	-10.6074
▁revenue	-10.6077
▁print	-10.6078
▁politician	-10.6079
▁actors	-10.6079
▁brutal	-10.608
▁whales	-10.608
▁complaints	-10.608
▁flat	-10.6089
▁arrests	-10.6099
▁euros	-10.6102
▁approached	-10.6103
▁stretch	-10.6104
▁economists	-10.6106
▁react	-10.6108
▁1996	-10.6114
▁provides	-10.6122
▁map	-10.6141
tor	-10.6152
▁eve	-10.6163
▁trend	-10.6169
▁historical	-10.6169
▁lin	-10.6174
▁elsewhere	-10.6174
▁minimum	-10.6174
▁missouri	-10.6174
▁orleans	-10.6174
▁scheme	-10.6174
▁swimming	-10.6174
▁bankruptcy	-10.6174
▁winehouse	-10.6174
▁chaos	-10.6174
▁centre	-10.6176
▁grass	-10.6176
▁yangon	-10.6176
▁popularity	-10.6177
▁classified	-10.618
▁warner	-10.6184
▁executed	-10.6185
▁iron	-10.6185
▁flash	-10.6189
▁1.3	-10.6191
▁informed	-10.6193
▁dean	-10.6197
▁laid	-10.6201
▁hasn	-10.6205
▁63	-10.6205
▁sailors	-10.6207
▁returns	-10.6207
▁detail	-10.6218
▁starr	-10.6219
▁core	-10.6226
▁attorneys	-10.6233
▁intention	-10.6235
▁trick	-10.6241
▁engage	-10.6241
▁sees	-10.6248
▁abandoned	-10.625
▁ms	-10.6253
▁score	-10.6258
▁senators	-10.6263
▁spirit	-10.6273
▁tension	-10.6277
▁learning	-10.6278
▁66	-10.6279
▁tie	-10.63
▁chi	-10.6309
▁85	-10.631
▁clash	-10.6311
▁nice	-10.6336
ge	-10.6347
▁kuwait	-10.6358
▁arriving	-10.637
▁giuliani	-10.637
▁testify	-10.637
▁wimbledon	-10.637
▁reiterat	-10.637
▁stuff	-10.637
▁sectarian	-10.637
▁merkel	-10.637
▁greek	-10.637
▁inauguration	-10.637
▁panama	-10.637
▁spacecraft	-10.637
▁1989	-10.6371
▁feb	-10.6372
▁timetable	-10.6373
▁suddenly	-10.6384
▁viewers	-10.6387
▁gear	-10.6394
ors	-10.6395
ated	-10.64
▁ja	-10.6403
▁abus	-10.6414
▁annan	-10.6416
▁acres	-10.6417
▁homeless	-10.6419
km	-10.6427
▁potentially	-10.6428
▁spoken	-10.6429
▁cap	-10.643
▁moral	-10.6434
▁jin	-10.6436
▁legally	-10.6445
▁aside	-10.6455
▁2,	-10.6464
▁upset	-10.6464
ber	-10.6468
▁interested	-10.6469
▁attitude	-10.6472
▁blaze	-10.6472
▁bullet	-10.6473
▁conversation	-10.6474
▁experiment	-10.6474
▁purposes	-10.6474
▁contracts	-10.6474
▁ski	-10.6482
▁broadcaster	-10.6486
ff	-10.65
▁collect	-10.6504
▁76	-10.6505
▁surrender	-10.6513
▁defending	-10.6513
▁passing	-10.653
▁sang	-10.6532
identified	-10.6533
tic	-10.6548
▁polling	-10.6548
▁rapid	-10.6554
▁undermine	-10.6561
▁proceed	-10.657
▁clinch	-10.657
▁consecutive	-10.657
▁louisiana	-10.657
▁murray	-10.657
▁sichuan	-10.657
▁cloning	-10.657
▁inquest	-10.657
▁disappearance	-10.657
▁ioc	-10.657
▁jerry	-10.657
▁extraordinary	-10.6571
▁yuan	-10.6572
00	-10.6573
▁71	-10.6573
▁albert	-10.6573
▁momentum	-10.6573
▁torn	-10.6574
▁proof	-10.6576
▁stolen	-10.6576
▁yoon	-10.6584
▁bars	-10.6587
que	-10.6602
▁youth	-10.6602
▁vacation	-10.6609
▁cards	-10.6611
▁resumed	-10.6616
▁object	-10.6617
▁disputed	-10.6619
▁granted	-10.6625
▁shoes	-10.6633
▁gm	-10.6644
▁mer	-10.6648
▁73	-10.665
▁hee	-10.6656
▁addressed	-10.6658
▁fat	-10.666
▁injur	-10.6667
▁crews	-10.667
▁sh	-10.6672
▁sentiment	-10.6674
▁repair	-10.6677
▁client	-10.6678
▁teenager	-10.6681
▁wheel	-10.6681
▁representing	-10.669
.8	-10.6691
▁violations	-10.6702
▁convert	-10.6705
▁flags	-10.6706
▁worry	-10.6709
ville	-10.6715
▁punish	-10.6716
▁praise	-10.6724
▁vessels	-10.6733
▁81	-10.6742
out	-10.6747
▁latin	-10.6755
▁mental	-10.6757
▁usual	-10.6758
▁posts	-10.6771
▁spreading	-10.6772
▁luxur	-10.6774
▁prior	-10.6774
▁behalf	-10.6774
▁deadliest	-10.6774
▁huckabee	-10.6774
▁landmark	-10.6774
▁mehdi	-10.6774
▁opec	-10.6774
▁rumsfeld	-10.6774
▁sharapova	-10.6774
▁spiritual	-10.6774
▁technologies	-10.6774
▁jews	-10.6774
▁constant	-10.6774
▁hint	-10.6775
▁pending	-10.6776
▁reward	-10.6778
▁followers	-10.6778
▁arabic	-10.6779
▁meat	-10.678
▁frontier	-10.6781
▁ultimately	-10.6783
▁indicted	-10.6783
▁blasts	-10.6784
▁oversee	-10.6785
▁cooperate	-10.6786
▁waves	-10.6787
ho	-10.6788
▁detainees	-10.6791
▁rumors	-10.6791
▁missions	-10.6791
▁icon	-10.6791
▁wine	-10.6794
▁chen	-10.6803
▁investigated	-10.6803
▁nominations	-10.6806
▁selected	-10.6809
▁bi	-10.6811
▁significantly	-10.6818
va	-10.6821
over	-10.6822
▁grant	-10.6831
q	-10.6837
▁56	-10.6841
▁mountains	-10.6843
▁chan	-10.6843
▁starts	-10.6847
▁maria	-10.6853
▁studying	-10.6854
▁mon	-10.6861
ell	-10.6864
per	-10.6872
▁woods	-10.6881
▁spa	-10.6885
▁inspection	-10.6887
▁investigator	-10.6888
pi	-10.6891
▁rocks	-10.6892
▁continent	-10.6893
▁q	-10.6899
▁sin	-10.691
▁chang	-10.6913
▁eric	-10.6924
▁happening	-10.6927
▁recording	-10.6937
▁tickets	-10.6941
▁opens	-10.6975
▁cheap	-10.6977
ou	-10.698
▁prohibit	-10.698
▁chapter	-10.6983
▁deficit	-10.6983
▁houston	-10.6983
▁kansas	-10.6983
▁suspicious	-10.6983
▁powell	-10.6983
▁withdrew	-10.6983
▁ballistic	-10.6983
▁barbara	-10.6983
▁inquiry	-10.6983
▁employment	-10.6983
▁testified	-10.6983
▁utah	-10.6985
▁thick	-10.6991
▁classes	-10.6993
▁wales	-10.6994
▁acted	-10.6995
▁exposed	-10.6996
▁matters	-10.6998
▁slaves	-10.7004
▁kyu	-10.7004
▁malaysian	-10.7012
▁earnings	-10.7018
lin	-10.7019
▁sao	-10.7024
ll	-10.7033
mer	-10.7035
▁condemn	-10.704
▁coal	-10.7043
▁82	-10.7044
▁detailed	-10.7044
▁drawing	-10.7052
▁trucks	-10.7057
▁interviews	-10.7063
▁rudd	-10.7073
ical	-10.7074
▁seal	-10.7074
▁suffer	-10.7077
▁criminals	-10.7078
▁habitat	-10.7079
▁hopeful	-10.7085
▁influ	-10.7087
▁shore	-10.7096
▁conclusion	-10.7098
▁medal	-10.7101
▁visits	-10.7103
▁ray	-10.7126
▁theme	-10.7129
▁signals	-10.7132
▁rains	-10.7138
body	-10.7143
▁pilots	-10.7173
ns	-10.7175
▁1991	-10.7178
▁substantial	-10.7178
▁quiet	-10.7179
▁chose	-10.7182
▁secular	-10.7185
ai	-10.7185
pl	-10.7186
▁reduc	-10.7189
▁devastating	-10.7195
▁jintao	-10.7195
▁oklahoma	-10.7195
▁releasing	-10.7195
▁turmoil	-10.7195
▁universal	-10.7195
▁spray	-10.7195
▁denies	-10.7195
▁lahore	-10.7195
▁arctic	-10.7195
▁robbery	-10.7195
▁expansion	-10.7195
▁karachi	-10.7195
▁trafficking	-10.7196
▁wright	-10.7196
▁prominent	-10.7196
▁omar	-10.7197
▁ppp	-10.7197
▁indeed	-10.7197
▁shoulder	-10.7197
▁specifically	-10.7198
▁notice	-10.72
ek	-10.72
▁prais	-10.7201
▁hide	-10.7203
▁plunged	-10.7204
▁buses	-10.7207
up	-10.721
▁canal	-10.7216
▁cow	-10.7217
go	-10.7218
▁clothing	-10.7219
▁nur	-10.722
▁models	-10.723
▁crops	-10.7242
▁pour	-10.7249
▁rivers	-10.7249
▁reject	-10.7256
▁safely	-10.7259
▁risks	-10.7266
▁presumpti	-10.7267
▁69	-10.7274
▁bones	-10.7277
▁stepping	-10.7282
▁resolved	-10.7282
▁masters	-10.7284
▁recover	-10.7285
▁objects	-10.7296
▁approve	-10.7298
aw	-10.7298
▁tracks	-10.7299
wa	-10.7302
▁tunnel	-10.7313
▁burst	-10.7313
▁ky	-10.7313
▁advisor	-10.7315
▁dvd	-10.7316
named	-10.7321
▁factors	-10.7324
▁raided	-10.7331
▁ac	-10.7338
▁colonial	-10.7338
▁characters	-10.7339
▁ne	-10.7347
▁ta	-10.7348
▁kenyan	-10.7352
▁exhibit	-10.7352
▁socialist	-10.7356
▁prisoner	-10.7357
▁ads	-10.7358
▁accidents	-10.7365
▁maintained	-10.7367
promising	-10.7393
▁loyal	-10.7394
▁efficient	-10.7395
ol	-10.7399
roughly	-10.7399
▁pieces	-10.7402
▁1992	-10.7403
▁revive	-10.7404
▁hub	-10.7407
▁marking	-10.7409
▁volcano	-10.741
▁philip	-10.7413
▁celebrities	-10.7413
▁centuries	-10.7413
▁cleveland	-10.7413
▁ecuador	-10.7413
▁hudson	-10.7413
▁industries	-10.7413
▁respondents	-10.7413
▁steady	-10.7413
▁unprecedented	-10.7413
▁vitamin	-10.7413
▁lewis	-10.7413
▁massacre	-10.7413
▁vienna	-10.7413
▁mosul	-10.7413
▁laboratory	-10.7413
▁tragedy	-10.7413
▁telecom	-10.7413
▁dropping	-10.7413
▁mbc	-10.7413
▁taylor	-10.7413
▁monet	-10.7413
▁proceedings	-10.7413
▁urgent	-10.7414
▁2012	-10.7414
▁empty	-10.7414
▁fever	-10.7414
▁warren	-10.7415
▁ibrahim	-10.7415
▁fake	-10.7415
▁timor	-10.7415
▁thin	-10.7417
▁prevention	-10.7418
▁ron	-10.7423
▁decid	-10.7429
▁load	-10.743
▁harm	-10.7431
▁sustained	-10.7431
urged	-10.7432
▁delays	-10.7433
▁effectively	-10.7437
▁carlos	-10.7441
▁recommended	-10.7442
▁pleased	-10.7443
▁shaped	-10.7448
▁2000.	-10.745
▁stationed	-10.7452
▁attacking	-10.7454
▁ga	-10.7458
▁drink	-10.7475
▁dealers	-10.7478
chi	-10.7478
▁wars	-10.748
▁engineer	-10.7484
▁personally	-10.7487
▁z	-10.7491
▁sentences	-10.75
▁projected	-10.7501
▁hunting	-10.7505
▁perform	-10.7508
▁assist	-10.7518
▁dec	-10.7535
▁passport	-10.7539
▁studio	-10.7539
▁indication	-10.7539
▁principle	-10.7539
▁execution	-10.754
si	-10.754
clusive	-10.755
bi	-10.7553
▁conservatives	-10.7557
▁stick	-10.7558
▁gate	-10.7561
▁adds	-10.7573
▁imagine	-10.7578
▁agreements	-10.7593
▁pat	-10.7595
▁marketing	-10.7596
▁frequent	-10.7618
▁exact	-10.7619
▁persuade	-10.762
▁wire	-10.7624
▁compromise	-10.7624
▁ahmadi	-10.7624
▁yemen	-10.7628
▁beneath	-10.7635
▁chirac	-10.7635
▁extensive	-10.7635
▁wisconsin	-10.7635
▁yeltsin	-10.7635
▁cocaine	-10.7635
▁evil	-10.7635
▁rodriguez	-10.7635
▁impeachment	-10.7635
▁amazon	-10.7635
▁seung	-10.7636
▁idol	-10.7636
▁tribute	-10.7637
▁sweden	-10.7637
▁gray	-10.7639
▁naked	-10.7645
▁soaring	-10.7646
▁hye	-10.7647
▁tougher	-10.765
▁anticipated	-10.7651
▁endorsed	-10.7657
▁ok	-10.7662
▁yu	-10.7665
▁dragg	-10.7673
▁abuses	-10.7674
▁acknowledge	-10.7674
▁yo	-10.7675
▁carries	-10.7679
▁che	-10.7687
▁77	-10.7692
▁launching	-10.7696
▁crossing	-10.7697
he	-10.7704
▁tomb	-10.7709
▁expecting	-10.7717
▁moments	-10.7726
▁protected	-10.7736
▁teenagers	-10.7741
▁74	-10.7746
▁mart	-10.7748
▁hero	-10.776
▁duck	-10.7766
▁stroke	-10.7767
▁writer	-10.7771
ard	-10.7775
▁billions	-10.7796
▁pool	-10.7797
▁titles	-10.7798
▁cuban	-10.7802
▁alarm	-10.7804
▁cats	-10.7817
▁slipp	-10.7829
▁designat	-10.7841
ner	-10.7845
▁aggressive	-10.7845
▁sudden	-10.7846
pe	-10.7858
▁transform	-10.786
▁beirut	-10.7862
▁consensus	-10.7862
▁economies	-10.7862
▁extension	-10.7862
▁kentucky	-10.7862
▁koizumi	-10.7862
▁outlook	-10.7862
▁religion	-10.7862
▁stranded	-10.7862
▁universities	-10.7862
▁aviation	-10.7862
▁entrance	-10.7862
▁wreckage	-10.7862
▁permission	-10.7862
▁sgt	-10.7862
▁importance	-10.7863
▁accompani	-10.7863
▁rowling	-10.7864
▁consistent	-10.7864
▁membership	-10.7864
▁hunger	-10.7865
▁displaced	-10.7865
▁graduate	-10.7867
▁legitimate	-10.7867
▁broader	-10.7869
▁creation	-10.7869
▁milk	-10.787
▁ambitions	-10.7872
▁concessions	-10.7872
▁contribute	-10.7874
▁parking	-10.7886
▁suggestion	-10.7889
▁ke	-10.7894
▁songs	-10.7914
▁mis	-10.7915
▁mac	-10.792
▁clashed	-10.7929
▁78	-10.7936
.6	-10.7942
,500	-10.7943
▁pm	-10.7944
▁sight	-10.7957
▁attribut	-10.7988
ped	-10.7989
▁mounting	-10.7992
▁explosions	-10.7993
▁hybrid	-10.7995
▁signing	-10.7997
▁yard	-10.8
▁philippine	-10.8
▁touched	-10.8
▁master	-10.8007
▁reference	-10.8026
field	-10.8034
▁register	-10.8038
▁campaigns	-10.8045
▁diseases	-10.8063
▁covering	-10.8071
▁desire	-10.8078
▁nigeria	-10.8078
▁unlike	-10.8079
▁proper	-10.8082
ate	-10.8083
▁realize	-10.8084
▁fi	-10.8089
▁earn	-10.8091
▁teenage	-10.8092
▁fault	-10.8095
▁galaxy	-10.8095
▁heritage	-10.8095
▁impoverished	-10.8095
▁mandatory	-10.8095
▁penalties	-10.8095
▁suspension	-10.8095
▁volume	-10.8095
▁steep	-10.8095
▁goalkeep	-10.8095
▁slowdown	-10.8095
▁overcome	-10.8095
▁resistance	-10.8095
▁rafael	-10.8095
▁jolie	-10.8095
▁insurgency	-10.8095
▁geological	-10.8095
▁michelle	-10.8095
▁possession	-10.8097
▁louis	-10.8097
▁advised	-10.8098
▁vision	-10.8099
▁pardon	-10.81
▁phil	-10.81
▁rent	-10.8101
▁elderly	-10.8104
▁attached	-10.8104
▁15,000	-10.8108
▁frequently	-10.8112
▁consequences	-10.8116
▁ph	-10.8122
▁plent	-10.813
▁longest	-10.8133
▁recognized	-10.8135
▁shareholders	-10.8137
▁kun	-10.8139
▁riding	-10.8145
ization	-10.8152
▁manufacturers	-10.8153
▁photograph	-10.816
llied	-10.8162
▁y	-10.8174
▁flooded	-10.8181
▁chip	-10.8183
▁ranch	-10.8186
▁imp	-10.8186
▁principles	-10.8196
▁badly	-10.8197
▁lies	-10.8199
ft	-10.8222
▁happens	-10.8222
▁robot	-10.8234
▁railway	-10.8237
▁method	-10.8237
▁garden	-10.8238
▁flame	-10.824
▁trips	-10.8242
▁courts	-10.8254
▁bottle	-10.8255
▁israelis	-10.826
▁totally	-10.826
▁11,	-10.8266
▁tower	-10.8271
▁hits	-10.8271
ke	-10.8291
▁commanders	-10.8305
ran	-10.8315
▁mall	-10.8317
▁2001.	-10.832
▁yoo	-10.8323
judicial	-10.8332
▁enemies	-10.8333
▁everywhere	-10.8333
▁harvard	-10.8333
▁infrastructure	-10.8333
▁medvedev	-10.8333
▁mideast	-10.8333
▁myself	-10.8333
▁peacekeeping	-10.8333
▁pilgrims	-10.8333
▁roddick	-10.8333
▁statistical	-10.8333
▁temporarily	-10.8333
▁diplomacy	-10.8333
▁aftermath	-10.8333
▁videotape	-10.8333
▁vermont	-10.8333
▁rubble	-10.8333
▁burden	-10.8333
▁registration	-10.8333
▁maritime	-10.8333
▁shutdown	-10.8333
▁genocide	-10.8333
▁desperate	-10.8333
▁1987	-10.8333
▁truce	-10.8334
▁kyung	-10.8334
▁chancell	-10.8334
▁outstanding	-10.8334
▁jobless	-10.8335
▁confirmation	-10.8335
▁charter	-10.8336
▁personality	-10.8336
▁wrapped	-10.8349
▁va	-10.8349
▁crack	-10.8355
▁chat	-10.8356
▁customs	-10.837
stone	-10.8376
▁christians	-10.8379
▁rev	-10.838
▁charts	-10.838
▁nicole	-10.839
▁insists	-10.8397
bu	-10.8399
em	-10.8399
▁guan	-10.8402
▁der	-10.8403
ail	-10.8408
▁politically	-10.8412
▁lung	-10.8414
▁discussing	-10.8421
▁procedures	-10.8425
▁button	-10.8432
▁shocked	-10.8435
▁mad	-10.8436
our	-10.8446
▁broker	-10.8451
▁1.7	-10.8456
▁gather	-10.8458
▁angel	-10.8459
▁rounds	-10.846
▁abduction	-10.8478
▁abortion	-10.8479
▁automaker	-10.8481
▁shirt	-10.8482
▁theory	-10.8485
▁saving	-10.8485
▁shark	-10.8485
iya	-10.8509
▁fighter	-10.852
▁mix	-10.852
▁shell	-10.8521
ily	-10.8521
▁72	-10.8524
teen	-10.8535
▁arrang	-10.8545
▁tool	-10.8551
▁31,	-10.856
▁emotional	-10.8561
▁searched	-10.8564
▁absence	-10.8577
▁analysis	-10.8577
▁asylum	-10.8577
▁dioxide	-10.8577
▁excited	-10.8577
▁judiciary	-10.8577
▁katrina	-10.8577
▁legislature	-10.8577
▁marathon	-10.8577
▁principal	-10.8577
▁regain	-10.8577
▁shook	-10.8577
▁therefore	-10.8577
nic	-10.8577
▁kandahar	-10.8577
▁vulnerable	-10.8577
▁anderson	-10.8577
▁steal	-10.8578
▁minority	-10.8579
▁dating	-10.858
▁remarkable	-10.858
▁craft	-10.8582
▁simon	-10.8584
▁wider	-10.8585
▁fred	-10.8587
▁obviously	-10.8588
▁ca	-10.8589
denuclearization	-10.859
▁typically	-10.859
▁rob	-10.8591
▁lie	-10.8594
ru	-10.8596
▁libyan	-10.8601
▁offenders	-10.8603
▁retailers	-10.8611
▁jets	-10.8614
▁orchestra	-10.8633
▁tanker	-10.8633
vi	-10.8635
▁bears	-10.8644
▁mu	-10.8647
▁checks	-10.8657
▁ri	-10.8658
▁raped	-10.8668
▁predict	-10.8669
▁tru	-10.8677
me	-10.8686
▁christ	-10.869
▁ge	-10.8692
▁coordinat	-10.8706
▁riots	-10.871
▁88	-10.8714
▁victoria	-10.8718
▁1.2	-10.8719
▁lunch	-10.8719
ists	-10.8728
▁platform	-10.873
▁conviction	-10.873
▁centered	-10.873
▁militias	-10.8731
▁landslide	-10.8731
▁procedure	-10.8732
cy	-10.8741
▁interi	-10.8748
▁flee	-10.876
▁obtain	-10.877
▁repeat	-10.877
▁detain	-10.877
▁limits	-10.8773
▁67	-10.8777
▁slam	-10.8783
30	-10.8785
▁singing	-10.8793
▁chase	-10.88
▁matt	-10.8802
▁scrap	-10.8812
▁kid	-10.8813
▁nin	-10.8823
▁brad	-10.8825
▁alabama	-10.8827
▁applied	-10.8827
▁curfew	-10.8827
▁kidnappers	-10.8827
▁kyoto	-10.8827
▁statistics	-10.8827
▁toyota	-10.8827
▁liberation	-10.8827
▁mirror	-10.8827
▁combination	-10.8827
▁equity	-10.8827
▁wilson	-10.8827
▁consumption	-10.8827
▁oct	-10.8827
▁passage	-10.8828
▁graham	-10.8828
▁ahmed	-10.8828
▁myspace	-10.8829
▁unique	-10.8829
▁midfielder	-10.883
▁fda	-10.883
▁parade	-10.8831
▁output	-10.8833
▁emirates	-10.8833
▁uncovered	-10.8833
▁unfortunately	-10.8835
▁henin	-10.8837
▁140	-10.8841
▁laundering	-10.8842
▁properly	-10.8844
▁operated	-10.885
▁landscape	-10.885
▁40,000	-10.8851
▁partial	-10.8853
au	-10.8859
▁regularly	-10.8867
les	-10.8868
▁160	-10.887
▁sad	-10.8885
▁hearts	-10.889
▁shed	-10.8912
▁bone	-10.8914
▁daughters	-10.8924
▁suk	-10.8927
▁paint	-10.8927
▁bottles	-10.8928
▁stages	-10.8934
▁disputes	-10.8935
ci	-10.8958
▁mistakes	-10.8963
ler	-10.8967
▁regret	-10.8983
▁concept	-10.8984
▁terminal	-10.8985
▁vaccine	-10.8986
▁venue	-10.8987
▁banner	-10.8991
▁alan	-10.8995
▁championships	-10.8995
▁leftist	-10.8996
▁parks	-10.9004
▁aired	-10.9007
▁bow	-10.901
▁killer	-10.9011
▁stops	-10.9014
▁sectors	-10.9017
mar	-10.9021
▁restrict	-10.9025
▁crush	-10.9025
formally	-10.9028
▁gu	-10.9031
▁connect	-10.9033
iest	-10.9035
gan	-10.9046
ura	-10.9053
▁roma	-10.9054
ent	-10.9059
▁convince	-10.9067
▁ronald	-10.9079
▁introduce	-10.908
▁branch	-10.908
▁enrich	-10.9083
▁afraid	-10.9083
▁anywhere	-10.9083
▁bacteria	-10.9083
▁battery	-10.9083
▁closure	-10.9083
▁declaring	-10.9083
▁enormous	-10.9083
▁gesture	-10.9083
▁guild	-10.9083
▁interpol	-10.9083
▁kyodo	-10.9083
▁opportunities	-10.9083
▁pittsburgh	-10.9083
▁prestig	-10.9083
▁composite	-10.9083
▁kelly	-10.9083
▁knight	-10.9083
▁geneva	-10.9083
▁ramos	-10.9083
▁geun	-10.9083
▁1986	-10.9084
▁burial	-10.9084
▁unacceptable	-10.9084
▁distribution	-10.9084
▁generate	-10.9084
▁wonderful	-10.9084
▁brian	-10.9084
▁coverage	-10.9084
▁cheong	-10.9085
▁doping	-10.9087
▁singh	-10.9087
▁refusal	-10.9088
▁sorry	-10.9089
▁respectively	-10.909
▁iphone	-10.909
▁expell	-10.9091
▁vi	-10.9091
▁minds	-10.9092
▁everest	-10.9098
▁convinced	-10.9099
▁crowded	-10.91
▁500,000	-10.9103
▁mom	-10.9107
▁hiding	-10.9113
▁shipping	-10.9114
▁swing	-10.9117
▁elements	-10.9122
▁thus	-10.9127
▁transactions	-10.9132
▁skills	-10.9132
▁silence	-10.9133
ya	-10.9134
▁refuse	-10.9134
▁traders	-10.9141
▁fined	-10.9162
▁mere	-10.9164
▁tea	-10.9175
▁methods	-10.9187
han	-10.9189
long	-10.9189
▁lists	-10.919
.4	-10.9192
▁studios	-10.9195
we	-10.9201
▁giants	-10.9229
▁prov	-10.9231
▁nov	-10.9232
▁plea	-10.9232
▁guide	-10.9233
▁serves	-10.9245
▁admission	-10.9247
▁background	-10.9247
▁shield	-10.9249
▁uniform	-10.925
▁infection	-10.925
▁battles	-10.925
▁airstrike	-10.925
▁operator	-10.925
▁opponent	-10.9251
▁insurgent	-10.9251
aro	-10.9252
gi	-10.9252
▁twin	-10.9254
▁remark	-10.9258
▁pressed	-10.9274
▁mood	-10.9295
▁forget	-10.9296
▁managers	-10.9296
▁rat	-10.9297
▁slip	-10.9307
anamo	-10.9317
▁uganda	-10.9326
▁reverse	-10.9338
▁liquid	-10.9346
▁villa	-10.9346
▁belgium	-10.9346
▁dallas	-10.9346
▁encouraging	-10.9346
▁kaesong	-10.9346
▁mutual	-10.9346
▁nairobi	-10.9346
▁oxygen	-10.9346
▁prophet	-10.9346
▁thirty	-10.9346
▁zardari	-10.9346
▁escort	-10.9346
▁oregon	-10.9346
▁craig	-10.9346
▁optimistic	-10.9346
▁campbell	-10.9347
▁emerging	-10.9347
▁swine	-10.9347
▁guess	-10.9347
▁romantic	-10.9347
▁examination	-10.9347
▁engagement	-10.9347
▁teeth	-10.9348
▁elite	-10.9348
▁visible	-10.9348
▁subway	-10.9348
▁residential	-10.9348
▁selection	-10.9348
▁populated	-10.9349
▁gender	-10.9349
▁audio	-10.9349
▁comply	-10.9349
▁regardless	-10.935
▁miller	-10.935
▁interviewed	-10.9353
▁reid	-10.9357
▁complicated	-10.9359
▁sept	-10.9366
▁noticed	-10.9368
kin	-10.9372
▁lending	-10.9375
▁serbian	-10.9377
▁eggs	-10.9378
▁distributed	-10.9381
▁guerrillas	-10.9386
▁publicist	-10.9387
▁harder	-10.9395
▁paintings	-10.9396
▁separated	-10.9407
▁intends	-10.9412
ino	-10.9417
▁scenes	-10.9422
▁noon	-10.9434
▁hanging	-10.9435
ud	-10.9438
▁hat	-10.9439
▁surveyed	-10.9451
freezing	-10.9455
▁ballot	-10.9456
▁executions	-10.9461
▁venture	-10.9466
▁usa	-10.9478
▁veterans	-10.949
▁futures	-10.9511
▁telescope	-10.9516
▁sp	-10.9518
▁instance	-10.9518
▁separatist	-10.952
▁laptop	-10.952
▁jungle	-10.9522
▁affair	-10.9522
▁activist	-10.9522
mus	-10.9522
▁specialist	-10.9526
▁peer	-10.9527
ring	-10.953
▁casey	-10.9531
▁artists	-10.9532
▁amy	-10.9534
▁remov	-10.9542
▁resolv	-10.9549
▁counsel	-10.9551
min	-10.9559
▁grounds	-10.9566
▁clubs	-10.9576
▁nose	-10.9589
▁movements	-10.9589
▁knowing	-10.9595
▁actual	-10.96
▁2009.	-10.9602
▁swor	-10.9604
▁refuge	-10.9605
▁agricultur	-10.9608
▁opera	-10.9613
▁falls	-10.9616
▁anchor	-10.9616
▁beautiful	-10.9617
▁benjamin	-10.9617
▁bernanke	-10.9617
▁burmese	-10.9617
▁competing	-10.9617
▁elaborate	-10.9617
▁elevator	-10.9617
▁harbor	-10.9617
▁incumbent	-10.9617
▁intervention	-10.9617
▁kremlin	-10.9617
▁minnesota	-10.9617
▁proliferation	-10.9617
▁racial	-10.9617
▁twel	-10.9617
▁universe	-10.9617
▁zawahiri	-10.9617
▁citigroup	-10.9617
▁denver	-10.9617
▁ibm	-10.9617
▁bahamas	-10.9617
▁talent	-10.9617
▁reconstruction	-10.9617
▁probation	-10.9617
▁radar	-10.9617
▁excessive	-10.9617
▁luis	-10.9617
▁acid	-10.9617
▁awareness	-10.9618
▁deadlock	-10.9618
▁dying	-10.9618
▁yield	-10.9618
▁manipulation	-10.9618
▁cdc	-10.9619
▁nba	-10.9619
▁hitler	-10.962
▁definitely	-10.962
ph	-10.9621
▁postponed	-10.9621
▁castle	-10.9622
▁25,000	-10.9629
▁2002.	-10.9633
▁mud	-10.9638
▁300,000	-10.9644
▁armor	-10.9651
▁reserved	-10.9665
▁contenders	-10.9669
▁achieved	-10.9672
uk	-10.9677
▁wash	-10.9678
▁180	-10.9678
▁separately	-10.968
▁buyers	-10.9685
▁ku	-10.9686
▁tip	-10.9689
▁ear	-10.9712
▁policeman	-10.9714
▁landslides	-10.9721
▁enjoyed	-10.9723
▁ni	-10.9724
ged	-10.9732
▁wal	-10.9733
▁rays	-10.974
▁waited	-10.9756
▁stalin	-10.9759
▁represented	-10.9765
▁embrace	-10.9769
▁fort	-10.9778
be	-10.978
▁cla	-10.9795
▁chamber	-10.9795
▁novel	-10.9796
▁replacement	-10.9797
▁amendment	-10.9797
▁checkpoint	-10.9798
▁argument	-10.9799
▁volunteer	-10.9799
▁shortage	-10.9802
sumption	-10.9804
▁publication	-10.9813
▁reflects	-10.9815
▁pole	-10.9816
▁promises	-10.9826
▁argu	-10.9826
▁admit	-10.9833
▁guys	-10.9833
▁forecaster	-10.9841
going	-10.9853
▁user	-10.9856
▁theft	-10.9856
prime	-10.9857
▁cambodia	-10.9876
▁instant	-10.9877
▁trace	-10.9878
▁contacted	-10.9883
▁loud	-10.9891
▁competitive	-10.9894
▁academic	-10.9894
▁argentine	-10.9894
▁comprehensive	-10.9894
▁crocodile	-10.9894
▁dakota	-10.9894
▁episode	-10.9894
▁primarily	-10.9894
▁pronounced	-10.9894
▁prostitution	-10.9894
▁rhetoric	-10.9894
▁rooney	-10.9894
▁yourself	-10.9894
▁silver	-10.9894
▁ankara	-10.9894
▁fossett	-10.9894
▁scoring	-10.9894
▁bolster	-10.9894
▁opposite	-10.9894
▁eligib	-10.9894
▁reputation	-10.9895
▁rallied	-10.9895
▁bold	-10.9895
▁danish	-10.9896
▁mice	-10.9897
▁mountainous	-10.9898
▁taste	-10.9899
▁2,500	-10.9899
▁terry	-10.9901
▁juan	-10.9901
▁springs	-10.9902
ini	-10.9902
▁guidelines	-10.9917
▁wealthy	-10.9918
▁grabb	-10.9919
▁revised	-10.992
▁manner	-10.992
▁rulers	-10.9924
▁rely	-10.9924
▁realized	-10.9928
▁generated	-10.9931
▁thrown	-10.9933
▁sens	-10.9936
▁operational	-10.994
▁tae	-10.9943
▁rocky	-10.9946
▁125	-10.995
▁immigrants	-10.995
▁undergoing	-10.9954
▁tap	-10.9961
▁peacefully	-10.9965
▁preparations	-10.9967
▁barriers	-10.9969
▁ratings	-10.9975
▁manage	-10.9975
▁recovering	-10.9976
▁notes	-10.9977
▁critically	-10.9978
▁forms	-10.9979
▁photographers	-10.9988
▁fees	-10.9989
▁dad	-10.9991
▁supports	-11
▁appeals	-11
.1	-11.0016
hal	-11.0017
▁cape	-11.002
▁recruit	-11.0025
ending	-11.003
▁bang	-11.004
▁tigers	-11.0049
▁1.6	-11.0058
den	-11.0062
▁machines	-11.0071
▁warrants	-11.0076
▁occur	-11.0079
▁hindu	-11.0081
▁toilet	-11.0083
▁roof	-11.0083
▁rifle	-11.0083
▁muscle	-11.0083
▁cafe	-11.0085
▁temperature	-11.0085
▁er	-11.0097
▁honored	-11.0106
▁requests	-11.0113
▁bargain	-11.0115
▁rebuild	-11.0117
ill	-11.0117
▁fulfill	-11.0121
back	-11.0132
▁tears	-11.0136
went	-11.0143
▁investments	-11.0159
▁fundamental	-11.0162
▁unfair	-11.0164
▁tornado	-11.0177
▁superior	-11.0179
▁micro	-11.018
▁animated	-11.018
▁connecticut	-11.018
▁dismantling	-11.018
▁diyala	-11.018
▁eager	-11.018
▁gazprom	-11.018
▁greenpeace	-11.018
▁mercury	-11.018
▁mogadishu	-11.018
▁nawaz	-11.018
▁ransom	-11.018
▁schwarzenegger	-11.018
▁somewhere	-11.018
▁strategist	-11.018
▁thompson	-11.018
▁2011	-11.018
▁heathrow	-11.018
▁toronto	-11.018
▁ultra	-11.018
▁piracy	-11.018
▁approximate	-11.018
▁rampage	-11.018
▁madoff	-11.018
▁observation	-11.018
▁crocker	-11.018
▁1988	-11.0181
▁aig	-11.0181
▁disable	-11.0181
▁revision	-11.0182
▁bruni	-11.0182
▁extinction	-11.0182
▁factories	-11.0182
▁automatic	-11.0183
▁comfortable	-11.0184
▁communicate	-11.0184
▁exciting	-11.0184
▁angela	-11.0186
▁solid	-11.0186
▁accounting	-11.019
▁tries	-11.0192
▁appearances	-11.0192
▁astronomers	-11.0193
▁confessed	-11.0199
▁teaching	-11.0207
▁nikk	-11.0213
▁smashed	-11.0214
▁challenger	-11.0215
▁mc	-11.0218
▁nazi	-11.0219
▁hydro	-11.0221
▁blocks	-11.0224
▁ignored	-11.0228
▁fee	-11.0233
▁installed	-11.0234
▁3.5	-11.0235
▁challenged	-11.0241
▁connected	-11.0244
▁severely	-11.0244
▁fleeing	-11.0252
▁scandals	-11.0253
▁performing	-11.0262
▁doubled	-11.0262
▁prevented	-11.0265
▁sealed	-11.0268
cc	-11.0272
▁surveys	-11.0276
ential	-11.0301
▁damages	-11.0302
▁expanding	-11.0304
▁manag	-11.031
▁polar	-11.0311
▁allen	-11.0314
fi	-11.0348
port	-11.0368
▁argue	-11.0369
▁rid	-11.0373
▁billionaire	-11.0374
▁tabloid	-11.0375
▁discount	-11.0375
▁disorder	-11.0375
▁pepper	-11.0375
▁evacuation	-11.0377
▁mal	-11.0382
▁customer	-11.0382
▁photographer	-11.0385
▁aims	-11.039
▁checked	-11.0412
▁tours	-11.0413
▁blog	-11.0415
▁slump	-11.0421
▁wolf	-11.0422
▁emi	-11.0424
▁tanks	-11.0425
▁traded	-11.043
ara	-11.0431
▁dates	-11.0435
ions	-11.0442
▁hate	-11.0447
380	-11.0448
uri	-11.0455
▁cooper	-11.0456
▁cook	-11.0456
▁disclose	-11.046
▁overwhelming	-11.0462
front	-11.0464
▁clark	-11.0465
▁please	-11.0466
▁magic	-11.0469
▁antarctic	-11.0469
▁atlantis	-11.0474
▁carpet	-11.0474
▁cathedral	-11.0474
▁ceremonies	-11.0474
▁crunch	-11.0474
▁denmark	-11.0474
▁epicenter	-11.0474
▁equivalent	-11.0474
▁ferguson	-11.0474
▁foster	-11.0474
▁johndroe	-11.0474
▁murphy	-11.0474
▁revenge	-11.0474
▁sevilla	-11.0474
▁spectacular	-11.0474
▁cyber	-11.0474
▁wrongdoing	-11.0474
▁hidden	-11.0474
▁bedroom	-11.0474
▁grace	-11.0475
heimer	-11.0475
▁seok	-11.0475
▁cult	-11.0475
▁tripoli	-11.0475
▁bolton	-11.0475
▁taiwanese	-11.0476
▁adoption	-11.0476
▁willingness	-11.0476
▁pride	-11.0478
▁paulson	-11.0478
▁survival	-11.0478
▁fastest	-11.0479
▁lg	-11.048
▁pure	-11.0482
▁anybody	-11.0482
▁marry	-11.0482
ging	-11.0483
▁participating	-11.0483
▁boxes	-11.0483
har	-11.0484
▁ethiopian	-11.0485
▁useful	-11.0485
▁pages	-11.0487
▁carefully	-11.0487
▁assured	-11.0488
▁stones	-11.0492
▁7,000	-11.0493
▁opt	-11.0493
▁shouted	-11.0496
▁appearing	-11.0498
ship	-11.0499
▁islets	-11.05
▁employed	-11.0511
▁gases	-11.0511
▁qualifying	-11.0513
▁entirely	-11.0524
▁barred	-11.0524
▁withdrawn	-11.0527
▁110	-11.0529
▁ken	-11.053
▁musa	-11.0537
▁prayers	-11.0546
▁odds	-11.0551
▁87	-11.0553
▁finals	-11.056
▁applications	-11.0568
▁2010.	-11.058
▁ballots	-11.058
▁secured	-11.0583
▁coincide	-11.0584
▁har	-11.0588
▁expanded	-11.0591
▁automakers	-11.0591
▁laser	-11.0593
aught	-11.0596
ron	-11.0608
▁parker	-11.0617
iling	-11.0622
▁lots	-11.0622
▁refus	-11.0636
zi	-11.0638
▁satellites	-11.0642
▁tale	-11.0648
▁theaters	-11.0659
▁tissue	-11.0678
▁infant	-11.068
▁mortar	-11.068
▁technique	-11.068
▁criticiz	-11.0681
▁gift	-11.0681
▁bonds	-11.0682
▁application	-11.0682
▁guest	-11.0684
▁shoe	-11.0705
▁par	-11.0713
▁holes	-11.0715
▁install	-11.0719
▁sum	-11.072
house	-11.0729
▁ju	-11.073
▁hip	-11.0733
▁cent	-11.0735
▁mrs	-11.0736
▁professors	-11.0741
▁remind	-11.0749
▁rings	-11.075
▁typical	-11.0761
▁essential	-11.0765
▁1.4	-11.0766
mate	-11.0768
,600	-11.0769
▁grade	-11.0771
▁wu	-11.0776
▁adapt	-11.0777
▁subsequent	-11.0777
jennifer	-11.0777
▁ambitious	-11.0777
▁anonymous	-11.0777
▁breakfast	-11.0777
▁brussels	-11.0777
▁candidacy	-11.0777
▁caracas	-11.0777
▁financing	-11.0777
▁horta	-11.0777
▁imminent	-11.0777
▁incursion	-11.0777
▁istanbul	-11.0777
▁ivory	-11.0777
▁madonna	-11.0777
▁overhaul	-11.0777
▁pavarotti	-11.0777
▁pregnancy	-11.0777
▁pyramid	-11.0777
▁rawalpindi	-11.0777
▁scenario	-11.0777
▁shinawatra	-11.0777
▁volatile	-11.0777
▁winfrey	-11.0777
▁accompany	-11.0777
▁oprah	-11.0777
▁anthem	-11.0777
▁participation	-11.0777
▁afp	-11.0777
▁duties	-11.0777
▁elementary	-11.0778
▁broadway	-11.0778
▁leap	-11.0778
▁raul	-11.0779
▁lisa	-11.0779
▁eruption	-11.0779
▁buzz	-11.0779
▁1.1	-11.078
▁branches	-11.0781
▁uribe	-11.0782
▁hometown	-11.0782
▁occupied	-11.0785
▁lucky	-11.0786
won	-11.0786
▁tired	-11.0787
▁captors	-11.0788
▁ru	-11.0788
▁mourning	-11.079
ating	-11.0792
▁dodi	-11.0792
▁hui	-11.0795
▁supporter	-11.0796
▁businessman	-11.0798
▁joy	-11.0802
▁audit	-11.0803
▁shooter	-11.0805
▁educational	-11.0812
▁shi	-11.0814
▁lane	-11.0816
▁gonn	-11.0816
▁amin	-11.0817
▁hired	-11.082
▁inmates	-11.0822
▁obligations	-11.0823
▁donations	-11.0823
▁celebrating	-11.0829
ast	-11.0831
▁contributed	-11.0832
▁intent	-11.0833
res	-11.0838
▁restricted	-11.0845
▁lure	-11.0849
▁collected	-11.0865
▁fixed	-11.0883
▁sued	-11.0885
fa	-11.0886
▁directors	-11.0887
▁kicked	-11.0888
ev	-11.0893
▁explained	-11.0893
omic	-11.0899
▁yards	-11.0904
ow	-11.0926
▁hostil	-11.093
▁hosts	-11.0934
▁mining	-11.0935
▁sciences	-11.0939
▁households	-11.0943
▁engines	-11.0943
▁hike	-11.0959
▁nominees	-11.0963
▁gi	-11.0963
▁counted	-11.0982
▁occasion	-11.0985
▁transplant	-11.0991
▁interrogation	-11.0991
▁predecessor	-11.0991
▁belief	-11.0992
▁offense	-11.0992
▁plate	-11.0994
▁kilometer	-11.0995
▁patroll	-11.0996
▁lion	-11.1003
▁height	-11.1004
▁taxi	-11.1013
▁screening	-11.1016
▁involve	-11.1017
izing	-11.1019
▁os	-11.1028
▁disrupt	-11.1031
▁cancel	-11.1033
off	-11.1035
10	-11.105
▁violate	-11.1051
▁prefer	-11.106
▁sacrifice	-11.1072
▁swift	-11.1073
ik	-11.1074
▁jihad	-11.1082
▁smart	-11.1084
ble	-11.1084
▁depict	-11.1086
▁territori	-11.1087
▁drunk	-11.1088
▁haiti	-11.1088
▁rove	-11.1088
▁betancourt	-11.109
▁caribbean	-11.109
▁chaudhry	-11.109
▁crater	-11.109
▁empire	-11.109
▁invitation	-11.109
▁nixon	-11.109
▁outskirts	-11.109
▁pichushkin	-11.109
▁smuggling	-11.109
▁tragic	-11.109
▁travolta	-11.109
▁tribunal	-11.109
▁unicef	-11.109
▁depth	-11.109
▁bloomberg	-11.109
▁manila	-11.109
▁thanksgiving	-11.109
▁helmand	-11.109
▁mdc	-11.109
▁pusan	-11.109
▁johnston	-11.109
▁tampa	-11.109
▁montana	-11.109
▁spell	-11.109
▁website	-11.109
▁restart	-11.109
▁expedition	-11.1091
▁facebook	-11.1091
▁echo	-11.1091
▁merger	-11.1091
▁norway	-11.1091
▁petrole	-11.1093
▁wooden	-11.1093
▁consideration	-11.1094
▁symptoms	-11.1094
▁brave	-11.1096
▁demonstrate	-11.1096
▁haul	-11.1098
▁lifetime	-11.1101
▁clay	-11.1102
▁aero	-11.1103
▁ahmad	-11.1105
▁wayne	-11.1105
▁somebody	-11.1106
▁clues	-11.111
▁shouting	-11.1115
cha	-11.1119
▁demonstrated	-11.112
▁guided	-11.1121
ford	-11.1124
▁electrical	-11.1128
▁breathing	-11.113
▁medics	-11.113
▁cautioned	-11.1131
▁musicians	-11.1135
▁attacker	-11.1138
▁roles	-11.1138
▁jay	-11.1149
▁proposals	-11.1152
▁restored	-11.1152
▁characteriz	-11.116
▁assume	-11.1161
▁glaciers	-11.1162
▁4.5	-11.1167
▁titled	-11.1184
▁shia	-11.1188
red	-11.1192
▁arguments	-11.1199
▁airstrikes	-11.1205
een	-11.1209
▁covers	-11.121
▁nud	-11.1215
station	-11.1219
▁describ	-11.1219
▁ag	-11.1221
▁attackers	-11.1231
84	-11.1232
bra	-11.1233
cu	-11.1236
▁mat	-11.1239
▁caps	-11.1243
▁guarantees	-11.1249
▁gar	-11.1262
▁monitors	-11.1263
▁ji	-11.1267
day	-11.1276
▁presidents	-11.1295
▁posting	-11.1298
▁java	-11.1299
▁gunshot	-11.1312
▁treasure	-11.1312
▁ak	-11.1313
▁endorsement	-11.1314
▁brigade	-11.1314
▁lord	-11.1315
▁deserve	-11.1315
▁substance	-11.1316
▁embryo	-11.1316
▁publisher	-11.1317
▁pointing	-11.132
▁afterward	-11.1336
▁indians	-11.1343
▁finds	-11.1351
▁confront	-11.1354
▁deploy	-11.1355
▁unveil	-11.1356
▁les	-11.136
▁provision	-11.1361
▁slim	-11.1364
▁plead	-11.1376
▁pu	-11.1383
▁gangs	-11.1385
▁foods	-11.139
▁researcher	-11.1397
▁evacuate	-11.1398
▁strange	-11.1409
▁nationals	-11.1409
▁extinct	-11.141
▁unpopular	-11.1412
▁triumph	-11.1412
▁reluctant	-11.1412
▁aquarium	-11.1412
▁automotive	-11.1412
▁belgian	-11.1412
▁diabetes	-11.1412
▁endeavour	-11.1412
▁existence	-11.1412
▁margaret	-11.1412
▁norwegian	-11.1412
▁shepherd	-11.1412
▁ebay	-11.1412
▁pact	-11.1412
▁silent	-11.1412
▁stewart	-11.1412
▁warehouse	-11.1412
▁orlando	-11.1412
▁steam	-11.1412
▁framework	-11.1412
▁bathroom	-11.1412
▁optimism	-11.1412
▁biological	-11.1412
▁reunit	-11.1412
▁copyright	-11.1412
▁fortified	-11.1412
▁quell	-11.1412
▁fifa	-11.1413
▁bruce	-11.1413
▁throat	-11.1413
▁retaliation	-11.1413
▁citizenship	-11.1413
▁outpost	-11.1413
▁cristian	-11.1413
▁kofi	-11.1413
▁cannes	-11.1413
▁bryan	-11.1413
▁jeong	-11.1413
▁usfk	-11.1414
▁stopping	-11.1414
▁pursuit	-11.1414
▁lance	-11.1414
▁painful	-11.1414
▁84	-11.1415
▁counties	-11.1416
▁tentative	-11.1416
▁kimchi	-11.1418
▁favorable	-11.1418
▁difficulties	-11.1419
▁legislators	-11.142
▁tennis	-11.142
▁luna	-11.1423
▁passes	-11.1425
▁murders	-11.1426
▁emphasized	-11.1427
▁summoned	-11.1428
▁ranks	-11.1429
▁divide	-11.1429
▁250,000	-11.143
▁practical	-11.1431
▁spots	-11.1433
▁overturned	-11.1436
▁powered	-11.1436
▁ward	-11.144
hu	-11.1441
▁policemen	-11.1445
▁coat	-11.145
▁8,000	-11.1453
▁contractors	-11.1453
▁mines	-11.1455
nder	-11.1456
▁belonged	-11.1457
▁soul	-11.146
▁mitt	-11.1461
ade	-11.1463
▁joon	-11.1467
▁forests	-11.1468
▁factions	-11.1469
▁surged	-11.1474
▁captives	-11.1474
▁traditionally	-11.1483
▁ripp	-11.1484
▁lit	-11.1485
▁shame	-11.149
▁83	-11.149
▁cor	-11.1504
▁29,	-11.1521
▁tips	-11.1526
▁involves	-11.1527
▁pal	-11.1537
▁drinks	-11.1555
▁formula	-11.1561
lz	-11.1562
▁inspections	-11.1564
▁maine	-11.1569
▁undergo	-11.1569
▁wrap	-11.1572
▁burns	-11.1581
▁cur	-11.1583
▁halted	-11.1584
▁files	-11.1603
▁tools	-11.1609
▁skull	-11.1647
▁airplane	-11.1648
▁precaution	-11.1649
▁pipeline	-11.1649
▁colleague	-11.1651
▁jam	-11.1651
▁farms	-11.1652
▁celebrat	-11.1653
▁investor	-11.1654
▁ideal	-11.1658
▁rider	-11.1661
▁serb	-11.1665
▁danc	-11.1666
▁hearings	-11.1668
▁bans	-11.1669
▁defeated	-11.1673
▁discover	-11.1678
▁select	-11.1686
▁trails	-11.1687
town	-11.1693
gm	-11.1694
▁asset	-11.1696
ama	-11.1701
▁owns	-11.1706
▁filming	-11.1708
25	-11.1724
▁rating	-11.1732
▁quote	-11.1732
▁shutt	-11.1735
▁aging	-11.1735
▁sounds	-11.1736
▁preserve	-11.1737
▁decrease	-11.1738
ward	-11.1745
▁artificial	-11.1746
▁cholesterol	-11.1746
▁damaging	-11.1746
▁epidemic	-11.1746
▁jiabao	-11.1746
▁kurdistan	-11.1746
▁mercedes	-11.1746
▁okinawa	-11.1746
▁prescription	-11.1746
▁psychology	-11.1746
▁recognition	-11.1746
▁restructuring	-11.1746
▁tayyi	-11.1746
▁gibbons	-11.1746
▁verify	-11.1746
▁wheat	-11.1746
▁irbil	-11.1746
▁utility	-11.1746
▁mitchell	-11.1746
▁judgment	-11.1746
hr	-11.1746
▁fishermen	-11.1746
▁retirement	-11.1746
▁bride	-11.1746
▁polish	-11.1746
▁1981	-11.1746
▁imf	-11.1746
▁devastated	-11.1746
▁samarra	-11.1747
▁beatles	-11.1747
▁rita	-11.1747
▁dedicated	-11.1748
▁scatter	-11.1749
▁pornography	-11.175
▁keen	-11.175
▁modest	-11.175
▁brush	-11.1751
▁assassinated	-11.1751
▁sprawling	-11.1751
▁purported	-11.1752
▁takeover	-11.1754
▁defectors	-11.1759
▁humanity	-11.176
▁soared	-11.176
▁solutions	-11.1761
▁examine	-11.1762
▁amazing	-11.1762
▁prolonged	-11.1762
▁shattered	-11.1768
▁youngest	-11.1772
▁pipe	-11.1774
ral	-11.1777
▁routes	-11.1779
▁planets	-11.1781
▁slowly	-11.1781
▁technically	-11.1781
▁quarters	-11.1784
▁au	-11.1787
▁advisers	-11.1793
▁rein	-11.1795
▁actively	-11.1802
▁dar	-11.1802
▁regulators	-11.1803
ji	-11.1804
▁visual	-11.1809
▁bever	-11.1813
▁fairly	-11.1814
▁wage	-11.1818
▁92	-11.1818
wai	-11.1823
▁supervisor	-11.1826
▁epic	-11.1827
▁dealt	-11.1829
▁gil	-11.1834
▁mini	-11.1838
▁cr	-11.184
▁arts	-11.1844
▁sat	-11.1851
sen	-11.1883
▁rolling	-11.1905
▁clients	-11.1905
ova	-11.1918
▁enable	-11.1918
▁privately	-11.1923
▁arena	-11.1935
▁mob	-11.1936
▁ce	-11.1948
ess	-11.1954
▁fines	-11.1966
▁complain	-11.1967
▁format	-11.1975
▁sized	-11.1981
ze	-11.1982
▁sleeping	-11.1984
▁institution	-11.1989
▁manipulat	-11.1992
▁chicken	-11.1992
▁partnership	-11.1993
▁enterprise	-11.1994
▁monkey	-11.1994
▁pray	-11.1995
▁panda	-11.1995
▁edward	-11.1996
▁survivor	-11.1997
▁download	-11.1998
▁protested	-11.2
▁anne	-11.2001
▁generals	-11.2006
▁designer	-11.2006
▁hunter	-11.2007
▁transit	-11.201
▁nick	-11.2014
▁secur	-11.2017
▁stamp	-11.202
▁donor	-11.2023
▁kiss	-11.203
▁detect	-11.203
▁distress	-11.2032
▁18,	-11.2033
▁voter	-11.2043
lla	-11.2043
signed	-11.2048
most	-11.205
wi	-11.2051
▁350	-11.2055
▁inner	-11.2055
▁locals	-11.2057
▁widow	-11.2066
▁mandate	-11.2073
▁cautious	-11.2073
▁unexpected	-11.2074
▁sprint	-11.2079
▁puert	-11.2087
▁caucus	-11.2087
▁patriot	-11.209
▁kidnap	-11.209
▁bernard	-11.209
▁ammunition	-11.209
▁clooney	-11.209
▁consortium	-11.209
▁convey	-11.209
▁crystal	-11.209
▁declining	-11.209
▁grandfather	-11.209
▁grandmother	-11.209
▁impression	-11.209
▁intensified	-11.209
▁kcna	-11.209
▁legacy	-11.209
▁nelson	-11.209
▁saakashvili	-11.209
▁stuck	-11.209
▁stunning	-11.209
▁substitute	-11.209
▁swedish	-11.209
▁humor	-11.209
▁britney	-11.209
▁sierra	-11.209
▁consent	-11.2091
▁dignity	-11.2091
▁equipped	-11.2091
▁chairwoman	-11.2091
▁peacekeepers	-11.2091
▁capability	-11.2091
▁determination	-11.2091
▁waving	-11.2091
▁devote	-11.2091
▁gunfire	-11.2091
▁hubble	-11.2091
▁1982	-11.2091
▁nfl	-11.2091
▁autopsy	-11.2091
▁dense	-11.2092
▁implementation	-11.2092
▁heighten	-11.2093
▁steer	-11.2093
▁uprising	-11.2093
▁perino	-11.2093
▁creative	-11.2094
▁territories	-11.2094
▁presentation	-11.2094
▁hormone	-11.2094
▁symbolic	-11.2095
▁susan	-11.2095
▁setback	-11.2096
▁ferry	-11.2096
▁ethical	-11.2097
▁removal	-11.2098
▁shipman	-11.21
▁midst	-11.2101
▁arson	-11.2101
▁marie	-11.2104
▁wang	-11.2105
▁counterfeiting	-11.2109
80	-11.2112
▁antibiotics	-11.2114
▁sank	-11.2115
▁86	-11.2115
▁linda	-11.212
▁austrian	-11.2126
▁gwan	-11.2131
▁stripp	-11.2135
▁warn	-11.2139
▁dissidents	-11.2143
▁raw	-11.2145
▁folks	-11.2147
▁permitt	-11.2148
▁authors	-11.215
▁disrupted	-11.2154
▁mild	-11.2155
cantil	-11.2156
▁pastor	-11.2158
lan	-11.2166
▁bulls	-11.217
▁bae	-11.2171
erial	-11.2172
▁patterns	-11.2174
▁organs	-11.2174
▁slight	-11.2174
▁7,	-11.218
▁shah	-11.2184
▁ger	-11.2189
▁propell	-11.22
▁feeding	-11.2207
▁holidays	-11.2207
▁dated	-11.2208
top	-11.221
▁breaks	-11.2215
▁slowed	-11.2216
▁mega	-11.2216
▁carl	-11.2221
▁sporting	-11.2233
▁99	-11.2235
af	-11.2243
ee	-11.2256
▁youths	-11.2261
▁witnessed	-11.2272
▁roots	-11.2273
▁900	-11.2281
gotten	-11.2283
rry	-11.2283
▁170	-11.2285
▁8,	-11.2291
▁shelters	-11.2294
bs	-11.2305
ita	-11.2308
▁lighting	-11.2312
▁stream	-11.2321
▁interesting	-11.2323
▁sponsors	-11.2325
rous	-11.2329
▁lieutenant	-11.2348
▁brick	-11.235
▁ash	-11.235
▁statue	-11.235
▁destination	-11.235
▁contribution	-11.2351
▁sessions	-11.2351
▁blanket	-11.2351
▁barrier	-11.2352
▁inspector	-11.2353
▁payment	-11.236
forced	-11.2363
▁defender	-11.237
▁1.8	-11.2371
▁practices	-11.2371
▁93	-11.2376
▁exceed	-11.2383
▁retreat	-11.2388
work	-11.2393
▁helps	-11.2398
ani	-11.2406
▁commitments	-11.2408
▁swap	-11.2415
▁val	-11.2416
▁stabilize	-11.2417
▁heir	-11.242
▁loose	-11.2426
▁doubts	-11.2428
▁oscars	-11.2429
▁sail	-11.2429
▁obvious	-11.2431
▁exclusive	-11.2433
▁enforce	-11.2433
con	-11.2441
▁niger	-11.2446
manuel	-11.2447
▁voluntar	-11.2447
▁lynch	-11.2448
▁artillery	-11.2448
▁baquba	-11.2448
▁captivity	-11.2448
▁chronic	-11.2448
▁collision	-11.2448
▁fahrenheit	-11.2448
▁gusmao	-11.2448
▁happiness	-11.2448
▁laureate	-11.2448
▁lopez	-11.2448
▁mcdonald	-11.2448
▁mystery	-11.2448
▁nebraska	-11.2448
▁protocol	-11.2448
▁spokesperson	-11.2448
▁transparent	-11.2448
▁waziristan	-11.2448
▁pioneer	-11.2448
▁propaganda	-11.2448
▁reaffirm	-11.2448
▁chosun	-11.2448
▁melbourne	-11.2448
▁outlaw	-11.2448
▁douglas	-11.2448
▁glori	-11.2448
▁trash	-11.2448
▁salmonella	-11.2448
▁aziz	-11.2448
▁throne	-11.2448
▁racing	-11.2448
▁ankle	-11.2448
▁apec	-11.2448
▁fatalities	-11.2448
▁gyeonggi	-11.2448
▁rehabilitation	-11.2448
▁phenomenon	-11.2448
▁spike	-11.2448
▁knife	-11.2448
▁irish	-11.2448
▁railroad	-11.2448
▁predominant	-11.2448
▁pants	-11.2448
▁ownership	-11.2448
▁friendship	-11.2449
▁1945	-11.2449
▁bali	-11.2449
▁greenland	-11.245
▁eliminate	-11.245
▁sophisticated	-11.2451
▁aggression	-11.2452
▁prefecture	-11.2454
▁hwan	-11.2455
▁pink	-11.2455
▁rick	-11.2456
▁cage	-11.2457
▁cheaper	-11.2457
▁passion	-11.2458
▁jr	-11.2459
▁reasonable	-11.2459
▁implications	-11.246
▁filing	-11.2464
▁fisher	-11.2465
8,000	-11.2466
▁hardest	-11.2468
▁nest	-11.247
set	-11.247
enos	-11.2471
▁cambodian	-11.2472
▁stemm	-11.2474
▁nigerian	-11.2475
▁jacque	-11.2488
▁handled	-11.2489
▁archaeologists	-11.2492
▁meals	-11.2492
▁rud	-11.2494
▁neighborhoods	-11.2495
▁hawking	-11.2509
▁fu	-11.2514
▁worsen	-11.2516
▁br	-11.2517
▁hassan	-11.2519
▁ham	-11.2521
▁bok	-11.2527
▁celebrations	-11.2527
▁gaining	-11.2528
▁wildfires	-11.2531
▁easter	-11.2531
▁mothers	-11.2535
▁rak	-11.2538
▁98	-11.2546
▁donors	-11.2554
itz	-11.2556
apped	-11.2556
▁capt	-11.2556
▁annually	-11.257
▁cre	-11.2573
▁operators	-11.258
▁deck	-11.2583
▁performances	-11.2583
▁venues	-11.2584
▁stated	-11.2589
▁mir	-11.259
▁shirts	-11.2591
▁cd	-11.2595
ire	-11.2601
▁jointly	-11.2602
▁angered	-11.2604
ada	-11.2605
▁aug	-11.2621
▁persons	-11.2633
▁chairs	-11.2634
▁rebound	-11.2656
ick	-11.2674
▁penn	-11.2697
▁mess	-11.2702
cular	-11.2703
▁circle	-11.2704
▁runners	-11.2705
pp	-11.2706
▁23,	-11.2708
och	-11.271
▁relationships	-11.2714
▁exchanges	-11.2716
▁asteroid	-11.2717
▁motive	-11.2718
▁kidney	-11.2718
▁dolphin	-11.2719
▁medication	-11.2721
▁creature	-11.2722
▁odd	-11.2723
▁preparation	-11.2725
well	-11.2727
▁replac	-11.2728
▁impos	-11.273
▁sim	-11.273
▁reviewed	-11.2736
▁1998.	-11.2737
.2	-11.274
▁heated	-11.2742
▁portray	-11.2747
▁reopen	-11.276
▁hawk	-11.2764
▁suits	-11.2764
47	-11.2765
▁trans	-11.2791
▁choices	-11.2792
▁insist	-11.2799
▁careful	-11.2807
▁pad	-11.2807
ters	-11.2809
els	-11.2811
▁25,	-11.2814
▁possess	-11.2815
▁releases	-11.2816
▁evolution	-11.2816
▁blind	-11.2817
▁brig	-11.2818
▁applicants	-11.2818
▁arnold	-11.2818
▁challenging	-11.2818
▁dokdo	-11.2818
▁elbaradei	-11.2818
▁embezzlement	-11.2818
▁fernandez	-11.2818
▁fernando	-11.2818
▁glasgow	-11.2818
▁hariri	-11.2818
▁harvey	-11.2818
▁holland	-11.2818
▁intensive	-11.2818
▁janeiro	-11.2818
▁jirga	-11.2818
▁kerviel	-11.2818
▁patience	-11.2818
▁respirator	-11.2818
▁russell	-11.2818
▁sentencing	-11.2818
▁stearns	-11.2818
▁studied	-11.2818
▁talabani	-11.2818
▁ftse	-11.2818
▁junior	-11.2818
▁mastermind	-11.2818
▁script	-11.2818
▁slush	-11.2818
▁thwart	-11.2818
▁layoffs	-11.2818
▁refrain	-11.2818
▁oath	-11.2818
▁swim	-11.2818
▁historian	-11.2818
▁fujimori	-11.2818
▁logistic	-11.2818
▁breast	-11.2818
▁ignore	-11.2818
▁indictment	-11.2818
▁sugar	-11.2818
▁stanley	-11.2818
▁decree	-11.2819
▁victories	-11.2819
▁bosnia	-11.2819
▁circuit	-11.2819
▁milestone	-11.2819
▁faithful	-11.2819
▁1984	-11.282
▁liberty	-11.282
▁editorial	-11.282
▁constitute	-11.282
▁transmission	-11.282
▁exhibition	-11.2821
▁minus	-11.2821
▁comeback	-11.2822
▁secretive	-11.2822
▁trademark	-11.2823
▁consumed	-11.2823
▁antarctica	-11.2824
▁restraint	-11.2824
▁unanimously	-11.2825
▁formation	-11.2826
▁ethics	-11.2827
▁dance	-11.2828
▁goldman	-11.2829
▁fisc	-11.2831
▁reserves	-11.2832
rmal	-11.2833
ros	-11.2834
▁beaches	-11.2834
▁chanted	-11.2836
▁dominica	-11.2838
▁overwhelmingly	-11.2839
jo	-11.2841
▁shelves	-11.2842
▁400,000	-11.2842
▁tactics	-11.2846
▁roy	-11.285
▁flare	-11.2855
cious	-11.2862
▁bra	-11.287
▁settled	-11.2872
ipped	-11.2874
▁enhance	-11.2878
soo	-11.2884
▁barr	-11.2885
hner	-11.2886
▁complaining	-11.2886
▁shipments	-11.2889
6,000	-11.289
▁tribes	-11.2893
▁slot	-11.2898
▁cle	-11.2905
▁quarterfinals	-11.2911
eb	-11.2913
▁em	-11.2922
rin	-11.2923
▁languages	-11.293
▁measured	-11.2941
▁strengthening	-11.2945
▁issu	-11.2951
ego	-11.2955
▁rap	-11.2959
king	-11.2962
▁sharks	-11.2967
bar	-11.2979
▁experiments	-11.3
light	-11.3
▁climbing	-11.3014
▁anna	-11.3021
▁oppos	-11.3022
70	-11.3022
▁nis	-11.303
▁function	-11.3034
▁neil	-11.3037
▁answered	-11.3042
ney	-11.3044
▁span	-11.3049
▁intend	-11.3051
tar	-11.3051
lateral	-11.3056
▁bio	-11.3072
▁critic	-11.3076
ther	-11.3079
▁examin	-11.3086
▁conclude	-11.3092
all	-11.3093
pr	-11.3095
▁surviv	-11.3099
▁pension	-11.3102
▁motorcycle	-11.3103
▁fence	-11.3104
▁biologist	-11.3105
▁elephant	-11.3106
▁quarterfinal	-11.3106
▁manufacturer	-11.3108
▁negotiation	-11.311
▁horse	-11.3116
tta	-11.3124
▁bearing	-11.3139
▁assess	-11.3143
▁sha	-11.3144
▁mor	-11.3146
maker	-11.3153
ball	-11.3157
▁cry	-11.3159
▁fueled	-11.3162
▁infiltrat	-11.3163
ome	-11.3164
▁thoughts	-11.317
▁choos	-11.3171
▁concerts	-11.3183
▁sooner	-11.3184
▁dismantle	-11.3185
▁smooth	-11.3185
▁ultimate	-11.3186
▁intervene	-11.3186
▁plunge	-11.3186
▁shake	-11.3187
▁ver	-11.3188
▁monarch	-11.3191
ert	-11.3196
▁interpret	-11.3196
▁guitar	-11.3199
▁bolt	-11.3201
▁gyeong	-11.3202
▁1953	-11.3203
▁1979	-11.3203
▁acquisition	-11.3203
▁arafat	-11.3203
▁arkansas	-11.3203
▁batteries	-11.3203
▁brilliant	-11.3203
▁cairo	-11.3203
▁cattle	-11.3203
▁cousin	-11.3203
▁downturn	-11.3203
▁ethanol	-11.3203
▁franchise	-11.3203
▁gravity	-11.3203
▁holocaust	-11.3203
▁impressive	-11.3203
▁jankovic	-11.3203
▁kazakhstan	-11.3203
▁libby	-11.3203
▁monica	-11.3203
▁nightclub	-11.3203
▁petersburg	-11.3203
▁premium	-11.3203
▁psychologist	-11.3203
▁rhode	-11.3203
▁shadow	-11.3203
▁spitzer	-11.3203
▁starbucks	-11.3203
▁sunshine	-11.3203
▁transcript	-11.3203
▁transparency	-11.3203
▁undisclosed	-11.3203
▁vacuum	-11.3203
▁vershbow	-11.3203
▁kospi	-11.3203
▁ourselves	-11.3203
▁flexible	-11.3203
▁terrible	-11.3203
▁monster	-11.3203
▁sketch	-11.3203
▁memories	-11.3203
▁smell	-11.3203
▁leonard	-11.3203
▁tuck	-11.3203
▁isolation	-11.3203
▁parole	-11.3203
▁extent	-11.3203
▁garage	-11.3203
▁curious	-11.3203
▁emba	-11.3203
▁spice	-11.3203
▁xvi	-11.3203
▁mikh	-11.3203
▁geit	-11.3204
▁harmful	-11.3204
▁sensitivity	-11.3204
▁kwon	-11.3204
▁pageant	-11.3205
▁basically	-11.3205
▁romance	-11.3205
▁decisive	-11.3205
▁meantime	-11.3205
▁representation	-11.3205
▁2014	-11.3205
▁robotic	-11.3206
▁entitled	-11.3206
▁lima	-11.3208
▁fifty	-11.3208
▁condolences	-11.3208
▁hammer	-11.3209
▁progressive	-11.321
▁motivated	-11.321
▁diverse	-11.3211
▁binding	-11.3212
▁imprisoned	-11.3213
▁drowned	-11.3213
▁consist	-11.3213
▁busan	-11.3215
▁shoppers	-11.3216
▁mus	-11.3217
▁bribes	-11.3221
▁jiang	-11.3223
▁pois	-11.3224
▁incentives	-11.3231
▁des	-11.3234
shi	-11.3235
▁speeches	-11.3236
▁knut	-11.3236
▁deeper	-11.3237
▁60,000	-11.324
▁prostitutes	-11.3243
▁developers	-11.3243
▁pave	-11.3252
lam	-11.3258
▁rear	-11.3261
▁bash	-11.3263
▁incheon	-11.3266
▁sheets	-11.3266
▁grenades	-11.3266
▁recommendations	-11.3269
▁sars	-11.3271
▁aires	-11.3283
tt	-11.3284
▁cigarettes	-11.3288
▁difficulty	-11.3289
▁cartoons	-11.3291
▁murdered	-11.3291
▁aftershocks	-11.3292
▁gal	-11.3293
fl	-11.3298
car	-11.33
▁kam	-11.3302
▁creatures	-11.3304
▁assisted	-11.3304
▁bath	-11.3309
▁secrets	-11.3312
▁suv	-11.3316
▁weakened	-11.3322
▁weighed	-11.3322
▁networking	-11.3329
etic	-11.3348
▁implemented	-11.3349
▁container	-11.335
tu	-11.3357
iz	-11.3376
▁pf	-11.3379
▁tam	-11.3383
▁ram	-11.3386
▁abused	-11.3398
▁justices	-11.3425
ttled	-11.3425
▁bother	-11.3426
▁diamonds	-11.3431
war	-11.3439
▁drill	-11.3439
▁cop	-11.3445
▁encounter	-11.3445
head	-11.3456
▁inaugura	-11.346
▁choi	-11.3465
▁russians	-11.347
▁suspicions	-11.3473
▁feelings	-11.3477
▁vers	-11.348
▁compar	-11.3481
90	-11.3485
▁ross	-11.3485
▁stra	-11.3497
▁globes	-11.35
▁outdoor	-11.3503
▁casino	-11.3504
▁spaniard	-11.3505
▁disruption	-11.3505
▁ambulance	-11.3505
▁pattern	-11.3506
▁adam	-11.3507
▁slide	-11.3509
▁acre	-11.3509
▁prayer	-11.3513
▁finger	-11.3515
▁ana	-11.3516
▁2.2	-11.3523
▁organ	-11.3527
▁191	-11.3528
▁races	-11.3532
45	-11.3532
▁pra	-11.3538
▁surf	-11.3538
▁medicines	-11.3543
▁abolish	-11.3544
▁troubles	-11.3554
water	-11.3555
wood	-11.3558
▁deposit	-11.3565
▁honest	-11.3575
▁contents	-11.3579
▁holder	-11.358
▁luck	-11.3593
▁slum	-11.3596
▁presum	-11.3599
ullah	-11.3599
▁surplus	-11.3599
▁101	-11.3601
▁excess	-11.3602
▁nervous	-11.3602
▁uncertain	-11.3602
▁grim	-11.3602
▁recep	-11.3603
▁1975	-11.3603
▁accurate	-11.3603
▁acquitted	-11.3603
▁anthony	-11.3603
▁austin	-11.3603
▁cincinnati	-11.3603
▁companion	-11.3603
▁contingent	-11.3603
▁deutsch	-11.3603
▁espionage	-11.3603
▁extradition	-11.3603
▁frankfurt	-11.3603
▁ghraib	-11.3603
▁gonzalez	-11.3603
▁inappropriate	-11.3603
▁intensity	-11.3603
▁irresponsible	-11.3603
▁johannesburg	-11.3603
▁lincoln	-11.3603
▁mccartney	-11.3603
▁overthrow	-11.3603
▁radiation	-11.3603
▁sequence	-11.3603
▁stunned	-11.3603
▁sufficient	-11.3603
▁tremendous	-11.3603
▁yousuf	-11.3603
▁excuse	-11.3603
▁irregularities	-11.3603
▁notorious	-11.3603
▁pearl	-11.3603
▁vista	-11.3603
▁psychological	-11.3603
▁basketball	-11.3603
▁confusion	-11.3603
▁easing	-11.3603
▁imprisonment	-11.3603
▁atrocities	-11.3603
▁ashore	-11.3603
▁disgrace	-11.3603
▁battered	-11.3603
▁premature	-11.3603
▁tenure	-11.3603
▁paparazzi	-11.3603
▁streak	-11.3603
▁yeah	-11.3603
▁rift	-11.3603
▁shaking	-11.3603
▁prosperity	-11.3603
▁1973	-11.3603
▁orthodox	-11.3603
▁qualified	-11.3604
▁27,	-11.3604
▁gerry	-11.3604
▁dramatically	-11.3604
▁plotting	-11.3604
▁portland	-11.3605
▁grammy	-11.3605
▁devil	-11.3605
▁787	-11.3606
▁panic	-11.3607
▁courtroom	-11.3607
▁soft	-11.3608
▁bet	-11.3609
▁explorer	-11.361
apping	-11.3611
▁zimbabwean	-11.3612
▁indefinitely	-11.3612
▁mechanical	-11.3612
▁kitty	-11.3612
▁diagnosed	-11.3613
▁viruses	-11.3616
▁barry	-11.3617
▁safer	-11.3621
▁103	-11.3626
▁poses	-11.3626
▁underway	-11.3629
▁divers	-11.363
▁bloc	-11.363
▁disclosed	-11.3633
▁portal	-11.3635
▁chips	-11.3638
▁anbar	-11.3643
▁collid	-11.3645
▁employers	-11.3646
▁ratio	-11.365
▁semi	-11.3651
▁cole	-11.3653
▁scared	-11.3654
▁sensor	-11.3655
▁sincere	-11.366
▁cab	-11.3661
▁outlets	-11.3668
▁worsening	-11.3673
dium	-11.3674
▁slain	-11.3682
▁flowers	-11.3684
▁lenders	-11.369
▁fal	-11.3692
▁semifinals	-11.3692
▁rebuilding	-11.3692
▁7.9	-11.3697
▁counterterroris	-11.3702
▁beam	-11.3705
▁browne	-11.3706
▁wages	-11.3719
▁populations	-11.3728
▁eta	-11.3732
ett	-11.3738
ye	-11.3745
▁listening	-11.3757
▁boris	-11.376
▁savings	-11.3764
▁negotiated	-11.3764
▁lungs	-11.3766
eng	-11.3778
▁consult	-11.378
▁asks	-11.3782
▁pun	-11.3783
▁jane	-11.3783
▁credits	-11.3802
▁mong	-11.3805
air	-11.3808
▁bon	-11.3819
▁genes	-11.3822
nt	-11.3823
▁cartoon	-11.3837
▁earthquakes	-11.3839
50	-11.3842
▁permit	-11.3853
▁acknowledg	-11.3859
▁belong	-11.3861
▁pets	-11.3864
48	-11.3873
ise	-11.3881
▁emerge	-11.3889
bel	-11.3891
▁reductions	-11.3893
▁vest	-11.39
▁sk	-11.3908
22	-11.391
▁explanation	-11.3919
▁mammoth	-11.3919
▁tumor	-11.3919
▁fruit	-11.392
▁strait	-11.3921
▁expense	-11.3921
▁flin	-11.3922
▁mask	-11.3922
▁objective	-11.3923
▁migrant	-11.3923
▁snake	-11.3923
▁aftershock	-11.3923
▁glacier	-11.3923
▁wildfire	-11.3924
▁priest	-11.3924
▁allegation	-11.3925
▁improvement	-11.3926
cute	-11.3928
▁farmer	-11.3947
▁dreams	-11.395
▁pressures	-11.3959
▁ah	-11.3959
▁slaughter	-11.396
▁relax	-11.3962
▁directing	-11.3964
▁fitt	-11.397
▁lean	-11.3975
▁breed	-11.3984
▁bull	-11.3985
▁2.3	-11.3992
room	-11.3996
ology	-11.3998
▁reign	-11.3999
▁unsuccessful	-11.4002
▁midwest	-11.401
▁michel	-11.4017
▁assert	-11.4018
▁falluja	-11.4018
▁municipal	-11.4019
▁armistice	-11.4019
▁avenue	-11.4019
▁bizarre	-11.4019
▁bmw	-11.4019
▁damascus	-11.4019
▁default	-11.4019
▁embassies	-11.4019
▁genuine	-11.4019
▁hawass	-11.4019
▁incredibly	-11.4019
▁intellectual	-11.4019
▁kashmir	-11.4019
▁maradona	-11.4019
▁misdemeanor	-11.4019
▁phillies	-11.4019
▁qassam	-11.4019
▁reckless	-11.4019
▁relevant	-11.4019
▁rogge	-11.4019
▁rouge	-11.4019
▁satisfie	-11.4019
▁schneider	-11.4019
▁somehow	-11.4019
▁subsidiary	-11.4019
▁superintendent	-11.4019
▁trophy	-11.4019
▁vault	-11.4019
▁laurean	-11.4019
▁silva	-11.4019
▁whistle	-11.4019
▁introduction	-11.4019
▁venus	-11.4019
▁havana	-11.4019
▁jeffrey	-11.4019
▁osaka	-11.4019
▁earliest	-11.4019
▁farewell	-11.4019
▁smiling	-11.4019
▁hamburg	-11.4019
▁woolmer	-11.4019
▁beloved	-11.4019
▁interfax	-11.4019
▁rugged	-11.4019
▁hatred	-11.402
▁ismail	-11.402
▁signature	-11.402
▁infantry	-11.402
▁tamil	-11.402
▁zhang	-11.402
▁addiction	-11.402
▁bonuses	-11.402
▁honda	-11.402
▁jamie	-11.402
▁christie	-11.402
▁mattel	-11.4021
▁colonel	-11.4021
▁fallout	-11.4021
▁maoist	-11.4021
▁veterinarian	-11.4021
▁laura	-11.4022
▁dili	-11.4022
▁iceland	-11.4022
▁arthur	-11.4023
▁distan	-11.4024
▁prodi	-11.4026
▁coroner	-11.4027
▁basement	-11.4027
▁liu	-11.4029
▁controlling	-11.4029
▁bulgarian	-11.4029
▁sheep	-11.403
▁portable	-11.403
▁brothels	-11.4034
▁phillips	-11.4034
▁blessing	-11.4037
▁watchers	-11.4037
▁propose	-11.4038
▁spin	-11.4042
▁essentially	-11.4042
▁barak	-11.4043
▁channels	-11.4043
▁projections	-11.4044
▁facts	-11.4046
▁spurr	-11.4046
▁walker	-11.4047
▁gary	-11.4047
▁corn	-11.4052
itive	-11.4054
▁matsu	-11.4054
▁drain	-11.4056
▁produces	-11.4061
▁cheering	-11.4061
▁89	-11.4062
▁ze	-11.4064
▁750	-11.4067
▁equally	-11.4067
tro	-11.4068
▁apartments	-11.4072
▁pav	-11.4072
▁arrange	-11.4073
▁relaxed	-11.4077
▁participated	-11.4079
▁headlines	-11.4083
▁disabled	-11.4084
▁bees	-11.4086
▁criticize	-11.4086
▁crying	-11.4088
▁pin	-11.409
▁countryside	-11.4097
▁tr	-11.4097
▁economics	-11.4104
▁grabs	-11.4104
▁bodyguards	-11.4108
▁bur	-11.4113
▁belongs	-11.4118
▁tense	-11.4119
▁raj	-11.412
▁dire	-11.4122
▁elephants	-11.4125
▁horses	-11.4126
▁tally	-11.4131
▁monkeys	-11.4137
▁independently	-11.4138
▁processing	-11.4142
▁hunters	-11.4142
ified	-11.4143
▁holders	-11.4145
▁unite	-11.4148
▁gifts	-11.4154
▁leaked	-11.4166
▁com	-11.4171
▁basin	-11.4177
12	-11.4177
▁fur	-11.4183
▁conflicts	-11.4183
▁forever	-11.4197
▁79	-11.4202
▁cleaner	-11.4204
▁nationalist	-11.4213
wo	-11.4214
▁tone	-11.4218
▁shocking	-11.422
▁await	-11.4221
▁filling	-11.4223
▁farming	-11.4224
▁bullets	-11.4225
▁pill	-11.4237
ger	-11.424
▁fail	-11.4242
lon	-11.4244
▁135	-11.4257
▁prizes	-11.4258
▁zones	-11.4258
▁pri	-11.4263
▁fortress	-11.427
▁tapes	-11.4271
▁mails	-11.428
▁sections	-11.428
▁sounded	-11.4283
▁chemicals	-11.4284
▁afghans	-11.4289
▁retrieve	-11.4293
▁450	-11.4296
▁sta	-11.4297
▁kil	-11.4297
▁recommend	-11.4299
▁intel	-11.4299
▁outline	-11.4301
▁nominat	-11.4304
▁hae	-11.4319
▁counterparts	-11.4322
az	-11.4335
▁semifinal	-11.4351
▁fossil	-11.4353
▁elder	-11.4354
▁toddler	-11.4355
▁stronghold	-11.4355
▁administrator	-11.4355
▁blues	-11.4356
▁detective	-11.4356
▁cigarette	-11.4358
▁celebration	-11.4359
▁hd	-11.4359
tun	-11.436
▁torre	-11.436
▁walter	-11.436
▁qua	-11.4366
▁liter	-11.4367
▁alleg	-11.4389
▁dismiss	-11.4392
▁buck	-11.4396
▁caution	-11.4397
▁appoint	-11.4398
▁buyer	-11.44
37,000	-11.4401
▁240	-11.4401
▁sometime	-11.4406
gs	-11.4407
▁districts	-11.4407
▁nurs	-11.441
▁crop	-11.4411
▁belonging	-11.4421
77	-11.4421
▁drag	-11.4422
4,000	-11.4424
▁bor	-11.4433
▁estonia	-11.4436
▁eventual	-11.4438
▁acquire	-11.4441
bank	-11.4446
,800	-11.445
▁item	-11.4452
▁courage	-11.4453
▁wreck	-11.4454
▁francis	-11.4454
▁array	-11.4454
▁arroyo	-11.4454
▁bbk	-11.4454
▁caretaker	-11.4454
▁chocolate	-11.4454
▁cricket	-11.4454
▁deposed	-11.4454
▁extremism	-11.4454
▁glimpse	-11.4454
▁idaho	-11.4454
▁innocence	-11.4454
▁karbala	-11.4454
▁minneapolis	-11.4454
▁mysterious	-11.4454
▁offshore	-11.4454
▁radcliffe	-11.4454
▁reunification	-11.4454
▁sacramento	-11.4454
▁santiago	-11.4454
▁subsidies	-11.4454
▁tomatoes	-11.4454
▁umbrella	-11.4454
▁zoellick	-11.4454
▁cluster	-11.4454
▁powder	-11.4454
▁stomach	-11.4454
▁unchanged	-11.4454
▁baltimore	-11.4454
▁bicycle	-11.4454
▁definition	-11.4454
▁identification	-11.4454
▁kitchen	-11.4454
▁contrary	-11.4454
▁oversight	-11.4454
▁comedian	-11.4454
▁blunt	-11.4454
▁muqtada	-11.4454
▁gps	-11.4454
▁alfred	-11.4454
,900	-11.4454
▁squid	-11.4454
▁wives	-11.4454
▁organizing	-11.4454
▁click	-11.4454
▁exploration	-11.4454
▁mouse	-11.4454
▁linger	-11.4455
▁literally	-11.4455
▁glow	-11.4455
▁grain	-11.4455
▁harrison	-11.4455
▁lightning	-11.4455
▁healthcare	-11.4455
▁stunt	-11.4455
▁2012.	-11.4455
▁bible	-11.4456
▁coordination	-11.4456
▁contentious	-11.4456
▁northwester	-11.4456
▁uncle	-11.4456
▁organic	-11.4456
▁mummy	-11.4456
▁undp	-11.4457
▁voluntarily	-11.4457
▁ledger	-11.4457
▁dorm	-11.4457
▁siege	-11.4457
▁drunken	-11.4457
▁rejection	-11.4458
▁measurement	-11.4458
▁delight	-11.4458
▁1,800	-11.4458
▁bout	-11.4458
▁sharia	-11.4459
▁cloned	-11.4459
▁cameron	-11.446
▁guardian	-11.446
▁viacom	-11.446
▁bulk	-11.446
▁bread	-11.446
▁deem	-11.4461
▁toppled	-11.4462
▁concentrated	-11.4463
▁dirty	-11.4463
▁dug	-11.4463
▁autonomy	-11.4464
▁accelerate	-11.4465
▁rico	-11.4466
▁seeming	-11.4467
▁yankees	-11.4469
▁deliberately	-11.447
▁marr	-11.4473
▁ufo	-11.4475
▁fla	-11.4476
▁anyway	-11.4477
▁chunk	-11.4478
▁dual	-11.4484
▁highways	-11.4484
▁guarded	-11.4484
ium	-11.4485
▁examiner	-11.4486
▁zan	-11.4488
▁commemorate	-11.4488
▁churches	-11.4492
▁fatally	-11.4494
▁baker	-11.4496
▁divorced	-11.4499
▁chin	-11.4499
▁para	-11.4499
▁prisons	-11.4499
▁nk	-11.45
▁slogans	-11.4504
▁bombed	-11.4504
▁wings	-11.4505
▁kr	-11.4511
▁meteorologi	-11.4511
▁tortured	-11.4512
▁presid	-11.4514
▁eased	-11.4514
▁breeding	-11.452
▁consulting	-11.4522
▁forecasts	-11.4524
▁hadley	-11.4525
▁rig	-11.4526
tra	-11.4528
▁scholars	-11.453
▁taxpayers	-11.453
▁trials	-11.4536
ane	-11.4539
▁cooking	-11.4548
▁jun	-11.4553
▁endorse	-11.4555
▁priests	-11.4556
89	-11.4559
ww	-11.4561
▁speaks	-11.4574
▁dot	-11.4574
▁pandas	-11.4578
▁booked	-11.4588
▁kan	-11.4588
chum	-11.4595
▁opinions	-11.4609
▁tag	-11.4612
▁specialists	-11.4616
▁twins	-11.4617
nell	-11.4618
fo	-11.462
▁arch	-11.4628
▁explaining	-11.4631
bound	-11.4634
▁committees	-11.4642
▁bridges	-11.4651
▁kenyans	-11.4653
▁qar	-11.4654
yang	-11.4655
ability	-11.4657
illa	-11.4659
▁conversations	-11.467
,100	-11.4676
▁ark	-11.4677
▁si	-11.471
▁bas	-11.472
▁independents	-11.4723
▁origin	-11.4728
▁dig	-11.4747
▁highlights	-11.4749
ano	-11.4765
lie	-11.4772
ries	-11.4777
▁clip	-11.4779
▁informal	-11.479
▁digit	-11.4796
lley	-11.4797
15	-11.4803
thy	-11.4808
▁ceiling	-11.4808
▁protein	-11.4809
▁fingerprint	-11.481
▁graphic	-11.481
▁exam	-11.481
unt	-11.4811
▁component	-11.4812
▁bodyguard	-11.4812
▁regulation	-11.4814
▁19,	-11.4826
▁kt	-11.4831
▁declines	-11.4834
▁ignor	-11.4836
▁mil	-11.4836
▁provok	-11.4838
▁fidel	-11.484
ugh	-11.4842
▁employ	-11.4843
▁boast	-11.485
held	-11.4854
▁developments	-11.4862
▁menu	-11.4863
shift	-11.4871
▁junichi	-11.4875
▁hon	-11.4876
▁guatemala	-11.4881
▁bust	-11.4882
▁pond	-11.4882
▁topic	-11.4888
▁romania	-11.4889
▁jud	-11.4892
▁internationally	-11.4893
▁spare	-11.4896
▁frost	-11.4896
▁explore	-11.49
▁answers	-11.4902
▁couch	-11.4905
▁recess	-11.4907
responsibilities	-11.4909
▁annapolis	-11.4909
▁database	-11.4909
▁disappointment	-11.4909
▁fantastic	-11.4909
▁fitzgerald	-11.4909
▁frustration	-11.4909
▁greenspan	-11.4909
▁handgun	-11.4909
▁hardware	-11.4909
▁identities	-11.4909
▁illicit	-11.4909
▁immune	-11.4909
▁lennon	-11.4909
▁lhasa	-11.4909
▁millenni	-11.4909
▁ministries	-11.4909
▁multinational	-11.4909
▁negroponte	-11.4909
▁nintendo	-11.4909
▁overweight	-11.4909
▁polaroid	-11.4909
▁portrait	-11.4909
▁provocative	-11.4909
▁quartet	-11.4909
▁scratch	-11.4909
▁sumatra	-11.4909
▁taipei	-11.4909
▁ukrainian	-11.4909
▁undecided	-11.4909
▁venice	-11.4909
▁anxious	-11.4909
▁wield	-11.4909
▁levinson	-11.4909
▁masri	-11.4909
▁recount	-11.4909
▁sachs	-11.4909
▁suharto	-11.4909
▁solomon	-11.4909
▁federline	-11.4909
▁jewelry	-11.4909
▁properties	-11.4909
▁slavery	-11.4909
▁gambling	-11.4909
▁priorities	-11.4909
▁serena	-11.4909
▁rashid	-11.4909
▁frontrunner	-11.4909
▁discrimination	-11.4909
▁casualty	-11.4909
▁harper	-11.4909
▁informant	-11.4909
▁lpga	-11.4909
▁dependent	-11.4909
▁perception	-11.4909
▁uncertainty	-11.4909
▁unconscious	-11.4909
▁supervision	-11.4909
▁interstate	-11.4909
▁bobby	-11.491
▁cabin	-11.491
▁duke	-11.491
▁blatter	-11.491
▁midday	-11.491
▁jason	-11.491
▁condemnation	-11.491
▁rack	-11.491
▁reception	-11.491
▁batch	-11.491
▁steadily	-11.4911
▁showdown	-11.4911
▁yale	-11.4911
▁workplace	-11.4911
▁ugly	-11.4911
▁attractive	-11.4912
▁richie	-11.4912
▁hover	-11.4912
▁rehab	-11.4913
▁educated	-11.4914
▁wii	-11.4914
▁hire	-11.4914
▁bidding	-11.4914
▁hung	-11.4915
ping	-11.4915
▁contaminated	-11.4915
▁ravaged	-11.4915
▁avoided	-11.4918
▁colony	-11.4918
▁barely	-11.492
made	-11.492
▁neal	-11.4921
▁conceded	-11.4921
▁horn	-11.4922
▁gradually	-11.4922
▁creator	-11.4924
▁bp	-11.4925
▁compil	-11.4926
▁relieved	-11.4926
yman	-11.4927
▁superb	-11.4929
▁dominate	-11.493
nnie	-11.493
▁economically	-11.493
▁12,000	-11.4932
▁neo	-11.4937
▁gorillas	-11.4938
▁procession	-11.4938
▁debates	-11.4939
uala	-11.4943
▁jean	-11.4943
▁addresses	-11.4944
▁hos	-11.4949
▁besides	-11.4951
ip	-11.4954
▁goh	-11.4955
hill	-11.4956
▁qu	-11.496
▁arrangements	-11.4961
▁campaigners	-11.4966
mat	-11.497
pate	-11.4971
▁defined	-11.4973
▁installations	-11.4974
▁holed	-11.4975
▁sect	-11.4978
,300	-11.4979
▁cheers	-11.4982
▁nurses	-11.4985
▁thi	-11.4987
▁leone	-11.4987
▁irritat	-11.4991
▁screens	-11.4992
ible	-11.4993
org	-11.4993
▁preferr	-11.4995
▁examined	-11.5
▁hell	-11.5011
▁pills	-11.5011
▁elders	-11.5011
lashed	-11.5016
▁migrants	-11.5022
▁honors	-11.5027
▁committ	-11.5037
▁iranians	-11.5038
60	-11.5039
▁designers	-11.5043
▁strengthened	-11.5051
35	-11.5053
▁muscles	-11.5066
▁ears	-11.507
▁math	-11.5072
▁laptops	-11.5075
vin	-11.5078
▁popp	-11.5079
▁uniforms	-11.5079
▁wip	-11.5081
▁rats	-11.5082
▁26,	-11.5084
▁till	-11.5091
bon	-11.5096
▁strained	-11.51
uda	-11.51
▁liver	-11.5109
▁kare	-11.5114
▁hopefuls	-11.5121
▁marriages	-11.513
▁timing	-11.5137
▁priced	-11.5149
▁prospects	-11.5154
dana	-11.5159
▁maca	-11.5161
▁qa	-11.5175
▁deliberate	-11.5177
▁billy	-11.5178
hand	-11.5183
▁contacts	-11.5189
▁wi	-11.5189
ew	-11.5199
▁pcs	-11.5199
lese	-11.5215
ay	-11.5216
▁94	-11.5219
lene	-11.523
ico	-11.524
▁28,	-11.5243
cher	-11.5245
▁pr	-11.5252
▁refer	-11.5254
▁counting	-11.5255
ib	-11.5259
▁resist	-11.5262
▁premiere	-11.5262
▁prop	-11.5265
▁pakistanis	-11.5275
▁grab	-11.5278
ef	-11.5283
▁evaluation	-11.5283
▁chart	-11.5285
▁denial	-11.5286
▁spur	-11.5287
▁assertion	-11.5287
▁desk	-11.5288
▁lakes	-11.5288
▁drought	-11.5288
▁jeff	-11.5288
▁immigrant	-11.5289
▁advances	-11.529
▁flick	-11.529
▁citi	-11.529
▁brands	-11.5291
▁filmmaker	-11.5291
▁tribe	-11.5293
▁sanction	-11.5293
▁rever	-11.5294
▁cu	-11.5295
▁belt	-11.5304
▁generations	-11.531
▁measur	-11.5316
▁nu	-11.5316
▁favorites	-11.532
uring	-11.5322
▁qualify	-11.5322
▁commanding	-11.5324
▁lap	-11.5324
wan	-11.5326
▁smash	-11.5328
sef	-11.5328
▁breath	-11.533
ku	-11.5333
load	-11.5337
▁tent	-11.5339
space	-11.534
aware	-11.5347
▁grip	-11.5349
▁trader	-11.5352
fish	-11.5352
▁alter	-11.5359
ax	-11.5361
▁280	-11.5366
▁nationally	-11.5367
▁ethiopia	-11.5367
▁random	-11.5368
▁croatia	-11.5369
▁invite	-11.5369
▁stole	-11.5371
▁autonom	-11.5374
▁triple	-11.5377
▁franco	-11.5382
▁investigati	-11.5383
▁weakness	-11.5384
▁vigil	-11.5384
▁confine	-11.5384
▁1949	-11.5385
▁1978	-11.5385
▁apollo	-11.5385
▁armstrong	-11.5385
▁axelrod	-11.5385
▁battalion	-11.5385
▁berkeley	-11.5385
▁broadband	-11.5385
▁cinema	-11.5385
▁deportation	-11.5385
▁escalating	-11.5385
▁fertility	-11.5385
▁fragile	-11.5385
▁gallery	-11.5385
▁garcia	-11.5385
▁griffin	-11.5385
▁himalaya	-11.5385
▁implant	-11.5385
▁jazeera	-11.5385
▁kathmandu	-11.5385
▁lindsay	-11.5385
▁luggage	-11.5385
▁merchant	-11.5385
▁miliband	-11.5385
▁recycling	-11.5385
▁scrutiny	-11.5385
▁seafood	-11.5385
▁tainted	-11.5385
▁tycoon	-11.5385
▁workforce	-11.5385
▁zarqawi	-11.5385
▁hicks	-11.5385
▁assurance	-11.5385
▁observatory	-11.5385
▁stockpile	-11.5385
▁glad	-11.5385
▁oxford	-11.5385
▁overlook	-11.5385
▁youssif	-11.5385
▁staple	-11.5385
▁poultry	-11.5385
▁verification	-11.5385
▁itunes	-11.5385
▁piano	-11.5385
▁unspe	-11.5385
▁unilateral	-11.5385
▁blake	-11.5385
▁boulder	-11.5385
▁keith	-11.5385
▁persistent	-11.5385
▁atleti	-11.5385
▁malawi	-11.5385
▁apologies	-11.5385
▁rubber	-11.5385
▁tongue	-11.5385
▁terrain	-11.5385
▁claren	-11.5385
▁foley	-11.5385
▁dictatorship	-11.5385
▁basque	-11.5385
▁quest	-11.5385
▁kumar	-11.5385
▁dentist	-11.5385
▁fiction	-11.5386
▁flock	-11.5386
▁shwe	-11.5386
▁underwear	-11.5386
▁vietnamese	-11.5386
▁programming	-11.5386
▁bench	-11.5387
▁harmony	-11.5387
▁fitness	-11.5387
▁soften	-11.5387
▁wander	-11.5387
▁darkness	-11.5388
▁facial	-11.5388
▁smokers	-11.5388
▁1910	-11.5388
cified	-11.5388
▁emanuel	-11.5388
▁1,400	-11.5388
▁establishment	-11.5389
▁logo	-11.5389
▁lineup	-11.539
▁dave	-11.539
▁rioters	-11.539
▁affordable	-11.539
▁sympathy	-11.5391
uous	-11.5392
bn	-11.5396
▁makeup	-11.5397
▁manufactured	-11.5397
▁noise	-11.5398
lit	-11.5401
▁owen	-11.5402
▁upheld	-11.5403
▁fold	-11.5403
▁tender	-11.5403
bas	-11.5403
▁fier	-11.5404
▁accidentally	-11.5406
▁lucas	-11.5407
▁biden	-11.5408
▁tumbled	-11.541
▁helpful	-11.5411
▁paralyzed	-11.5412
▁congressman	-11.5412
▁sacked	-11.5415
▁extract	-11.5416
▁publicity	-11.5417
▁airliner	-11.5428
▁tan	-11.5429
▁hy	-11.543
▁koo	-11.5432
▁textbooks	-11.5435
▁sox	-11.544
▁exporters	-11.5447
▁balanced	-11.5449
▁requirements	-11.5449
▁6,000	-11.5451
▁kar	-11.5461
ably	-11.5464
▁lawn	-11.5465
▁bore	-11.5468
▁pigs	-11.5468
more	-11.5468
latter	-11.5473
▁habits	-11.5475
▁plains	-11.5478
▁tires	-11.5478
▁slumped	-11.548
▁clips	-11.5488
▁shim	-11.5493
▁fails	-11.5493
▁painted	-11.5497
▁backers	-11.5499
▁adams	-11.5502
▁photographed	-11.5503
ula	-11.5505
▁winger	-11.5507
berg	-11.5509
▁risky	-11.552
▁resemble	-11.5521
▁surrendered	-11.5525
▁convene	-11.5525
▁seasonal	-11.5526
▁fann	-11.5528
▁riders	-11.553
▁embryos	-11.553
▁substances	-11.553
ua	-11.5543
1,000	-11.5545
aki	-11.5547
▁ye	-11.5547
▁carrie	-11.5549
▁190	-11.5549
▁rifles	-11.555
▁experiences	-11.5554
▁novels	-11.5555
▁salt	-11.5556
▁separatists	-11.5559
▁rioting	-11.556
use	-11.5563
▁designate	-11.5565
▁fixing	-11.5568
▁din	-11.5569
▁div	-11.557
oun	-11.5572
hmer	-11.5576
mm	-11.5576
▁slowing	-11.5578
99	-11.558
▁inland	-11.5596
▁passports	-11.5598
▁remembered	-11.5599
ice	-11.5606
▁py	-11.5607
▁trailer	-11.5613
▁wheels	-11.5616
▁franc	-11.5617
▁ci	-11.5617
lecommunications	-11.5621
▁pot	-11.563
▁geo	-11.5638
▁layer	-11.5642
▁117	-11.5643
63	-11.5644
▁exchanged	-11.5644
▁cables	-11.5646
▁carriers	-11.5647
▁erect	-11.5649
▁initiat	-11.5653
ide	-11.5658
▁clouds	-11.5661
▁errors	-11.5675
▁shoulders	-11.5678
▁tut	-11.568
▁comet	-11.5684
▁mel	-11.5687
▁utter	-11.5693
one	-11.5696
28	-11.5703
▁vo	-11.5712
▁mode	-11.5722
▁gh	-11.5725
▁pi	-11.5744
▁melt	-11.5746
▁smile	-11.5756
▁publish	-11.5757
▁greatly	-11.5757
29	-11.5761
▁twist	-11.5762
▁outbreaks	-11.5763
▁plac	-11.5766
▁rated	-11.5766
▁adventure	-11.5769
▁orchestrat	-11.5769
▁domain	-11.5783
▁lecture	-11.5783
▁pocket	-11.5783
▁conglomerate	-11.5784
▁assum	-11.5786
▁physician	-11.5786
▁massage	-11.5788
▁classroom	-11.5788
▁transaction	-11.5789
▁commuter	-11.579
▁captive	-11.579
▁tire	-11.579
▁contender	-11.5794
▁lender	-11.5794
▁shipment	-11.5796
▁debts	-11.5797
▁plain	-11.58
▁surg	-11.5804
▁complet	-11.5812
▁pirate	-11.5813
▁achiev	-11.5814
▁catholics	-11.5817
▁agrees	-11.5818
▁jimm	-11.5818
▁lover	-11.5819
▁mann	-11.582
▁colors	-11.5823
▁oust	-11.5823
▁adjust	-11.5824
▁embarrass	-11.5825
▁infect	-11.5827
chasing	-11.5836
je	-11.5844
rank	-11.5851
▁skill	-11.586
▁bump	-11.5861
planes	-11.5862
western	-11.5867
▁associates	-11.5868
▁algeria	-11.5868
▁disperse	-11.5868
▁surprising	-11.5868
ular	-11.5868
▁unfortunate	-11.5868
cover	-11.5871
▁victor	-11.5871
away	-11.5873
nprofit	-11.5873
▁bounce	-11.5873
▁necessar	-11.5874
▁210	-11.5876
▁aborigin	-11.5882
▁vocal	-11.5882
▁ty	-11.5884
▁1965	-11.5885
▁albatross	-11.5885
▁applause	-11.5885
▁calendar	-11.5885
▁canberra	-11.5885
▁categories	-11.5885
▁chapel	-11.5885
▁chungcheong	-11.5885
▁collapsing	-11.5885
▁commonwealth	-11.5885
▁curator	-11.5885
▁dementia	-11.5885
▁disarm	-11.5885
▁efficiency	-11.5885
▁eleven	-11.5885
▁exxon	-11.5885
▁gossip	-11.5885
▁hsbc	-11.5885
▁inspiration	-11.5885
▁intact	-11.5885
▁intelligent	-11.5885
▁juvenile	-11.5885
▁keynote	-11.5885
▁lesbian	-11.5885
▁mediterranean	-11.5885
▁newcastle	-11.5885
▁noriega	-11.5885
▁prototype	-11.5885
▁scorsese	-11.5885
▁scuffle	-11.5885
▁significance	-11.5885
▁solidarity	-11.5885
▁stalemate	-11.5885
▁wheelchair	-11.5885
▁wyoming	-11.5885
▁abraham	-11.5885
▁applaud	-11.5885
▁disclosure	-11.5885
▁replied	-11.5885
▁wrist	-11.5885
▁demilitariz	-11.5885
▁gerrard	-11.5885
▁studded	-11.5885
▁scope	-11.5885
▁copper	-11.5885
▁pretend	-11.5885
▁purchasing	-11.5885
▁cecilia	-11.5885
▁snack	-11.5885
▁rogue	-11.5885
▁jurors	-11.5885
▁zheng	-11.5885
▁strife	-11.5885
▁torrent	-11.5885
▁diane	-11.5885
▁screaming	-11.5885
▁barrage	-11.5885
▁beverage	-11.5885
▁fiber	-11.5885
▁ashley	-11.5885
▁klein	-11.5886
▁1983	-11.5886
▁rahman	-11.5886
▁cordon	-11.5886
▁collaboration	-11.5886
▁kwang	-11.5886
▁1985	-11.5886
▁childhood	-11.5886
▁discoveries	-11.5886
▁attendance	-11.5887
▁referee	-11.5887
▁evans	-11.5887
▁kiev	-11.5887
▁acceptance	-11.5888
▁township	-11.5889
▁disposal	-11.5889
▁instructor	-11.589
▁2050	-11.589
▁frustrated	-11.589
▁discharged	-11.5891
▁cartel	-11.5892
▁kitt	-11.5892
▁regulatory	-11.5895
▁daylight	-11.5896
▁thriller	-11.5896
▁sook	-11.5897
▁hook	-11.5899
▁clarke	-11.59
▁bypass	-11.5901
▁poorest	-11.5902
▁respects	-11.5904
▁observe	-11.5904
9,000	-11.5905
▁staffers	-11.5909
▁tenor	-11.5909
▁mcc	-11.5911
▁chanting	-11.5912
▁departed	-11.5913
▁shy	-11.5915
▁painting	-11.5917
▁chased	-11.592
▁bros	-11.592
fu	-11.592
▁accidental	-11.5922
▁bands	-11.5923
▁rangers	-11.5928
▁spann	-11.5928
▁6.5	-11.593
▁preserved	-11.5932
▁sidelines	-11.5932
▁observed	-11.5933
▁rattl	-11.5934
▁kha	-11.5935
▁sinking	-11.5936
▁alma	-11.5941
▁conservationist	-11.5943
▁butler	-11.5944
▁offend	-11.5945
▁rim	-11.5945
▁awaited	-11.5952
▁dinosaurs	-11.5962
▁turks	-11.5963
▁attractions	-11.5963
▁expires	-11.5963
▁bann	-11.5964
▁porn	-11.5966
▁pledges	-11.5967
▁albanians	-11.5968
▁seasons	-11.5968
mmy	-11.5971
ido	-11.5972
▁dealer	-11.5973
▁reli	-11.5974
▁providers	-11.5974
ren	-11.5975
▁valued	-11.5978
▁edged	-11.598
burg	-11.5981
▁discs	-11.5981
▁commuters	-11.5983
▁turner	-11.5983
▁2.6	-11.5986
▁arabian	-11.5988
▁males	-11.5991
▁nickname	-11.5998
▁snakes	-11.6003
▁cracked	-11.6007
▁eva	-11.6016
▁blankets	-11.6023
▁enterprises	-11.6028
▁serbs	-11.6033
▁0.5	-11.6034
▁adj	-11.6034
afa	-11.6035
▁graves	-11.6037
▁keeper	-11.6039
▁packages	-11.604
▁16,	-11.6042
▁stretched	-11.6045
oli	-11.6048
▁naturally	-11.6048
▁techniques	-11.6048
▁commands	-11.6057
▁fog	-11.6057
▁cafes	-11.6059
97	-11.6065
▁disc	-11.6068
ez	-11.6069
▁australians	-11.6069
▁habit	-11.6071
▁infections	-11.6074
▁dumping	-11.6078
ria	-11.6079
▁dell	-11.6082
▁inning	-11.6091
▁ker	-11.6092
▁lander	-11.6094
tis	-11.6094
▁towers	-11.6094
▁27.	-11.6098
▁nah	-11.6101
▁indications	-11.611
▁governors	-11.6115
zy	-11.6118
▁aspect	-11.6125
aking	-11.6126
▁finances	-11.6135
▁justin	-11.6144
▁revenues	-11.6145
▁brains	-11.6145
▁seas	-11.6155
▁tur	-11.6158
▁6.3	-11.6163
▁structures	-11.6165
chen	-11.6167
▁um	-11.617
understood	-11.6177
▁gallons	-11.6181
ex	-11.6186
▁reactors	-11.6192
85	-11.6194
▁travels	-11.6195
▁kicks	-11.6199
low	-11.6201
▁mccanns	-11.6206
▁hi	-11.621
▁requir	-11.6221
▁sw	-11.6236
shin	-11.6236
dominant	-11.6254
▁scam	-11.6258
▁monte	-11.6259
cent	-11.6263
▁contribut	-11.6273
▁tops	-11.6279
anford	-11.6298
rie	-11.6302
tted	-11.6302
▁exercises	-11.6304
tel	-11.6305
▁homicide	-11.631
▁blockbuster	-11.6311
▁pistol	-11.6311
▁julia	-11.6312
▁saint	-11.6313
.25	-11.6314
▁shareholder	-11.6315
▁extremist	-11.6316
▁expression	-11.6317
ned	-11.6322
ique	-11.6329
▁chuck	-11.6329
gel	-11.6333
ks	-11.6337
▁cope	-11.6342
▁gr	-11.6343
awa	-11.6344
▁scare	-11.6345
▁hid	-11.6346
▁scrambl	-11.6348
▁advertis	-11.6349
▁inspect	-11.6349
▁sisters	-11.6356
▁hom	-11.6362
▁flower	-11.6363
▁appealing	-11.6363
▁neutral	-11.6363
▁dangers	-11.6366
▁rankings	-11.6366
▁speeding	-11.6371
▁mobil	-11.6376
▁7.2	-11.6378
grid	-11.6382
▁stir	-11.6384
ram	-11.6386
nom	-11.6389
▁bent	-11.6389
▁jamaica	-11.6394
▁disagree	-11.6394
▁absolute	-11.6395
▁rad	-11.6395
▁imperial	-11.6399
▁claus	-11.6401
▁breathe	-11.6401
▁dirt	-11.6401
▁colon	-11.6405
▁kph	-11.6408
▁im	-11.6408
▁seize	-11.6409
▁distinct	-11.641
▁swat	-11.641
▁collins	-11.6411
▁trauma	-11.6411
gb	-11.6411
▁unhapp	-11.6411
▁amsterdam	-11.6411
▁bogota	-11.6411
▁branson	-11.6411
▁bronze	-11.6411
▁cholera	-11.6411
▁confederation	-11.6411
▁convincing	-11.6411
▁cycling	-11.6411
▁deputies	-11.6411
▁differ	-11.6411
▁djokovic	-11.6411
▁eacute	-11.6411
▁embargo	-11.6411
▁emperor	-11.6411
▁evangelical	-11.6411
▁external	-11.6411
▁forensic	-11.6411
▁furniture	-11.6411
▁goodwill	-11.6411
▁gorbachev	-11.6411
▁hectare	-11.6411
▁kangaroo	-11.6411
▁lauterbach	-11.6411
▁leather	-11.6411
▁library	-11.6411
▁lifestyle	-11.6411
▁mainstream	-11.6411
▁mcconnell	-11.6411
▁mechanism	-11.6411
▁pancreati	-11.6411
▁parachute	-11.6411
▁parallel	-11.6411
▁perspective	-11.6411
▁phuket	-11.6411
▁proclaim	-11.6411
▁retiring	-11.6411
▁robust	-11.6411
▁rwanda	-11.6411
▁unlawful	-11.6411
▁unofficial	-11.6411
▁valuable	-11.6411
▁yasukuni	-11.6411
▁animation	-11.6411
▁caffeine	-11.6411
▁cameroon	-11.6411
▁physics	-11.6411
▁plug	-11.6411
▁spiral	-11.6411
▁storage	-11.6411
▁evasion	-11.6411
▁spider	-11.6411
▁deported	-11.6411
▁destabilize	-11.6411
▁solving	-11.6411
▁blackmail	-11.6411
▁comparison	-11.6411
▁fireworks	-11.6411
▁miracle	-11.6411
▁capabilities	-11.6411
▁bribery	-11.6411
▁bubble	-11.6411
▁madison	-11.6411
▁thunder	-11.6411
▁colombo	-11.6411
▁spree	-11.6411
▁vincent	-11.6411
▁clerk	-11.6411
▁drift	-11.6411
▁lottery	-11.6411
▁munich	-11.6411
▁snatch	-11.6411
▁trek	-11.6411
▁rampant	-11.6411
▁garner	-11.6411
▁keating	-11.6411
▁manual	-11.6412
▁snapped	-11.6412
▁bunch	-11.6412
▁constructive	-11.6412
▁restoration	-11.6412
▁widening	-11.6412
▁leaf	-11.6412
▁consulate	-11.6412
▁haniya	-11.6412
▁trump	-11.6412
▁qala	-11.6412
▁vick	-11.6412
▁salary	-11.6412
▁lyon	-11.6412
▁disablement	-11.6412
▁1964	-11.6412
▁methane	-11.6413
▁authorization	-11.6413
▁meteorologist	-11.6413
▁buyout	-11.6413
▁blackwater	-11.6413
▁confidential	-11.6413
▁salmon	-11.6414
▁truman	-11.6414
▁leung	-11.6414
▁cough	-11.6414
▁picket	-11.6415
▁everyday	-11.6415
▁chadian	-11.6415
▁blitzer	-11.6415
▁nts	-11.6415
▁peterson	-11.6416
▁mullah	-11.6416
▁1930	-11.6416
▁downplay	-11.6416
▁nec	-11.6417
▁coastline	-11.6417
▁diversity	-11.6417
▁115	-11.6418
▁1,600	-11.6419
▁interpreter	-11.6419
▁scan	-11.6419
▁usher	-11.6419
▁jang	-11.642
▁justified	-11.642
▁courthouse	-11.642
▁profitable	-11.6421
▁joel	-11.6421
▁usgs	-11.6422
▁restrain	-11.6424
▁oriented	-11.6425
▁readers	-11.6428
▁shipp	-11.6428
▁gibbs	-11.6429
▁intervened	-11.6434
▁dive	-11.6434
▁lyrics	-11.6435
▁soap	-11.6436
▁hijacked	-11.6438
95	-11.644
▁bloggers	-11.644
gar	-11.6442
▁hood	-11.6444
▁notified	-11.6445
▁soda	-11.6445
▁carla	-11.6446
▁von	-11.6447
▁karim	-11.6449
▁enduring	-11.645
▁limbs	-11.6451
▁tail	-11.6454
▁diverted	-11.6457
▁exploited	-11.6461
▁97	-11.6462
▁emotions	-11.6467
▁ensur	-11.6467
▁waged	-11.6467
▁archives	-11.6472
▁ltd	-11.6473
▁lag	-11.6474
▁scrambling	-11.6475
▁eliminated	-11.6475
▁hir	-11.6476
▁britons	-11.6477
▁107	-11.6482
▁licensed	-11.6483
▁lessons	-11.6484
▁surfaced	-11.6487
▁cro	-11.6488
▁2.4	-11.6491
▁balloons	-11.6493
▁mammals	-11.6493
▁coins	-11.6493
27	-11.6496
▁advocates	-11.6498
▁dai	-11.6502
▁clan	-11.6502
▁jen	-11.6507
▁3.3	-11.6509
▁kissing	-11.651
▁7.1	-11.6512
▁define	-11.6513
▁hoi	-11.6515
▁filmmakers	-11.652
▁recruited	-11.652
▁prey	-11.6524
▁components	-11.6525
ative	-11.6526
▁brun	-11.653
▁torres	-11.653
▁recommends	-11.6531
▁solo	-11.6532
▁secretly	-11.6532
elena	-11.6535
▁improvements	-11.6536
▁promptly	-11.6551
▁medications	-11.6552
▁harmed	-11.6553
ilo	-11.6554
ailing	-11.6556
▁costa	-11.6561
dan	-11.6562
▁helen	-11.657
nce	-11.6574
▁cam	-11.6578
▁plates	-11.6578
▁reviews	-11.6584
▁presents	-11.6588
▁levi	-11.6592
▁roofs	-11.6594
▁argues	-11.6595
▁drives	-11.6597
rat	-11.6597
19	-11.6599
▁karl	-11.6602
trapped	-11.6603
▁bipartisan	-11.6607
▁shields	-11.661
ore	-11.6612
owed	-11.6619
▁leaking	-11.6619
istic	-11.6625
▁wan	-11.6634
▁booming	-11.6635
▁conventional	-11.6636
ky	-11.6649
rome	-11.6654
▁cas	-11.6656
▁vir	-11.6666
ola	-11.6683
▁outlin	-11.6684
▁17,	-11.6687
stein	-11.669
▁candle	-11.6693
her	-11.6693
▁owe	-11.6695
▁32,	-11.6696
▁symbols	-11.6698
rg	-11.67
▁cac	-11.67
▁contested	-11.67
▁brac	-11.6701
fire	-11.6707
▁operates	-11.6708
▁stricke	-11.6712
▁yan	-11.672
inous	-11.6736
▁aggravat	-11.6738
▁hoon	-11.6741
▁0.4	-11.6742
▁rem	-11.6755
▁cure	-11.6758
▁clinics	-11.6761
▁fe	-11.6773
▁96	-11.6774
aron	-11.6781
has	-11.6788
▁licenses	-11.6795
▁toured	-11.6798
▁defin	-11.6803
▁shiites	-11.6805
▁mates	-11.6809
▁donat	-11.681
▁sup	-11.6814
▁alien	-11.6815
▁polled	-11.6819
old	-11.6837
▁arrivals	-11.6838
14	-11.6838
▁recalls	-11.684
san	-11.684
nc	-11.6841
▁hun	-11.6843
▁sampl	-11.6846
▁christin	-11.6847
▁frame	-11.6848
▁update	-11.6853
▁defect	-11.6854
▁regulator	-11.686
ile	-11.6864
▁frog	-11.6865
▁scholar	-11.687
▁taxpayer	-11.687
▁pig	-11.6871
▁recommendation	-11.6871
▁cycle	-11.6872
▁persi	-11.6873
▁sailor	-11.6873
▁defendant	-11.6874
tri	-11.6874
▁distribut	-11.6877
▁founding	-11.6879
▁pur	-11.688
▁tar	-11.6882
▁faction	-11.6887
▁singles	-11.6891
▁hack	-11.6896
▁experienc	-11.6898
▁inform	-11.69
▁cloth	-11.6905
▁surpass	-11.6908
aid	-11.6914
▁mont	-11.692
lp	-11.6923
▁dies	-11.6923
▁gene	-11.6926
hab	-11.6927
spoken	-11.6929
▁fr	-11.6929
▁fle	-11.6934
▁tournaments	-11.6942
▁defi	-11.6944
▁hurting	-11.6947
▁tube	-11.695
▁gradual	-11.695
ich	-11.695
▁collective	-11.6951
▁assure	-11.6952
▁guilt	-11.6956
,700	-11.6963
▁veterinar	-11.6964
▁balk	-11.6965
▁archaeologi	-11.6965
▁loya	-11.6965
▁blank	-11.6966
▁1968	-11.6967
▁bahrain	-11.6967
▁burglary	-11.6967
▁celsius	-11.6967
▁charred	-11.6967
▁compatriot	-11.6967
▁crawford	-11.6967
▁daejeon	-11.6967
▁defence	-11.6967
▁exploring	-11.6967
▁fantasy	-11.6967
▁fatigue	-11.6967
▁gibson	-11.6967
▁grandchildren	-11.6967
▁grateful	-11.6967
▁humiliating	-11.6967
▁ideology	-11.6967
▁immense	-11.6967
▁kasparov	-11.6967
▁landfall	-11.6967
▁looming	-11.6967
▁lucrative	-11.6967
▁memorabilia	-11.6967
▁memphis	-11.6967
▁messenger	-11.6967
▁miserable	-11.6967
▁nistelrooy	-11.6967
▁pandemic	-11.6967
▁precinct	-11.6967
▁productivity	-11.6967
▁ritual	-11.6967
▁somewhat	-11.6967
▁staunch	-11.6967
▁substantive	-11.6967
▁syndrome	-11.6967
▁testosterone	-11.6967
▁tikrit	-11.6967
▁translation	-11.6967
▁translator	-11.6967
▁unauthorized	-11.6967
▁unbeaten	-11.6967
▁watson	-11.6967
▁zapeta	-11.6967
▁deplor	-11.6967
▁jefferson	-11.6967
▁reprocess	-11.6967
▁rojas	-11.6967
▁unesco	-11.6967
▁heaven	-11.6967
▁reassure	-11.6967
▁sacred	-11.6967
▁queensland	-11.6967
▁gauge	-11.6967
▁norris	-11.6967
▁paramount	-11.6967
▁ronaldinho	-11.6967
▁infring	-11.6967
▁lynn	-11.6967
▁garbage	-11.6967
▁preston	-11.6967
▁interference	-11.6967
▁khalid	-11.6967
▁baggage	-11.6967
▁embark	-11.6967
▁verified	-11.6967
▁capello	-11.6967
▁wholesale	-11.6967
▁fabio	-11.6967
▁lehman	-11.6967
▁liaison	-11.6967
▁snap	-11.6967
▁dadullah	-11.6967
▁cruz	-11.6967
▁destructive	-11.6967
▁prosper	-11.6967
▁lavish	-11.6967
▁shaft	-11.6967
▁rigging	-11.6967
▁sergeant	-11.6967
▁presley	-11.6967
▁tokto	-11.6967
▁brent	-11.6967
▁feud	-11.6968
▁dodge	-11.6968
▁seminar	-11.6968
▁considerably	-11.6968
▁recruitment	-11.6968
▁liga	-11.6968
▁stiff	-11.6968
▁anxiety	-11.6968
▁wise	-11.6968
▁forbes	-11.6968
▁transformation	-11.6968
▁pullout	-11.6969
▁reliable	-11.6969
▁brutality	-11.6969
▁spies	-11.6969
▁evolutionary	-11.6969
▁weird	-11.6969
▁equality	-11.6969
▁outrageous	-11.6969
▁kidman	-11.697
▁hardship	-11.697
▁horror	-11.697
arlie	-11.6971
▁sore	-11.6971
▁vary	-11.6972
▁distributor	-11.6972
▁newborn	-11.6972
▁sharon	-11.6973
▁hello	-11.6973
▁spectators	-11.6975
▁contracting	-11.6975
▁2030	-11.6975
▁ruth	-11.6976
▁illnesses	-11.6976
▁pub	-11.6976
▁francois	-11.6976
▁distribute	-11.6976
▁biology	-11.6977
▁hak	-11.6977
▁nike	-11.6978
▁alcoholic	-11.6978
▁deliveries	-11.6978
▁bounc	-11.6979
▁therapy	-11.6982
state	-11.6982
▁metro	-11.6983
▁gamble	-11.6983
▁digging	-11.6984
▁splash	-11.6985
▁14,000	-11.6986
,400	-11.6986
▁surprisingly	-11.6987
▁qud	-11.6988
kat	-11.6988
▁acceptable	-11.6989
qui	-11.699
▁roller	-11.699
▁byeon	-11.6991
▁chae	-11.6996
▁swiftly	-11.6997
▁descended	-11.6999
▁traced	-11.7
▁80,000	-11.7002
▁asean	-11.7002
▁disturbing	-11.7005
inal	-11.7007
▁penguins	-11.7009
ians	-11.7011
▁uci	-11.7011
42	-11.7012
▁sightings	-11.7014
▁servants	-11.7014
▁hampered	-11.7015
▁earning	-11.7024
▁searches	-11.7027
▁freedoms	-11.703
▁scal	-11.703
▁resisted	-11.7035
▁proven	-11.7036
▁todd	-11.7039
▁suppliers	-11.7042
▁mari	-11.7045
▁combine	-11.7047
▁cardinals	-11.7054
▁objections	-11.7054
▁mps	-11.7059
▁thatcher	-11.706
43	-11.7061
ette	-11.7061
▁disk	-11.7063
▁bel	-11.7065
▁tina	-11.7066
▁dose	-11.7066
ennis	-11.7072
▁julie	-11.7081
▁lovers	-11.7082
bur	-11.7085
▁walters	-11.7094
ato	-11.71
▁draws	-11.7101
▁squeez	-11.7103
▁ambulances	-11.7104
▁tick	-11.711
▁comb	-11.7112
col	-11.7113
▁receiver	-11.7115
▁3.7	-11.7127
▁underscore	-11.7128
lain	-11.7129
▁sting	-11.7131
▁crist	-11.7132
▁precautions	-11.7132
▁capitalist	-11.7135
▁jams	-11.7135
▁thu	-11.7138
▁memo	-11.7142
▁severed	-11.7149
▁serial	-11.7149
▁monitored	-11.7155
▁1.9	-11.7155
waiting	-11.716
▁recruits	-11.7161
▁qui	-11.7164
05	-11.7165
▁checkpoints	-11.7166
▁vaccines	-11.7183
▁platforms	-11.7189
ue	-11.7191
pping	-11.7191
board	-11.7196
▁cooling	-11.7203
▁kyong	-11.7212
▁skipp	-11.7213
▁lucian	-11.7214
▁timo	-11.7215
▁dvds	-11.7223
39	-11.7236
▁stalinis	-11.7248
ls	-11.7248
tting	-11.725
▁uni	-11.7257
▁prints	-11.7257
aj	-11.7257
▁ble	-11.7258
gone	-11.7258
zone	-11.7267
▁spying	-11.7268
bye	-11.7269
qu	-11.7271
▁mun	-11.7272
asha	-11.7276
▁packs	-11.7276
▁suppress	-11.729
▁boycotted	-11.7298
▁chains	-11.7298
▁91	-11.7311
▁germans	-11.7322
▁360	-11.7326
▁tri	-11.7327
wal	-11.7334
▁filmed	-11.7336
67	-11.7343
▁dealings	-11.735
▁cy	-11.7357
▁mit	-11.7364
▁hurl	-11.7375
▁approaching	-11.7379
if	-11.7381
▁gre	-11.7381
▁gro	-11.7385
▁rib	-11.7386
▁suicides	-11.7389
▁pine	-11.7397
lm	-11.7401
▁forth	-11.7406
seong	-11.7407
▁dear	-11.7408
▁gag	-11.7409
▁winston	-11.7418
▁dip	-11.7419
yer	-11.742
▁epi	-11.7425
gged	-11.7425
▁sensation	-11.7443
▁tighten	-11.7444
▁stan	-11.745
64	-11.7451
▁seizure	-11.7453
▁peanut	-11.7455
▁indoor	-11.7455
▁outfit	-11.7457
▁operative	-11.7457
▁instrument	-11.7458
▁advocate	-11.7458
▁grenade	-11.746
▁surgeon	-11.7466
▁folk	-11.7469
▁albanian	-11.7469
94	-11.747
▁purchases	-11.7471
▁disabl	-11.7471
ito	-11.7472
aa	-11.7475
▁enters	-11.7477
▁slid	-11.7479
ites	-11.748
▁165	-11.7487
▁zin	-11.7488
▁contend	-11.7488
▁kath	-11.7488
▁borrow	-11.7489
▁lend	-11.7489
▁ivan	-11.7493
▁enact	-11.7494
3,000	-11.75
▁stall	-11.7501
▁responses	-11.7504
▁nod	-11.7512
▁dock	-11.7513
power	-11.7513
▁carve	-11.7518
▁gran	-11.7528
▁domini	-11.7529
▁freely	-11.7532
▁speakers	-11.7536
▁precise	-11.7537
▁adequate	-11.7538
▁upgrade	-11.7538
▁concede	-11.7539
▁locate	-11.7539
▁appreciate	-11.7543
▁lett	-11.7546
▁mp	-11.7548
▁feat	-11.7549
▁sheet	-11.755
▁clemen	-11.7551
▁homosexual	-11.7554
▁smuggle	-11.7554
▁1962	-11.7555
▁1972	-11.7555
▁amusement	-11.7555
▁antiquities	-11.7555
▁auvinen	-11.7555
▁brisbane	-11.7555
▁capsule	-11.7555
▁currencies	-11.7555
▁depressed	-11.7555
▁deteriorating	-11.7555
▁disband	-11.7555
▁embezzl	-11.7555
▁escalation	-11.7555
▁gloom	-11.7555
▁guangdong	-11.7555
▁guangzhou	-11.7555
▁hamilton	-11.7555
▁hewitt	-11.7555
▁incredible	-11.7555
▁integrity	-11.7555
▁jupiter	-11.7555
▁khartoum	-11.7555
▁litvinenko	-11.7555
▁maintenance	-11.7555
▁marijuana	-11.7555
▁mbeki	-11.7555
▁oecd	-11.7555
▁plunging	-11.7555
▁pyeongchang	-11.7555
▁pyeongyang	-11.7555
▁quebec	-11.7555
▁reconsider	-11.7555
▁roadmap	-11.7555
▁safeguard	-11.7555
▁schuster	-11.7555
▁sluggish	-11.7555
▁sorenstam	-11.7555
▁trafford	-11.7555
▁tsonga	-11.7555
▁vancouver	-11.7555
▁armenian	-11.7555
▁backlash	-11.7555
▁commentator	-11.7555
▁kurds	-11.7555
▁saddened	-11.7555
▁technological	-11.7555
▁liberia	-11.7555
▁whereabouts	-11.7555
▁yushchenko	-11.7555
▁humpback	-11.7555
▁filipino	-11.7555
▁sickened	-11.7555
▁sultan	-11.7555
▁literature	-11.7555
▁charm	-11.7555
▁complications	-11.7555
▁delicate	-11.7555
▁clown	-11.7555
▁dignitar	-11.7555
▁stallone	-11.7555
▁definitive	-11.7555
▁lumpur	-11.7555
▁morocco	-11.7555
▁dmitr	-11.7555
▁ferraro	-11.7555
▁pedro	-11.7555
▁rhythm	-11.7555
▁precedent	-11.7555
▁plame	-11.7555
▁spawn	-11.7555
▁canyon	-11.7555
▁magnetic	-11.7555
▁passionate	-11.7555
▁occurring	-11.7555
▁defiant	-11.7555
▁rigged	-11.7555
▁minorities	-11.7555
▁exploitation	-11.7556
▁mourners	-11.7556
▁blade	-11.7556
▁battleground	-11.7556
▁stint	-11.7556
▁darling	-11.7556
▁xiang	-11.7556
▁woke	-11.7556
▁forthcoming	-11.7556
▁raging	-11.7556
▁theories	-11.7556
▁installment	-11.7556
▁funny	-11.7556
▁nepalese	-11.7556
▁honey	-11.7556
▁descent	-11.7556
▁absorb	-11.7556
▁1967	-11.7556
▁liquidity	-11.7557
▁clutch	-11.7557
▁kaka	-11.7557
▁checkup	-11.7557
▁posing	-11.7557
▁mtv	-11.7557
▁1977	-11.7557
▁integration	-11.7557
▁riza	-11.7557
▁roland	-11.7558
▁coordinator	-11.7558
▁chess	-11.7558
▁cake	-11.7558
▁canoe	-11.7558
▁persist	-11.7559
▁waiver	-11.7559
▁finalize	-11.7559
▁cowell	-11.756
▁viable	-11.756
▁blackout	-11.756
▁occasionally	-11.7561
▁xp	-11.7561
▁alvar	-11.7562
▁levy	-11.7562
acent	-11.7562
▁reef	-11.7563
▁heroes	-11.7563
▁engulfed	-11.7564
▁overwhelmed	-11.7564
▁barb	-11.7564
cation	-11.7564
▁simultaneously	-11.7565
▁lan	-11.7565
▁wta	-11.7565
▁perry	-11.7566
▁render	-11.7567
▁grandson	-11.7567
▁middleton	-11.7568
▁ditch	-11.7568
▁unified	-11.757
▁composed	-11.7571
▁bury	-11.7572
▁gill	-11.7572
▁console	-11.7573
▁scar	-11.7573
▁artifacts	-11.7576
▁excerpts	-11.7576
wind	-11.7576
▁sochi	-11.7576
▁accessible	-11.7576
▁1,19	-11.7578
▁shower	-11.7582
▁sheik	-11.7582
▁126	-11.7582
▁theatre	-11.7585
▁jem	-11.7585
▁calculat	-11.7585
▁hyung	-11.7586
▁wto	-11.7586
▁anytime	-11.7588
▁successes	-11.7588
▁beheaded	-11.7588
▁launches	-11.7593
▁shrinking	-11.7596
▁persuad	-11.7596
▁litter	-11.7596
▁kilograms	-11.7599
▁quietly	-11.7602
▁fer	-11.7603
▁mentally	-11.7604
▁kal	-11.7605
▁145	-11.7606
▁guaranteed	-11.7607
▁acquired	-11.7607
▁sue	-11.7611
▁speculated	-11.7611
▁ruins	-11.7624
▁gripp	-11.7625
ddie	-11.7626
▁bark	-11.7629
put	-11.7629
▁disagreements	-11.7629
▁frankly	-11.7631
hard	-11.7637
▁consultations	-11.7641
court	-11.7643
▁physically	-11.7646
▁revived	-11.7648
▁instruments	-11.7653
bed	-11.7654
▁transmitt	-11.7659
▁boil	-11.7665
▁2.7	-11.7667
▁eyed	-11.7672
▁renounce	-11.768
dding	-11.7681
▁bat	-11.7682
▁eras	-11.7688
▁crushed	-11.7691
ea	-11.7692
▁violently	-11.7695
▁masks	-11.7695
▁asif	-11.7702
▁broadcasts	-11.7705
vy	-11.7713
▁joke	-11.7717
▁statues	-11.7719
olla	-11.7728
ities	-11.7729
▁pipelines	-11.7731
▁2.9	-11.7732
▁dispos	-11.7734
▁offenses	-11.7743
▁lions	-11.7745
ock	-11.7751
▁warns	-11.7751
▁butter	-11.7754
▁2.8	-11.7755
▁evacuations	-11.7755
▁toilets	-11.7761
▁bite	-11.7762
ok	-11.7764
▁3.2	-11.7764
▁articles	-11.7774
▁lighter	-11.7774
▁vent	-11.7774
▁merit	-11.7775
▁1,6	-11.7778
▁nurse	-11.7784
36	-11.7789
ika	-11.7791
▁convictions	-11.7792
▁succeeded	-11.7794
▁custom	-11.7794
▁blacks	-11.7794
▁sever	-11.7799
▁railways	-11.7804
▁killers	-11.7804
▁costly	-11.781
▁ny	-11.7819
20	-11.7826
▁debated	-11.7826
run	-11.7834
▁congratulate	-11.7863
las	-11.7863
▁prob	-11.7865
spects	-11.7877
net	-11.7884
▁restor	-11.7903
▁corporations	-11.7913
mb	-11.7913
erry	-11.7914
▁sci	-11.7915
▁dub	-11.7936
art	-11.7939
oma	-11.7955
ure	-11.7962
▁cove	-11.7967
▁cub	-11.7969
▁voices	-11.7973
ep	-11.7989
▁ung	-11.7991
▁skip	-11.7996
▁sided	-11.7998
idf	-11.8007
▁assaulted	-11.8013
▁wipe	-11.8015
▁professionals	-11.8018
anana	-11.8027
▁sar	-11.8032
▁plagu	-11.8035
▁gra	-11.8036
ility	-11.8046
▁dome	-11.8047
55	-11.8055
▁disappear	-11.8058
7.3	-11.8061
▁bend	-11.8063
▁subjects	-11.8065
▁expire	-11.8069
▁pile	-11.8074
▁consultant	-11.8079
▁nichol	-11.8079
▁automobile	-11.8082
▁element	-11.8083
▁balloon	-11.8083
▁dinosaur	-11.8083
▁mammal	-11.8083
▁cardinal	-11.8083
▁dissident	-11.8084
▁guerrilla	-11.8084
▁obligation	-11.8084
▁achievement	-11.8085
737	-11.8085
▁resource	-11.8085
▁kara	-11.8086
▁objection	-11.8086
▁serie	-11.8086
▁accusation	-11.8088
▁rover	-11.8091
▁ut	-11.8096
▁drum	-11.8097
▁serge	-11.8098
▁attraction	-11.8101
▁headline	-11.8104
▁thrill	-11.8107
▁visas	-11.811
▁550	-11.811
▁tu	-11.8114
▁donation	-11.8115
eck	-11.8117
▁harvest	-11.8119
▁exploit	-11.8121
▁conceal	-11.8122
93	-11.8123
▁coin	-11.8127
▁cheer	-11.8133
▁situations	-11.8135
hood	-11.8137
productive	-11.8141
right	-11.8145
▁treatments	-11.8146
related	-11.8146
▁wells	-11.8146
▁ab	-11.815
▁facilitate	-11.815
▁mag	-11.8151
▁audiences	-11.8153
▁favors	-11.8153
▁jab	-11.8154
structed	-11.8155
▁veer	-11.8159
▁manufacture	-11.8161
▁profound	-11.8163
▁respective	-11.8169
▁contradict	-11.8169
▁speculate	-11.817
▁capita	-11.8178
▁contemporar	-11.8179
▁sovereign	-11.8179
▁absent	-11.818
▁psycho	-11.818
unconstitutional	-11.818
▁abnormal	-11.818
▁alkatiri	-11.818
▁archbishop	-11.818
▁azerbaijan	-11.818
▁barracks	-11.818
▁belgrade	-11.818
▁canaveral	-11.818
▁clapton	-11.818
▁cmdr	-11.818
▁computing	-11.818
▁credible	-11.818
▁crises	-11.818
▁davydenko	-11.818
▁defensive	-11.818
▁description	-11.818
▁deterrent	-11.818
▁diarrhea	-11.818
▁dicaprio	-11.818
▁disappointing	-11.818
▁eagle	-11.818
▁estrange	-11.818
▁excellent	-11.818
▁explicit	-11.818
▁fukuda	-11.818
▁halloween	-11.818
▁heavyweight	-11.818
▁leahy	-11.818
▁livni	-11.818
▁mandela	-11.818
▁mogul	-11.818
▁moroccan	-11.818
▁napolitano	-11.818
▁overshadow	-11.818
▁paramilitar	-11.818
▁rasmussen	-11.818
▁rejoin	-11.818
▁resurgen	-11.818
▁separation	-11.818
▁shortfall	-11.818
▁siniora	-11.818
▁skeleton	-11.818
▁skepticism	-11.818
▁soyuz	-11.818
▁standstill	-11.818
▁stimulate	-11.818
▁supplied	-11.818
▁suzuki	-11.818
▁temblor	-11.818
▁underneath	-11.818
▁unearth	-11.818
▁upscale	-11.818
▁warfare	-11.818
▁wizard	-11.818
▁zapatero	-11.818
▁dylan	-11.818
▁henderson	-11.818
▁justify	-11.818
▁overdose	-11.818
▁resuming	-11.818
▁reunion	-11.818
▁amateur	-11.818
▁brooklyn	-11.818
▁commodities	-11.818
▁portsmouth	-11.818
▁siberia	-11.818
▁spielberg	-11.818
▁stiles	-11.818
▁allawi	-11.818
▁provocation	-11.818
▁notify	-11.818
▁ordeal	-11.818
▁malibu	-11.818
▁meltdown	-11.818
▁pleasure	-11.818
▁simulate	-11.818
▁blacksburg	-11.818
▁leverage	-11.818
▁inquiries	-11.818
▁archipelago	-11.818
▁qatar	-11.818
▁ancestors	-11.818
▁disturbance	-11.818
▁padilla	-11.818
▁urgency	-11.818
▁cooperative	-11.818
▁orientation	-11.818
▁annul	-11.818
▁dynamic	-11.818
▁defiance	-11.818
▁finland	-11.818
▁ridiculous	-11.818
▁drastically	-11.818
▁hungry	-11.818
▁textile	-11.818
▁gerald	-11.818
▁loving	-11.818
▁podium	-11.818
▁irna	-11.818
▁consciousness	-11.818
▁surname	-11.818
▁resistant	-11.818
errill	-11.818
▁interactive	-11.818
▁nso	-11.818
▁robinson	-11.8181
▁intimidation	-11.8181
▁rebuke	-11.8181
▁zay	-11.8181
▁horrific	-11.8181
▁breakdown	-11.8181
▁showcase	-11.8181
▁enron	-11.8181
▁cancelled	-11.8181
▁jeremy	-11.8181
▁courageous	-11.8181
▁fisheries	-11.8182
▁nhk	-11.8182
▁walkout	-11.8182
▁ballmer	-11.8182
▁dodd	-11.8182
▁genome	-11.8182
▁busiest	-11.8182
▁quarterback	-11.8182
▁nile	-11.8183
▁farther	-11.8184
▁mineral	-11.8184
▁penh	-11.8184
▁endured	-11.8185
▁drinkers	-11.8185
▁2015	-11.8185
▁stump	-11.8185
▁handover	-11.8185
▁frightened	-11.8186
▁abruptly	-11.8186
▁hanaro	-11.8187
▁fundraising	-11.8187
▁henri	-11.8187
▁anymore	-11.8187
▁plantation	-11.8188
▁dax	-11.8188
▁dismissal	-11.8188
▁max	-11.8189
▁portrayal	-11.819
▁chimps	-11.819
▁patch	-11.819
▁chilly	-11.819
▁wishes	-11.819
▁motivation	-11.8191
▁cart	-11.8192
▁bosses	-11.8193
▁corpses	-11.8194
▁conspir	-11.8195
▁foul	-11.8196
▁tackl	-11.8196
▁zhu	-11.8197
▁waterway	-11.8197
iv	-11.8198
▁yemeni	-11.8199
▁backup	-11.8201
▁zambia	-11.8201
▁algerian	-11.8201
▁approaches	-11.8202
▁cheon	-11.8202
▁noble	-11.8204
▁kg	-11.8204
▁reap	-11.8206
▁holdings	-11.8207
▁reinforcements	-11.8208
▁salaries	-11.8209
▁600,000	-11.8209
▁slapp	-11.8209
▁exclusively	-11.821
▁particles	-11.8212
ink	-11.8213
▁kidnappings	-11.8216
▁architects	-11.8219
▁sword	-11.8219
▁sample	-11.8219
▁esta	-11.822
▁ingredients	-11.8221
▁plummeted	-11.8223
▁productive	-11.8225
▁performers	-11.8226
▁wrestl	-11.8227
▁log	-11.8227
▁collud	-11.8227
▁climbers	-11.823
▁divisions	-11.8234
tion	-11.8238
▁cheered	-11.8238
▁contestants	-11.824
▁facto	-11.824
▁laughing	-11.8241
▁tightened	-11.8242
▁lava	-11.8243
▁siblings	-11.8247
▁campaigned	-11.8248
▁6.8	-11.8251
lar	-11.8251
▁amend	-11.8253
▁0.8	-11.8255
ug	-11.8256
und	-11.8256
▁samba	-11.8258
▁obstacles	-11.8259
▁compare	-11.8269
▁leaning	-11.8277
▁achievements	-11.8278
▁automobiles	-11.8278
▁tier	-11.828
▁drilling	-11.8282
▁sag	-11.8285
▁functioning	-11.8287
ski	-11.8291
▁2.1	-11.8291
▁aliens	-11.8292
▁admitt	-11.8293
▁postal	-11.8295
▁exceptional	-11.8296
▁praying	-11.8299
▁33,	-11.8299
▁translate	-11.8303
▁classrooms	-11.8304
▁intentional	-11.8306
▁tents	-11.8312
▁alike	-11.8313
▁seeds	-11.8322
16	-11.8331
▁sink	-11.8337
tive	-11.834
▁circulat	-11.8341
▁eli	-11.8349
smo	-11.8355
▁destinations	-11.8355
▁pak	-11.8358
▁sunnis	-11.8359
▁slipping	-11.8361
▁yass	-11.8363
▁valeri	-11.8368
▁sabotage	-11.8371
▁disasters	-11.8374
▁ec	-11.8375
92	-11.838
▁mortars	-11.8387
▁infants	-11.8387
▁hwa	-11.839
▁hal	-11.8392
▁reacting	-11.8395
▁poorly	-11.84
▁wil	-11.8402
▁devi	-11.8403
▁amendments	-11.8407
trust	-11.8418
▁beard	-11.8422
▁mur	-11.8423
▁banners	-11.8428
▁failures	-11.843
▁teach	-11.843
▁deliberat	-11.8438
▁references	-11.8451
oval	-11.8459
▁lunche	-11.846
▁advisors	-11.8471
▁crossings	-11.8471
▁fo	-11.8477
▁medals	-11.8477
▁gunn	-11.8483
sky	-11.8484
▁mala	-11.8496
▁rust	-11.8502
▁congratulat	-11.8507
▁lai	-11.851
▁debat	-11.8522
▁denounce	-11.8532
▁humane	-11.8538
▁shifted	-11.8539
▁maid	-11.8546
▁nad	-11.8546
▁temples	-11.8556
▁importantly	-11.8557
▁deer	-11.8558
▁08	-11.856
▁analyze	-11.8572
▁respected	-11.8586
▁24,	-11.8588
bbie	-11.8593
▁minded	-11.8594
▁mill	-11.8597
rt	-11.8597
▁designs	-11.8599
▁bro	-11.8599
▁mortgages	-11.8601
▁2,02	-11.8605
▁closet	-11.861
▁volcani	-11.8617
40	-11.8619
▁laugh	-11.8621
▁lim	-11.8638
▁reads	-11.8658
▁230	-11.8658
▁1994.	-11.8659
▁xi	-11.8661
▁papa	-11.8668
38	-11.8672
▁labels	-11.8674
ect	-11.8679
for	-11.8684
▁retire	-11.8693
xis	-11.8694
▁retract	-11.8694
tti	-11.8695
▁gem	-11.8698
ichi	-11.8699
▁interfere	-11.87
fraction	-11.87
▁heating	-11.8702
▁suburbs	-11.8713
▁morale	-11.8721
▁mayors	-11.8731
▁exists	-11.8732
owing	-11.8735
▁nh	-11.8736
▁soak	-11.874
▁blu	-11.8744
▁rotat	-11.8745
▁concentration	-11.8747
▁certificate	-11.8747
▁monument	-11.8747
▁segment	-11.8748
▁bishop	-11.8749
▁outlet	-11.875
▁consultation	-11.8751
▁installation	-11.8751
▁comic	-11.8752
▁19.	-11.8752
▁organizer	-11.8754
▁mediator	-11.8759
▁relation	-11.8759
▁stevens	-11.8762
▁expectation	-11.8762
▁defeating	-11.8762
▁musician	-11.8764
▁brook	-11.8769
▁norm	-11.877
cho	-11.8775
rk	-11.8776
▁tracked	-11.8777
row	-11.8779
mas	-11.878
▁unc	-11.8783
▁dwindl	-11.8787
▁sustain	-11.8788
▁nutrition	-11.8789
rate	-11.8794
▁112	-11.8794
▁hamper	-11.8796
▁rus	-11.8797
▁5.7	-11.8801
▁divert	-11.8803
point	-11.8804
▁visitor	-11.8805
▁specifics	-11.8806
▁preach	-11.8809
secretary	-11.8809
worth	-11.8809
▁partisan	-11.8809
▁3.8	-11.8813
wn	-11.8814
▁organize	-11.8828
▁olive	-11.8829
▁quarantine	-11.8829
▁bulgaria	-11.883
▁swam	-11.883
▁heath	-11.8833
▁relocate	-11.8833
▁0.1	-11.8833
actic	-11.8837
itu	-11.884
▁provider	-11.8841
lihood	-11.8845
chai	-11.8845
▁depriv	-11.8846
▁charisma	-11.8846
▁1974	-11.8847
▁1976	-11.8847
▁barclay	-11.8847
▁bennett	-11.8847
▁birkhead	-11.8847
▁birmingham	-11.8847
▁bollywood	-11.8847
▁charlotte	-11.8847
▁credentials	-11.8847
▁credibility	-11.8847
▁crichton	-11.8847
▁criteria	-11.8847
▁dynasty	-11.8847
▁endurance	-11.8847
▁excitement	-11.8847
▁fritzl	-11.8847
▁guinea	-11.8847
▁hatoyama	-11.8847
▁immunity	-11.8847
▁influenza	-11.8847
▁johansson	-11.8847
▁kazemi	-11.8847
▁lackluster	-11.8847
▁lakshmi	-11.8847
▁lawrence	-11.8847
▁lenient	-11.8847
▁lindsey	-11.8847
▁lufthansa	-11.8847
▁motorcade	-11.8847
▁nephew	-11.8847
▁nevertheless	-11.8847
▁noodles	-11.8847
▁paraguay	-11.8847
▁pilgrimage	-11.8847
▁populous	-11.8847
▁punjab	-11.8847
▁radioactive	-11.8847
▁renowned	-11.8847
▁sanchez	-11.8847
▁shrimp	-11.8847
▁ubiquitous	-11.8847
▁valencia	-11.8847
▁wembley	-11.8847
▁wfp	-11.8847
▁xinjiang	-11.8847
▁zebari	-11.8847
▁affidavit	-11.8847
▁chopper	-11.8847
▁enlist	-11.8847
▁flavor	-11.8847
▁malfunction	-11.8847
▁spacewalk	-11.8847
▁stroll	-11.8847
▁baldwin	-11.8847
▁blacklist	-11.8847
▁festivities	-11.8847
▁hawkins	-11.8847
▁holmes	-11.8847
▁infuriat	-11.8847
▁inhabit	-11.8847
▁nasrallah	-11.8847
▁unleash	-11.8847
▁verbal	-11.8847
▁grocer	-11.8847
▁rangoon	-11.8847
▁impressed	-11.8847
▁irwin	-11.8847
▁orphanage	-11.8847
▁awakening	-11.8847
▁bayern	-11.8847
▁horrible	-11.8847
▁forbidden	-11.8847
▁gorge	-11.8847
▁thumb	-11.8847
▁bloodshed	-11.8847
▁vinci	-11.8847
▁redeployment	-11.8847
▁minimal	-11.8847
▁garrison	-11.8847
diac	-11.8847
▁memoir	-11.8847
▁email	-11.8847
▁bleeding	-11.8847
▁luther	-11.8847
▁ivanovic	-11.8847
▁scout	-11.8847
▁teddy	-11.8847
▁diaz	-11.8847
▁stabbed	-11.8847
▁omx	-11.8847
▁minimiz	-11.8847
▁derby	-11.8847
▁spotlight	-11.8848
▁coffin	-11.8848
▁roam	-11.8848
▁diesel	-11.8848
▁plc	-11.8848
▁cemetery	-11.8848
▁worship	-11.8848
▁regiment	-11.8848
▁cleanup	-11.8848
▁competitiveness	-11.8848
▁barney	-11.8848
▁farmland	-11.8848
▁gamba	-11.8849
▁meaningful	-11.8849
▁perceived	-11.8849
▁osman	-11.885
▁1947	-11.885
▁migration	-11.885
▁shank	-11.885
▁emmy	-11.885
▁lula	-11.885
▁mediation	-11.885
▁confiscated	-11.8851
▁battlefield	-11.8851
▁matchup	-11.8851
▁mason	-11.8851
▁decent	-11.8851
▁amber	-11.8852
▁martial	-11.8852
▁recon	-11.8852
▁1,300	-11.8853
▁globalization	-11.8854
▁cramp	-11.8854
▁peel	-11.8854
▁revise	-11.8854
▁thorn	-11.8854
▁hinder	-11.8855
▁fargo	-11.8855
▁sustainable	-11.8855
van	-11.8856
▁escalated	-11.8856
▁homeowners	-11.8858
rei	-11.8858
▁ferrer	-11.886
▁foiled	-11.8861
▁protective	-11.8861
▁17,000	-11.8862
▁thoroughly	-11.8862
▁cheating	-11.8862
▁outright	-11.8862
▁rental	-11.8863
▁swamp	-11.8863
aah	-11.8864
adic	-11.8864
▁stray	-11.8866
▁monarchy	-11.8866
▁trends	-11.8867
▁tide	-11.8867
▁commentary	-11.8867
▁accountable	-11.8868
▁freezer	-11.8868
ibly	-11.8868
▁evolved	-11.8869
▁penny	-11.8869
▁meyer	-11.887
▁premises	-11.887
▁slower	-11.887
▁mos	-11.8871
▁spared	-11.8872
▁cox	-11.8873
▁7.5	-11.8873
▁dissolv	-11.8874
▁appreciated	-11.8876
▁coaches	-11.8876
▁spouses	-11.8877
▁prescrib	-11.8878
▁tenth	-11.8878
▁unexpectedly	-11.888
mes	-11.8881
▁swarm	-11.8882
09	-11.8886
▁salam	-11.8887
▁frenchman	-11.8893
▁brewer	-11.8894
▁abdel	-11.8898
▁interviewer	-11.8901
▁hopefully	-11.8901
▁stirring	-11.8902
▁zi	-11.8905
▁excluded	-11.8906
▁blend	-11.8906
▁3.9	-11.8906
▁reminder	-11.8911
▁anwar	-11.8911
▁circulating	-11.8912
▁pale	-11.8912
▁competed	-11.8912
03	-11.8917
▁nerves	-11.8918
▁belly	-11.892
ats	-11.8923
▁carmakers	-11.8925
▁twisted	-11.8925
▁regulate	-11.8927
54	-11.8929
▁commented	-11.893
▁raft	-11.8932
▁ip	-11.8933
▁finn	-11.8937
▁tibetans	-11.894
▁bun	-11.894
▁consulted	-11.8943
gang	-11.8944
.95	-11.8951
▁casp	-11.8952
▁provisional	-11.8956
▁operatives	-11.8959
▁surgeons	-11.8959
▁roses	-11.896
hor	-11.8961
▁pit	-11.8961
▁bare	-11.8963
▁jogg	-11.8964
▁rode	-11.8966
▁cull	-11.8966
▁displays	-11.8967
▁confronted	-11.897
▁4.8	-11.8978
▁ti	-11.8978
▁0.7	-11.8981
log	-11.8983
▁spurs	-11.8987
tractor	-11.899
▁interfer	-11.8996
▁grove	-11.9004
26	-11.9009
▁spaniards	-11.9014
▁pleas	-11.9027
▁magazines	-11.9027
lli	-11.903
▁reminiscen	-11.9032
▁bricks	-11.9034
▁contributions	-11.9035
sten	-11.9038
icia	-11.9042
rid	-11.9043
mon	-11.9045
▁arabs	-11.9047
▁wraps	-11.9049
▁deserves	-11.9055
▁quota	-11.9057
▁beliefs	-11.9062
▁vip	-11.9062
▁1996.	-11.9062
▁accommodate	-11.9063
▁maru	-11.9073
▁provoke	-11.9075
▁op	-11.9077
▁input	-11.9079
▁disciplin	-11.9085
pine	-11.9087
ith	-11.9098
▁viewing	-11.911
▁josh	-11.9112
▁suite	-11.9126
and	-11.9126
▁robots	-11.9131
▁unm	-11.9132
▁robin	-11.9134
▁speeds	-11.9136
▁zo	-11.9145
▁wie	-11.9153
▁sc	-11.9156
▁socialists	-11.9161
▁conclusions	-11.9166
▁ir	-11.9189
▁inmate	-11.919
▁spirits	-11.9194
▁existed	-11.9194
▁probabl	-11.92
▁obstruct	-11.92
▁snu	-11.9211
▁pie	-11.9215
▁dash	-11.9226
▁clo	-11.9243
▁5.5	-11.9245
▁nic	-11.9245
sisting	-11.9249
▁fin	-11.9251
▁cleaning	-11.9252
hon	-11.9265
▁resigning	-11.9265
▁fare	-11.9267
▁drops	-11.9274
place	-11.9279
▁keys	-11.9282
▁mut	-11.9288
▁ringing	-11.9291
dis	-11.93
▁alternatives	-11.9304
nan	-11.9317
▁defuse	-11.9322
▁modifi	-11.9326
die	-11.9329
▁ramp	-11.9329
▁sorts	-11.9332
tious	-11.9336
igan	-11.9336
▁mona	-11.9339
▁rides	-11.9341
▁grounded	-11.9345
▁nova	-11.9345
2,000	-11.9346
▁fre	-11.9355
tana	-11.9356
▁rolls	-11.9358
aya	-11.936
bre	-11.9365
tter	-11.9367
▁compounds	-11.9369
▁esp	-11.9369
▁wad	-11.9372
tracted	-11.9375
uted	-11.9383
uso	-11.9386
▁squeeze	-11.9387
▁dish	-11.9396
▁paths	-11.9409
tech	-11.9414
▁shells	-11.9417
▁albums	-11.9419
ega	-11.9422
▁155	-11.9428
▁gum	-11.9429
ado	-11.9435
anne	-11.9436
▁globally	-11.9437
▁propos	-11.9439
▁reinforce	-11.9447
▁offerings	-11.9447
▁column	-11.9456
▁lied	-11.9457
lov	-11.9457
▁hispanic	-11.9459
▁qualifier	-11.9459
▁rub	-11.946
▁deepen	-11.946
▁supplier	-11.9464
▁marco	-11.9469
▁requirement	-11.947
▁abd	-11.9473
▁lows	-11.9474
▁reviv	-11.9475
▁hyo	-11.948
▁chill	-11.9487
▁retailer	-11.9489
▁intercept	-11.949
▁104	-11.9492
▁carlo	-11.9492
▁rout	-11.9495
▁construct	-11.9501
iff	-11.9502
▁abduct	-11.9503
phone	-11.9505
▁lesson	-11.9508
▁crumbl	-11.9512
▁integrate	-11.9515
oon	-11.9523
book	-11.953
▁220	-11.9535
lude	-11.9541
▁pla	-11.9541
▁graz	-11.9543
▁continuous	-11.9544
▁thorough	-11.9544
▁tolerate	-11.9544
▁indefinite	-11.9544
▁106	-11.9546
▁delegations	-11.9547
▁rage	-11.9552
▁trapp	-11.9553
▁firefight	-11.9553
▁abdulla	-11.9553
▁versions	-11.9555
▁atmospher	-11.9555
leen	-11.9555
▁societ	-11.9556
▁potato	-11.9558
▁commute	-11.9558
▁zoe	-11.9558
▁psychiatri	-11.9559
▁corrupt	-11.956
▁tables	-11.956
▁saudis	-11.956
▁casual	-11.956
▁champ	-11.956
pplies	-11.9561
▁jaguar	-11.9561
misunderstanding	-11.9561
▁acclaim	-11.9561
▁altogether	-11.9561
▁amoeba	-11.9561
▁baptist	-11.9561
▁barksdale	-11.9561
▁blanchett	-11.9561
▁chertoff	-11.9561
▁clarify	-11.9561
▁columbus	-11.9561
▁convenience	-11.9561
▁crazy	-11.9561
▁edinburgh	-11.9561
▁elbow	-11.9561
▁erotic	-11.9561
▁estrada	-11.9561
▁evacuees	-11.9561
▁exercising	-11.9561
▁expulsion	-11.9561
▁frantic	-11.9561
▁fugitive	-11.9561
▁gabriel	-11.9561
▁gondola	-11.9561
▁guinness	-11.9561
▁hajj	-11.9561
▁indecent	-11.9561
▁jpmorgan	-11.9561
▁jurisdiction	-11.9561
▁katie	-11.9561
▁kookmin	-11.9561
▁laundry	-11.9561
▁lithuania	-11.9561
▁lugovoi	-11.9561
▁machimura	-11.9561
▁mathematic	-11.9561
▁meshaal	-11.9561
▁montgomery	-11.9561
▁motorbike	-11.9561
▁mourinho	-11.9561
▁negligence	-11.9561
▁obesity	-11.9561
▁odyssey	-11.9561
▁peruvian	-11.9561
▁physicist	-11.9561
▁pneumonia	-11.9561
▁possibilities	-11.9561
▁preference	-11.9561
▁racist	-11.9561
▁rainforest	-11.9561
▁reluctance	-11.9561
▁rendition	-11.9561
▁ritchie	-11.9561
▁roosevelt	-11.9561
▁salvador	-11.9561
▁sanitation	-11.9561
▁seinfeld	-11.9561
▁specify	-11.9561
▁specter	-11.9561
▁spencer	-11.9561
▁supermodel	-11.9561
▁surrogate	-11.9561
▁tebow	-11.9561
▁thieves	-11.9561
▁titanic	-11.9561
▁trezeguet	-11.9561
▁uncommon	-11.9561
▁unsafe	-11.9561
▁vacant	-11.9561
▁valentine	-11.9561
▁2018	-11.9561
▁dupre	-11.9561
▁floodwaters	-11.9561
▁longoria	-11.9561
▁phrase	-11.9561
▁scientology	-11.9561
▁superstar	-11.9561
▁authoritarian	-11.9561
▁benoit	-11.9561
▁zurich	-11.9561
▁ideological	-11.9561
▁instability	-11.9561
▁khalaf	-11.9561
▁shandong	-11.9561
▁dengue	-11.9561
▁nightmare	-11.9561
▁ramallah	-11.9561
▁telegraph	-11.9561
▁giggs	-11.9561
▁invention	-11.9561
▁impasse	-11.9561
▁julio	-11.9561
▁gallup	-11.9561
▁prague	-11.9561
▁wolong	-11.9561
▁intercourse	-11.9561
▁nashville	-11.9561
▁lampard	-11.9561
▁muhammad	-11.9561
▁gilbert	-11.9561
▁mansfield	-11.9561
▁mirren	-11.9561
▁freud	-11.9561
▁florence	-11.9561
▁imagination	-11.9561
▁shunn	-11.9561
▁cyberspace	-11.9561
▁crane	-11.9561
▁emmanuel	-11.9561
▁volley	-11.9561
▁refineries	-11.9561
▁lahim	-11.9561
▁liberties	-11.9561
▁1,5	-11.9561
▁thigh	-11.9561
▁ceasefire	-11.9561
▁unnecessary	-11.9561
▁globo	-11.9561
▁imam	-11.9561
▁livestock	-11.9561
▁buffett	-11.9562
▁foment	-11.9562
▁aisle	-11.9562
▁anchorage	-11.9562
▁enthusiastic	-11.9562
▁shootout	-11.9562
▁yoga	-11.9562
▁plaza	-11.9562
▁fool	-11.9562
▁slice	-11.9562
▁interpretation	-11.9562
▁ridge	-11.9562
▁equalizer	-11.9563
▁adaptation	-11.9563
▁sadness	-11.9563
▁pork	-11.9563
▁cubic	-11.9563
▁hoop	-11.9563
▁scrapp	-11.9563
hieu	-11.9563
▁exert	-11.9563
▁greenback	-11.9563
▁motel	-11.9563
▁libi	-11.9563
▁normalization	-11.9563
▁hungary	-11.9563
▁ump	-11.9563
▁pickup	-11.9563
▁keane	-11.9564
▁kbs	-11.9564
▁fatality	-11.9564
metric	-11.9564
▁hostility	-11.9564
▁skidd	-11.9564
▁kuznetsova	-11.9565
▁kenne	-11.9565
▁eastwood	-11.9565
▁bulletin	-11.9565
▁overtake	-11.9566
▁chemistry	-11.9566
▁reflection	-11.9566
▁hogan	-11.9567
▁conscious	-11.9568
▁dipped	-11.9568
▁spaceship	-11.9568
▁steelers	-11.9568
▁contention	-11.9568
▁kwan	-11.9568
▁deco	-11.9569
▁gala	-11.9569
▁connections	-11.9569
▁catastrophe	-11.9569
▁skinny	-11.957
▁mt	-11.957
▁heartland	-11.957
▁janet	-11.957
gye	-11.957
▁scorched	-11.9572
▁defy	-11.9572
▁3,500	-11.9573
▁uphold	-11.9573
▁looting	-11.9573
▁glenn	-11.9573
▁dresses	-11.9574
▁kent	-11.9574
▁succession	-11.9574
▁skies	-11.9574
▁rash	-11.9575
▁adjourned	-11.9576
▁lodged	-11.9576
▁candid	-11.9577
▁jess	-11.9577
▁everton	-11.9579
▁firearms	-11.9579
▁jihadist	-11.958
endo	-11.958
▁wrestler	-11.9582
▁deby	-11.9582
▁faa	-11.9582
▁disagreed	-11.9584
▁jamaican	-11.9585
▁notable	-11.9585
▁adventurer	-11.9585
▁reservations	-11.9586
▁centimeters	-11.9586
▁cream	-11.9588
harmonic	-11.9589
▁peek	-11.959
▁swallowing	-11.9592
▁roar	-11.9593
ili	-11.9593
▁interrupted	-11.9593
▁lah	-11.9594
▁warheads	-11.9594
▁ignited	-11.9594
▁intensifying	-11.9597
▁iii	-11.9598
▁conductor	-11.9599
hn	-11.96
▁finalists	-11.9601
▁youngsters	-11.9601
lets	-11.9604
▁cosmonauts	-11.9608
nants	-11.9609
▁compris	-11.9612
▁hatch	-11.9613
▁analyzed	-11.9614
▁condon	-11.9615
▁takers	-11.9617
▁watches	-11.9617
▁glid	-11.9618
▁constructed	-11.962
▁scrapped	-11.962
satisfaction	-11.962
▁1991.	-11.962
▁slashing	-11.9622
▁deepening	-11.9626
▁thrilled	-11.9628
▁departments	-11.9629
▁competitors	-11.963
▁deter	-11.9631
▁insistence	-11.9632
▁dom	-11.9633
▁whipp	-11.9633
▁21,	-11.9636
shire	-11.9637
▁surpassed	-11.9637
▁tattoos	-11.9638
▁vegetables	-11.9638
▁warships	-11.9638
▁reversed	-11.9644
▁healing	-11.9647
▁versa	-11.9648
▁altered	-11.965
emptive	-11.9654
▁publishing	-11.9655
▁melting	-11.9655
rw	-11.9661
▁bankers	-11.9662
▁floors	-11.9662
▁micke	-11.9664
stair	-11.9667
▁bishops	-11.9667
▁bucking	-11.9668
▁moss	-11.9671
stra	-11.9672
82	-11.9677
shan	-11.9681
arian	-11.9684
ario	-11.9691
▁goers	-11.9693
ira	-11.9693
▁slash	-11.9694
▁envelope	-11.9707
▁bong	-11.9715
ograph	-11.9716
vent	-11.9725
▁positively	-11.9725
▁swear	-11.9728
▁forgotten	-11.973
▁counseling	-11.9736
▁vin	-11.9739
▁fingers	-11.9741
try	-11.9746
▁commons	-11.9747
kook	-11.9748
▁atta	-11.9751
▁circles	-11.9757
▁cds	-11.9761
cs	-11.9767
▁fend	-11.977
▁downloads	-11.977
▁partnerships	-11.9771
▁punished	-11.9773
87	-11.9774
rose	-11.9786
▁occasions	-11.9793
▁blogs	-11.9806
▁vera	-11.9806
▁pools	-11.9811
▁hindus	-11.982
▁186	-11.982
▁cate	-11.9824
▁bids	-11.9825
ndy	-11.9827
▁jungles	-11.9832
▁ports	-11.9835
▁peers	-11.9838
▁deserted	-11.9838
table	-11.9854
bling	-11.9864
▁gardens	-11.9867
zan	-11.987
kel	-11.9873
▁tin	-11.9881
▁cubans	-11.9884
▁downer	-11.9888
dom	-11.9897
▁marin	-11.9897
▁allan	-11.9903
▁continents	-11.9912
▁doo	-11.9917
▁nia	-11.9919
▁newman	-11.9922
▁tooth	-11.9925
▁blazes	-11.9927
▁ol	-11.9933
▁intentions	-11.9937
▁def	-11.9949
tif	-11.9959
▁donate	-11.997
▁rafi	-11.9976
▁34,	-11.9978
ologist	-11.9984
▁sham	-12.0001
loyd	-12.0003
▁coaster	-12.0003
▁writes	-12.0004
37	-12.002
▁1,4	-12.0021
▁paw	-12.0022
▁shau	-12.0032
lus	-12.0034
▁rocker	-12.0037
nian	-12.0037
▁garr	-12.0038
▁yasu	-12.0053
mit	-12.0055
gas	-12.0058
▁mae	-12.01
▁om	-12.01
▁62,	-12.0106
▁enhanc	-12.0112
rc	-12.0116
▁incorporat	-12.0116
▁underline	-12.0121
▁offset	-12.013
oning	-12.0132
▁cord	-12.0135
▁4.9	-12.0153
▁bern	-12.0156
anned	-12.0172
▁8.9	-12.0174
▁mediate	-12.0175
eman	-12.0176
uan	-12.0184
▁exclud	-12.0184
▁lawsuits	-12.0193
kill	-12.0194
▁seon	-12.0198
▁grows	-12.0199
▁relieve	-12.0207
▁webb	-12.0208
ties	-12.0209
▁chu	-12.0211
▁som	-12.0216
aq	-12.0225
▁apologiz	-12.0226
▁collar	-12.0229
▁confession	-12.0229
▁eliminat	-12.023
▁composer	-12.023
▁cancellation	-12.0231
▁ipod	-12.0231
▁interaction	-12.0231
▁donkey	-12.0232
▁obstacle	-12.0233
▁briton	-12.0234
▁disagreement	-12.0234
▁archaeologist	-12.0236
▁valid	-12.0242
▁planner	-12.0243
achi	-12.0243
▁egg	-12.0243
tc	-12.0245
▁contractor	-12.0251
▁shout	-12.0251
val	-12.0255
my	-12.0257
▁industrializ	-12.0258
▁shap	-12.026
▁conclud	-12.0262
▁advanc	-12.0262
▁undermin	-12.0262
▁avert	-12.0271
▁overturn	-12.0273
▁cliff	-12.0273
▁270	-12.0276
break	-12.0279
▁freight	-12.028
ttered	-12.0281
▁replica	-12.0282
play	-12.0284
▁tran	-12.0287
woman	-12.0292
life	-12.0292
world	-12.0292
confirmed	-12.0293
jiang	-12.0293
around	-12.0293
▁278	-12.0293
▁institutes	-12.0294
▁dissolve	-12.0298
nathan	-12.03
▁disguis	-12.0306
▁qin	-12.0309
▁stirr	-12.0312
aries	-12.0313
▁lodge	-12.0314
▁concentrate	-12.0314
▁mock	-12.0315
rah	-12.0315
▁shall	-12.0317
▁catastroph	-12.0321
▁petrol	-12.0321
naissance	-12.0324
▁boards	-12.0324
▁blitz	-12.0325
▁fift	-12.0325
▁harris	-12.0329
▁emphasi	-12.0329
▁cultivat	-12.0329
▁enroll	-12.0329
▁bankrupt	-12.033
liffe	-12.033
▁aggregate	-12.033
▁algiers	-12.033
▁almeida	-12.033
▁altitude	-12.033
▁anglican	-12.033
▁arthritis	-12.033
▁autumn	-12.033
▁bachelor	-12.033
▁backdrop	-12.033
▁barroso	-12.033
▁berlusconi	-12.033
▁biblical	-12.033
▁bimbo	-12.033
▁bodlander	-12.033
▁bulldozer	-12.033
▁burrell	-12.033
▁ceremonial	-12.033
▁chengdu	-12.033
▁coerced	-12.033
▁columbine	-12.033
▁compuls	-12.033
▁copenhagen	-12.033
▁daewoo	-12.033
▁decorated	-12.033
▁dormitory	-12.033
▁downgrade	-12.033
▁ebola	-12.033
▁elegant	-12.033
▁eyewitness	-12.033
▁galaxies	-12.033
▁gansu	-12.033
▁harlem	-12.033
▁identical	-12.033
▁insufficient	-12.033
▁iucn	-12.033
▁legitimacy	-12.033
▁leopard	-12.033
▁liquor	-12.033
▁loneliness	-12.033
▁medieval	-12.033
▁mehsud	-12.033
▁messaging	-12.033
▁mixture	-12.033
▁onlookers	-12.033
▁polanski	-12.033
▁recycled	-12.033
▁reptile	-12.033
▁salaheddin	-12.033
▁samuel	-12.033
▁satisfy	-12.033
▁savvy	-12.033
▁schoolchildren	-12.033
▁scooter	-12.033
▁scowcroft	-12.033
▁shotgun	-12.033
▁snowfall	-12.033
▁sulawesi	-12.033
▁tarmac	-12.033
▁tottenham	-12.033
▁tribune	-12.033
▁ultimatum	-12.033
▁upheaval	-12.033
▁viagra	-12.033
▁visibility	-12.033
▁voyage	-12.033
▁adolf	-12.033
▁geographic	-12.033
▁hanoi	-12.033
▁intrude	-12.033
▁neglect	-12.033
▁roadblocks	-12.033
▁schult	-12.033
▁shrek	-12.033
▁wwf	-12.033
▁administer	-12.033
▁embroi	-12.033
▁feminin	-12.033
▁intimate	-12.033
▁ladies	-12.033
▁ordinari	-12.033
▁overflow	-12.033
▁sindh	-12.033
▁sporadic	-12.033
▁jalal	-12.033
▁overture	-12.033
▁quinn	-12.033
▁pricing	-12.033
▁ghazi	-12.033
▁resemblance	-12.033
▁villarosa	-12.033
▁perched	-12.033
▁ramadi	-12.033
▁collaborators	-12.033
▁mansour	-12.033
▁analog	-12.033
▁congratulations	-12.033
▁presumably	-12.033
▁hiking	-12.033
▁vague	-12.033
▁shaky	-12.033
▁discard	-12.033
▁rctv	-12.033
▁faint	-12.033
▁meghani	-12.033
▁authenticity	-12.033
silicon	-12.033
▁harrell	-12.033
▁brink	-12.0331
▁delaware	-12.0331
▁lynd	-12.0331
▁ecosystem	-12.0331
▁hazardous	-12.0331
▁erakat	-12.0331
▁enrollment	-12.0331
▁dodgers	-12.0331
▁feast	-12.0331
▁marble	-12.0331
▁emory	-12.0331
▁martinez	-12.0331
undance	-12.0331
▁homosexuality	-12.0331
▁rope	-12.0331
▁reshuffle	-12.0331
▁flies	-12.0331
▁circulation	-12.0331
▁1969	-12.0332
ite	-12.0332
▁insight	-12.0332
▁abdomen	-12.0332
▁disneyland	-12.0332
▁psychiatrist	-12.0332
▁choking	-12.0332
mond	-12.0332
▁goldberg	-12.0332
▁ginger	-12.0332
▁widened	-12.0332
▁primate	-12.0332
▁purse	-12.0332
▁sanctuary	-12.0332
▁workshop	-12.0332
▁clara	-12.0332
▁thaw	-12.0332
▁activat	-12.0333
▁realistic	-12.0333
▁unfold	-12.0333
▁forestry	-12.0333
gging	-12.0333
▁kennel	-12.0333
▁hunan	-12.0333
▁sniff	-12.0333
▁allocated	-12.0333
▁chef	-12.0334
▁inventory	-12.0334
▁lashes	-12.0334
▁hallway	-12.0334
▁conceived	-12.0335
▁gown	-12.0335
▁fetch	-12.0335
▁2020	-12.0335
▁biting	-12.0336
▁charleston	-12.0336
▁heal	-12.0337
▁coward	-12.0337
▁heroic	-12.0337
▁philosophy	-12.0337
▁oak	-12.0338
▁assignment	-12.0338
▁controller	-12.0339
▁canister	-12.0339
▁startup	-12.0339
▁prohibition	-12.0339
▁dogged	-12.034
▁5,500	-12.034
▁salute	-12.034
▁puerta	-12.0341
▁affection	-12.0341
▁void	-12.0342
▁looted	-12.0342
▁fou	-12.0342
▁bystanders	-12.0342
▁millionaire	-12.0344
▁businessmen	-12.0345
▁murd	-12.0347
▁fax	-12.0347
▁letterman	-12.035
▁sculptures	-12.035
▁tossed	-12.035
▁freeway	-12.0351
▁hillside	-12.0353
ean	-12.0355
▁vik	-12.0355
▁smiled	-12.0356
▁execute	-12.0357
▁nl	-12.0357
▁batons	-12.0358
▁assembled	-12.0359
▁collector	-12.0359
▁gong	-12.0361
▁edited	-12.0362
▁authorize	-12.0362
acio	-12.0364
▁ounces	-12.0366
▁misleading	-12.0369
▁doha	-12.0369
▁prof	-12.0369
▁diminished	-12.037
▁derailed	-12.037
▁updated	-12.037
▁laborers	-12.0371
▁kay	-12.0371
▁poster	-12.0372
▁130,000	-12.0372
▁wow	-12.0373
▁lego	-12.0374
▁brakes	-12.0374
▁policymakers	-12.0374
▁lawless	-12.0374
▁usage	-12.0377
▁expired	-12.0377
tched	-12.0377
olo	-12.0378
▁biofuels	-12.0382
▁martyrs	-12.0382
▁cling	-12.0383
▁proportional	-12.0384
▁fabricat	-12.0385
▁entertainer	-12.0387
of	-12.0388
▁aggressively	-12.0389
▁headaches	-12.039
sley	-12.039
uro	-12.0391
▁oman	-12.0393
▁substantially	-12.0393
▁finalized	-12.0397
▁summons	-12.0398
▁ripple	-12.0398
tikh	-12.0398
▁tai	-12.04
can	-12.0403
▁concealed	-12.0403
▁traveler	-12.0404
▁fried	-12.0405
▁stark	-12.0408
▁claudi	-12.0408
ving	-12.0409
▁disappearing	-12.0411
ello	-12.0412
▁tightening	-12.0416
▁seekers	-12.0418
▁sake	-12.0421
abo	-12.0421
▁gadgets	-12.0421
▁adjusted	-12.0422
▁enhanced	-12.0425
rian	-12.0426
▁nationality	-12.0433
▁bass	-12.0437
▁tune	-12.0437
▁myers	-12.044
▁perfectly	-12.045
▁drums	-12.0454
▁reopened	-12.0455
▁saves	-12.0458
▁originat	-12.0463
ella	-12.0469
▁cater	-12.0476
▁jeffs	-12.0493
▁noel	-12.0494
▁styles	-12.0497
▁hai	-12.0499
inson	-12.0501
▁origins	-12.0503
▁193	-12.0511
ain	-12.0515
▁elde	-12.0516
▁permits	-12.0519
▁meal	-12.0519
▁mint	-12.0523
▁evaluate	-12.0525
▁yun	-12.0526
mmering	-12.0528
▁biologists	-12.0533
▁0.3	-12.0534
▁alarmed	-12.0536
▁bil	-12.0539
▁stack	-12.0543
▁cracking	-12.0544
mz	-12.0548
▁stored	-12.0552
▁behaviors	-12.0552
▁figured	-12.056
▁khu	-12.0562
▁equ	-12.0565
▁opener	-12.0567
▁wished	-12.0584
▁vacationing	-12.0585
▁por	-12.0585
▁turk	-12.059
▁skiing	-12.059
▁hadn	-12.0597
▁coordinate	-12.06
▁ying	-12.06
▁nabi	-12.0606
▁57,	-12.0609
▁notion	-12.0609
▁touring	-12.061
▁4.6	-12.0619
▁retriev	-12.0627
wick	-12.0631
dp	-12.0632
eem	-12.0632
▁normaliz	-12.0633
▁messi	-12.0637
▁invested	-12.0637
▁tvs	-12.0637
wage	-12.0642
vu	-12.0643
▁predicts	-12.0647
itis	-12.0647
▁36,	-12.0651
▁rip	-12.0653
eni	-12.0653
▁abortions	-12.0654
▁bla	-12.0661
▁similarly	-12.0661
ester	-12.0662
▁wary	-12.067
nda	-12.0673
▁bc	-12.0675
▁commando	-12.0679
▁graduates	-12.0683
▁crashing	-12.0692
▁122	-12.0693
▁rejects	-12.0697
▁277	-12.07
▁4.2	-12.0702
▁condemns	-12.0705
elix	-12.0707
▁resting	-12.0709
▁repairs	-12.0718
▁mori	-12.0719
▁consolidat	-12.0721
▁mot	-12.0725
▁mod	-12.0728
06	-12.0733
▁jee	-12.0734
▁tian	-12.0739
▁maps	-12.074
▁abn	-12.0742
▁taj	-12.0745
▁broadcasters	-12.0746
▁therapist	-12.0748
▁cleaned	-12.0761
▁cp	-12.0763
▁settlements	-12.0768
mont	-12.0776
▁kra	-12.0779
.96	-12.078
81	-12.078
fer	-12.0783
bil	-12.0784
mis	-12.0791
▁wonders	-12.0792
24	-12.0795
uca	-12.0803
▁traditions	-12.0818
▁scr	-12.0832
gie	-12.0833
▁hur	-12.0839
adel	-12.084
int	-12.0864
lev	-12.0867
▁discipline	-12.0873
▁urges	-12.0879
uku	-12.0887
▁sympath	-12.0892
win	-12.0893
▁directions	-12.0896
▁pol	-12.0897
▁yeon	-12.0904
▁lease	-12.0906
▁europeans	-12.0907
ress	-12.0908
▁affiliates	-12.0909
▁rees	-12.092
▁underscor	-12.0925
kov	-12.0933
▁insult	-12.094
▁treats	-12.0944
▁eun	-12.0949
▁mara	-12.0951
ved	-12.0953
83	-12.0954
▁123	-12.0965
86	-12.097
▁pont	-12.0979
▁175	-12.098
▁whi	-12.0982
stic	-12.0994
▁ruin	-12.0996
bert	-12.0997
print	-12.1006
▁generat	-12.102
ven	-12.1021
▁114	-12.103
▁tat	-12.1032
▁jar	-12.1033
▁128	-12.1033
▁foe	-12.1035
zio	-12.1038
▁hog	-12.1039
▁govern	-12.1041
▁poison	-12.1043
73	-12.1058
▁wei	-12.1061
▁rhino	-12.1062
▁barricade	-12.1063
▁recogniz	-12.1063
▁gadget	-12.1065
▁injection	-12.1065
▁programme	-12.1066
▁dragon	-12.1067
▁slogan	-12.1067
onic	-12.1068
▁archive	-12.1068
▁arrangement	-12.1068
▁luc	-12.1068
▁gam	-12.1072
▁carmaker	-12.1073
▁revis	-12.1077
tha	-12.108
▁beg	-12.1086
fid	-12.1087
▁dori	-12.1087
▁costume	-12.1089
andy	-12.1093
▁speculat	-12.1096
▁2.0	-12.1098
▁plots	-12.1101
▁erupt	-12.1102
▁impeach	-12.1102
▁accomplish	-12.1104
▁confess	-12.1105
▁plummet	-12.1105
▁bias	-12.1106
▁shatter	-12.1106
▁exporter	-12.1109
fest	-12.111
down	-12.1115
cream	-12.1124
▁flip	-12.1125
broke	-12.1126
▁calculate	-12.1135
▁hank	-12.1135
▁unconditional	-12.1146
▁reinstate	-12.1147
▁pett	-12.1147
▁topple	-12.1147
▁albania	-12.1148
▁mechanic	-12.1149
▁bike	-12.1149
▁therap	-12.115
▁emphasize	-12.1151
▁kuznetsov	-12.1158
▁migrat	-12.1159
▁invade	-12.116
▁mario	-12.116
▁bernie	-12.1161
taka	-12.1161
▁abdom	-12.1162
▁hutchins	-12.1162
▁clint	-12.1162
▁intimidat	-12.1163
▁censor	-12.1163
▁trinidad	-12.1163
▁1957	-12.1163
▁1961	-12.1163
▁abolition	-12.1163
▁adidas	-12.1163
▁alejandr	-12.1163
▁arlington	-12.1163
▁awkward	-12.1163
▁backpack	-12.1163
▁bamboo	-12.1163
▁bollea	-12.1163
▁brawl	-12.1163
▁caesar	-12.1163
▁caldwell	-12.1163
▁carnival	-12.1163
▁cockpit	-12.1163
▁context	-12.1163
▁crouch	-12.1163
▁daschle	-12.1163
▁delinquents	-12.1163
▁deterioration	-12.1163
▁devastation	-12.1163
▁discontent	-12.1163
▁eduardo	-12.1163
▁enclave	-12.1163
▁endeavor	-12.1163
▁escalator	-12.1163
▁flattened	-12.1163
▁fletcher	-12.1163
▁futurist	-12.1163
▁glory	-12.1163
▁grylls	-12.1163
▁illuminat	-12.1163
▁infringement	-12.1163
▁innovation	-12.1163
▁irrawaddy	-12.1163
▁juventu	-12.1163
▁leisure	-12.1163
▁madagascar	-12.1163
▁malnutrition	-12.1163
▁marseille	-12.1163
▁memorandum	-12.1163
▁misconduct	-12.1163
▁mubarak	-12.1163
▁munitions	-12.1163
▁namibia	-12.1163
▁ohmynews	-12.1163
▁omaha	-12.1163
▁paleontologist	-12.1163
▁palestine	-12.1163
▁pavilion	-12.1163
▁peshawar	-12.1163
▁puppy	-12.1163
▁qualification	-12.1163
▁rainfall	-12.1163
▁rockefeller	-12.1163
▁samphan	-12.1163
▁skeptical	-12.1163
▁specimen	-12.1163
▁strategies	-12.1163
▁stuart	-12.1163
▁sullivan	-12.1163
▁tariq	-12.1163
▁thrive	-12.1163
▁thriving	-12.1163
▁thymus	-12.1163
▁troubling	-12.1163
▁unarmed	-12.1163
▁unavoidable	-12.1163
▁unhcr	-12.1163
▁unhurt	-12.1163
▁vwp	-12.1163
▁wachovia	-12.1163
▁zaidi	-12.1163
▁zvonareva	-12.1163
▁burris	-12.1163
▁cheetah	-12.1163
▁deflect	-12.1163
▁fertilizer	-12.1163
▁flawed	-12.1163
▁flaws	-12.1163
▁nowhere	-12.1163
▁outnumber	-12.1163
▁prevail	-12.1163
▁skyrocket	-12.1163
▁swayze	-12.1163
▁unify	-12.1163
▁asleep	-12.1163
▁aurora	-12.1163
▁flank	-12.1163
▁sniper	-12.1163
▁dismal	-12.1163
▁posco	-12.1163
▁sheehan	-12.1163
▁connor	-12.1163
▁whitmore	-12.1163
▁correa	-12.1163
▁duncan	-12.1163
▁karrada	-12.1163
▁forehand	-12.1164
▁sequel	-12.1164
▁gym	-12.1164
▁suitcase	-12.1164
▁superjumbo	-12.1164
▁foremost	-12.1164
▁hackett	-12.1164
eutic	-12.1164
▁morici	-12.1164
▁perpetrators	-12.1164
▁appreciation	-12.1164
▁calculations	-12.1164
▁resent	-12.1164
▁raymond	-12.1164
▁desktop	-12.1164
▁allergi	-12.1164
▁meddl	-12.1164
▁whitson	-12.1164
▁dublin	-12.1164
▁grill	-12.1164
▁mismanagement	-12.1164
▁preview	-12.1164
▁cesar	-12.1164
▁ricard	-12.1164
▁zhe	-12.1164
▁levee	-12.1164
▁touchdown	-12.1164
▁creek	-12.1164
▁frigid	-12.1164
▁expectancy	-12.1164
▁harassment	-12.1164
▁inevitable	-12.1164
▁patron	-12.1164
▁reeling	-12.1164
▁feline	-12.1164
▁sushi	-12.1164
▁ayres	-12.1164
▁namdaemun	-12.1164
▁philippe	-12.1164
▁mercy	-12.1164
▁marcus	-12.1164
▁patent	-12.1164
▁consolidation	-12.1164
▁tuning	-12.1164
▁muddy	-12.1165
▁bradley	-12.1165
▁confinement	-12.1165
▁stockholm	-12.1165
▁franklin	-12.1165
▁freshwater	-12.1165
▁straw	-12.1165
▁architecture	-12.1165
▁cement	-12.1165
▁colonies	-12.1165
▁liberalization	-12.1165
▁nuts	-12.1165
▁hopkin	-12.1165
▁cheese	-12.1165
▁batman	-12.1165
▁lame	-12.1165
▁militiamen	-12.1165
▁groom	-12.1166
▁911	-12.1166
▁1963	-12.1166
▁splitting	-12.1166
▁chungchon	-12.1166
▁dimensional	-12.1167
▁tevez	-12.1167
▁connery	-12.1167
elvis	-12.1167
▁2013	-12.1167
▁glea	-12.1167
▁journalism	-12.1167
▁refrigerator	-12.1167
▁commemoration	-12.1167
▁leno	-12.1167
▁saber	-12.1168
▁marshall	-12.1168
▁colorful	-12.1168
▁fabrication	-12.1168
▁columnist	-12.1168
▁1966	-12.1169
▁clipper	-12.1169
▁airspace	-12.1169
▁plight	-12.1169
▁electorate	-12.1169
▁hilar	-12.1169
59	-12.1169
▁jeon	-12.117
▁unfit	-12.117
▁crest	-12.117
▁revival	-12.117
▁piz	-12.117
▁urine	-12.1171
▁compatible	-12.1172
▁tornadoes	-12.1173
▁4.4	-12.1174
▁eaten	-12.1174
▁depiction	-12.1174
▁hospitalization	-12.1174
▁hardline	-12.1175
▁desirable	-12.1175
▁mountainside	-12.1176
▁durable	-12.1178
otto	-12.1178
wc	-12.1178
▁incomes	-12.1178
▁underwater	-12.1178
▁windsor	-12.1178
▁temper	-12.1179
▁reinstated	-12.118
▁downward	-12.1181
▁accelerating	-12.1182
▁26,000	-12.1182
▁flush	-12.1182
▁scary	-12.1183
▁iwc	-12.1183
▁orphans	-12.1185
▁tangib	-12.1187
31	-12.1188
▁duran	-12.1192
▁centrifuges	-12.1194
▁randomly	-12.1194
▁overhead	-12.1194
▁tumbling	-12.1196
▁worm	-12.1197
▁stam	-12.1198
▁periodic	-12.1198
▁klo	-12.1203
▁brady	-12.1203
▁facilitat	-12.1203
▁relate	-12.1204
▁1992.	-12.1204
▁upward	-12.1206
▁exhausted	-12.1207
▁shaha	-12.1207
▁fey	-12.1208
▁ailments	-12.1211
▁outages	-12.1211
▁covert	-12.1212
▁shorten	-12.1214
asahi	-12.1214
▁indexes	-12.1215
▁candy	-12.1217
▁0.6	-12.1219
▁helmets	-12.122
▁technicians	-12.122
▁attendants	-12.122
▁locally	-12.122
omi	-12.1224
▁parliamentarian	-12.1228
▁calories	-12.1228
▁poisoning	-12.1229
▁plumes	-12.1229
▁insulting	-12.1229
▁decreased	-12.1229
▁roared	-12.1232
▁slopes	-12.1233
▁intercepted	-12.1233
▁porter	-12.1233
▁mistaken	-12.1239
▁hackers	-12.124
▁booster	-12.1242
▁seller	-12.1245
▁instructions	-12.1245
▁pharmaceuticals	-12.1246
▁solved	-12.1247
▁marchers	-12.1247
holm	-12.1251
▁alleges	-12.1252
▁spat	-12.1253
▁generators	-12.1255
▁borrowing	-12.1256
young	-12.1258
▁indicator	-12.126
▁embarrassed	-12.1264
▁insults	-12.1264
▁foes	-12.1267
▁periods	-12.1269
▁donkeys	-12.1272
soon	-12.1276
▁ferr	-12.1278
iers	-12.1282
▁permanently	-12.1287
▁brooks	-12.1289
▁segments	-12.1289
▁mediators	-12.1289
▁sellers	-12.1289
▁encountered	-12.129
leban	-12.1291
▁rovers	-12.1299
▁hamm	-12.1304
▁wrapp	-12.1304
▁jokes	-12.1305
▁bre	-12.1318
▁posters	-12.1319
▁dev	-12.1319
▁oliver	-12.132
▁resorts	-12.1321
▁saints	-12.1324
▁fuels	-12.1324
▁kh	-12.1325
▁tel	-12.1329
▁joan	-12.133
▁physicians	-12.1333
▁adventures	-12.1333
▁4.3	-12.1336
▁processor	-12.1337
▁fulfilled	-12.1341
▁assertions	-12.1342
pc	-12.1344
▁tro	-12.1352
▁6.6	-12.1359
pag	-12.1363
tina	-12.1364
▁baa	-12.1367
▁expenses	-12.1368
▁objectives	-12.1368
doo	-12.1373
▁encounters	-12.1378
▁assaults	-12.1379
▁commenting	-12.1379
cm	-12.1385
▁fences	-12.1385
ere	-12.139
▁inject	-12.1394
▁tele	-12.1399
7.4	-12.1404
gy	-12.1406
▁deadlines	-12.1407
▁dun	-12.1409
▁850	-12.141
▁stok	-12.1411
▁chickens	-12.1412
▁menus	-12.1414
▁georgian	-12.1416
▁objected	-12.1416
▁skulls	-12.142
▁albe	-12.1421
▁airplanes	-12.1426
▁lords	-12.1429
mise	-12.143
bach	-12.1431
▁publishers	-12.1432
▁predecessors	-12.1438
▁bert	-12.1447
tang	-12.1448
▁tal	-12.145
▁tsa	-12.1451
▁tales	-12.1452
▁rand	-12.1479
iba	-12.1486
▁carolin	-12.1487
▁peta	-12.1487
▁guides	-12.1493
osa	-12.1496
▁patt	-12.1496
▁moms	-12.1497
▁concepts	-12.15
iti	-12.1502
▁myth	-12.1507
▁hunted	-12.1512
▁molecul	-12.1513
ishi	-12.1514
▁kicking	-12.152
69	-12.152
▁sexy	-12.1522
ight	-12.1534
▁gere	-12.1539
abi	-12.154
▁intra	-12.1555
▁panels	-12.1556
▁protects	-12.156
▁embrac	-12.156
▁approves	-12.1563
▁asha	-12.1566
▁fl	-12.1567
▁pitcher	-12.157
▁withstand	-12.1576
▁drawings	-12.158
▁serg	-12.1582
ele	-12.1587
▁tha	-12.1589
▁mosques	-12.159
▁narrowed	-12.1591
▁attitudes	-12.1598
ngled	-12.1601
▁consolidate	-12.1626
▁rods	-12.1646
tained	-12.165
▁differently	-12.1651
▁dare	-12.1655
▁plen	-12.1656
▁sands	-12.1656
▁61,	-12.1658
▁appointments	-12.166
▁glen	-12.1662
▁fri	-12.1666
▁heroin	-12.1673
▁graduat	-12.1674
hl	-12.1675
embe	-12.1678
▁boo	-12.1688
nier	-12.169
▁wasted	-12.1693
▁duc	-12.1706
▁collections	-12.1706
▁explains	-12.1712
▁1,2	-12.1716
8.6	-12.1717
idge	-12.1723
▁1,0	-12.1728
▁pumps	-12.1733
uddin	-12.1737
52	-12.1741
▁arrives	-12.1742
▁bells	-12.1746
▁rises	-12.1747
▁forge	-12.1751
▁lal	-12.1763
mul	-12.1769
▁lid	-12.1771
▁wears	-12.178
▁snub	-12.1782
rne	-12.1782
▁168	-12.1786
▁supervis	-12.179
▁endors	-12.1792
▁colleges	-12.1793
▁wet	-12.1797
▁neuro	-12.1797
▁exception	-12.181
▁knees	-12.1812
▁stoke	-12.1814
▁124	-12.1826
▁summers	-12.1829
02	-12.1839
▁flowing	-12.1839
▁gaps	-12.1841
pga	-12.1842
▁shu	-12.1843
ates	-12.1853
dependence	-12.1855
▁clerics	-12.1859
▁bearer	-12.1867
▁pha	-12.1874
▁136	-12.1877
▁aden	-12.1878
hol	-12.1882
ema	-12.1889
graph	-12.1891
▁lav	-12.1898
dong	-12.1908
onian	-12.1914
▁alba	-12.1924
cau	-12.1925
rammed	-12.1925
▁5.3	-12.1925
lee	-12.1932
▁observ	-12.1936
▁preced	-12.1937
▁greg	-12.1944
9.3	-12.1946
▁relat	-12.1954
▁trap	-12.1955
fty	-12.1956
▁punch	-12.1957
▁pil	-12.1957
▁tasks	-12.196
▁holi	-12.1964
eon	-12.1968
▁emotion	-12.1969
▁320	-12.197
▁admire	-12.1971
▁supermarket	-12.1972
▁header	-12.1972
▁magistrate	-12.1974
▁andrea	-12.1974
▁cannon	-12.1974
▁vegetable	-12.1975
▁tattoo	-12.1975
▁nerve	-12.1975
▁sibling	-12.1975
▁generator	-12.1975
▁textbook	-12.1976
▁prostitute	-12.1976
▁prediction	-12.1977
▁athlete	-12.1977
▁slave	-12.1978
▁examples	-12.1979
▁playoff	-12.1979
▁restriction	-12.1981
▁nail	-12.1982
nmen	-12.1986
▁offender	-12.1987
▁employer	-12.1988
▁330	-12.199
▁warship	-12.1993
▁doubl	-12.1997
▁shifts	-12.2002
▁fabric	-12.2002
▁enforc	-12.2004
▁borne	-12.2007
▁shrink	-12.2009
▁disturb	-12.2009
▁instruct	-12.2013
▁inflict	-12.2013
▁server	-12.2013
media	-12.2014
▁convict	-12.2015
▁brew	-12.202
▁jewel	-12.2027
continent	-12.2034
grown	-12.2035
league	-12.2035
human	-12.2042
▁simpsons	-12.2043
▁surprises	-12.2054
75,000	-12.2056
▁unanimous	-12.2056
▁compensate	-12.2056
▁postpone	-12.2056
▁isolate	-12.2061
▁pornograph	-12.2062
▁renovat	-12.2068
▁mosquito	-12.2069
▁profession	-12.2069
rand	-12.207
▁interact	-12.207
iki	-12.2071
▁rahm	-12.2071
▁chic	-12.2071
▁obsess	-12.2072
▁buoy	-12.2072
▁harass	-12.2072
qtada	-12.2072
▁basket	-12.2072
▁awake	-12.2072
▁categorical	-12.2072
▁kazakh	-12.2072
▁olympia	-12.2072
▁abductees	-12.2072
▁accessories	-12.2072
▁advocacy	-12.2072
▁aluminum	-12.2072
▁animosity	-12.2072
▁antenna	-12.2072
▁appalling	-12.2072
▁appetite	-12.2072
▁audiotape	-12.2072
▁balcony	-12.2072
▁ballesteros	-12.2072
▁berezovsky	-12.2072
▁bhumibol	-12.2072
▁bourse	-12.2072
▁bulbs	-12.2072
▁chihuahua	-12.2072
▁clergy	-12.2072
▁compact	-12.2072
▁curtail	-12.2072
▁dawson	-12.2072
▁deceased	-12.2072
▁demographic	-12.2072
▁dillon	-12.2072
▁discourage	-12.2072
▁disqualified	-12.2072
▁disregard	-12.2072
▁divisive	-12.2072
▁diwaniya	-12.2072
▁djamena	-12.2072
▁edmund	-12.2072
▁elusive	-12.2072
▁fayyad	-12.2072
▁fluctuat	-12.2072
▁fowler	-12.2072
▁fundraiser	-12.2072
▁gadhafi	-12.2072
▁goddess	-12.2072
▁gutierrez	-12.2072
▁hiatus	-12.2072
▁hoffman	-12.2072
▁icahn	-12.2072
▁innovative	-12.2072
▁jeopardy	-12.2072
▁jessica	-12.2072
▁jetliner	-12.2072
▁knives	-12.2072
▁krugman	-12.2072
▁larijani	-12.2072
▁latitude	-12.2072
▁lexicon	-12.2072
▁loophole	-12.2072
▁mafia	-12.2072
▁mantovani	-12.2072
▁mcclaren	-12.2072
▁meadow	-12.2072
▁mekong	-12.2072
▁melanoma	-12.2072
▁module	-12.2072
▁montreal	-12.2072
▁moratorium	-12.2072
▁nargis	-12.2072
▁niigata	-12.2072
▁obese	-12.2072
▁ordinance	-12.2072
▁outflow	-12.2072
▁paterson	-12.2072
▁petrochemical	-12.2072
▁portfolio	-12.2072
▁psychiatry	-12.2072
▁rachel	-12.2072
▁racism	-12.2072
▁radius	-12.2072
▁rajasthan	-12.2072
▁rethink	-12.2072
▁riyadh	-12.2072
▁rspb	-12.2072
▁rubaie	-12.2072
▁salvage	-12.2072
▁scholes	-12.2072
▁seismic	-12.2072
▁separating	-12.2072
▁skeptics	-12.2072
▁souvenir	-12.2072
▁srebrenica	-12.2072
▁staggering	-12.2072
▁steadfast	-12.2072
▁tanzania	-12.2072
▁timeframe	-12.2072
▁tyranny	-12.2072
▁unclaimed	-12.2072
▁unemployed	-12.2072
▁unwilling	-12.2072
▁utilize	-12.2072
▁variation	-12.2072
▁whatsoever	-12.2072
▁xbox	-12.2072
▁yangtze	-12.2072
▁yogyakarta	-12.2072
▁crawl	-12.2073
▁dreamliner	-12.2073
▁dreamworks	-12.2073
▁groundbreaking	-12.2073
▁gwen	-12.2073
▁hottest	-12.2073
▁lisbon	-12.2073
▁odell	-12.2073
▁stoppage	-12.2073
▁yelled	-12.2073
▁churn	-12.2073
▁dynamite	-12.2073
▁outcry	-12.2073
▁quantum	-12.2073
▁sderot	-12.2073
▁ericsson	-12.2073
▁panicked	-12.2073
▁trunk	-12.2073
▁calf	-12.2073
▁evict	-12.2073
▁headphones	-12.2073
▁ramadan	-12.2073
▁scoop	-12.2073
▁vanished	-12.2073
▁najaf	-12.2073
▁ontario	-12.2073
▁cotte	-12.2073
▁erratic	-12.2073
▁unstable	-12.2073
▁jorge	-12.2073
▁mimic	-12.2073
▁nurtur	-12.2073
▁bergen	-12.2073
▁malignant	-12.2073
▁paradise	-12.2073
▁peggy	-12.2073
▁crescent	-12.2073
▁pessimistic	-12.2073
▁norfolk	-12.2073
▁sleeve	-12.2073
▁pierce	-12.2073
▁sleet	-12.2073
▁opium	-12.2073
▁biometric	-12.2073
▁awful	-12.2073
▁camilla	-12.2073
▁minivan	-12.2073
▁alitalia	-12.2073
▁cowboy	-12.2073
▁eads	-12.2073
▁griev	-12.2073
▁tusk	-12.2073
▁empower	-12.2073
▁spinning	-12.2073
▁generous	-12.2073
▁solana	-12.2073
▁abstain	-12.2073
▁governance	-12.2073
▁spoil	-12.2073
▁charismatic	-12.2073
▁restructure	-12.2073
▁ariel	-12.2073
▁fraudulent	-12.2073
▁juice	-12.2073
▁cardiov	-12.2073
▁daegu	-12.2073
▁dismay	-12.2073
▁hedge	-12.2073
▁zuma	-12.2073
▁aceh	-12.2073
▁diaries	-12.2073
▁ratified	-12.2073
▁cruelty	-12.2073
▁cheema	-12.2073
▁flourish	-12.2073
▁cooperating	-12.2073
▁forgery	-12.2073
revor	-12.2073
▁entries	-12.2073
▁unbelievable	-12.2073
▁yongsan	-12.2073
▁gallas	-12.2073
▁comfortably	-12.2073
▁flexibility	-12.2073
▁tanner	-12.2073
▁conscience	-12.2073
▁rushdie	-12.2073
▁smugglers	-12.2073
▁ancest	-12.2073
▁birthrate	-12.2073
▁richmond	-12.2073
▁clever	-12.2073
▁furious	-12.2073
▁patriotism	-12.2073
▁graduation	-12.2073
▁luke	-12.2074
▁sponsorship	-12.2074
▁gdp	-12.2074
▁adjustment	-12.2074
▁embarrassment	-12.2074
▁zahir	-12.2074
▁problematic	-12.2074
▁dutt	-12.2074
▁grasp	-12.2074
▁jeju	-12.2074
▁frequency	-12.2074
▁dismantlement	-12.2074
▁artwork	-12.2074
▁liftoff	-12.2074
▁cohen	-12.2074
▁gloves	-12.2074
▁airlift	-12.2075
▁nicholson	-12.2075
▁1940	-12.2075
▁cellular	-12.2075
▁apache	-12.2075
▁terrifi	-12.2075
▁arabiya	-12.2075
▁freak	-12.2075
▁hosseini	-12.2075
▁summar	-12.2075
▁lapse	-12.2075
▁amass	-12.2076
▁1948	-12.2076
▁sophi	-12.2076
▁kfa	-12.2076
▁chew	-12.2076
▁refinery	-12.2076
▁certifi	-12.2077
▁porch	-12.2077
▁marketplace	-12.2077
▁interruption	-12.2077
▁wyman	-12.2077
▁maul	-12.2077
▁burke	-12.2077
▁takeshima	-12.2077
▁perez	-12.2077
▁huts	-12.2077
▁thankful	-12.2077
▁luz	-12.2077
▁ngo	-12.2077
▁sagar	-12.2077
▁revoked	-12.2078
▁elevated	-12.2078
▁fertile	-12.2078
▁distinguish	-12.2078
▁swaying	-12.2079
▁creditors	-12.2079
▁angri	-12.2079
▁walt	-12.2079
ux	-12.208
▁interceptor	-12.208
▁denis	-12.208
▁sack	-12.208
▁reactions	-12.2081
▁barker	-12.2081
▁confused	-12.2081
▁1,100	-12.2082
▁fearful	-12.2082
▁xue	-12.2082
▁420	-12.2082
▁pew	-12.2082
▁crippled	-12.2083
▁airship	-12.2083
▁ouster	-12.2083
▁liberate	-12.2083
▁maure	-12.2083
▁jur	-12.2084
▁deteriorated	-12.2084
▁6.4	-12.2085
▁scorer	-12.2085
▁heller	-12.2085
▁barber	-12.2085
▁wool	-12.2085
▁volcanoes	-12.2086
▁5.1	-12.2086
▁registr	-12.2087
▁plaintiffs	-12.2087
▁robertson	-12.2087
▁institutional	-12.2088
hallow	-12.209
▁rug	-12.209
▁saleh	-12.2091
▁jamm	-12.2091
▁3.4	-12.2091
▁glasses	-12.2092
▁poke	-12.2092
▁saga	-12.2093
▁startling	-12.2094
▁singaporean	-12.2094
▁solicit	-12.2095
▁exaggerated	-12.2098
▁crusader	-12.2098
▁verge	-12.2098
▁capitalism	-12.2098
▁qara	-12.2099
▁udp	-12.21
▁fallon	-12.2102
▁brighter	-12.2102
▁conventions	-12.2103
▁renamed	-12.2103
▁shade	-12.2103
▁someday	-12.2106
▁polluted	-12.2106
▁preconditions	-12.2106
▁amman	-12.2106
▁hijackers	-12.2107
▁marty	-12.2108
▁shaken	-12.211
▁stresses	-12.2112
▁ibn	-12.2112
▁budd	-12.2114
▁nutrients	-12.2115
▁vendors	-12.2115
mmel	-12.2116
▁secularist	-12.2118
▁icr	-12.2119
▁quicker	-12.2121
▁satisfaction	-12.2123
▁carriages	-12.2125
▁foreclosures	-12.2125
▁grams	-12.2125
▁ansa	-12.2126
▁foundations	-12.2127
▁choke	-12.2128
▁loosen	-12.2128
▁westerners	-12.213
▁joked	-12.2132
▁machetes	-12.2134
▁mauric	-12.2134
▁dann	-12.2135
▁betting	-12.2135
▁hay	-12.2136
▁accomplished	-12.2137
▁punching	-12.2138
▁sacking	-12.2138
▁ruined	-12.2138
▁insulted	-12.2138
▁protester	-12.2141
▁6.2	-12.2142
▁wired	-12.2144
▁carson	-12.2147
▁clipp	-12.2149
▁56,	-12.215
▁carat	-12.215
▁zane	-12.2151
▁gators	-12.2153
▁revelations	-12.2153
▁laughed	-12.2156
▁valve	-12.2158
▁tzi	-12.2159
▁supplements	-12.2163
▁historically	-12.2163
▁105	-12.2164
igh	-12.2165
▁fist	-12.2169
▁magistrates	-12.2172
▁cannons	-12.2172
▁playoffs	-12.2172
▁sliding	-12.2175
▁paula	-12.2178
▁processes	-12.218
▁injections	-12.2182
tenberg	-12.2185
▁rivera	-12.2186
▁jett	-12.2187
▁nails	-12.2189
▁102	-12.2191
▁planners	-12.2192
▁boasted	-12.2194
▁sleepy	-12.2194
▁onboard	-12.2202
▁trainers	-12.2203
▁drm	-12.2205
▁bras	-12.2206
▁resisting	-12.2209
▁abolished	-12.2211
▁mills	-12.2212
▁185	-12.2218
▁borg	-12.2219
▁ambassadors	-12.222
▁vit	-12.222
▁destroyer	-12.222
▁cubs	-12.2222
▁backs	-12.2222
.75	-12.2223
▁surfing	-12.2225
▁tit	-12.2228
lman	-12.2229
▁practiced	-12.223
▁birdie	-12.2233
▁distressed	-12.2234
▁africans	-12.2235
▁foray	-12.2235
▁das	-12.2235
▁ev	-12.2238
rai	-12.2238
▁sparks	-12.2239
▁uneas	-12.224
▁updates	-12.2241
▁shui	-12.2244
▁julian	-12.225
[...]
