<pad>	0
<s>	0
</s>	0
<unk>	0
.	-3.26175
을	-3.67271
의	-3.79661
▁	-3.86339
를	-4.12421
는	-4.16416
은	-4.40573
가	-4.44132
,	-4.45578
에	-4.46768
이	-4.48735
고	-5.05403
에서	-5.22198
한	-5.22518
로	-5.27636
일	-5.31595
인	-5.33028
▁이	-5.3436
▁있다	-5.50203
과	-5.51187
으로	-5.53022
▁고	-5.57576
와	-5.64192
▁수	-5.66293
▁밝혔다	-5.72254
▁말했다	-5.74559
도	-5.75497
할	-5.81248
년	-5.8676
▁있는	-5.91866
▁그	-6.03202
지	-6.08671
하고	-6.09022
▁그는	-6.10392
▁2	-6.11775
▁1	-6.15745
하는	-6.16047
▁전	-6.18818
다	-6.2249
▁대한	-6.22494
▁위해	-6.24533
▁이번	-6.30027
했다	-6.30299
▁한	-6.30617
▁미국	-6.32246
▁전했다	-6.32349
월	-6.32486
▁3	-6.36654
만	-6.37335
▁지난	-6.39855
▁현지시간	-6.42768
▁대해	-6.50149
해	-6.52618
▁며	-6.53086
▁미	-6.54602
▁중	-6.54833
된	-6.57875
▁것으로	-6.57997
기	-6.62025
▁것이라고	-6.63
에게	-6.64233
▁것	-6.643
명이	-6.66171
▁있다고	-6.69101
▁4	-6.70103
▁그러나	-6.7186
▁것을	-6.72286
s	-6.76236
자	-6.78188
▁6	-6.79115
▁이라크	-6.79199
▁더	-6.79596
▁5	-6.81934
▁다른	-6.85437
게	-6.88387
스	-6.89989
▁대통령	-6.91534
하게	-6.91686
히	-6.92205
▁중국	-6.93713
▁10	-6.94309
▁한편	-6.96969
나	-6.97961
운	-6.99428
▁이라고	-6.99881
▁약	-7.00127
▁북한	-7.00266
던	-7.0509
들이	-7.06519
▁등	-7.06952
하기	-7.07106
명의	-7.07764
▁후	-7.08177
며	-7.0889
시	-7.11498
▁많은	-7.11862
▁오바마	-7.12085
▁위한	-7.12163
하지	-7.13176
▁통해	-7.1355
▁이후	-7.14064
▁부시	-7.14251
▁내	-7.14347
▁정부	-7.14387
▁주	-7.15332
▁에	-7.15459
▁또	-7.15498
▁대통령은	-7.16355
적인	-7.18847
▁가장	-7.19274
▁두	-7.19898
▁8	-7.2006
▁영국	-7.21238
▁동안	-7.21478
▁같은	-7.21841
▁7	-7.22474
▁것이다	-7.23335
▁대변인은	-7.25023
리	-7.26539
▁한국	-7.26757
될	-7.30831
대	-7.33361
명	-7.33403
들은	-7.33973
▁주장했다	-7.34389
▁세계	-7.34392
라	-7.36074
▁될	-7.36318
주	-7.36933
▁할	-7.37056
▁것은	-7.37263
▁한다	-7.37289
▁현재	-7.37329
이다	-7.37688
▁또한	-7.39037
▁바	-7.39733
▁가	-7.40359
▁알	-7.40499
드	-7.41052
했다고	-7.41545
까지	-7.41862
▁때	-7.41953
▁관련	-7.42159
▁12	-7.42924
서	-7.43056
사	-7.43566
▁9	-7.44202
▁the	-7.44523
▁이상	-7.44554
▁보도했다	-7.44591
▁최근	-7.45303
세	-7.45548
▁덧붙였다	-7.45553
및	-7.4581
▁경우	-7.45838
트	-7.46066
▁했다	-7.46529
▁있었다	-7.46944
▁영화	-7.47791
하며	-7.47896
어	-7.48653
▁않았다	-7.4889
▁문제	-7.49123
개	-7.49821
했던	-7.5085
▁자신의	-7.5141
▁모든	-7.51473
▁20	-7.52959
▁11	-7.5301
▁일부	-7.53728
▁새로	-7.54424
▁함께	-7.55646
▁것이	-7.56039
▁당시	-7.56157
▁라고	-7.56779
했으며	-7.59083
▁미군	-7.59402
수	-7.59479
야	-7.60156
▁그리고	-7.60465
성	-7.60559
됐다	-7.60782
▁일본	-7.60919
▁때문에	-7.61773
▁경제	-7.6321
▁뒤	-7.63497
▁cnn	-7.64051
▁우리	-7.6479
▁30	-7.65984
▁수도	-7.66073
▁예정이다	-7.66378
▁모두	-7.67546
▁설명했다	-7.67656
▁몇	-7.68052
▁있습니다	-7.68481
▁있으며	-7.69083
▁to	-7.69529
들을	-7.69594
면	-7.69648
▁조사	-7.69996
▁나	-7.7068
▁경찰은	-7.70788
르	-7.72061
▁프랑스	-7.72257
▁정부는	-7.72541
라고	-7.72806
▁유엔	-7.73005
에는	-7.73065
▁말	-7.73291
진	-7.74185
▁일	-7.7458
▁이들	-7.74865
▁큰	-7.752
▁계속	-7.75548
니	-7.76074
▁하는	-7.76466
비	-7.76495
▁파키스탄	-7.76527
아	-7.77067
▁19	-7.77107
해야	-7.7762
▁에서	-7.791
▁러시아	-7.79226
▁제	-7.80365
▁결과	-7.80393
▁s	-7.80477
▁없다	-7.80861
▁지난해	-7.81336
보다	-7.81516
▁공격	-7.81815
▁로	-7.81875
▁올해	-7.81898
▁국가	-7.82133
▁대통령이	-7.8274
▁15	-7.83258
억	-7.83388
▁사실	-7.83398
적	-7.8345
▁않을	-7.83575
▁사고	-7.83748
▁민주당	-7.83761
▁계획	-7.84058
하다	-7.84418
▁시	-7.84932
▁지	-7.85378
▁클린턴	-7.8546
상	-7.85502
▁열린	-7.85749
▁경기	-7.85925
▁비	-7.8602
▁이스라엘	-7.86317
명을	-7.86449
크	-7.86583
▁이날	-7.86689
차	-7.86702
▁지역	-7.87439
한다	-7.89592
▁총리는	-7.89667
▁경찰	-7.89771
▁발표했다	-7.90914
▁발생한	-7.91574
▁하고	-7.91741
▁이란	-7.91943
에서는	-7.91987
▁받고	-7.92406
▁사	-7.93075
▁존	-7.93882
▁미국의	-7.93928
부	-7.94022
했습니다	-7.94272
▁16	-7.94486
원	-7.94674
치	-7.94776
▁회담	-7.9482
▁있을	-7.94981
▁핵	-7.95713
분	-7.95833
▁테러	-7.95873
▁아직	-7.96222
▁a	-7.96254
당	-7.96487
▁of	-7.96831
▁달러	-7.97259
▁후보	-7.97563
▁반	-7.97748
▁가운데	-7.97987
▁사람들이	-7.98414
소	-8.0023
적으로	-8.00642
▁정부가	-8.00749
▁18	-8.01105
▁의해	-8.01239
▁주요	-8.01254
이나	-8.01656
▁된다	-8.01779
▁지원	-8.02362
부터	-8.0248
▁아	-8.02654
즈	-8.03233
이라고	-8.0353
▁국제	-8.03577
▁다시	-8.03611
▁데	-8.04166
▁우리는	-8.04269
▁여성	-8.04283
화	-8.04585
용	-8.04974
▁됐다	-8.05107
▁사건	-8.05158
▁인해	-8.05174
입니다	-8.05215
▁관계	-8.06019
에도	-8.06536
▁마	-8.06886
▁선거	-8.06896
▁거	-8.07051
▁않은	-8.07071
▁해	-8.0728
▁13	-8.07357
▁첫	-8.07671
전	-8.07791
선	-8.07931
▁달	-8.0817
▁안	-8.087
라는	-8.08917
▁보고	-8.08961
▁25	-8.09254
▁총리	-8.09548
보	-8.10288
여	-8.10892
▁있다는	-8.10928
▁혐의로	-8.10986
▁아프간	-8.11015
▁tv	-8.11101
▁14	-8.11188
▁오	-8.11511
▁이미	-8.11554
▁지금	-8.118
에따르면	-8.11887
▁50	-8.12258
간	-8.12382
m	-8.12751
으며	-8.1312
면서	-8.13272
길	-8.13538
지만	-8.13876
▁연구	-8.14126
▁대	-8.1414
마	-8.14285
▁22	-8.14312
▁시위	-8.14529
▁다	-8.14541
▁조치	-8.15004
하면서	-8.15043
▁위치한	-8.15825
▁군	-8.16016
▁매우	-8.16049
▁총	-8.16106
▁시간	-8.1632
하	-8.1644
었다	-8.16476
들	-8.16853
▁받았다	-8.17202
▁세	-8.17376
▁없는	-8.17604
▁팔레스타인	-8.1764
km	-8.17797
시간	-8.18067
프	-8.18216
▁이슬람	-8.18359
▁부	-8.18486
▁줄	-8.18715
타	-8.18779
▁이는	-8.18925
1	-8.19042
우	-8.19395
d	-8.19418
되어	-8.19562
레	-8.19694
?	-8.19742
▁추가	-8.198
▁유럽	-8.19928
바	-8.20011
▁발표	-8.20056
▁피해	-8.20136
질	-8.20207
로부터	-8.20253
▁17	-8.20255
파	-8.20983
e	-8.21215
▁노	-8.2127
▁조	-8.2127
▁정보	-8.21533
▁않고	-8.21834
▁뉴욕	-8.21851
티	-8.22035
▁오늘	-8.22096
돼	-8.2216
▁한다고	-8.22413
▁채	-8.2246
▁강	-8.22604
▁초	-8.22699
위	-8.2297
▁대부분	-8.23451
▁탈레반	-8.23527
▁승리	-8.23561
▁결정	-8.23597
되는	-8.23854
▁아이	-8.23855
▁조지	-8.2397
▁대선	-8.23989
하여	-8.23989
▁관계자는	-8.24346
제	-8.24627
▁in	-8.24772
▁호주	-8.25082
▁어떤	-8.25675
▁인도	-8.25685
▁라	-8.25725
▁회사	-8.26218
▁명의	-8.26262
▁지적했다	-8.26285
▁방문	-8.26406
▁활동	-8.26692
▁기록	-8.26875
되고	-8.27126
▁24	-8.27177
▁그들은	-8.27367
▁혐의	-8.27724
▁독일	-8.27928
식	-8.27953
미	-8.28006
▁소속	-8.28298
▁원문기사보기	-8.28386
▁포함	-8.28443
▁인터넷	-8.28451
▁잘	-8.28556
디	-8.2862
▁시장	-8.28726
▁내용	-8.28757
▁감독	-8.28871
▁27	-8.28965
번	-8.2914
조	-8.29232
장	-8.29554
코	-8.29609
▁새	-8.2982
▁관리	-8.29959
▁우려	-8.30077
ing	-8.30193
▁이라며	-8.30276
▁당국은	-8.30289
▁21	-8.3043
처럼	-8.31042
달러	-8.31103
▁이에	-8.31575
▁100	-8.31737
▁성	-8.31869
▁최고	-8.3194
▁상원의원	-8.31998
▁없다고	-8.32037
린	-8.32221
2	-8.32264
▁40	-8.32296
려	-8.32617
▁하지	-8.32652
▁여러	-8.33068
▁지지	-8.33154
▁23	-8.33193
▁대학	-8.33229
년간	-8.33263
▁받은	-8.33414
▁않는다	-8.33416
▁2006	-8.33867
개월	-8.34257
토	-8.34547
▁하지만	-8.34778
▁못했다	-8.34801
▁협상	-8.34985
▁부상	-8.35373
산	-8.35514
▁프로그램	-8.35575
▁매케인	-8.3567
▁간	-8.35732
▁판매	-8.35873
국	-8.3615
▁예정	-8.36188
되지	-8.36465
이며	-8.36581
▁폭탄	-8.36887
▁카	-8.36956
들의	-8.37009
▁기	-8.37022
▁많	-8.37431
▁올림픽	-8.37433
러	-8.37465
내	-8.37486
권	-8.37577
▁w	-8.37596
▁오후	-8.38078
회	-8.38632
▁26	-8.38649
구	-8.38867
▁사람	-8.39001
▁있던	-8.39066
▁기자	-8.3908
▁차	-8.39596
카	-8.39848
▁입장	-8.39894
▁북한이	-8.39921
c	-8.40441
▁전쟁	-8.40478
▁사망	-8.40549
오	-8.41308
▁기술	-8.41697
▁불	-8.41727
ed	-8.4178
▁미얀마	-8.41798
▁원	-8.4218
▁인터뷰에서	-8.42264
▁보	-8.42322
명은	-8.42348
▁차량	-8.42509
▁구	-8.42621
▁자동차	-8.42849
3	-8.42999
▁준비	-8.43174
▁된	-8.4323
▁나는	-8.43259
▁공화당	-8.43357
▁비난	-8.43504
▁피	-8.43797
▁무	-8.43826
▁컴퓨터	-8.4385
▁있어	-8.43993
y	-8.44004
▁앞으로	-8.44121
▁이러	-8.44156
▁경찰이	-8.44186
호	-8.44308
▁것에	-8.44319
▁석방	-8.44498
개의	-8.44917
▁갖고	-8.45131
였다	-8.45237
▁시작	-8.4547
▁터키	-8.45592
▁마지막	-8.45933
▁있도록	-8.45935
▁당	-8.45946
▁강조했다	-8.46221
▁병원	-8.46379
했고	-8.46437
▁현지	-8.47142
▁개발	-8.47237
▁생각	-8.47274
▁인쇄	-8.47584
▁ap	-8.4761
정	-8.47695
▁떨어진	-8.47707
▁가진	-8.47893
▁재	-8.47951
모	-8.48156
브	-8.48223
▁오는	-8.48589
▁그녀는	-8.48605
▁방송	-8.4873
▁정책	-8.48755
▁변화	-8.48878
▁우주	-8.4894
하는데	-8.49035
▁폭발	-8.49161
▁오전	-8.49322
▁사이	-8.49739
▁비난했다	-8.49785
▁물	-8.49793
▁해결	-8.49817
▁의사	-8.50015
▁정	-8.50036
▁상	-8.50072
▁처음	-8.50202
▁이어	-8.50235
점	-8.50405
▁미국과	-8.50494
▁독해	-8.50507
신	-8.50646
▁2005	-8.5085
▁평화	-8.50989
설명	-8.5115
이었다	-8.51187
▁앞서	-8.51195
▁버락	-8.51219
▁규모	-8.51443
▁자신이	-8.51576
▁29	-8.51719
▁파	-8.51774
▁장관은	-8.51792
▁joins	-8.5183
릴	-8.5184
▁처음으로	-8.51866
▁스페인	-8.51959
▁상황	-8.51978
▁그녀	-8.52291
▁검찰	-8.52339
하기로	-8.52392
▁증가	-8.52395
에따라	-8.52436
▁이를	-8.52497
5	-8.52537
▁남자	-8.52637
물	-8.52816
들에게	-8.52826
노	-8.52828
▁성명	-8.52985
▁다음	-8.53074
▁미국이	-8.53339
했지만	-8.53426
하도록	-8.53452
▁아시아	-8.535
▁주장	-8.53551
▁도시	-8.53633
▁도	-8.53638
▁김	-8.53704
▁인근	-8.5373
▁노력	-8.53747
데	-8.53764
▁원문	-8.5398
▁지난달	-8.5405
▁없었다	-8.54069
법	-8.54208
▁투표	-8.54453
▁합의	-8.54472
▁사용	-8.54477
▁위협	-8.54568
되었다	-8.54852
난	-8.54853
▁하	-8.54854
직	-8.54922
▁사람들은	-8.55146
▁자	-8.55187
거나	-8.55196
▁금융	-8.55306
▁치료	-8.55308
▁유	-8.55651
▁좋은	-8.55757
▁이탈리아	-8.55757
▁미국은	-8.55824
▁28	-8.56211
▁모	-8.56249
▁지역에서	-8.56329
▁힐러리	-8.56483
▁볼	-8.56538
▁있지만	-8.5662
▁관한	-8.56721
▁날	-8.56757
▁없이	-8.56794
▁남부	-8.56881
▁연방	-8.56949
중	-8.57171
▁이용	-8.57193
살	-8.57291
▁안전	-8.57734
▁발생	-8.57901
▁의회	-8.58024
▁사망자	-8.58092
온	-8.58323
▁매	-8.58372
▁점	-8.58446
▁이런	-8.58569
했으나	-8.58603
▁보인다	-8.58816
▁개	-8.58875
▁양	-8.58891
▁신	-8.59187
n	-8.59225
▁이들은	-8.59228
관	-8.59235
▁산	-8.59249
▁사망했다	-8.59572
▁이름	-8.59598
습니다	-8.59599
계	-8.59618
▁발	-8.5968
▁여행	-8.5974
▁대표	-8.59938
루	-8.60095
으로부터	-8.60259
p	-8.60338
발	-8.60403
▁않다	-8.60472
▁반대	-8.60533
▁만에	-8.60551
▁리	-8.60629
▁최소	-8.6076
▁보도	-8.61016
▁당국	-8.6119
▁중단	-8.61267
▁불법	-8.61315
동	-8.61978
▁가능성	-8.62007
▁생산	-8.62171
▁영향	-8.62241
됐다고	-8.62337
▁미사일	-8.62818
▁행사	-8.62848
t	-8.63036
al	-8.63152
▁연기	-8.63191
▁못	-8.63216
▁이전	-8.63275
▁2008	-8.63278
번째	-8.63343
▁밤	-8.63357
▁중요한	-8.63363
▁정도	-8.63737
▁공식	-8.63807
▁비행기	-8.64089
터	-8.64119
▁논의	-8.64483
▁보다	-8.64511
▁article	-8.64658
▁사람들	-8.65001
▁상태	-8.65156
▁주둔	-8.65199
포	-8.65217
▁타	-8.65408
▁야당	-8.65458
▁돈	-8.65579
▁for	-8.6558
▁알카에다	-8.65686
▁까지	-8.65866
b	-8.6603
체	-8.66034
▁알려졌다	-8.66093
▁공	-8.661
▁반군	-8.66242
▁박사는	-8.66309
종	-8.66362
▁외	-8.66393
▁역사	-8.66526
▁코	-8.66765
▁와	-8.66864
▁정치	-8.66939
단	-8.67062
▁사태	-8.67083
▁무샤라프	-8.67091
▁발언	-8.6739
됐으며	-8.67443
▁불구하고	-8.67552
들과	-8.67575
▁대통령과	-8.67836
▁용의자	-8.67968
방	-8.68077
▁정치적	-8.68584
이라는	-8.68672
▁말했습니다	-8.68779
▁열	-8.68823
▁법원	-8.68849
▁지구	-8.68852
▁가격	-8.68916
u	-8.68939
▁이야기	-8.68984
▁발생했다	-8.69167
▁관심	-8.69306
와의	-8.69352
▁반면	-8.69369
▁사망한	-8.69757
▁것입니다	-8.69821
▁역할	-8.69966
▁배	-8.70019
▁팀	-8.70141
▁60	-8.7023
더	-8.7023
했었다	-8.70451
는데	-8.70486
▁백악관	-8.70582
▁필요	-8.70671
츠	-8.70837
▁무기	-8.7084
▁거래	-8.70887
▁코리아	-8.70954
▁주민들	-8.71106
▁2005.08	-8.71275
▁인질	-8.71426
▁심	-8.71508
▁자신들	-8.71528
▁e	-8.71546
▁장	-8.71594
▁살해	-8.7167
▁자금	-8.71671
▁위험	-8.71749
▁런던	-8.71859
▁서비스	-8.71889
▁회장	-8.71961
력	-8.72038
▁자신	-8.72251
▁학교	-8.72339
▁공급	-8.72515
든	-8.72682
피	-8.72712
▁최대	-8.72841
▁것이라는	-8.73109
▁기업	-8.73179
▁조직	-8.73203
▁집	-8.73558
2005.08	-8.73593
▁전에	-8.74132
▁고위	-8.74268
▁사망했다고	-8.74326
▁높은	-8.74429
▁출신	-8.74463
임	-8.74576
▁가족	-8.74606
▁북부	-8.74764
▁올	-8.74798
▁지난주	-8.75105
▁바그다드	-8.75233
▁은행	-8.753
▁의하면	-8.75406
▁모습을	-8.75409
▁언론	-8.75465
▁발견	-8.75801
▁가능성이	-8.75878
▁건물	-8.7588
▁군사	-8.75895
사전	-8.76099
마리	-8.7613
▁공동	-8.76314
▁요구	-8.76383
▁수사	-8.76844
▁벌이	-8.769
▁알고	-8.76914
▁더욱	-8.76952
▁뜻	-8.76965
▁성명에서	-8.77001
▁지역에	-8.7703
▁발사	-8.77174
▁상승	-8.77464
er	-8.77564
키	-8.77633
▁지도자	-8.77667
▁부족	-8.7768
▁왔다	-8.77728
된다	-8.77789
형	-8.77913
▁것이며	-8.78076
▁선	-8.78286
▁소	-8.78403
▁국경	-8.78539
▁2004	-8.78571
▁아버지	-8.78876
▁게임	-8.78953
▁어	-8.79017
안	-8.79041
▁이와	-8.7924
시킬	-8.79245
▁말을	-8.79282
▁않는	-8.79491
경	-8.79571
▁서울	-8.79831
▁부토	-8.79959
▁검사	-8.80049
▁나라	-8.80205
세의	-8.80226
▁아니다	-8.80254
▁필요한	-8.80452
▁어제	-8.80561
▁의원	-8.80849
▁핵무기	-8.80851
▁총리가	-8.80934
▁포	-8.81074
▁금지	-8.81118
▁감소	-8.8112
▁자살	-8.81152
▁서	-8.81194
▁병력	-8.81207
군	-8.81342
▁되는	-8.81356
배	-8.81523
▁뉴스	-8.81683
▁우승	-8.81772
▁않았다고	-8.81939
였던	-8.81996
▁법	-8.82178
▁사르코지	-8.82187
▁우	-8.82316
하겠다고	-8.82326
▁건강	-8.82458
▁단체	-8.82534
▁위기	-8.82553
▁하마스	-8.82787
▁투자	-8.8284
하던	-8.82849
▁충돌	-8.83003
▁체포	-8.83008
▁인	-8.83027
▁행위	-8.83175
▁결국	-8.83213
▁라이스	-8.83251
하자	-8.83431
▁독립	-8.83532
▁폭탄테러	-8.83614
공	-8.83754
▁동영상	-8.83788
▁행동	-8.83862
▁아침	-8.8389
▁보호	-8.83985
▁하나	-8.84004
▁이제	-8.84039
▁있고	-8.84048
▁인용	-8.84065
▁관련된	-8.84114
▁아이들	-8.84291
6	-8.84332
▁아니라	-8.84409
▁기자회견에서	-8.84453
천	-8.84511
▁아들	-8.84547
▁korea	-8.84633
▁전화	-8.84704
▁공항	-8.84799
거	-8.848
▁티베트	-8.84913
▁콜롬비아	-8.84913
▁직접	-8.84933
▁각	-8.85041
▁31	-8.85065
▁위	-8.85503
년에	-8.8552
▁국방부	-8.85663
▁브라운	-8.85964
억원	-8.8606
▁시도	-8.86159
유	-8.8638
▁진행	-8.86517
▁여부	-8.86548
▁스	-8.86566
▁레	-8.86578
▁캘리포니아	-8.8658
▁and	-8.86677
com	-8.86678
▁타고	-8.86769
도록	-8.86784
▁la	-8.86786
▁워싱턴	-8.86793
간의	-8.86889
▁받을	-8.87021
차례	-8.8704
한다고	-8.87101
실	-8.87114
해서	-8.87126
▁재개	-8.87219
▁f	-8.87267
▁노무현	-8.87361
란	-8.87385
▁보안	-8.87526
급	-8.87542
▁주택	-8.87569
울	-8.87642
날	-8.87786
친	-8.87853
석	-8.87874
▁신문	-8.87885
▁방법	-8.87887
▁비행	-8.87953
년까지	-8.88213
▁앞	-8.88261
지는	-8.88281
▁eu	-8.8845
a	-8.8857
▁번째	-8.8877
▁이같	-8.88814
▁사람이	-8.88938
다고	-8.89138
그	-8.89157
▁2003	-8.89167
▁하루	-8.89305
네	-8.89333
문	-8.89371
▁역시	-8.89539
▁건설	-8.89628
만달러	-8.89939
▁어떻게	-8.90233
▁공개	-8.90284
▁시신	-8.90342
▁문	-8.90615
▁회의	-8.90804
▁열리는	-8.90909
학	-8.91069
▁이유로	-8.91395
하면	-8.91456
▁문제에	-8.9147
▁음악	-8.91493
▁베이징	-8.9151
▁협력	-8.91859
▁사건에	-8.91859
▁기간	-8.91943
▁납치	-8.91977
▁철수	-8.92096
▁곧	-8.9213
▁연설	-8.92236
▁폴	-8.92335
▁판결	-8.92396
▁최초	-8.92442
▁호텔	-8.92506
▁빌	-8.92758
▁손	-8.92772
▁국무부	-8.92824
반	-8.93031
감	-8.93036
▁남	-8.93143
년대	-8.93212
▁골	-8.93233
▁숨졌다	-8.93291
스트	-8.93329
하려	-8.93492
▁한나라당	-8.93504
▁타임즈	-8.93581
▁이동	-8.93612
▁에너지	-8.93623
▁석유	-8.93701
▁방	-8.93732
▁범죄	-8.93733
▁곳	-8.93766
▁구조	-8.93874
▁데이비드	-8.93945
졌다	-8.9409
긴	-8.94117
재	-8.94198
▁주변	-8.94357
▁한국인	-8.94393
▁0	-8.94533
포인트	-8.94536
▁살	-8.94687
▁아프가니스탄	-8.94906
▁막	-8.95028
▁예정이라고	-8.95144
▁있게	-8.95233
▁기회	-8.95524
하려는	-8.95588
▁언급	-8.95628
▁전문가들은	-8.95655
o	-8.95677
▁현	-8.95764
이자	-8.95847
▁대선후보	-8.95856
▁말하는	-8.9588
▁상원	-8.95892
▁선수	-8.95958
▁확인	-8.96021
▁있기	-8.96059
▁시작했다	-8.96295
▁폐쇄	-8.96398
버	-8.96472
▁p	-8.96629
▁같다	-8.96733
건	-8.96733
k	-8.96739
▁인구	-8.96786
▁증거	-8.96814
▁하락	-8.96837
▁200	-8.96848
▁또는	-8.96887
▁애	-8.96899
▁생활	-8.97289
▁부인	-8.97319
▁과학자들	-8.97422
▁훈련	-8.97561
▁보였다	-8.97588
▁co	-8.97786
교	-8.97789
민	-8.97793
▁교육	-8.97797
▁전세계	-8.97801
8	-8.97851
▁메	-8.9788
▁수술	-8.97884
판	-8.97921
만명	-8.98004
▁눈	-8.98035
▁보고서	-8.98086
▁너무	-8.98099
▁요구했다	-8.98161
▁사회	-8.98275
위원회	-8.98283
▁내년	-8.98317
▁드	-8.98499
▁2000	-8.98548
연	-8.98552
▁멕시코	-8.98585
▁대규모	-8.98593
층	-8.98794
▁생각한다	-8.98901
▁b	-8.98955
r	-8.99088
▁개인	-8.99186
▁정상	-8.9922
▁온	-8.99287
▁발견했다	-8.99343
▁사업	-8.99428
▁길	-8.99442
론	-8.99614
▁성공	-8.99721
▁의견	-8.99831
하라	-8.99858
청	-8.9991
▁사진	-8.99937
심	-9.00126
▁난	-9.00135
▁어린이	-9.00151
▁비디오	-9.00188
명과	-9.00259
▁제안	-9.00274
▁저장	-9.00284
만원	-9.00301
▁도로	-9.00326
▁법안	-9.00437
▁특히	-9.00606
장은	-9.00708
▁결혼	-9.00944
▁화재	-9.00981
▁나타났다	-9.01027
져	-9.0116
▁대변인	-9.01193
설	-9.01206
▁약어표	-9.01399
▁앞두고	-9.01399
▁입	-9.01622
▁대사관	-9.0164
▁포함한	-9.01654
슨	-9.01666
초	-9.01732
▁했다고	-9.01787
g	-9.01797
▁그들의	-9.01884
▁민간인	-9.02096
▁사망하고	-9.02223
영	-9.02282
▁성장	-9.02322
▁딸	-9.02347
억달러	-9.02408
▁심각한	-9.02417
▁레바논	-9.02503
요	-9.02634
▁로버트	-9.02636
▁판사	-9.0273
▁관할	-9.02793
▁전망	-9.02956
혀	-9.03024
▁전체	-9.03031
일간	-9.03063
▁적	-9.03261
▁인간	-9.03423
▁인정	-9.03461
▁아닌	-9.03465
▁있었던	-9.03466
▁명	-9.03474
속	-9.03553
▁해외	-9.03766
강	-9.03891
▁여전	-9.03903
행	-9.03904
▁승인	-9.04248
▁시설	-9.04293
▁안에	-9.04316
▁통	-9.0436
▁경선	-9.0442
▁태국	-9.04436
▁방안	-9.04657
▁당신	-9.04676
▁들	-9.0474
▁교수는	-9.04941
▁us	-9.05209
▁가지	-9.05629
▁일을	-9.05768
▁의원은	-9.05865
▁네	-9.0602
▁인도네시아	-9.06082
시켰다	-9.06095
▁대신	-9.06404
▁아무	-9.06435
▁2002	-9.06437
으나	-9.06548
▁운영	-9.06554
병	-9.06602
▁가지고	-9.06654
함	-9.06677
▁작전	-9.06702
▁수입	-9.06705
▁촉구했다	-9.0672
▁비롯	-9.06816
▁작은	-9.06822
▁실	-9.06914
▁수치	-9.06999
▁그들이	-9.07004
▁친구	-9.07056
▁베	-9.07197
▁입은	-9.07273
▁밝혀졌다	-9.07277
퍼센트	-9.07286
▁친	-9.07339
▁장관	-9.07463
▁경기에서	-9.07543
▁요청	-9.07582
통	-9.07602
위를	-9.07604
▁산업	-9.07644
▁확보	-9.07942
▁마을	-9.08179
▁헬기	-9.08204
▁선택	-9.08525
월에	-9.08529
▁푸틴	-9.08576
▁최종	-9.08579
▁열차	-9.08632
▁규정	-9.08666
▁만	-9.08689
에서도	-9.08698
▁경쟁	-9.08759
▁이상이	-9.08762
▁대회	-9.08779
▁아기	-9.08784
▁스타	-9.08857
▁운동	-9.08871
▁경고	-9.08919
▁마이클	-9.09014
▁제재	-9.09057
▁저	-9.09088
▁국민	-9.0913
▁입었다	-9.09164
▁알리	-9.09206
했을	-9.09218
▁속	-9.09219
▁안보	-9.09424
로서	-9.09436
▁바로	-9.09489
▁맞	-9.09504
▁받아	-9.098
▁본	-9.09984
▁온라인	-9.10018
▁호	-9.10051
너	-9.10072
▁살고	-9.10157
▁수준	-9.103
▁2007	-9.10353
▁무장	-9.1038
▁c	-9.10391
▁개선	-9.10409
▁배우	-9.10421
▁예상	-9.1048
▁전투	-9.10548
있는	-9.10563
▁출전	-9.10749
▁국민들	-9.10798
▁폭력	-9.10878
▁연료	-9.10886
▁여자	-9.10998
작	-9.11114
▁팔	-9.11122
▁사임	-9.11149
▁이라크에서	-9.11242
▁un	-9.11324
▁n	-9.11335
▁말한다	-9.11492
▁행정부	-9.1155
▁미국인	-9.11639
▁얼마	-9.11646
▁메시지	-9.11687
▁브라질	-9.1169
▁인권	-9.1169
무	-9.11724
▁라디오	-9.11796
▁담당	-9.11847
▁통과	-9.12124
▁없을	-9.12139
▁동물	-9.12168
▁종	-9.12216
워	-9.12272
▁환경	-9.12281
▁관계자가	-9.12378
▁광고	-9.12405
▁밝힌	-9.12597
▁대의원	-9.12604
▁부대	-9.12772
▁그런	-9.12825
▁중인	-9.12848
▁경고했다	-9.13021
▁만약	-9.13064
▁아프리카	-9.13266
▁치	-9.13318
▁명이	-9.13333
▁필요하다	-9.13354
▁걸	-9.13418
합니다	-9.13465
류	-9.13513
▁시위대	-9.13657
▁도움	-9.13691
엔	-9.13705
▁일이	-9.13727
후	-9.13748
▁수단	-9.13869
▁서로	-9.13911
▁힐	-9.1392
▁출연	-9.14028
9	-9.14075
▁원인	-9.14086
▁발표한	-9.14187
▁동	-9.14215
▁박	-9.14258
▁분	-9.14354
▁남편	-9.14369
▁빈	-9.14487
▁외국인	-9.14494
▁화요일	-9.14584
▁반응	-9.14589
▁책임	-9.14826
▁보내	-9.14847
▁계약	-9.14999
▁항공	-9.15003
▁암	-9.15067
▁여	-9.15133
de	-9.15255
▁대만	-9.15342
▁벌였다	-9.15652
▁주식	-9.15738
▁비해	-9.15871
▁세금	-9.15938
▁얻	-9.15954
▁제작	-9.16144
▁담	-9.16256
▁지방	-9.16289
▁외국	-9.16369
▁벌	-9.16531
년부터	-9.16555
▁가치	-9.16609
▁홍콩	-9.16621
▁시스템	-9.16652
▁스미스	-9.1678
▁지역의	-9.16943
품	-9.17209
▁짐바브웨	-9.17256
▁양국	-9.17325
▁후보가	-9.17338
팀	-9.17352
두	-9.17355
씨는	-9.17379
케	-9.17464
▁과거	-9.17534
4	-9.17548
출	-9.1772
▁부부	-9.17775
▁같이	-9.17783
▁공연	-9.17913
▁on	-9.17914
▁학생	-9.18001
▁예	-9.18054
▁기록했다	-9.18185
▁중동	-9.18363
▁내렸다	-9.18398
▁구성	-9.18475
▁80	-9.18518
▁만나	-9.18556
▁시즌	-9.18559
▁단	-9.18589
▁시아파	-9.18699
하거나	-9.1882
▁미국에서	-9.18919
▁거리	-9.18991
▁일정	-9.19066
▁국영	-9.19272
▁주도	-9.19329
▁임무	-9.19365
이었던	-9.1953
▁밖에	-9.19602
▁시험	-9.19678
증	-9.19721
▁힘	-9.19785
▁일본의	-9.19907
금	-9.19955
▁기대	-9.19999
▁제품	-9.20021
▁총선	-9.20088
▁평균	-9.20163
▁유지	-9.20163
▁각각	-9.20172
▁작품	-9.20207
▁권리	-9.20234
▁앤	-9.20381
▁웹사이트	-9.20658
▁부통령	-9.2067
▁관리들	-9.20677
▁해군	-9.20882
▁파업	-9.21034
약	-9.21074
▁비용	-9.21162
▁환자	-9.21235
▁개최	-9.21237
측	-9.21267
▁않아	-9.21324
▁500	-9.21378
▁디	-9.2138
▁인상	-9.21437
▁대변인이	-9.2147
래	-9.21514
▁가스	-9.21568
▁편	-9.21599
되기	-9.21618
▁다리	-9.21644
▁이수지	-9.21653
7	-9.21726
▁사건이	-9.21739
▁주민	-9.21904
▁다양	-9.21987
▁나오	-9.22021
▁연	-9.22082
인한	-9.2209
▁번	-9.22128
▁자유	-9.22351
▁키	-9.22366
▁처리	-9.22466
색	-9.22658
▁사이에	-9.22687
달	-9.22706
▁약속	-9.22738
▁d	-9.22757
▁국내	-9.228
▁텍사스	-9.22919
▁주말	-9.23014
▁직원	-9.23102
▁놓	-9.23195
▁강제	-9.23226
▁과정에서	-9.23252
▁감시	-9.23456
여명	-9.23554
▁연합	-9.23599
▁내무부	-9.23662
▁여객기	-9.23663
▁여름	-9.23665
▁들어	-9.23673
▁돌	-9.23678
▁걸쳐	-9.2368
▁목표	-9.23821
장을	-9.23882
일까지	-9.23964
▁변호사	-9.24014
▁평가	-9.24158
▁발견됐다	-9.24263
▁선고	-9.24286
▁희망	-9.24289
▁것과	-9.24502
▁완전	-9.24666
▁경찰에	-9.24707
▁추	-9.24765
▁무장세력	-9.24932
▁하기	-9.25029
▁제한	-9.25073
시켜	-9.25128
록	-9.25383
량	-9.25411
▁수출	-9.2542
▁경	-9.25553
▁몸	-9.25649
▁동부	-9.25711
▁케냐	-9.25762
▁이곳	-9.2578
▁갈	-9.25785
▁결정했다	-9.26008
st	-9.26316
▁그룹	-9.26336
▁소송	-9.26351
▁대상으로	-9.26442
▁제공	-9.26591
줄	-9.26697
▁유일	-9.26727
▁온몸	-9.26763
▁북핵	-9.26764
▁사퇴	-9.26771
▁주재	-9.26797
▁지명	-9.26807
스는	-9.2694
le	-9.2724
▁강화	-9.273
▁후세인	-9.27325
▁이유	-9.27367
대로	-9.27556
▁바란다	-9.27826
▁어머니	-9.27969
▁대해서는	-9.28065
한다는	-9.28152
▁캐나다	-9.28177
▁관계자들은	-9.28272
쳐	-9.28333
▁베네수엘라	-9.2835
▁이에앞서	-9.2835
▁바이러스	-9.28352
▁알려진	-9.28361
업	-9.28371
▁be	-9.28393
▁익명	-9.28784
▁서부	-9.28816
▁35	-9.28851
▁남성	-9.28856
▁이명박	-9.28885
▁기사	-9.29123
▁상대로	-9.29311
▁후보는	-9.29333
▁발견된	-9.29392
▁기상캐스터	-9.29423
f	-9.29435
▁부상했다	-9.29462
▁누	-9.29484
▁해안	-9.29494
▁받는	-9.29615
▁파병	-9.29965
▁차베스	-9.29968
▁커	-9.29981
▁불만	-9.29982
▁회복	-9.30052
▁사는	-9.30069
▁항공사	-9.30205
▁집단	-9.30216
중인	-9.30249
▁인기	-9.30278
▁90	-9.30281
▁여론	-9.30336
▁한다는	-9.30414
기도	-9.30455
테	-9.30555
▁북	-9.30587
▁민주주의	-9.30588
▁실시	-9.30598
▁소녀	-9.3072
▁아직까지	-9.30737
▁플로리다	-9.30778
지역	-9.30784
기구	-9.30892
▁별	-9.30894
▁중국은	-9.31007
▁로마	-9.31042
▁변호사는	-9.3109
▁남한	-9.31303
▁엘	-9.31308
▁하원	-9.31468
▁왕자	-9.31508
▁논쟁	-9.31595
▁진압	-9.3161
▁크게	-9.31648
▁있지	-9.31843
▁되어	-9.31848
▁받지	-9.31957
▁기소	-9.321
es	-9.32118
힌	-9.32151
▁밝혔습니다	-9.32158
▁거부	-9.32162
탄	-9.32214
▁사과	-9.32223
▁예상된다	-9.32273
▁책	-9.32285
▁위성	-9.32309
쉬	-9.32318
가지	-9.32349
▁총격	-9.32384
▁거대	-9.32386
▁재판	-9.32461
역	-9.32496
▁특별	-9.32503
▁때까지	-9.32538
▁g	-9.32609
▁선정	-9.32691
▁접근	-9.32693
▁복귀	-9.32711
료	-9.3273
▁버스	-9.32781
▁병	-9.3281
등	-9.32949
▁유권자들	-9.33088
i	-9.33179
▁루	-9.33219
▁사람들을	-9.33398
▁찾아	-9.33436
▁되고	-9.335
▁적이	-9.33503
▁페	-9.33575
▁강한	-9.33793
▁발전	-9.33818
▁인터뷰	-9.33818
일부터	-9.33827
▁탑승	-9.33829
▁마련	-9.33967
▁정권	-9.34012
▁파괴	-9.34046
▁수상	-9.34081
업체	-9.34101
생	-9.34141
▁최악	-9.34398
▁쿠바	-9.34428
▁무장단체	-9.34435
▁나온	-9.3447
▁무역	-9.34556
▁차이	-9.34669
▁합니다	-9.34678
▁정부와	-9.34726
하겠다	-9.34737
▁사람은	-9.34751
▁마크	-9.34803
처	-9.34807
▁암살	-9.34843
▁전국	-9.34904
▁아니라고	-9.34912
▁차례	-9.34925
▁따른	-9.3497
승	-9.34994
▁잡	-9.34999
▁실험	-9.35106
▁그것은	-9.3519
▁음식	-9.3532
▁머리	-9.35343
▁건	-9.35368
▁도움이	-9.35391
▁위해서는	-9.3554
▁동료	-9.35703
▁정부에	-9.35715
▁국회	-9.35772
저	-9.35807
▁수색	-9.35898
▁지나	-9.35983
▁장면	-9.3599
▁의료	-9.36114
▁정당	-9.36151
▁받게	-9.3617
▁자료	-9.36174
본	-9.36211
▁2001	-9.36225
▁임기	-9.36308
시키는	-9.36433
▁두고	-9.36543
▁강력한	-9.36556
개국	-9.36579
▁못하고	-9.3658
해왔다	-9.36609
▁의미	-9.36623
▁성폭행	-9.36682
▁수많은	-9.36689
▁명령	-9.3671
▁참가	-9.36762
골	-9.36837
▁긴장	-9.36852
▁기지	-9.36964
▁질문	-9.3705
▁상원의원이	-9.37116
▁nasa	-9.37271
편	-9.37391
▁월요일	-9.37579
▁여론조사	-9.37659
▁북한에	-9.37698
▁표	-9.37699
메	-9.37756
▁압력	-9.37801
▁있음	-9.37892
▁매년	-9.37901
l	-9.37942
▁파리	-9.38016
▁달리	-9.38101
▁토	-9.38132
▁70	-9.38152
▁가능한	-9.38224
▁못한	-9.38282
▁위원회	-9.38308
▁가자지구	-9.38315
▁통제	-9.38385
▁확인했다	-9.38438
▁외교	-9.38477
▁필리핀	-9.38487
▁가졌다	-9.38738
▁비밀	-9.38828
들에	-9.3892
▁상황이	-9.38982
▁어느	-9.3904
▁보고서는	-9.39044
▁언급했다	-9.39086
▁공격으로	-9.3912
▁이집트	-9.39146
▁나왔다	-9.39207
▁인수	-9.39242
▁계획이다	-9.39451
▁항공기	-9.39533
▁주지사	-9.39569
하였다	-9.39606
▁선수들	-9.39616
▁뇌	-9.39618
▁식량	-9.39621
▁사우디	-9.39634
▁밝히지	-9.39715
▁시리아	-9.39721
자회담	-9.39796
▁개혁	-9.39804
됐	-9.39812
▁u	-9.39908
▁고용	-9.3995
▁중에	-9.39982
동안	-9.40136
만한	-9.4022
▁인물	-9.40302
양	-9.4035
▁부상자	-9.4038
▁신고	-9.40415
▁보냈다	-9.4042
▁붕괴	-9.40478
▁병사	-9.40484
▁세력	-9.40508
v	-9.40537
▁군대	-9.40634
▁300	-9.40743
▁학생들	-9.40752
▁나머지	-9.40831
▁이끄는	-9.40833
▁만들어	-9.40899
▁영어	-9.40931
▁사랑	-9.41039
▁증시	-9.41116
곳	-9.41141
표	-9.41193
▁사람들에게	-9.41233
on	-9.41293
▁넘	-9.41305
▁쇼	-9.41318
▁귀	-9.41419
▁권력	-9.41459
▁h	-9.41467
▁re	-9.41487
▁사형	-9.41504
▁칸	-9.41515
▁끝	-9.41527
▁향해	-9.41548
▁희생자	-9.41633
▁맥	-9.41806
▁업체	-9.41863
▁관해	-9.41973
▁있다며	-9.41991
▁설명	-9.42052
▁후에	-9.42074
른	-9.4208
▁중앙	-9.4212
▁올랐다	-9.4216
▁공습	-9.42198
▁샤	-9.42243
▁요청했다	-9.42263
▁기관	-9.42348
▁천	-9.42356
▁국무장관	-9.42421
▁주지사는	-9.4243
센터	-9.42447
▁안정	-9.42458
▁흑인	-9.42473
▁교수	-9.42492
명으로	-9.42551
▁지진	-9.42637
▁제임스	-9.42659
▁일자리	-9.42675
▁사실이	-9.4278
en	-9.42872
▁아내	-9.4299
▁변	-9.43003
▁위반	-9.43155
▁허가	-9.43199
▁참석	-9.43272
▁잘못	-9.43279
▁충격	-9.43279
▁소재	-9.43304
베	-9.43556
▁되었다	-9.43756
▁되지	-9.43847
갈	-9.43895
▁금	-9.43901
▁다음달	-9.43923
▁부모	-9.4395
▁임시	-9.43971
▁막기	-9.44098
정부	-9.44283
h	-9.44306
▁진	-9.44364
▁만큼	-9.44404
▁질	-9.44441
▁미군이	-9.44465
▁목숨	-9.44524
▁해리	-9.44592
▁전시	-9.44643
▁설치	-9.44798
▁올라	-9.44949
▁이것은	-9.44959
▁받았다고	-9.44964
하기도	-9.45049
▁주장하고	-9.45087
▁헌법	-9.45131
▁오른	-9.45165
톤	-9.45191
되었다고	-9.45221
▁숨지고	-9.45239
자들	-9.45298
▁오바마가	-9.45307
▁야후	-9.45474
▁1000	-9.45549
남	-9.45713
▁감	-9.45723
▁구매	-9.45726
▁해야	-9.4573
▁살인	-9.45753
▁전기	-9.45771
▁자체	-9.458
▁국방장관	-9.45845
락	-9.46018
였습니다	-9.46019
▁질문에	-9.46072
▁나이	-9.46294
▁정도로	-9.4633
▁시민	-9.4635
▁어떠한	-9.46423
▁허리케인	-9.46423
▁모델	-9.46434
▁비판	-9.46557
▁유권자	-9.46631
▁전력	-9.46642
▁팬들	-9.46653
▁32	-9.47007
▁소말리아	-9.47064
w	-9.47089
▁쿠	-9.47121
▁소리	-9.4725
▁마음	-9.47252
▁씨	-9.47283
▁항의	-9.47297
▁j	-9.47308
자들은	-9.47312
▁시기	-9.47457
튼	-9.47657
▁삶	-9.47709
▁확대	-9.47709
▁적어도	-9.47741
▁마약	-9.47742
▁물론	-9.47743
▁끝에	-9.47743
▁곳에서	-9.47802
▁라며	-9.47813
▁선출	-9.47843
▁표현	-9.47958
▁뿐	-9.48032
▁넘는	-9.48081
▁t	-9.48101
▁교통	-9.48184
▁사원	-9.48196
커	-9.48226
▁시카고	-9.48234
▁따라	-9.48273
▁배치	-9.48368
▁작업을	-9.48374
▁외무부	-9.48376
세기	-9.48505
▁문화	-9.4852
▁촬영	-9.4856
망	-9.48562
▁요	-9.48575
▁수십	-9.48682
▁섬	-9.48733
▁야	-9.48772
거리	-9.48821
▁당선인	-9.48892
▁45	-9.48893
▁전문가	-9.4901
▁항상	-9.4903
▁시행	-9.49071
▁것이라	-9.49086
▁목적	-9.49267
▁수요일	-9.4933
왔다	-9.49387
▁입고	-9.49393
▁자리	-9.49545
▁검토	-9.49559
여명이	-9.49718
ch	-9.49753
▁여성이	-9.49757
▁접촉	-9.49762
▁상당	-9.49766
▁이래	-9.49811
▁패	-9.4984
▁존스	-9.49901
복	-9.49945
▁이란이	-9.50015
▁허용	-9.50086
▁대화	-9.50161
▁시간이	-9.50174
▁유명한	-9.50177
▁추진	-9.50257
▁내려	-9.50272
▁베컴	-9.50334
▁로켓	-9.50338
▁감염	-9.50376
▁칼	-9.50467
▁고통	-9.50532
▁선언	-9.50552
▁사이트	-9.50619
▁교전	-9.50683
▁종교	-9.50844
▁사장	-9.50869
▁혼란	-9.5094
▁이달	-9.50994
▁경제적	-9.50997
▁fbi	-9.50999
▁수천명	-9.51055
▁추락	-9.51101
▁발생해	-9.51199
▁이라크에	-9.51222
각	-9.51269
▁발생했다고	-9.51277
▁대중	-9.51315
리자	-9.51342
▁수천	-9.51379
▁되	-9.5156
▁어려움	-9.51671
▁출마	-9.51692
▁아베	-9.51753
▁사상	-9.51889
런	-9.51898
▁사진을	-9.51906
▁심장	-9.51918
▁연구소	-9.51924
an	-9.51959
▁피해자	-9.51978
▁수익	-9.51981
▁직원들	-9.52019
▁제조	-9.52148
▁일요일	-9.52182
▁아주	-9.5222
▁대표는	-9.52226
▁좀	-9.52345
5000	-9.52346
▁휴대폰	-9.52346
▁긴급	-9.52349
▁찰스	-9.52365
▁관련해	-9.52423
▁부분	-9.52439
▁상대	-9.52498
▁집중	-9.52666
▁관광	-9.52853
50	-9.52877
▁합의했다	-9.52886
▁new	-9.52915
▁버	-9.5294
▁수행	-9.52973
▁미래	-9.52984
빌	-9.52985
▁게	-9.53018
▁병원에	-9.53028
▁외무장관	-9.53038
▁최고의	-9.53069
▁연장	-9.53136
▁진출	-9.53137
▁자국	-9.53211
▁사항	-9.53225
or	-9.53237
▁지도자인	-9.53378
림	-9.53391
▁전달	-9.53393
▁대해서	-9.53423
리아	-9.53425
▁비슷	-9.53437
▁백	-9.53537
▁지불	-9.53575
협회	-9.53583
▁신원	-9.53585
▁시상식	-9.53711
▁아무런	-9.53722
ar	-9.53773
▁승객	-9.53923
▁주민들이	-9.53945
주의	-9.54075
▁당선	-9.54111
▁착륙	-9.54247
▁않았지만	-9.544
▁국제사회	-9.54412
▁선두	-9.5442
채	-9.54518
있다	-9.5481
▁수백	-9.54924
시키고	-9.54933
▁파견	-9.54956
▁작년	-9.54965
▁싶다	-9.55048
▁분쟁	-9.5505
▁걱정	-9.55095
▁게이츠	-9.55098
▁사무실	-9.55106
투	-9.55107
▁절차	-9.55118
▁현장	-9.55156
되었습니다	-9.55223
▁것인지	-9.55247
▁인사	-9.55249
▁공군	-9.55263
▁강력	-9.55316
자인	-9.55355
▁교회	-9.55423
▁가질	-9.55427
▁일반	-9.55535
▁그리스	-9.55637
▁씨는	-9.55651
▁취소	-9.55676
▁젊은	-9.55748
▁위치	-9.55776
in	-9.55877
▁구속	-9.55894
▁카운티	-9.55991
▁선거에서	-9.56023
▁순간	-9.56025
▁고문	-9.56056
▁유명	-9.56127
▁폭력사태	-9.56151
▁목표로	-9.56171
절	-9.56229
▁언론은	-9.56431
▁사건은	-9.56446
tal	-9.56484
▁군인	-9.56489
▁국립	-9.56501
▁추정	-9.56537
퍼	-9.5661
▁목요일	-9.56622
▁체포됐다	-9.5663
월부터	-9.56631
▁해제	-9.56761
▁정상회담	-9.56774
담	-9.56888
▁반대하는	-9.57049
▁보기	-9.57105
▁방문한	-9.57131
▁결	-9.57217
▁숨진	-9.57242
▁is	-9.57369
▁노동	-9.5739
▁정말	-9.57417
▁보장	-9.57422
▁출발	-9.57447
▁대법원	-9.57449
▁관계자들	-9.57482
th	-9.575
▁노조	-9.57553
기로	-9.57744
▁id	-9.57773
▁남북	-9.57778
▁개의	-9.578
▁수석	-9.57902
했는데	-9.57904
싼	-9.57922
▁영	-9.57965
▁주의	-9.58059
▁대응	-9.58068
▁제기	-9.58147
▁임명	-9.58388
▁대비	-9.58494
자들이	-9.58544
▁왕	-9.5859
▁단지	-9.58622
▁코소보	-9.58641
▁동결	-9.58653
▁총기	-9.58689
쿠	-9.58712
격	-9.58781
때	-9.58787
▁이라크전	-9.58824
▁실패	-9.58834
상을	-9.58852
▁가까	-9.58859
태	-9.58913
▁전략	-9.58958
▁퍼	-9.5901
▁저는	-9.59081
▁보이는	-9.5913
렸다	-9.59195
지도	-9.59233
▁보여주	-9.59275
▁마리	-9.59346
▁센터	-9.59364
▁나타나	-9.59366
▁도착	-9.59659
▁패배	-9.59762
▁들고	-9.59802
렌	-9.59807
▁제거	-9.59862
▁넣	-9.59976
▁잉글랜드	-9.60096
▁몇몇	-9.60096
▁신화통신	-9.6013
만이	-9.6019
▁유세	-9.60494
▁차기	-9.60559
▁지역을	-9.60625
0	-9.60739
▁작업	-9.60835
▁판단	-9.60861
▁마무리	-9.60863
▁왜	-9.60868
액	-9.60918
▁도중	-9.60972
▁판	-9.60987
독	-9.61053
▁도전	-9.61056
▁윌리엄	-9.61131
▁소비자	-9.61182
박	-9.61289
자가	-9.61369
시키기	-9.61386
▁극	-9.61423
▁버지니아	-9.61443
▁매일	-9.61476
▁운행	-9.61575
▁bbc	-9.61576
▁고양이	-9.6158
▁연속	-9.6159
▁밝혀지지	-9.61611
▁조건	-9.6162
▁유죄	-9.61633
▁카메라	-9.61668
▁스위스	-9.61718
▁회담에서	-9.6175
▁연합군	-9.6175
▁압박	-9.61774
것	-9.618
으로서	-9.61808
▁그들	-9.61826
▁있는지	-9.61831
▁도쿄	-9.62216
집	-9.62264
▁다이애나	-9.62275
▁없어	-9.6229
▁약물	-9.62297
▁대형	-9.62389
▁효과	-9.6239
▁스포츠	-9.62405
▁나토	-9.62423
cat	-9.62425
측은	-9.6243
▁약간	-9.62436
하다고	-9.62439
▁관광객	-9.62503
▁자주	-9.62526
대가	-9.62585
▁한국은	-9.62587
▁영국의	-9.62631
▁가량	-9.62686
▁여당	-9.62782
▁전까지	-9.62799
▁자녀	-9.62907
▁지도자들	-9.6307
▁블레어	-9.6307
▁올메르트	-9.6307
▁스스로	-9.63071
▁분노	-9.63104
▁노래	-9.63111
▁지지자들	-9.6312
로써	-9.63176
▁군부	-9.63244
▁하며	-9.63502
다면	-9.63587
▁연설에서	-9.6365
▁오래	-9.63678
▁만든	-9.63688
▁오랫동안	-9.63828
▁할리우드	-9.63828
▁탁신	-9.63828
▁환영	-9.63869
▁핵심	-9.63894
▁실수	-9.63965
샤	-9.63976
▁당했다	-9.63993
▁아마	-9.64094
▁한반도	-9.64131
씨	-9.64192
▁내부	-9.64331
았다	-9.64336
▁장기	-9.64407
▁병원에서	-9.64446
열	-9.6456
▁빠른	-9.64591
▁비상사태	-9.64594
기간	-9.64594
▁확실히	-9.64627
▁참여	-9.64662
입	-9.64697
▁옷	-9.64745
▁근무	-9.6476
ra	-9.64765
언	-9.64793
▁분석	-9.64806
▁공장	-9.64879
▁곳에	-9.65076
▁36	-9.65139
▁이와같	-9.6522
▁k	-9.6525
▁korean	-9.65282
▁전통	-9.65311
▁겪고	-9.6536
▁그렇게	-9.6536
▁직후	-9.65369
▁생	-9.65384
▁집회	-9.65492
▁지배	-9.65538
▁2009	-9.65541
현	-9.65701
▁후보에	-9.65719
▁뉴	-9.65766
은행	-9.65831
▁성적	-9.65843
▁보건	-9.65858
▁높이	-9.65859
▁통신	-9.6587
▁체포했다	-9.65881
▁주가	-9.65912
▁문서	-9.65984
▁협의	-9.66135
▁사기	-9.6614
▁개봉	-9.66149
▁그에게	-9.66155
▁담배	-9.66166
▁홍보	-9.66197
▁동시	-9.66276
▁구호	-9.66304
센	-9.66312
▁투입	-9.66338
페	-9.66366
▁투	-9.66394
▁실제	-9.66451
▁떠나	-9.66514
▁보여	-9.66544
▁프로젝트	-9.66605
▁제출	-9.66769
▁법률	-9.66788
tp	-9.66849
▁탄	-9.66901
▁낮은	-9.66917
▁감축	-9.66922
만명이	-9.66925
▁오랜	-9.6693
▁산불	-9.66932
했는지	-9.66946
▁조작	-9.66965
▁전자	-9.66979
▁화성	-9.66994
합	-9.66994
▁여성들	-9.67005
▁기억	-9.67039
▁의원이	-9.67122
▁맞아	-9.67143
▁비상	-9.67155
▁테	-9.67157
▁글	-9.67175
▁집행	-9.6722
▁보좌관	-9.67234
매	-9.67284
▁대책	-9.6737
▁수가	-9.67476
▁이밖에	-9.67704
▁처벌	-9.67707
▁원자로	-9.67724
▁조금	-9.67748
▁ms	-9.67797
▁알게	-9.67911
준	-9.67921
▁능력	-9.67931
▁북한과	-9.68051
▁완화	-9.68168
이지만	-9.68194
▁잠	-9.68208
▁애플	-9.68216
▁난민	-9.68303
백	-9.68304
▁차지했다	-9.6832
▁관	-9.68321
▁400	-9.68328
▁초기	-9.68446
▁중심	-9.68474
▁소식을	-9.6848
▁크리스마스	-9.68494
▁우크라이나	-9.68498
▁떨어져	-9.68498
▁빠르	-9.68502
▁스피어스	-9.68537
추	-9.6854
리스	-9.6856
▁내각	-9.68592
▁집에서	-9.68627
링	-9.68773
▁실시된	-9.68774
▁경찰과	-9.68794
▁관계자	-9.68828
▁그러	-9.68831
▁대사	-9.68844
하길	-9.68852
▁보이고	-9.68854
▁망명	-9.68857
▁대화를	-9.68876
되	-9.68901
대의	-9.68926
▁윌리엄스	-9.68972
▁고래	-9.69126
▁둔	-9.69147
▁측	-9.69163
▁허	-9.69267
▁향	-9.69272
▁폭풍	-9.69272
▁iaea	-9.69298
함으로써	-9.6931
▁만들	-9.69337
▁위기에	-9.69343
▁크리스토퍼	-9.69357
▁나타냈다	-9.69367
하지만	-9.69409
책	-9.69434
▁보안관	-9.69445
근	-9.69551
월까지	-9.69743
▁말하고	-9.6978
▁조정	-9.69859
블	-9.69886
▁부인했다	-9.69933
▁an	-9.69936
▁여왕	-9.69963
되면서	-9.70031
▁그중	-9.70039
▁받기	-9.7009
▁높다	-9.70104
▁무가베	-9.70104
▁일어난	-9.70108
▁cia	-9.70114
▁시작된	-9.70185
▁영상	-9.70247
▁수정	-9.70269
예	-9.70283
▁블로그에	-9.70332
▁모습	-9.70417
▁현대	-9.70428
회의	-9.7043
▁캐	-9.70467
▁속에	-9.70533
▁가수	-9.7056
▁중이다	-9.70572
▁소식통은	-9.70609
▁청와대	-9.70627
▁발생할	-9.70644
▁유로	-9.70686
▁말레이시아	-9.70741
주년	-9.70856
▁네덜란드	-9.70917
▁찾기	-9.70917
말	-9.7093
▁법적	-9.70936
▁소장	-9.70971
▁치안	-9.71023
▁감사	-9.71057
▁않겠다	-9.71183
범	-9.71294
▁상황에서	-9.71343
▁날씨	-9.71357
▁누구	-9.71376
▁후보로	-9.71391
▁성인	-9.71427
▁중국이	-9.7148
▁나무	-9.71485
겠다	-9.71511
▁부정	-9.71536
단체	-9.71541
▁작가	-9.71542
▁예측	-9.71556
▁찬성	-9.71586
▁이미지	-9.717
▁주에서	-9.71726
▁먼저	-9.71741
▁스티브	-9.71742
▁넘어	-9.7179
▁남성이	-9.71842
▁증가했다	-9.71906
▁사망했으며	-9.7193
▁이전에	-9.71933
▁150	-9.72016
▁목소리	-9.72044
▁마감	-9.72095
볼	-9.7214
▁보낸	-9.72191
▁전문	-9.72193
▁과학	-9.72217
▁장소	-9.72243
▁구성된	-9.72262
▁접	-9.72309
▁수백명	-9.72315
족	-9.7233
▁위험한	-9.7238
랑	-9.72406
다른	-9.72418
▁확산	-9.72479
▁술	-9.72497
▁민병대	-9.72503
인지	-9.72505
2009.06	-9.72565
▁등록	-9.72566
▁하워드	-9.72569
▁엄마	-9.72571
▁축구	-9.72574
▁ht	-9.72592
▁기후	-9.72609
▁긴	-9.72678
▁프라이머리	-9.72693
▁나가	-9.7277
▁고든	-9.728
▁기자회견	-9.72843
▁의혹	-9.72844
사는	-9.72844
▁위원장은	-9.72866
▁방해	-9.72895
20	-9.72968
joins	-9.72995
▁이용해	-9.7309
음	-9.73194
▁의한	-9.73303
▁사용하는	-9.73324
했다는	-9.73369
▁north	-9.73396
▁나섰다	-9.73396
▁규제	-9.73398
▁있었으며	-9.73405
asp	-9.73408
▁사례	-9.73416
▁폐	-9.7342
▁연루	-9.73428
▁대표팀	-9.73444
▁마드리드	-9.73474
▁지급	-9.735
▁이라	-9.73524
ic	-9.73525
▁체	-9.73611
▁듯	-9.7369
▁밀	-9.73717
▁제시	-9.73726
▁수니파	-9.73829
▁태	-9.73954
▁사상자	-9.73988
회사	-9.73991
국가	-9.74224
▁머물	-9.74228
▁찾는	-9.74237
▁가족들	-9.74248
광	-9.74248
▁다쳤다	-9.74262
▁임	-9.74286
▁대단	-9.74326
▁헤	-9.74437
▁대표단	-9.74541
활동	-9.74701
▁최소한	-9.75074
▁캠프	-9.75084
▁네팔	-9.75088
▁알려져	-9.75089
▁침체	-9.75089
▁배럴	-9.75091
▁진입	-9.75094
▁현장에	-9.75099
▁교체	-9.751
▁1999	-9.751
시킨	-9.75111
▁못할	-9.75151
▁대피	-9.7521
▁창	-9.75225
▁시민들	-9.75242
▁영향력	-9.75249
외	-9.75257
▁연구진	-9.75303
마일	-9.75314
하려고	-9.75434
▁실시한	-9.75452
▁말한	-9.75489
▁대통령에게	-9.75573
ment	-9.75584
▁따	-9.75609
었습니다	-9.75632
▁것처럼	-9.75639
▁이끌	-9.75692
▁증언	-9.75757
▁소지	-9.75796
▁집계	-9.758
▁37	-9.75805
▁과정	-9.75823
▁급	-9.75879
▁쿠르드	-9.75933
▁아바스	-9.75977
▁시작됐다	-9.75996
▁가능	-9.7602
먼	-9.7604
▁아부	-9.76147
▁소식	-9.76197
▁태도	-9.76292
▁촉구	-9.76384
▁굴	-9.76433
방송	-9.76437
▁홍수	-9.76466
목	-9.76478
결	-9.76503
▁적용	-9.76537
▁돼	-9.76548
▁경찰관	-9.76766
▁모하메드	-9.76802
▁분위기	-9.76803
▁장난감	-9.76804
▁만드는	-9.76832
▁알려지	-9.76863
▁의심	-9.76869
▁i	-9.7687
해졌다	-9.76872
▁원조	-9.76876
▁프리	-9.76884
백만	-9.76984
▁나와	-9.77002
▁연결	-9.7703
됐지만	-9.77124
▁집권	-9.77146
▁테러로	-9.77193
▁웹사이트에	-9.77241
▁취임	-9.77273
▁니콜라	-9.77282
▁한미	-9.77293
▁얼굴	-9.77386
▁근	-9.77406
▁없다는	-9.77419
▁세르비아	-9.77479
사건	-9.77585
▁경계	-9.7764
▁인정했다	-9.77658
▁빨리	-9.77671
▁없습니다	-9.77671
▁정확한	-9.77671
▁farc	-9.77673
▁구글	-9.77684
▁뛰어	-9.77686
▁점령	-9.77688
▁손실	-9.77704
▁이란은	-9.77708
▁동의	-9.77713
▁박사	-9.7774
▁주로	-9.77753
▁들어가	-9.77798
▁자연	-9.7781
변	-9.77937
▁비자	-9.77948
▁얻었다	-9.77948
▁맺	-9.77971
턴	-9.77972
▁역사적	-9.78003
▁시리즈	-9.78014
▁하락했다	-9.78135
▁본부	-9.78149
▁위해서	-9.7816
▁들었다	-9.78188
▁실제로	-9.78246
겠다고	-9.78266
▁확신	-9.78276
▁슈	-9.78289
▁깊	-9.78429
▁등이	-9.78444
▁그것	-9.78457
lo	-9.78484
▁피터	-9.78518
▁저녁	-9.78548
▁태풍	-9.78551
경기	-9.7858
놓고	-9.7861
▁기타	-9.78676
▁사무총장은	-9.78681
맨	-9.78745
▁쉽게	-9.78763
름	-9.78827
▁박물관	-9.78857
▁주고	-9.78863
이었다고	-9.79205
▁밝혀	-9.79208
▁전문가들	-9.79249
마다	-9.7929
▁부동산	-9.79344
▁문제로	-9.79373
스타	-9.79408
▁ac	-9.79416
▁south	-9.79433
▁아르헨티나	-9.79433
▁테이프	-9.79433
▁축하	-9.79434
분기	-9.79436
▁보이지	-9.79442
▁당한	-9.79561
▁있는데	-9.79592
▁민간	-9.79615
▁가격이	-9.79657
▁놀라	-9.79659
ly	-9.79702
▁삼	-9.79708
ce	-9.79764
안을	-9.79775
▁자신들이	-9.79909
▁격	-9.79935
▁유사	-9.80047
▁강도	-9.80087
!	-9.80326
▁말리키	-9.80326
▁김정일	-9.80326
▁토요일	-9.80326
▁콘돌	-9.80328
▁원유	-9.80381
▁소년	-9.80415
▁송	-9.80453
▁사용할	-9.80481
▁기자는	-9.80499
▁후반	-9.80523
▁중요하다	-9.80543
▁떨어졌다	-9.80551
▁상황에	-9.80598
kg	-9.80649
장이	-9.80731
▁운전	-9.80755
▁소비	-9.80805
▁살해한	-9.80935
▁한국과	-9.80964
▁개입	-9.81167
▁with	-9.81228
▁활용	-9.81233
▁타격	-9.81249
▁신속	-9.81268
▁침해	-9.8127
▁즉시	-9.81304
▁입국	-9.81315
▁반발	-9.81343
▁숨	-9.81347
us	-9.81454
렸	-9.81456
▁평양	-9.81473
▁무사	-9.81473
▁만들었다	-9.81485
▁주는	-9.81523
였다고	-9.81542
▁승무원	-9.81641
▁at	-9.81709
▁쉬	-9.8177
명에	-9.81797
▁오하이오	-9.81985
개월간	-9.82001
▁남북한	-9.82045
시설	-9.8205
▁물질	-9.82061
▁징역	-9.8212
▁연락	-9.8215
▁멋	-9.82165
센트	-9.82197
▁지출	-9.82219
▁시대	-9.82238
▁정신	-9.82245
▁웹	-9.82278
▁휴가	-9.82283
▁우주선	-9.82311
▁않으면	-9.82337
▁힐튼	-9.82339
30	-9.82427
플	-9.82459
▁내린	-9.82484
▁해고	-9.82572
▁장치	-9.82642
▁42	-9.82677
▁요구한	-9.82864
▁억류	-9.82913
관계	-9.82947
▁영국에서	-9.82952
▁이들이	-9.8298
▁설립	-9.83004
▁이곳에서	-9.83019
▁마치	-9.83027
▁참석한	-9.83037
▁매장	-9.83054
▁검색어	-9.83097
▁하다	-9.83117
까	-9.83227
▁결혼식	-9.83236
▁미국에	-9.83263
▁영국군	-9.83408
▁아파트	-9.83437
▁복제	-9.83438
▁월드컵	-9.83501
▁조종사	-9.83539
▁인식	-9.83557
▁자산	-9.8356
▁어린	-9.8363
▁움직임	-9.83755
스러운	-9.83759
▁범인	-9.83762
▁대처	-9.83807
▁토론	-9.83942
▁긍정적	-9.83979
▁엘리자베스	-9.83979
▁협조	-9.83979
▁드라마	-9.8398
▁1997	-9.83985
▁fta	-9.83988
▁페르베	-9.8399
▁유럽연합	-9.84001
▁기구	-9.8403
▁형성	-9.8404
▁38	-9.84048
▁해당	-9.84061
▁재산	-9.84072
▁최신	-9.84086
▁외교부	-9.84098
위로	-9.84154
▁시위자들	-9.84173
주간	-9.84176
▁일본은	-9.84239
▁모른다	-9.84261
▁예방	-9.84334
▁요구하는	-9.84367
▁상품	-9.84404
자는	-9.84436
▁의장	-9.84461
▁때문	-9.84466
▁국장	-9.84469
▁제외	-9.8451
▁약속했다	-9.84588
었던	-9.84617
▁속에서	-9.84627
▁수감	-9.84709
▁차지	-9.84729
▁가정	-9.8477
▁수용	-9.84781
수가	-9.84786
▁페일린	-9.84914
▁결론	-9.8493
▁끝난	-9.84944
▁죽음	-9.84947
지를	-9.84971
▁대출	-9.84973
▁협정	-9.84999
▁벨	-9.85044
▁통화	-9.85079
▁개정	-9.85092
▁저지	-9.85132
ia	-9.85146
▁구체적인	-9.85178
▁방식	-9.85195
▁민	-9.85237
▁수반	-9.85375
▁오픈	-9.85394
머	-9.85397
불	-9.8546
율	-9.85471
▁동맹	-9.85557
빈	-9.85568
▁재정	-9.85597
▁이것이	-9.8565
▁공화당의	-9.85727
었으며	-9.85769
▁언제	-9.85848
▁현장에서	-9.85849
▁매들린	-9.85857
▁싱가포르	-9.85857
▁잭슨	-9.85857
▁대사는	-9.85861
▁토니	-9.85878
▁갖추	-9.85879
▁신용	-9.85897
▁소프트웨어	-9.85908
▁귀국	-9.85917
ation	-9.85928
▁벌금	-9.85968
▁방어	-9.86014
▁절반	-9.8602
▁소유	-9.86026
▁역	-9.86128
▁의장은	-9.86267
▁임신	-9.86285
▁고려	-9.86343
달러를	-9.86365
re	-9.86367
씩	-9.86371
령	-9.86418
▁문제는	-9.86479
▁클럽	-9.8648
▁걸어	-9.86492
se	-9.86613
▁즉	-9.86621
▁포함되어	-9.86644
▁체포된	-9.86663
▁받았	-9.86766
▁리버풀	-9.8681
▁핵실험	-9.86813
▁사이클론	-9.86815
▁변경	-9.86833
▁이르는	-9.86944
▁이틀	-9.86985
ro	-9.86996
▁고속도로	-9.8706
▁조사하고	-9.87077
▁총선에서	-9.87091
▁자격	-9.87108
▁신뢰	-9.87131
▁형	-9.87352
▁46	-9.87572
▁풀	-9.87632
레이	-9.87651
규	-9.87658
▁크리스	-9.87694
▁되면	-9.87697
▁국가들	-9.87704
▁총리와	-9.87739
x	-9.87764
▁자살폭탄테러	-9.87767
▁cbs	-9.87771
▁우라늄	-9.87771
▁론스타	-9.87774
▁케네디	-9.87776
▁ceo	-9.87779
▁축제	-9.87801
▁충분	-9.8781
▁루이스	-9.87836
▁의료진	-9.87844
▁나달	-9.87861
▁공식적으로	-9.87886
▁요구를	-9.87892
▁트럭	-9.87953
레스	-9.88068
▁학	-9.88073
▁성화	-9.88117
▁진정	-9.88242
▁부패	-9.88247
▁지지자	-9.88254
▁울	-9.88503
▁회담은	-9.88524
랜드	-9.8853
▁목	-9.8854
▁빠져	-9.88732
▁뉴질랜드	-9.88742
▁캠페인	-9.88742
▁전망이	-9.88745
▁1998	-9.88748
▁에이즈	-9.88749
▁있으나	-9.8875
▁1990	-9.88766
▁지지하는	-9.88768
▁실행	-9.88769
▁진행되	-9.8879
함에따라	-9.88814
▁헤럴드	-9.88814
▁압둘라	-9.88831
▁심슨	-9.88977
▁길이	-9.89127
▁이혼	-9.8915
ir	-9.89203
▁터키군	-9.89206
▁모습이	-9.89208
▁지적	-9.89231
▁동원	-9.89302
▁팬	-9.89566
달하는	-9.89571
▁경험	-9.89573
▁일부는	-9.8966
▁중이라고	-9.89677
▁속도	-9.89682
▁필	-9.89704
▁포르투갈	-9.89723
▁않도록	-9.89733
▁통합	-9.89737
▁1980	-9.89742
▁힘든	-9.89755
▁신경	-9.89779
▁작성	-9.898
▁투자자들	-9.89832
▁이하	-9.89919
▁예산	-9.89947
한다면	-9.89984
시장	-9.90035
▁안보리	-9.90052
▁행진	-9.90059
▁포드	-9.90161
▁그린	-9.90273
▁지진으로	-9.90313
▁기자들	-9.90338
▁기념	-9.90358
▁회담에	-9.90425
▁펜실베이니아	-9.90586
▁당선인은	-9.90599
▁중국과	-9.90651
▁드러났다	-9.90712
▁쥐	-9.90713
▁육군	-9.90738
▁그와	-9.90808
▁열린우리당	-9.90829
▁올렸다	-9.9083
▁진술	-9.90852
▁pa	-9.90895
▁성공했다	-9.90966
▁경기에	-9.9119
위에	-9.91218
▁단계	-9.9124
리는	-9.91279
▁받	-9.91294
▁r	-9.91297
▁철회	-9.91423
▁시드	-9.9143
▁한번	-9.91532
흐	-9.91577
찬	-9.9159
▁이행	-9.9161
▁준	-9.9171
▁믿고	-9.91712
▁좋지	-9.91712
▁휘발유	-9.91712
▁ppp	-9.91716
▁로봇	-9.91718
▁나쁜	-9.91724
▁향후	-9.91726
▁민주화	-9.91756
▁학살	-9.91772
한영	-9.91821
▁가입	-9.91825
▁의무	-9.91827
▁주인공	-9.91863
자로	-9.91868
▁소개	-9.91893
▁집에	-9.91938
▁학대	-9.91949
▁차관보	-9.92066
▁테러가	-9.92074
▁죽	-9.92083
▁48	-9.92218
조치	-9.92305
▁포기	-9.92329
▁권	-9.92355
▁경선에서	-9.92369
▁평화적	-9.92379
▁아랍	-9.9242
▁교	-9.92503
스터	-9.92529
▁스티븐	-9.92553
▁용의자들	-9.92592
▁의도	-9.92708
▁얘기	-9.92722
술	-9.92724
▁첼시	-9.92725
▁휴전	-9.9273
▁폭행	-9.92734
▁입양	-9.92743
니다	-9.92769
▁때문이다	-9.92793
▁지수는	-9.92793
▁곳으로	-9.92807
▁워싱턴에서	-9.9286
▁통치	-9.92875
▁해결하기	-9.93022
▁중에는	-9.93131
▁포함해	-9.93221
▁직	-9.93248
▁회담이	-9.93294
▁외부	-9.93312
▁참	-9.93349
▁실종	-9.93466
창	-9.93481
▁지도부	-9.93489
▁교황	-9.935
▁조사에서	-9.93507
▁인질들	-9.93537
▁정부군	-9.93567
였으며	-9.9361
▁전면	-9.93621
취	-9.93643
▁학생들이	-9.93649
으면	-9.93707
▁아카데미	-9.93708
▁여기	-9.93743
▁해리포터	-9.93743
▁훨씬	-9.93743
▁국제유가	-9.93744
▁벌어진	-9.93746
▁협회	-9.93754
▁불참	-9.93756
▁음모	-9.93756
▁선거운동	-9.93764
▁리비아	-9.93777
▁반정부	-9.938
탈	-9.93843
▁잔해	-9.93848
▁예정이며	-9.9386
▁편지	-9.93989
▁250	-9.94106
었다고	-9.94157
▁존재	-9.94171
▁포인트	-9.94196
▁유리	-9.94264
▁중국에서	-9.94321
▁대부분은	-9.94344
▁대체	-9.94355
▁거절	-9.94435
킬	-9.94569
둔	-9.94634
▁장식	-9.94654
▁공개했다	-9.94716
▁콘서트	-9.94774
▁앨범	-9.94778
▁dna	-9.94779
▁질환	-9.94782
▁가득	-9.94794
▁합	-9.9486
▁반기문	-9.94875
▁잡지	-9.94882
▁한국군	-9.94891
▁신청	-9.94945
▁선물	-9.94946
관리	-9.9502
▁지하	-9.95074
▁폐지	-9.95111
▁랭킹	-9.95137
j	-9.95139
▁계획에	-9.95141
▁응	-9.95212
틀	-9.95282
▁충분한	-9.95354
▁바다	-9.95418
▁요구하고	-9.95515
▁노동자	-9.95594
립	-9.95667
▁벌인	-9.95724
▁자세	-9.95829
쇼	-9.9583
▁우선	-9.95831
▁영토	-9.95851
▁추적	-9.95898
▁체니	-9.959
▁며칠	-9.95913
▁방법으로	-9.95946
▁장관이	-9.96006
▁레이스	-9.96049
▁성향	-9.96087
▁언급하지	-9.96127
▁공원	-9.96143
▁목격자들	-9.96243
▁수집	-9.96306
▁세대	-9.96348
▁33	-9.96383
▁주장하는	-9.96496
▁불리는	-9.96516
▁대통령에	-9.96578
라운드	-9.96631
들도	-9.96647
▁내에	-9.96665
▁회사들	-9.96665
▁킹	-9.96689
▁사라	-9.96812
사를	-9.96818
▁특별한	-9.96836
▁이웃	-9.96846
▁맨체스터	-9.96866
▁부활	-9.96867
▁무릎	-9.96868
▁페더러	-9.96868
▁맨유	-9.96879
▁화산	-9.9688
▁기능	-9.96889
▁웨스트	-9.96899
▁who	-9.96908
▁생명	-9.9694
▁니	-9.96945
▁평	-9.96957
▁폭	-9.96984
▁밀란	-9.97122
▁이익	-9.97154
▁고객	-9.97265
▁콜	-9.97269
려는	-9.97294
▁시절	-9.97298
앙	-9.97304
▁지연	-9.97346
▁짐	-9.9742
▁방문할	-9.9746
필드	-9.97463
장에서	-9.97491
서는	-9.97511
▁바람	-9.97544
▁것보다	-9.97545
킨	-9.97562
냐	-9.97568
드는	-9.97587
▁거주하는	-9.97638
▁바그다드에서	-9.97646
▁보상	-9.9765
▁지도	-9.97684
▁방지	-9.97701
▁자기	-9.97715
환	-9.97749
▁회원국	-9.97756
▁사무총장	-9.97771
▁대상	-9.97826
cm	-9.9783
▁다르푸르	-9.97932
▁9.11	-9.97933
▁대다수	-9.97934
▁이메일	-9.97936
▁특정	-9.97942
▁접속	-9.97947
섬	-9.98002
▁강경	-9.98014
정책	-9.98018
▁대북	-9.98042
▁이스라엘과	-9.98091
▁44	-9.98226
▁생존자	-9.98227
▁대결	-9.98275
▁진행된	-9.98281
▁다니	-9.98291
▁기도	-9.98394
▁엔	-9.98398
기가	-9.98444
▁당선자	-9.98491
▁성과	-9.98558
▁유가	-9.986
항	-9.9862
▁단체는	-9.98672
▁소니	-9.98757
▁협상이	-9.98864
▁생각하고	-9.98953
▁원하는	-9.98969
▁생존	-9.9897
▁사드르	-9.99005
▁president	-9.99007
▁밖으로	-9.99007
▁헤즈볼라	-9.99007
▁세계대전	-9.99007
▁영변	-9.99016
▁리콜	-9.99017
▁의원들은	-9.99018
▁야생	-9.99024
▁폭우	-9.99036
힐	-9.99104
▁지휘	-9.9911
▁다이아몬드	-9.99156
▁잃었다	-9.992
▁혹	-9.99274
지에	-9.99295
▁목격자	-9.99314
▁적절한	-9.99333
되면	-9.99346
▁계획이	-9.9937
▁존슨	-9.99543
북	-9.99546
▁파타	-9.99551
▁방문했다	-9.99794
▁힘들	-9.99805
▁51	-9.99858
▁분야	-10.0002
▁지키	-10.0006
▁스테	-10.0009
▁멸종	-10.0009
▁온난화	-10.0009
돌	-10.001
낼	-10.001
▁저항	-10.001
▁마틴	-10.0012
▁진실	-10.0012
▁사령관	-10.0012
▁발표된	-10.0013
▁출시	-10.0014
▁will	-10.0019
▁수백만	-10.002
▁잠시	-10.0021
▁아이들이	-10.0021
▁밖에서	-10.0025
▁아일랜드	-10.0029
▁취할	-10.0036
▁빅	-10.0036
▁상어	-10.0038
▁케	-10.0041
▁이번주	-10.0059
▁모양	-10.0061
▁사살	-10.0064
했기	-10.0068
슈	-10.0068
▁마이크	-10.0069
▁샤리프	-10.0071
▁도착했다	-10.0082
축	-10.0088
▁나서	-10.0101
▁질병	-10.0105
▁바라고	-10.0111
▁심각	-10.0114
▁iraq	-10.0118
▁현지시각	-10.0119
▁않았으며	-10.012
달러에	-10.0122
▁버마	-10.0124
▁심문	-10.0124
▁선포	-10.0126
엘	-10.0127
▁내전	-10.0129
▁손상	-10.013
▁말합니다	-10.013
려고	-10.0131
▁o	-10.014
▁보면	-10.0142
▁대부분이	-10.0143
▁말라	-10.0149
▁벤	-10.0156
ion	-10.0165
▁휴	-10.0175
▁경찰서장	-10.0176
▁as	-10.0185
▁기업들	-10.0188
▁사건과	-10.0188
▁총재	-10.0192
▁파악	-10.0197
▁논란	-10.0197
▁선박	-10.0204
▁예상했다	-10.0206
▁이스라엘군	-10.0215
▁전해	-10.0216
▁제도	-10.0216
웰	-10.0228
▁쿠데타	-10.023
▁갑자	-10.0231
▁서명	-10.0231
▁nbc	-10.0231
▁기준	-10.0232
▁체결	-10.0232
▁서방	-10.0237
▁밑	-10.0241
봉	-10.0242
▁경보	-10.0244
▁사건으로	-10.025
▁태평양	-10.0251
ne	-10.026
쯤	-10.0273
표를	-10.0281
▁차드	-10.0281
▁입원	-10.0284
▁수요	-10.0287
▁광	-10.029
▁공격이	-10.0295
▁빛	-10.0296
▁전투기	-10.0297
▁음반	-10.0298
▁머	-10.03
▁면	-10.0303
▁처	-10.0314
성이	-10.0337
영한	-10.0339
▁찾고	-10.0343
패	-10.0347
▁공공	-10.0347
▁핵시설	-10.0347
▁어려운	-10.0347
▁보통	-10.0349
▁구제	-10.0351
▁장비	-10.0353
겐	-10.0359
쳤다	-10.0365
▁가자	-10.0367
▁프로	-10.0368
▁둘	-10.0371
▁인하	-10.0375
지르	-10.0381
▁아래	-10.0381
▁사실상	-10.0388
▁식	-10.0391
들어	-10.0397
▁가까이	-10.0406
▁된다고	-10.0421
▁국	-10.0434
▁현재까지	-10.0438
▁의식	-10.0445
60	-10.0448
셔	-10.0452
▁이렇게	-10.0456
▁훌륭	-10.0456
▁그것이	-10.0458
▁ba	-10.0459
▁복구	-10.0459
▁53	-10.0459
▁만날	-10.0461
▁격차	-10.0461
▁보고했다	-10.0466
▁노출	-10.0468
▁원제	-10.047
▁달성	-10.0474
▁부문	-10.0475
컵	-10.0477
만큼	-10.0478
10	-10.0484
▁처음이다	-10.0487
▁몰	-10.049
▁향하	-10.0493
▁요원	-10.0498
▁일주일	-10.0503
▁수감자	-10.0505
문제	-10.0507
▁52	-10.0521
들로	-10.0528
▁de	-10.0534
▁갖	-10.0543
▁75	-10.0548
년에는	-10.0552
▁가는	-10.0563
▁외교적	-10.0566
닝	-10.0567
▁업계	-10.0569
▁카르자이	-10.0571
▁교환	-10.0572
▁최선	-10.0573
▁동반	-10.0575
▁걸릴	-10.0576
▁신임	-10.0578
연합	-10.0579
▁일리노이주	-10.0579
▁치러진	-10.058
▁일환으로	-10.058
▁베트남	-10.0581
▁파산	-10.0583
▁남아	-10.0583
▁적은	-10.0587
낸	-10.0587
손	-10.0592
거래	-10.0597
▁일본에서	-10.0607
▁악화	-10.0611
▁최초로	-10.0615
▁화	-10.0617
영화	-10.062
▁교도소	-10.0627
▁신호	-10.063
클	-10.0633
▁되기	-10.0641
▁일본이	-10.0643
▁영화제	-10.0644
▁브	-10.0649
▁내용이	-10.0651
▁시작한	-10.0651
▁투어	-10.0655
선수	-10.0663
▁광산	-10.0671
▁여사	-10.0672
it	-10.0675
▁제안했다	-10.0678
▁조사에	-10.0683
▁챔피언	-10.0687
▁나이지리아	-10.0688
▁흡연	-10.0688
▁다우존스	-10.0688
▁에드워즈	-10.0688
▁설득	-10.0688
자와	-10.0688
▁폭동	-10.069
차전	-10.0693
▁국왕	-10.0695
▁공중	-10.0696
▁티	-10.0702
총	-10.0703
▁일간	-10.0708
▁검색	-10.0711
▁각국	-10.0715
▁통신은	-10.0718
▁추정되는	-10.0739
▁있어서	-10.0739
▁동물원	-10.0748
▁결정은	-10.0749
▁베이	-10.075
▁다우	-10.0752
▁본사	-10.0757
▁소환	-10.0776
▁상점	-10.0777
▁사인	-10.0778
주일	-10.0779
▁대기	-10.0782
▁노력하고	-10.0793
▁m	-10.0795
▁근거	-10.0798
▁전개	-10.08
▁국제적	-10.0801
▁덴마크	-10.0805
▁오스트리아	-10.0805
▁복잡	-10.0805
▁단순	-10.0806
▁않지만	-10.0808
national	-10.0822
▁소수	-10.0826
▁감정	-10.083
▁시위에	-10.0838
에선	-10.0841
▁레이	-10.0842
▁밝히고	-10.0848
▁폐기	-10.0851
▁시장에서	-10.0863
▁목적으로	-10.0882
▁못하는	-10.0896
▁증명	-10.0898
▁지진이	-10.0903
▁색	-10.0911
▁모인	-10.0913
▁의회는	-10.0919
▁심리	-10.092
덴	-10.0922
▁더불어	-10.0924
▁누군가	-10.0924
▁출석	-10.0925
▁봄	-10.0926
▁맞서	-10.0927
▁성관계	-10.0928
▁매각	-10.0928
▁소설	-10.0929
▁부담	-10.0929
▁책임자	-10.0933
했음	-10.0935
▁기본	-10.0935
25	-10.094
▁환자들	-10.0942
▁늘어	-10.0945
▁복용	-10.0947
▁실시되	-10.0947
▁북측	-10.0948
▁웃	-10.0951
▁카드	-10.0952
▁지켜	-10.0966
▁테러리스트	-10.0996
▁합동	-10.0996
▁철도	-10.1
▁계속되고	-10.1001
▁회원	-10.1008
순	-10.1009
빠진	-10.101
▁낸	-10.1011
▁했으며	-10.1013
▁국회의원	-10.1017
▁소식이	-10.1027
스키	-10.1028
▁밝	-10.1029
후드	-10.103
▁청소년	-10.1031
누	-10.1032
칠	-10.1044
▁japan	-10.1045
▁고등학교	-10.1045
▁농축	-10.1045
▁칠레	-10.1046
▁새끼	-10.1046
▁서울에서	-10.1047
▁도입	-10.1049
▁측정	-10.1059
▁사용되	-10.106
▁대답	-10.106
▁당신이	-10.1066
악	-10.1071
당한	-10.1072
▁것이라며	-10.1072
▁공산당	-10.1073
▁절	-10.108
▁지시	-10.1083
▁내릴	-10.1084
사가	-10.1087
▁그림	-10.1088
냈다	-10.1092
▁부근에서	-10.1095
▁사전	-10.1095
항공	-10.1095
▁34	-10.1098
▁의지	-10.1099
il	-10.11
▁수용소	-10.1111
▁mo	-10.1114
▁늘	-10.1115
ies	-10.1121
▁상승했다	-10.1123
▁l	-10.1132
▁주간	-10.1133
로운	-10.1139
▁이해	-10.1147
통신	-10.1151
▁성공적	-10.1153
랄	-10.116
▁블랙	-10.1166
▁이유는	-10.1166
▁방글라데시	-10.1167
▁없으며	-10.1167
▁검거	-10.1167
▁마카오	-10.1167
▁됩니다	-10.1168
▁순방	-10.1168
▁남아공	-10.1168
▁커피	-10.1171
▁상처	-10.1171
▁보수	-10.1174
▁발병	-10.1177
▁예비	-10.1177
▁삼성	-10.1178
▁따라서	-10.1179
▁부여	-10.1188
▁즉각적	-10.1188
40	-10.119
조원	-10.1196
▁바이	-10.1201
트는	-10.1202
률	-10.1203
▁조성	-10.1204
▁불안	-10.1211
▁구입	-10.1214
▁세우	-10.1224
▁탈	-10.1224
▁표시	-10.1228
▁전날	-10.1238
기관	-10.1239
되며	-10.1239
▁경기장	-10.1242
▁의회의	-10.1242
▁의회에	-10.1243
대에	-10.1247
▁행성	-10.1254
▁재무장관	-10.1255
▁기반	-10.1258
▁마르	-10.126
▁공격에	-10.1271
▁둘러	-10.1274
▁자리에서	-10.1278
▁증가하고	-10.1279
▁왕세자	-10.1286
▁네트워크	-10.129
▁스웨덴	-10.129
▁습격	-10.129
▁혜택	-10.129
▁카스트로	-10.129
▁다니엘	-10.1291
▁덮	-10.1291
▁극복	-10.1293
▁목사	-10.1293
▁장애	-10.1294
▁그래서	-10.1294
▁탐사	-10.1295
▁유감	-10.1297
▁무력	-10.1298
▁오르	-10.1298
▁분명히	-10.1298
▁개방	-10.1299
▁이사	-10.1303
▁66	-10.1309
la	-10.1312
▁이뤄지	-10.1312
▁공항에서	-10.1317
으로써	-10.1322
▁보관	-10.1322
계획	-10.1331
뿐	-10.1332
ers	-10.1338
▁기다리고	-10.1338
▁승리했다	-10.1341
▁연구원	-10.1342
▁추방	-10.1347
▁명단	-10.1352
▁크기	-10.1352
▁수상자	-10.1353
라도	-10.1359
▁많다	-10.1363
▁오브	-10.1367
▁군인들	-10.1371
▁43	-10.1372
▁말까지	-10.1385
▁나갈	-10.1385
▁반군이	-10.1385
▁주석	-10.1385
▁피트	-10.1387
년이	-10.1392
▁내놓	-10.1401
드시	-10.1404
▁56	-10.1406
죠	-10.1415
▁uefa	-10.1415
▁챔피언스리그	-10.1415
▁ioc	-10.1415
▁겨울	-10.1416
▁페루	-10.1419
▁무료	-10.142
▁구출	-10.1421
▁2010	-10.1421
▁사담	-10.1422
▁가옥	-10.1422
▁이중	-10.1433
▁했지만	-10.1436
▁시내	-10.1439
▁이송	-10.144
▁올린	-10.1445
▁plan	-10.1448
▁55	-10.1451
▁무대	-10.1459
▁취	-10.1463
▁그동안	-10.1466
▁의회에서	-10.1467
z	-10.147
▁허락	-10.1471
▁명은	-10.1471
▁고발	-10.1473
▁황	-10.1482
▁하게	-10.1494
▁있다면	-10.1496
▁주지	-10.1498
▁체제	-10.1509
▁해병대	-10.1513
▁유치	-10.1513
밀	-10.1517
▁지도자들은	-10.1523
상태	-10.1525
견	-10.1526
슬	-10.1536
▁주지사가	-10.154
▁붉은	-10.1541
▁어린이들	-10.1541
▁원문기사	-10.1542
▁북동부	-10.1542
▁정확히	-10.1542
▁운송	-10.1542
▁권한	-10.1543
▁노예	-10.1546
▁않	-10.1549
▁알래스카	-10.1551
▁불러	-10.1555
▁세워	-10.1555
▁있었고	-10.156
▁no	-10.1563
▁모여	-10.1565
▁수감자들	-10.1565
▁열대	-10.157
▁초점	-10.1573
분의	-10.1579
애	-10.1584
▁고대	-10.1592
어야	-10.1598
▁분리	-10.1604
▁결정에	-10.1607
▁경매	-10.1611
▁작동	-10.1612
▁행복	-10.1617
▁베이징에서	-10.1627
▁보고서에서	-10.1631
▁하면	-10.1637
능	-10.1644
▁희생자들	-10.1646
▁선언했다	-10.1653
▁숫자	-10.167
▁심지어	-10.167
▁완벽	-10.167
▁철저	-10.1671
▁크루즈	-10.1671
▁민감	-10.1672
▁자극	-10.1672
▁진전	-10.1678
▁거뒀다	-10.1678
명에게	-10.168
▁진화	-10.1692
▁특사	-10.1698
▁유전자	-10.1699
▁샌프란시스코	-10.1701
▁고향	-10.1702
▁제공하는	-10.1706
▁식품	-10.1708
▁대가로	-10.1708
▁형태	-10.1711
숙	-10.172
▁운항	-10.1723
▁얻기	-10.1727
▁공화국	-10.1729
▁체계	-10.1729
▁기독교	-10.1734
했	-10.1735
▁만일	-10.1736
▁ma	-10.1736
70	-10.174
▁탈출	-10.1742
었고	-10.1767
션	-10.1778
▁거부했다	-10.1787
▁타이	-10.179
▁워	-10.1796
▁군정	-10.1796
▁마찬가지	-10.18
▁nato	-10.18
▁폴란드	-10.18
▁frb	-10.1801
▁레알	-10.1801
▁넓	-10.1801
▁분열	-10.1802
▁중부	-10.1802
▁명예	-10.1802
▁입증	-10.1803
▁철군	-10.1804
▁현금	-10.1815
▁주기	-10.1816
▁주한미군	-10.1821
▁외교관	-10.1822
▁노대통령	-10.1831
▁600	-10.1832
▁잇	-10.1837
▁행	-10.1839
착	-10.1839
▁살아	-10.1842
▁경영	-10.1847
벌	-10.1848
▁시위대는	-10.1855
▁보인다고	-10.1857
▁현상	-10.1858
▁대선에서	-10.1858
▁전반	-10.1859
▁중지	-10.1865
el	-10.1867
▁49	-10.1867
▁실패했다	-10.1871
▁수영	-10.1873
▁야기	-10.1877
▁위원장	-10.1881
▁달라	-10.1882
▁빙하	-10.1885
▁이주	-10.1893
▁부정적	-10.1893
▁마치고	-10.1894
▁생각하는	-10.1897
ver	-10.1908
▁이양	-10.191
▁답변	-10.1913
회사인	-10.1914
▁절대	-10.1917
▁방향	-10.1923
▁차관	-10.1925
▁에어버스	-10.1932
▁보여줬다	-10.1932
▁소요	-10.1936
▁만난	-10.1939
▁공포	-10.194
▁서신	-10.194
으	-10.1941
▁일반적으로	-10.1943
▁견해	-10.1945
▁중독	-10.1952
▁뼈	-10.1953
▁호세	-10.1955
해줄	-10.1955
▁발생했으며	-10.1958
▁pc	-10.196
▁싸움	-10.1964
▁철	-10.1968
▁it	-10.1971
▁답	-10.1978
올	-10.1983
ial	-10.1985
▁신체	-10.1985
완	-10.1986
▁공유	-10.1986
공격	-10.1991
▁혁명	-10.1992
▁안에서	-10.2002
▁납치된	-10.201
▁유나이티드	-10.2013
▁뉴욕에서	-10.2019
▁강요	-10.2021
렛	-10.2021
▁아니	-10.2028
▁묻	-10.2029
▁강조	-10.2032
▁폭격	-10.204
람	-10.2046
▁노스캐롤라이나	-10.2053
▁작	-10.2053
행위	-10.2057
▁노벨	-10.2057
▁방침	-10.2059
▁폭탄이	-10.206
웠다	-10.2062
▁것이고	-10.2063
▁스리랑카	-10.2063
▁사우디아라비아	-10.2065
▁잃은	-10.2065
▁크라이슬러	-10.2065
▁토마스	-10.2065
▁관찰	-10.2065
▁아이디어	-10.2066
▁이곳에	-10.2071
▁선거에	-10.2073
▁신발	-10.2074
▁발간	-10.2082
달라고	-10.2083
▁실종된	-10.2083
▁캘리포니아주	-10.2094
이기	-10.2099
▁지속	-10.2104
▁계획이라고	-10.2106
▁있	-10.2107
▁한국에서	-10.2111
▁좋아	-10.2115
▁고립	-10.2116
딘	-10.2126
▁발생하지	-10.2126
▁기대하고	-10.2127
▁증권	-10.2129
▁과학자	-10.2131
▁방송국	-10.2137
▁피해가	-10.2141
▁대회에서	-10.2141
▁라이트	-10.2142
▁런던에서	-10.2143
▁찬	-10.2145
▁여자친구	-10.2148
▁수업	-10.2153
▁64	-10.2161
▁법정	-10.2164
▁경제에	-10.2166
▁터	-10.2169
세인	-10.2175
▁운동을	-10.218
▁라이	-10.2182
▁값	-10.2187
▁항소	-10.2196
▁태양	-10.2199
▁동티모르	-10.22
▁라스베이거스	-10.22
▁맞춰	-10.22
▁쓰나미	-10.22
▁협박	-10.22
▁리조트	-10.22
▁활주로	-10.22
▁삭제	-10.22
▁타이틀	-10.22
▁있었지만	-10.2201
▁시장에	-10.2202
▁생긴	-10.2202
▁위원회는	-10.2203
▁인생	-10.2206
▁안전한	-10.2207
▁측근	-10.2209
▁위조	-10.221
▁대량	-10.2212
▁환	-10.2215
▁독	-10.2216
▁중순	-10.2216
▁무선	-10.2219
▁받아야	-10.2221
▁지역으로	-10.2227
ri	-10.2233
▁근처	-10.2235
▁돌아	-10.2242
▁교사	-10.2243
인들은	-10.2243
▁붙	-10.2244
▁이사회	-10.2245
▁측은	-10.2246
▁gm	-10.2248
왕	-10.2257
수록	-10.2265
▁수퍼	-10.2268
▁수상했다	-10.227
▁이스라엘이	-10.228
분간	-10.2296
▁데이	-10.2297
▁해변	-10.2299
▁실적	-10.2302
▁린	-10.2302
▁재단	-10.2303
▁쓰	-10.2313
졌으며	-10.2313
▁거두	-10.2321
▁달러에	-10.2323
▁세상	-10.2326
▁사회적	-10.2326
▁성화봉송	-10.2327
장관은	-10.2327
▁상징	-10.2332
▁시티	-10.2334
넬	-10.2337
▁엄격	-10.2337
▁복무	-10.2338
▁은퇴	-10.2338
▁회동	-10.2339
▁논평	-10.234
▁아니면	-10.2342
▁형제	-10.2343
▁표했다	-10.2343
ate	-10.2343
▁모기지	-10.2343
▁바르셀로나	-10.2344
▁돌아오	-10.2344
▁금요일	-10.2345
▁구금	-10.2345
▁예전	-10.2346
▁세계은행	-10.2349
▁갖게	-10.2349
▁높아지	-10.235
▁기계	-10.235
▁총격전	-10.2354
▁승리한	-10.2357
▁콩고	-10.2362
▁난사	-10.2363
▁첫번째	-10.2366
▁만화	-10.2368
▁누리	-10.2369
▁시청	-10.2372
▁한때	-10.2374
왔	-10.2374
▁보낼	-10.2376
개발	-10.2379
안에	-10.2379
▁클린턴이	-10.2389
침	-10.2392
▁하던	-10.2396
▁원한다	-10.2398
도시	-10.2398
▁대학교	-10.2399
▁책임이	-10.2408
▁자세한	-10.2409
▁사용한	-10.241
▁신부	-10.2415
▁오염	-10.2421
▁여성의	-10.2423
운동	-10.2448
▁계획은	-10.2448
시키려	-10.245
▁앞에	-10.2452
▁지지율	-10.2454
자들에게	-10.2463
▁일리노이	-10.2466
▁나누	-10.2467
받	-10.2468
▁봤다	-10.2472
▁항	-10.2474
▁태어난	-10.2476
▁리그	-10.2476
▁케이블	-10.2476
▁1994	-10.2477
▁하원의원	-10.2477
▁데이터	-10.2478
▁채택	-10.2478
▁디자인	-10.2478
▁2012	-10.2479
▁헨리	-10.2481
▁두바이	-10.2482
▁보유	-10.2483
▁불편	-10.2483
▁단속	-10.2483
▁지시했다	-10.2484
겨	-10.2484
▁유력	-10.2485
▁본선	-10.2492
▁39	-10.2494
▁점차	-10.2497
▁보유하고	-10.2499
▁주장에	-10.2501
▁기상	-10.2502
▁만들어진	-10.2504
▁불길	-10.251
▁하와이	-10.251
이던	-10.2512
▁돌아가	-10.2513
▁130	-10.2514
▁조합	-10.2514
▁니콜	-10.252
▁보트	-10.2522
▁회의에서	-10.2526
▁상태에	-10.2532
우스	-10.2536
됐었다	-10.2558
▁감독이	-10.2563
▁악	-10.2564
▁훼손	-10.257
▁프로그램에	-10.257
▁호텔에서	-10.2576
▁강타	-10.2581
▁위로	-10.2583
▁3000	-10.2584
▁민주	-10.2588
대학	-10.2589
is	-10.2591
▁비교	-10.2591
▁중요	-10.2599
▁전역	-10.2599
▁물건	-10.2601
건의	-10.2602
▁얻어	-10.2604
▁외교통상부	-10.2605
▁아이오와	-10.2607
▁스코틀랜드	-10.2617
▁앓고	-10.2617
▁휴대전화	-10.2617
▁섹스	-10.2617
▁외환은행	-10.2617
▁면담	-10.2618
▁떠	-10.2618
▁abc	-10.2619
▁해결책	-10.262
▁마쳤다	-10.2621
▁거쳐	-10.2622
▁개표	-10.2623
▁빚	-10.2625
▁오늘날	-10.2627
▁간단	-10.2629
같은	-10.263
물을	-10.2633
▁아메리칸	-10.2633
▁전쟁에	-10.2633
▁인류	-10.264
▁그리	-10.2642
주는	-10.2646
▁죽은	-10.2646
▁방화	-10.2648
▁예수	-10.2648
▁다수	-10.2649
▁의학	-10.2654
잔	-10.2658
▁응답자	-10.266
▁주인	-10.2663
▁도시에서	-10.2665
▁거주	-10.2676
▁고어	-10.268
▁않기	-10.268
젠	-10.2692
▁공간	-10.2695
명도	-10.2698
▁발생하는	-10.2709
드라	-10.2714
▁경쟁자	-10.2719
▁양측	-10.2727
▁이끌어	-10.2731
▁획득	-10.2733
치는	-10.2741
▁에도	-10.2741
▁주목	-10.2742
틴	-10.2746
▁동성애자	-10.2747
주의자	-10.2749
되었던	-10.275
켓	-10.2751
▁백인	-10.2752
갑	-10.2753
됐을	-10.2753
▁플레이	-10.2755
하고자	-10.2757
▁가슴	-10.2759
▁불능화	-10.2759
▁찾을	-10.2759
때문에	-10.276
▁급등	-10.2761
▁1970	-10.2764
▁800	-10.2765
슨은	-10.2766
릭	-10.2773
▁발전소	-10.2775
극	-10.2777
보다는	-10.2777
▁사령관은	-10.278
▁홀	-10.278
▁케리	-10.2783
▁부과	-10.2786
▁중국에	-10.2788
▁이후로	-10.2789
▁추정된다	-10.2792
세력	-10.2794
▁아동	-10.2795
▁논란이	-10.2803
▁이라크와	-10.2806
▁분석가	-10.2806
▁우리당	-10.2808
▁참석했다	-10.2811
▁중재	-10.2811
▁비용이	-10.2823
막	-10.2833
▁말하며	-10.2833
▁파손	-10.2834
▁방영	-10.2838
▁이스라엘은	-10.2842
▁주한	-10.2848
▁방법이	-10.2851
되었으며	-10.2861
▁사용자	-10.2861
▁당수	-10.2865
▁혐의에	-10.289
▁표명	-10.2892
▁끼	-10.2892
▁자원	-10.2897
▁물가	-10.2901
딩	-10.2903
▁코미디	-10.2904
▁법원에	-10.2904
짝	-10.2904
▁일으킨	-10.2904
▁와인하우스	-10.2905
▁송환	-10.2905
▁저지른	-10.2906
▁우리나라	-10.2907
▁나올	-10.291
▁무죄	-10.2912
▁여권	-10.2914
▁낸시	-10.2914
▁펼쳤다	-10.2918
▁요소	-10.292
▁김대중	-10.2922
▁폭스	-10.2929
▁잔	-10.2932
스톤	-10.2937
▁가했다	-10.2938
▁순찰	-10.2944
▁61	-10.2945
전에	-10.2947
▁보지	-10.295
▁벗어나	-10.2953
▁이내	-10.2954
▁국민들에게	-10.2955
▁지상	-10.2964
▁용	-10.2968
갔다	-10.297
▁업무	-10.2972
▁지속적	-10.2974
롭	-10.2983
경찰	-10.299
▁의석	-10.2993
상황	-10.2994
산업	-10.2997
▁폭발물	-10.2999
▁세포	-10.3001
▁불가능	-10.3001
▁국방	-10.3006
시아	-10.3008
▁경찰서	-10.3011
▁지목	-10.3012
글	-10.3015
▁미국측	-10.303
▁푸	-10.3032
▁기금	-10.3038
▁엄청	-10.3042
▁리처드	-10.3044
▁요르단	-10.305
▁곤잘레스	-10.3051
▁블라고예비치	-10.3051
▁블라디미	-10.3051
▁오사마빈라덴	-10.3051
▁천주교	-10.3052
▁이루어졌다	-10.3052
▁자유롭	-10.3052
▁합병	-10.3053
▁말해	-10.3054
▁고위관리	-10.3054
▁테스트	-10.3054
▁종류	-10.3055
▁임금	-10.3057
▁제기했다	-10.3058
▁사망자수	-10.3061
▁못해	-10.3064
▁주문	-10.3064
세로	-10.3065
▁쓴	-10.3066
인들이	-10.3067
▁보도에따르면	-10.3068
▁못한다	-10.3069
▁중대한	-10.307
▁가구	-10.3072
▁시기에	-10.3072
▁보는	-10.3076
▁받았으며	-10.308
▁친구들	-10.3083
▁봉쇄	-10.3086
▁답했다	-10.3086
▁얼음	-10.3087
▁집으로	-10.3097
▁뿐만아니라	-10.3097
▁의문	-10.3101
천만	-10.3102
▁개장	-10.3107
▁앨	-10.3108
▁델	-10.311
▁펜	-10.311
ta	-10.3113
▁적극적	-10.3114
un	-10.3117
▁코트	-10.3117
스와	-10.3126
▁것이었다	-10.3126
장관	-10.3136
▁왔	-10.3137
▁목격	-10.3141
▁식당	-10.3141
▁해양	-10.3142
▁마감했다	-10.3148
텔	-10.3153
▁생일	-10.3168
▁검사는	-10.3169
▁몰아	-10.3176
▁콘	-10.3176
드리	-10.3189
▁제대	-10.3193
▁청	-10.3197
▁취재	-10.3198
조차	-10.32
▁선거캠프	-10.3201
▁없지만	-10.3201
▁북서부	-10.3201
▁government	-10.3201
▁탄핵	-10.3201
▁봉사	-10.3201
▁숀	-10.3203
▁화장실	-10.3203
▁47	-10.3205
▁사막	-10.3205
▁노동당	-10.3208
경제	-10.3209
▁54	-10.321
▁상공	-10.321
▁트	-10.3211
▁백악관은	-10.3218
▁화해	-10.3223
염	-10.3229
▁전환	-10.323
▁계	-10.3232
▁싶어	-10.3234
▁만났다	-10.3236
▁기존	-10.3236
▁자유를	-10.3238
▁독도	-10.324
▁묘사	-10.324
500	-10.3242
▁재건	-10.3255
▁아니었다	-10.3257
▁즐	-10.3258
▁나타내	-10.3261
▁하늘	-10.3271
▁발언에	-10.3272
▁메일	-10.3274
▁블	-10.3274
▁이루	-10.3274
▁초대	-10.3278
▁스키	-10.3278
▁아프가니스탄에서	-10.328
▁포로	-10.3291
▁자사	-10.3292
▁총장은	-10.3293
암	-10.3296
되었고	-10.3297
▁비판했다	-10.3297
▁백악관에서	-10.3298
▁한국에	-10.3303
▁인종	-10.3314
▁시점	-10.3317
▁우주비행사	-10.3317
▁조기	-10.3318
▁41	-10.3329
▁크	-10.3338
▁압둘	-10.3339
펠	-10.3342
▁법안이	-10.3347
▁건축	-10.3348
0,000	-10.3352
▁나스닥	-10.3352
▁샤라포바	-10.3352
▁리차드	-10.3352
▁from	-10.3352
▁패트릭	-10.3353
▁핵프로그램	-10.3353
▁들어갔다	-10.3353
▁직업	-10.3354
▁다윈	-10.3354
▁강풍	-10.3355
▁진영	-10.3356
▁짓	-10.3356
▁왕실	-10.3357
▁배경	-10.336
▁언어	-10.336
▁분명	-10.3362
▁전세계적으로	-10.3365
▁차단	-10.3367
▁직전	-10.3368
▁해임	-10.3369
기에	-10.3377
위원	-10.3381
▁주장하며	-10.3387
▁생각했다	-10.339
▁견	-10.3391
▁자제	-10.3391
세가	-10.3392
▁사용될	-10.3393
자금	-10.3407
▁전원	-10.3407
▁개시	-10.3407
스가	-10.3408
▁합류	-10.341
▁깨	-10.3418
▁옮겨	-10.3418
pa	-10.3426
▁윌	-10.3432
폭	-10.3435
▁맡은	-10.3436
학교	-10.3442
▁비치	-10.3445
풍	-10.3446
▁의원들	-10.3446
▁정신적	-10.3458
화를	-10.3463
▁급속	-10.3476
▁골프	-10.3477
▁문제들	-10.348
▁즉각	-10.348
피트	-10.3482
▁전역에	-10.3483
▁리드	-10.3485
▁열어	-10.3486
▁그렇지	-10.3488
▁위에	-10.3489
▁시민들이	-10.3489
▁출동	-10.3492
니는	-10.3492
▁트리	-10.3496
베나	-10.3501
희	-10.3505
▁디즈니	-10.3506
▁캄보디아	-10.3506
▁남서부	-10.3506
▁받아들일	-10.3506
▁둘러싸	-10.3506
▁영웅	-10.3507
▁케빈	-10.3507
▁축소	-10.351
▁법무부	-10.351
▁관광객들	-10.3512
▁운영하	-10.3514
▁완전한	-10.3514
▁이라크군	-10.3517
▁공개된	-10.3518
▁보복	-10.3518
▁해적	-10.3518
▁장례식	-10.3519
▁공개적으로	-10.352
움	-10.352
▁스타일	-10.3528
부대	-10.3529
▁일어나	-10.3533
▁불과	-10.3536
▁홈	-10.3536
▁단체들	-10.354
▁폭락	-10.3542
▁보호하기	-10.3542
▁회사가	-10.3543
별	-10.3543
▁유대인	-10.3545
▁확실한	-10.3546
▁계속되	-10.3546
▁우리에게	-10.355
▁대치	-10.3554
시에	-10.3556
▁120	-10.3558
▁결의안을	-10.356
▁논의하기	-10.3562
▁주었다	-10.3567
▁가능하다	-10.357
▁회	-10.3571
▁유럽의	-10.3574
▁자신에게	-10.3579
▁시드니	-10.358
▁보이	-10.3591
▁메이	-10.3596
▁한국이	-10.3611
▁오바마와	-10.3615
▁거리에	-10.3628
번째로	-10.3631
▁만들고	-10.3632
200	-10.3632
▁진술했다	-10.3632
▁영국인	-10.3632
ol	-10.3639
▁병사들	-10.365
옥	-10.3651
세트	-10.3655
아야	-10.3656
▁근로자	-10.3659
▁달라이라마	-10.366
▁패션	-10.3661
▁디지털	-10.3662
▁마이애미	-10.3662
▁비타민	-10.3662
▁알코올	-10.3662
▁일찍	-10.3662
한글뉴스	-10.3662
▁가택연금	-10.3662
▁호랑이	-10.3662
▁활약	-10.3663
▁거듭	-10.3663
▁라이벌	-10.3663
▁자치정부	-10.3663
▁원칙	-10.3663
▁산사태	-10.3664
이었으며	-10.3664
▁새벽	-10.3664
▁보내는	-10.3665
▁천재	-10.3666
▁공항에	-10.3668
▁동기	-10.367
▁곡	-10.3671
▁조류	-10.3672
▁취임식	-10.3673
▁공모	-10.3674
▁들여	-10.3674
▁금리	-10.3678
짜리	-10.368
▁다우지수	-10.3681
▁연안	-10.3681
비아	-10.3682
▁해산	-10.3682
▁잡고	-10.3684
▁달려	-10.3686
▁떠났다	-10.3686
▁맥주	-10.3687
법원	-10.3687
장에	-10.3689
▁무엇	-10.3695
▁단어	-10.3696
▁배출	-10.3696
웨이	-10.3701
▁이론	-10.3703
▁지내	-10.3718
▁탐	-10.3719
▁전부터	-10.3722
▁영장	-10.3722
조사	-10.373
철	-10.3733
▁인근에	-10.3739
at	-10.3741
▁시한	-10.3744
련	-10.3745
향	-10.3746
▁시각	-10.3751
▁감염된	-10.3751
▁모스크바	-10.3752
▁평가했다	-10.3754
▁증가한	-10.3756
존	-10.3758
▁시장이	-10.3759
ca	-10.3763
▁동쪽	-10.3764
뿐만아니라	-10.3772
녀	-10.3775
조직	-10.3788
▁의사들	-10.3791
▁부서	-10.3792
▁상태로	-10.3792
상의	-10.3795
▁했었다	-10.3808
닥	-10.3814
▁발굴	-10.3815
▁세계적	-10.3816
▁minister	-10.3821
▁토네이도	-10.3821
▁쌍둥이	-10.3821
▁천연가스	-10.3821
▁겨냥	-10.3821
▁에드	-10.3821
▁수석대표	-10.3822
▁로이터	-10.3822
▁위안부	-10.3823
▁사생활	-10.3823
▁산림	-10.3823
▁관영	-10.3824
▁법무장관	-10.3824
▁벨기에	-10.3825
▁폭파	-10.3825
▁마무	-10.3825
척	-10.3828
▁감행	-10.3828
▁선발	-10.3832
▁초반	-10.3833
▁치열한	-10.3839
▁선전	-10.3842
▁쌀	-10.3843
제를	-10.3843
▁것인가	-10.3845
▁노인	-10.3849
▁북쪽	-10.3851
▁위대	-10.3853
▁경영진	-10.3857
▁소문	-10.3859
▁연구팀	-10.386
▁나에게	-10.3863
▁일제	-10.3867
▁눈에	-10.3867
▁호수	-10.3869
▁가족과	-10.387
▁연금	-10.3872
▁변호사가	-10.3874
젤	-10.3877
▁돼지	-10.3882
▁예루살렘	-10.3884
검사	-10.3885
▁65	-10.3885
▁로비	-10.389
▁딕	-10.3891
▁국민들이	-10.3892
▁얻을	-10.3893
▁out	-10.3896
▁노동자들	-10.3897
▁59	-10.3899
▁걸린	-10.3903
델	-10.3912
▁공기	-10.3916
▁키스	-10.3917
▁이재민	-10.3926
된다고	-10.393
례	-10.3931
베이	-10.3932
▁연주	-10.3933
▁연관	-10.3934
카운티	-10.3937
둘	-10.3938
▁뒤에	-10.3939
▁순	-10.3942
▁부근	-10.3952
▁인디애나	-10.3955
▁투표에서	-10.3956
▁조약	-10.3958
100	-10.3961
▁현실	-10.3961
▁의존	-10.3964
학자	-10.3964
▁언론에	-10.3968
되어야	-10.397
▁대상이	-10.3973
위원회는	-10.3974
▁쇼핑	-10.3978
멸	-10.3981
▁록	-10.3981
▁비난하고	-10.3981
▁1996	-10.3982
▁nuclear	-10.3982
▁뿌리	-10.3982
▁쓰촨성	-10.3982
▁아메리카	-10.3982
▁원숭이	-10.3982
▁결선투표	-10.3982
▁침몰	-10.3983
▁파트너	-10.3983
▁은신처	-10.3983
▁갖춘	-10.3983
지역에서	-10.3983
▁근육	-10.3983
▁다섯	-10.3983
▁보스턴	-10.3983
▁황금	-10.3984
▁결과는	-10.3985
▁사찰단	-10.3986
▁받으며	-10.3987
▁엔진	-10.3989
▁악어	-10.3991
▁보험	-10.3991
▁움직이	-10.3993
▁재난	-10.3995
▁사람에게	-10.3995
▁카터	-10.3996
▁경력	-10.3998
▁world	-10.3998
▁부채	-10.3999
미터	-10.4001
▁미칠	-10.4002
이라며	-10.4006
▁로한	-10.4008
▁형사	-10.4009
▁들어오	-10.401
▁미국인들이	-10.4012
▁채널	-10.4013
▁62	-10.4014
▁재무부	-10.4024
▁품	-10.4037
et	-10.4041
▁차량에	-10.4042
▁알카에다와	-10.4043
치를	-10.4044
▁올리	-10.405
▁파티	-10.406
▁밴드	-10.4066
▁보고서에	-10.4067
▁정지	-10.4069
▁경험이	-10.407
▁제조업체	-10.407
됐으나	-10.4072
▁아프간에서	-10.4073
▁상승세	-10.4087
ti	-10.4089
▁하락세	-10.409
ma	-10.4092
▁v	-10.4096
됐고	-10.4096
▁구조대	-10.4097
알	-10.4099
▁실망	-10.4106
▁끌어	-10.4106
▁지점	-10.4108
▁농	-10.4109
▁모색	-10.4115
▁수리	-10.4118
▁포경	-10.4123
▁셀	-10.4126
마자	-10.4127
▁최저	-10.4135
돼야	-10.4135
▁참여한	-10.4144
▁이란과	-10.4145
▁프레스	-10.4146
▁pkk	-10.4146
▁늦게	-10.4146
▁마이크로소프트	-10.4146
▁비핵화	-10.4146
▁알렉산더	-10.4146
▁왼쪽	-10.4146
▁이산화탄소	-10.4146
▁좋다	-10.4146
▁키바키	-10.4146
▁리히터	-10.4146
▁오히려	-10.4146
▁오딩가	-10.4146
닷컴	-10.4146
▁his	-10.4148
▁급격	-10.4148
▁남극	-10.4148
▁아이폰	-10.4148
▁영업	-10.4148
▁할머니	-10.4149
위인	-10.4149
▁체중	-10.415
▁분류	-10.415
▁파예드	-10.4151
▁대립	-10.4151
▁초청	-10.4157
hi	-10.4158
▁st	-10.4161
▁년간	-10.4163
▁날짜	-10.4169
▁러시아는	-10.4171
▁원화	-10.4176
▁밥	-10.4176
▁합의했다고	-10.4177
기업	-10.4188
▁당국자	-10.4194
▁차량이	-10.4197
▁가동	-10.4199
▁문제의	-10.4202
▁자본	-10.4203
▁장면이	-10.4207
▁치러	-10.4213
▁중간	-10.4221
▁그대로	-10.4225
▁숙	-10.4225
▁정치인	-10.4229
▁사람들과	-10.4232
▁마비	-10.4234
▁노선	-10.4234
▁물이	-10.4235
▁공사	-10.4236
적이고	-10.4241
▁기다리	-10.425
▁희생	-10.4251
한국	-10.4256
▁al	-10.4263
쓰	-10.427
새	-10.4271
▁처해	-10.4277
시키	-10.4279
▁기록한	-10.428
▁음	-10.4286
찰	-10.4292
▁보석	-10.4295
▁나오지	-10.4304
▁호소	-10.4309
▁연구에	-10.4309
▁인플레이션	-10.4313
▁필라델피아	-10.4313
▁택시	-10.4313
▁거짓말	-10.4313
▁over	-10.4314
▁탄압	-10.4314
▁이뤄졌다	-10.4314
▁사냥	-10.4315
▁내리	-10.4315
▁기밀	-10.4316
▁소집	-10.4317
▁근로자들	-10.4317
▁만남	-10.4317
▁체코	-10.4318
▁성격	-10.4319
▁화재로	-10.432
▁다음날	-10.4322
정도	-10.4325
▁상호	-10.4328
▁여행객	-10.4332
▁57	-10.4334
▁소매	-10.4339
년만에	-10.4342
▁스캔들	-10.4344
▁화학	-10.4348
겼다	-10.4352
▁든	-10.4358
드로	-10.436
▁소위	-10.436
▁일간지	-10.4362
▁통일부	-10.4364
▁타임스	-10.4364
지수	-10.4367
▁권고	-10.4375
▁최	-10.4376
▁만들기	-10.4382
▁리치	-10.4383
▁것임	-10.4384
▁방식으로	-10.4385
▁투쟁	-10.4387
▁총상	-10.4388
▁홍수로	-10.439
▁정의	-10.4392
▁월요일에	-10.4392
▁부총리	-10.4393
90	-10.4394
▁58	-10.4403
▁군사적	-10.4403
혈	-10.4406
▁일치	-10.4411
▁양국간	-10.4412
▁입수	-10.4412
않게	-10.4414
▁구조대원들	-10.4422
▁남동부	-10.4427
age	-10.4428
▁보안군	-10.4428
▁수상한	-10.4431
▁up	-10.4432
82	-10.4432
다시	-10.4435
▁카페	-10.4438
해질	-10.4439
삼	-10.444
▁데에	-10.4444
분에	-10.4449
▁출판	-10.4449
겠지만	-10.445
▁존중	-10.4459
▁피해자들	-10.4462
▁군은	-10.4463
작전	-10.447
▁관계에	-10.4471
▁결과에	-10.4473
닌	-10.4475
▁북미	-10.4478
▁주장한	-10.4479
▁여론조사에서	-10.4481
▁골키퍼	-10.4482
▁남자친구	-10.4482
▁다시한번	-10.4483
▁구멍	-10.4483
▁china	-10.4483
▁포럼	-10.4483
▁폭설	-10.4484
▁지수	-10.4485
▁단어장	-10.4485
▁특수	-10.4486
▁브랜드	-10.4487
▁이에따라	-10.4487
▁진단	-10.4488
▁소형	-10.4491
▁음주	-10.4491
▁자문	-10.4492
▁행정	-10.4492
▁이란에	-10.4493
▁이루어지	-10.4503
▁인사들	-10.4507
▁주최측	-10.4508
▁미군과	-10.4512
▁not	-10.4516
▁가상	-10.4516
▁사법	-10.4522
▁사태에	-10.4523
▁조사에따르면	-10.4529
▁예술	-10.4536
▁가족들이	-10.4537
▁날개	-10.454
▁기대한다	-10.4542
이라	-10.4543
▁표명했다	-10.4554
▁세력이	-10.4564
니아	-10.4575
▁공대	-10.4578
▁이식	-10.458
▁하이	-10.4585
▁증시는	-10.4585
▁신사	-10.4586
버리	-10.4594
장치	-10.4594
▁바꾸	-10.4596
몬	-10.4598
▁토지	-10.4598
놓	-10.4601
▁했습니다	-10.4602
트리	-10.4603
▁구체적	-10.4607
▁부상으로	-10.4607
▁바라	-10.4612
▁확정	-10.4613
연맹	-10.4614
참	-10.4617
테러	-10.4619
ve	-10.4625
▁극장	-10.4627
사항	-10.4628
사태	-10.4631
▁제공할	-10.4632
정보	-10.4634
pe	-10.4641
보호	-10.4649
▁day	-10.4651
▁하나로	-10.4651
▁빈곤	-10.4655
픽	-10.4655
▁사우스캐롤라이나	-10.4655
▁코끼리	-10.4655
▁hiv	-10.4655
▁있었으나	-10.4656
▁균형	-10.4656
▁1995	-10.4657
▁종결	-10.4657
▁징역형	-10.4658
▁라덴	-10.4659
▁배후	-10.4661
▁기소됐다	-10.4661
▁제작한	-10.4664
▁주위	-10.4666
▁일본과	-10.4667
▁벽	-10.4669
▁기온	-10.4672
▁정식	-10.4674
▁마리아	-10.4674
원은	-10.4675
▁비교적	-10.4676
▁성장률	-10.4677
▁아난	-10.4678
▁여학생	-10.4679
▁시체	-10.468
▁보여준다	-10.4682
▁용기	-10.4687
da	-10.4687
스타인	-10.469
▁먼	-10.4693
▁올려	-10.4697
▁맡고	-10.4705
▁커플	-10.4706
▁전통적	-10.4708
받았다	-10.4708
▁크리스티	-10.4709
▁자신과	-10.4714
로스	-10.4718
▁감지	-10.4719
들로부터	-10.4725
▁갔다	-10.4727
▁미국인들	-10.473
간에	-10.4731
▁스톤	-10.4732
▁생기	-10.4739
ss	-10.4748
랜	-10.4748
▁확인됐다	-10.4753
▁출연한	-10.4754
▁테러와	-10.4754
그룹	-10.4757
▁청문회	-10.4757
니스	-10.4767
▁순위	-10.477
사인	-10.4772
▁폭발이	-10.4773
▁월드	-10.4784
▁토론회	-10.4789
▁위협이	-10.4789
▁받는다	-10.479
▁가게	-10.4794
▁초안	-10.4795
놀	-10.4799
▁보잉	-10.4805
▁윈	-10.4808
느	-10.481
위의	-10.481
▁낼	-10.4813
▁진행자	-10.4817
탕	-10.4818
ese	-10.4818
▁한국인들	-10.4824
▁출산	-10.4826
▁올라가	-10.4828
▁뭄바이	-10.483
▁후진타오	-10.483
▁선관위	-10.483
▁연쇄	-10.483
▁섭취	-10.483
▁테일러	-10.483
▁스트레스	-10.483
▁show	-10.4831
▁국제공항	-10.4832
▁1993	-10.4832
▁케이트	-10.4834
▁줄리아니	-10.4834
▁미디어	-10.4837
▁공격은	-10.4838
▁방송사	-10.4838
▁제목	-10.4839
▁보고서에따르면	-10.4844
송	-10.4852
▁700	-10.4857
▁fa	-10.4859
▁비율	-10.4863
▁정전	-10.4865
▁많아	-10.4865
▁일으켰다	-10.4866
▁해도	-10.4869
▁피부	-10.4872
진다	-10.4873
▁화상	-10.4873
▁입을	-10.4875
ac	-10.4877
▁일어났다	-10.4879
▁진행되는	-10.4883
비치	-10.4891
▁도착한	-10.4899
▁가방	-10.4899
▁필요성	-10.4901
▁유출	-10.4907
▁배가	-10.4908
라스	-10.491
▁근처에서	-10.491
600	-10.4911
▁가족이	-10.4912
▁마시	-10.4912
리고	-10.4917
▁파도	-10.4918
바이	-10.4924
▁하나인	-10.4928
▁가졌	-10.4936
▁여성과	-10.4944
업자	-10.4946
국인	-10.4946
▁따르	-10.4947
만개	-10.4948
▁날아	-10.4948
▁자택	-10.495
리스트	-10.495
▁이것	-10.4956
▁적절	-10.4958
▁통신이	-10.496
▁치르	-10.4966
압	-10.4969
역을	-10.4971
▁놀	-10.4973
헌	-10.4973
▁고객들	-10.4975
▁비난하는	-10.4976
▁헌	-10.4976
▁애도	-10.4977
협상	-10.498
연구소	-10.4983
▁발생하고	-10.4984
▁되찾	-10.4988
▁사용해	-10.499
▁다가	-10.4992
▁당국에	-10.4997
사의	-10.5002
▁남부에서	-10.5002
욕	-10.5004
▁me	-10.5006
켈	-10.5008
▁물에	-10.5009
▁광범위	-10.5009
▁다큐멘터리	-10.5009
▁식료품	-10.5009
▁재검토	-10.5009
▁탱크	-10.5009
▁펠로시	-10.5009
▁마라톤	-10.5009
▁돌고래	-10.5009
▁전당대회	-10.5009
▁가벼	-10.5009
▁nba	-10.5009
▁교통사고	-10.501
▁지붕	-10.501
▁소규모	-10.501
▁슈퍼	-10.501
▁구축	-10.501
▁sc	-10.5011
▁보존	-10.5011
id	-10.5012
▁동생	-10.5013
▁화려	-10.5013
▁범행	-10.5016
▁기쁘다	-10.5016
▁감바리	-10.5017
▁적발	-10.5017
▁선포했다	-10.5021
▁승려들	-10.5023
▁사용하지	-10.503
▁치명적인	-10.5031
어스	-10.5036
▁상당히	-10.5036
ist	-10.504
▁제정	-10.504
▁조용	-10.5041
▁침입	-10.5041
▁국적	-10.5041
▁기차	-10.5044
▁직장	-10.5052
장인	-10.5053
량이	-10.5053
▁밝히	-10.5053
▁북쪽으로	-10.5055
▁손에	-10.5055
▁곳이다	-10.5056
석을	-10.5058
▁재판관	-10.5065
380	-10.5067
▁수립	-10.507
▁경호원	-10.5071
▁여사는	-10.5075
▁혼	-10.5083
▁테러리스트들	-10.5086
▁그래	-10.5086
▁착수	-10.5087
부는	-10.509
▁무게	-10.5091
▁쓰고	-10.5096
더라도	-10.5097
▁참석할	-10.5097
▁끝나	-10.5097
▁관계당국	-10.5127
린다	-10.5129
▁인원	-10.5132
▁세계적으로	-10.5134
▁이용하는	-10.5134
검	-10.5134
▁의미한다	-10.5136
▁회견	-10.5137
▁정책에	-10.515
▁대피했다	-10.5152
▁73	-10.5154
▁번째로	-10.5154
▁예정인	-10.516
충	-10.5163
칸	-10.5164
▁가해	-10.5165
햄	-10.5165
력이	-10.5167
시스템	-10.5167
▁사용했다	-10.5168
▁월가	-10.517
▁보여주고	-10.5171
▁북극	-10.5176
▁무슬림	-10.5178
▁조명	-10.5178
▁간주	-10.518
▁녹	-10.5182
▁두려워	-10.5182
▁수사관	-10.5189
▁dvd	-10.5191
▁과반수	-10.5191
▁국제원자력기구	-10.5191
▁돕기	-10.5191
▁듣고	-10.5191
▁샌디에이고	-10.5191
▁캐릭터	-10.5191
▁쿠웨이트	-10.5191
▁협약	-10.5191
▁횡령	-10.5191
▁화이트	-10.5191
▁펀드	-10.5191
▁롬니	-10.5191
▁감금	-10.5191
▁봉송	-10.5191
▁일어날	-10.5191
▁예멘	-10.5191
▁침공	-10.5192
오는	-10.5192
▁1991	-10.5192
▁소련	-10.5192
▁검문소	-10.5194
▁신규	-10.5194
▁레이건	-10.5195
▁판정	-10.5196
▁이륙	-10.5197
▁일련	-10.5197
▁1960	-10.5197
▁거부권	-10.5199
▁반박	-10.5199
▁숲	-10.5204
▁늘어나	-10.5205
▁마친	-10.5207
▁개정안	-10.5214
▁지정	-10.5214
▁부산	-10.5216
제도	-10.5216
▁죄	-10.5218
▁뇌물	-10.522
▁성당	-10.5224
▁계좌	-10.5228
었는지	-10.5229
허	-10.5231
▁여성들이	-10.5234
▁경관	-10.5235
▁충돌이	-10.5236
▁차지하고	-10.5236
▁기부	-10.5236
금지	-10.5237
▁보일	-10.5238
▁성직자	-10.5239
▁한나라당은	-10.5243
▁md	-10.5245
▁남성은	-10.5246
00	-10.5248
▁해안에서	-10.525
▁조각	-10.5251
▁생물	-10.5255
벨	-10.5256
▁브리	-10.5263
되었	-10.5264
어로	-10.5264
해진	-10.5265
택	-10.5266
▁총재는	-10.5267
▁근거로	-10.5271
▁지점에서	-10.5273
▁주제	-10.5276
tor	-10.5276
▁요리	-10.5276
물이	-10.5277
ary	-10.5277
▁스턴	-10.5278
▁맞는	-10.5286
▁제출했다	-10.5287
▁실시할	-10.5292
im	-10.5293
▁선원	-10.5294
▁주장한다	-10.5297
▁95	-10.5299
▁후보자	-10.5299
▁고소	-10.5303
▁줄어들	-10.5306
▁여지	-10.5314
었지만	-10.5319
국이	-10.5322
▁승리로	-10.5329
▁공정	-10.5332
▁신중	-10.5334
▁소식통이	-10.5339
▁팀이	-10.534
원이	-10.5341
▁운명	-10.5343
필	-10.5346
▁경비	-10.5346
곤	-10.5347
해야만	-10.535
▁얼	-10.535
▁적십자	-10.5353
▁유럽에서	-10.5354
▁후보와	-10.5356
▁운영하고	-10.5368
점으로	-10.5372
▁지하철	-10.5374
▁지원할	-10.5374
익	-10.5375
▁메르켈	-10.5376
▁붙잡	-10.5376
▁안전보장이사회	-10.5376
▁않았던	-10.5376
▁에콰도르	-10.5376
▁확장	-10.5376
▁발휘	-10.5376
▁특징	-10.5376
▁일본에	-10.5376
▁party	-10.5376
▁녹음	-10.5377
▁저희	-10.5377
▁항구	-10.5381
▁래리	-10.5384
▁수배	-10.5386
▁조지아주	-10.5386
▁당초	-10.5386
▁진보	-10.5386
▁모임	-10.5388
▁are	-10.5389
▁환호	-10.539
▁신조	-10.5391
▁하미	-10.5395
▁단체가	-10.5396
▁ex	-10.5401
▁론	-10.5402
지수는	-10.5404
▁맞추	-10.5406
▁생산량	-10.5417
당국	-10.5417
▁대륙	-10.5419
▁운전사	-10.542
19	-10.5422
▁구역	-10.5428
관은	-10.5431
▁검은	-10.5436
▁있어야	-10.5437
▁달러화	-10.5438
▁흥분	-10.5439
na	-10.5441
▁상태에서	-10.5443
▁수십명	-10.5447
▁2500	-10.5448
러스	-10.545
▁주식시장	-10.5453
▁실종자	-10.5455
▁달린	-10.5456
▁중단했다	-10.546
▁와인	-10.5462
▁클	-10.5462
▁이름이	-10.5463
▁보게	-10.5464
▁방법은	-10.5466
um	-10.5467
▁요금	-10.5468
▁투르	-10.5468
▁지분	-10.547
▁최근에	-10.5476
▁합의한	-10.5477
▁발견한	-10.5477
당국은	-10.5478
▁미치는	-10.5479
▁레스토랑	-10.5479
▁나이트	-10.5485
▁계속될	-10.5485
ts	-10.5489
▁후보인	-10.5495
▁펼치	-10.5499
▁지도자가	-10.5504
▁후원	-10.5508
▁알아	-10.5515
▁중이었다	-10.5518
버그	-10.5519
▁서장	-10.5523
▁최고치	-10.5526
▁냈다	-10.5527
내내	-10.5529
▁공약	-10.553
700	-10.5531
▁추측	-10.5532
몰	-10.5535
주에서	-10.5537
▁확신한다	-10.5539
귀	-10.5542
곡	-10.5545
▁결과로	-10.5546
7000	-10.5547
▁sh	-10.5555
▁때문이라	-10.5557
▁데일리	-10.5558
좌	-10.5559
▁미시시피	-10.5563
▁미국인들은	-10.5564
릿	-10.5564
▁마흐디	-10.5565
▁먹이	-10.5565
▁obama	-10.5565
▁낮추	-10.5565
▁매니저	-10.5565
▁없게	-10.5565
▁없고	-10.5565
▁프랭크	-10.5565
▁예를들어	-10.5565
▁퇴임	-10.5565
▁항공우주국	-10.5565
▁애완견	-10.5565
▁난민촌	-10.5565
▁운전자	-10.5565
▁쉽지	-10.5565
▁귀환	-10.5566
▁쿠퍼	-10.5567
▁탄생	-10.5567
▁영화배우	-10.5567
▁레드	-10.557
▁만족	-10.557
분만에	-10.5572
▁수송	-10.5573
▁원래	-10.5573
▁리처드슨	-10.5574
타르	-10.5575
▁1950	-10.5576
▁인민	-10.5577
▁매체	-10.5577
▁이로	-10.5578
▁공산주의	-10.5578
▁밝혀진	-10.558
▁결의안	-10.5583
▁중단할	-10.5584
▁침대	-10.5584
▁물품	-10.5585
▁전복	-10.5593
▁하루에	-10.5593
▁딸이	-10.5594
포트	-10.5595
▁오하이오주	-10.5596
▁생각이	-10.5598
▁스타디움에서	-10.56
▁교황은	-10.5604
▁pro	-10.5607
▁조치는	-10.5608
▁행사에	-10.5611
▁텍사스주	-10.5611
되거나	-10.5612
▁무어	-10.5612
▁발표하고	-10.5614
▁다르다	-10.5615
▁신문사	-10.5616
▁무시	-10.5617
혔다	-10.5619
▁깊이	-10.562
이란	-10.5621
ho	-10.5622
장으로	-10.5625
▁테니스	-10.5628
▁맨	-10.5628
▁추세	-10.5638
▁동맹국	-10.5642
▁증세	-10.5643
▁정원	-10.5647
▁베르	-10.5648
▁어렵다	-10.5653
▁무리	-10.5656
포드	-10.5657
ft	-10.5659
▁협상에	-10.5671
▁건물이	-10.5676
▁십	-10.5677
쪽	-10.569
▁화요일에	-10.5694
육	-10.5694
회담	-10.5698
▁페이지	-10.5704
▁미스	-10.5706
푸	-10.5707
▁tr	-10.5707
▁바라는	-10.5713
▁테러범	-10.5713
▁하락한	-10.5719
▁바뀌	-10.572
▁작업에	-10.572
▁다이	-10.5721
▁부모들	-10.5721
▁옆	-10.5728
▁무고	-10.5728
▁응급	-10.5729
▁예상되	-10.5735
▁양측은	-10.5735
꺼	-10.5741
▁애리조나	-10.5746
▁교도소에	-10.5749
▁경호	-10.5755
▁foreign	-10.5757
▁옐친	-10.5757
▁침략	-10.5757
▁줄기세포	-10.5757
▁경기부양책	-10.5757
▁샘플	-10.5757
▁어깨	-10.5757
▁예비선거	-10.5757
▁앤드류	-10.5757
▁득표율	-10.5758
▁벌였	-10.5758
▁복역	-10.5759
▁영양	-10.5759
▁창출	-10.5759
▁창문	-10.5761
▁끝날	-10.5761
▁다국적군	-10.5762
▁문제와	-10.5762
▁방출	-10.5762
▁졸리	-10.5765
▁발포	-10.577
▁최저치	-10.5772
15	-10.5775
▁키우	-10.5776
▁청사	-10.578
▁일본인	-10.5783
▁1500	-10.5786
▁상상	-10.5787
▁국가에서	-10.579
▁옆에	-10.5793
▁촬영한	-10.5793
▁67	-10.5795
▁인력	-10.5795
64	-10.5796
▁아르	-10.5798
▁소식에	-10.5803
▁식사	-10.5807
식을	-10.5809
단계	-10.5816
▁늘리	-10.5819
▁동의했다	-10.582
▁해상	-10.5822
▁던지	-10.5823
째	-10.5829
▁반영	-10.5831
▁세트	-10.5831
▁공개됐다	-10.5833
▁예정이었다	-10.5834
▁윤	-10.584
스코	-10.5844
▁겨	-10.5849
▁인근에서	-10.585
쪽으로	-10.5852
▁화물	-10.5855
▁플라	-10.5857
▁조건으로	-10.5859
▁관여	-10.586
▁학교에	-10.5863
▁아들이	-10.5864
▁치러지	-10.5868
ci	-10.5883
시대	-10.5883
▁카불	-10.5892
▁88	-10.5893
▁대항	-10.5893
ity	-10.5894
쳤	-10.5896
▁요청을	-10.5896
줬다	-10.5899
▁소식통	-10.59
▁전달했다	-10.5903
▁물러나	-10.5906
네스	-10.5916
▁자리에	-10.5917
ut	-10.5918
▁잡아	-10.5919
▁제이	-10.592
버스	-10.5921
▁받아들이	-10.5923
▁발견되었다	-10.5928
▁부르	-10.5931
듯	-10.5933
▁게재	-10.5936
빙	-10.5937
6000	-10.5941
맥	-10.5942
▁영화에	-10.5945
치고	-10.5946
시킨다	-10.5951
▁뮤지컬	-10.5953
▁윔블던	-10.5953
▁일으킬	-10.5953
▁퍼거슨	-10.5953
▁플라스틱	-10.5953
▁배터리	-10.5953
▁빠질	-10.5953
▁프리미어리그	-10.5953
▁데이빗	-10.5953
▁노르웨이	-10.5953
▁유혈사태	-10.5953
▁브리핑	-10.5953
▁상륙	-10.5953
▁롤링	-10.5953
▁낙태	-10.5953
▁검증	-10.5953
▁american	-10.5954
▁밝혔으며	-10.5954
▁밝혔지만	-10.5954
▁외무성	-10.5954
▁생방송	-10.5954
▁빌딩	-10.5955
▁로딕	-10.5955
▁오마르	-10.5955
▁방문하는	-10.5955
음을	-10.5956
▁불구	-10.5957
▁실업률	-10.5957
▁서양	-10.5958
▁번역	-10.5958
▁드러냈다	-10.5959
에이커	-10.596
▁매달	-10.596
▁정권이	-10.5961
▁음성	-10.5962
▁본토	-10.5964
▁접전	-10.5965
▁이뤄진	-10.5965
소를	-10.5966
▁발행	-10.5968
군이	-10.5968
라면	-10.5969
▁알렸다	-10.597
▁연구원들	-10.5971
▁알지	-10.5972
▁do	-10.5973
▁선수가	-10.5974
▁여겨지	-10.5977
▁서울시	-10.598
▁분량	-10.5982
▁분석가들은	-10.5983
▁제리	-10.5984
▁동일한	-10.5984
▁보이며	-10.5986
▁정상화	-10.5998
▁상태이다	-10.5999
▁소득	-10.6
사회	-10.6001
▁비난하며	-10.6002
▁비행사	-10.6009
▁유도	-10.601
평	-10.601
비용	-10.6012
▁포장	-10.6012
▁전부	-10.6014
▁해병	-10.6016
▁지켜보	-10.6017
▁일으키	-10.6017
▁자택에서	-10.6021
리에	-10.6025
▁않기로	-10.6026
▁거절했다	-10.6027
▁얻고	-10.6028
측에	-10.603
지역에	-10.6035
전에서	-10.6042
▁이민	-10.6057
▁국기	-10.6067
▁국가로	-10.6067
▁잡스	-10.6073
▁투표에	-10.6079
있	-10.6082
해주	-10.6083
에게서	-10.6093
▁즐기	-10.6095
▁지지자들이	-10.6098
▁발표됐다	-10.6101
▁dis	-10.6101
국으로	-10.6103
▁무장대원	-10.6103
▁ra	-10.6107
시켰다고	-10.611
47	-10.6111
▁실질적	-10.6114
▁국가들은	-10.6115
▁파운드	-10.6117
대표	-10.6117
소리	-10.6123
▁사실은	-10.6131
est	-10.6142
차량	-10.6142
벽	-10.6143
짓	-10.6145
▁앉아	-10.6146
▁돌파	-10.6148
홍	-10.6148
웅	-10.6149
잉	-10.615
뜨	-10.615
▁지원하는	-10.615
행사	-10.615
4000	-10.6152
▁느낄	-10.6153
▁오토바이	-10.6153
▁카트리나	-10.6153
▁파바로티	-10.6153
▁피라미드	-10.6153
▁징계	-10.6153
▁정거장	-10.6153
▁보이콧	-10.6153
▁라파엘	-10.6153
▁여섯	-10.6153
▁빠지	-10.6153
▁mbc	-10.6153
▁암컷	-10.6153
▁상원의원과	-10.6154
▁라이언	-10.6154
▁오른쪽	-10.6158
▁통증	-10.6158
▁상대방	-10.6158
▁백신	-10.6159
▁알렉스	-10.616
▁멀리	-10.6163
▁래	-10.6164
▁단체인	-10.6166
▁않는다면	-10.6167
▁모금	-10.6168
▁지대	-10.617
▁사설	-10.6171
▁유산	-10.6172
사업	-10.6172
▁2008.10	-10.6173
ke	-10.6178
▁부실	-10.6182
▁산타	-10.6183
▁국민의	-10.6184
ty	-10.6187
내용	-10.6199
▁해당하는	-10.6199
▁솔	-10.62
▁쓸	-10.62
▁소유하고	-10.6202
▁상을	-10.6202
▁막아	-10.6203
▁법원에서	-10.621
▁풍	-10.6211
▁유인	-10.6215
스럽게	-10.6218
▁요인	-10.6223
▁레바논군	-10.6227
▁처한	-10.623
▁참여할	-10.6232
▁코커스	-10.6246
▁외치	-10.6249
브라	-10.6259
▁장군은	-10.626
▁심의	-10.626
▁몰고	-10.6269
▁상하이	-10.6287
▁마을에서	-10.6289
▁죽음을	-10.6294
▁슬	-10.6296
▁동료들	-10.6301
▁육	-10.6306
▁회의에	-10.6313
▁취해	-10.6324
▁온도	-10.6331
ice	-10.6336
▁웨	-10.634
헤	-10.6347
▁수위	-10.6348
▁잠재적	-10.6349
▁가족은	-10.6349
엄	-10.6351
싱	-10.6352
됩니다	-10.6354
칼	-10.6356
안보	-10.6356
폴	-10.6356
▁아름다	-10.6357
▁visit	-10.6357
▁관타나모	-10.6357
▁마돈나	-10.6357
▁힘입어	-10.6357
넨	-10.6357
▁again	-10.6357
▁서식지	-10.6357
▁불가리아	-10.6357
▁객실	-10.6357
▁헌법재판소	-10.6357
▁imf	-10.6358
▁화합	-10.6358
▁비틀즈	-10.6358
▁1992	-10.6359
▁fda	-10.6359
ll	-10.6359
▁않았으나	-10.6359
▁화면	-10.6359
장의	-10.636
▁두번째	-10.636
▁내려졌다	-10.6361
▁종료	-10.6361
▁테러조직	-10.6362
▁차별	-10.6364
▁전국적으로	-10.6369
▁재임	-10.637
▁보급	-10.637
▁도심	-10.6371
▁개편	-10.6371
▁목표는	-10.6372
▁법안은	-10.6372
▁탄소	-10.6373
▁재직	-10.6374
스크	-10.6375
▁동물들	-10.6377
▁나왔	-10.6378
▁격렬한	-10.638
▁실시했다	-10.638
▁열렸다	-10.6384
본부	-10.6385
▁제시했다	-10.6385
▁일이다	-10.6387
▁마이	-10.6387
▁리비	-10.6388
▁민족	-10.6392
▁광장	-10.6393
▁지지한다	-10.6404
▁포함돼	-10.6406
ha	-10.6406
▁범인이	-10.6409
▁대학에서	-10.6409
▁크레	-10.6409
▁다음주	-10.6409
으려	-10.6412
▁방향으로	-10.642
국의	-10.6421
▁득점	-10.6425
기록	-10.6429
▁해소	-10.6432
▁모건	-10.6436
▁최대의	-10.6441
▁노리	-10.6442
리안	-10.6442
▁군인들이	-10.6444
웨	-10.6445
사와	-10.6447
▁소식은	-10.6448
▁에어	-10.6456
▁취한	-10.6457
▁축	-10.6459
▁중심가	-10.6464
▁상승한	-10.6469
▁러	-10.6474
▁급증	-10.6478
▁청구	-10.648
세이	-10.648
▁승객들	-10.6493
▁커지	-10.6494
▁인질들을	-10.6497
▁국가들이	-10.6499
▁제출한	-10.6499
▁대학생	-10.6499
▁개인적	-10.6501
▁범	-10.6512
▁69	-10.6513
▁맛	-10.6518
▁로스	-10.6518
▁di	-10.652
▁조사한	-10.652
▁여러분	-10.6522
12	-10.6526
▁63	-10.6532
▁프라이머리에서	-10.6533
▁무엇보다	-10.6538
▁블루	-10.6548
▁이용한	-10.6551
셀	-10.6552
▁촉진	-10.6553
▁콜로라도	-10.6553
▁state	-10.6554
▁76	-10.6558
▁착용	-10.6559
▁과격	-10.6561
넷	-10.6562
▁노력이	-10.6562
2005.09	-10.6565
▁경기침체	-10.6565
▁끔찍	-10.6565
▁먹는	-10.6565
▁아테네	-10.6565
▁않았고	-10.6565
▁히틀러	-10.6565
룸	-10.6565
▁중남미	-10.6565
▁자유무역협정	-10.6565
▁take	-10.6566
▁농장	-10.6566
▁직면	-10.6566
▁공룡	-10.6566
▁벽돌	-10.6566
▁관람	-10.6566
걸	-10.6566
▁살아남	-10.6567
▁탈락	-10.6567
▁탄광	-10.6567
▁talks	-10.6567
▁점검	-10.6568
▁금액	-10.6568
▁팝	-10.6568
▁거짓	-10.6568
▁자선단체	-10.6568
▁뉴욕주	-10.6569
▁유발	-10.6569
▁세웠다	-10.657
1000	-10.657
▁nk	-10.6572
▁자신감	-10.6575
▁4000	-10.6577
▁실린	-10.6578
800	-10.6578
▁접수	-10.6578
▁야구	-10.6579
▁중요성	-10.6581
▁인형	-10.6582
▁위원	-10.6582
▁아마디	-10.6583
▁7000	-10.6587
▁존경	-10.6588
▁따뜻	-10.6589
▁고급	-10.659
▁전반적인	-10.6591
▁ro	-10.6592
▁포함하여	-10.6594
▁남용	-10.6595
▁좋아하는	-10.6598
▁플레이어	-10.6598
▁겸	-10.6603
▁요구하며	-10.6603
▁군함	-10.6604
▁하면서	-10.6606
▁해서	-10.6606
▁갖는	-10.6607
▁본다	-10.6608
▁68	-10.6611
▁라이브	-10.6615
▁플로리다주	-10.6615
▁생각하지	-10.6619
man	-10.6623
▁부당	-10.6624
▁사용하고	-10.6626
▁이틀간	-10.6628
▁유튜브	-10.6628
▁남편이	-10.663
▁우즈	-10.6631
▁조지아	-10.6634
기지	-10.6639
▁직원이	-10.6642
▁법안에	-10.6643
▁확실	-10.6647
▁손해	-10.6649
▁각자	-10.6654
▁코스	-10.6656
▁설	-10.666
▁털	-10.6661
▁유지하고	-10.6664
대회	-10.6669
▁일에	-10.667
▁기아	-10.6674
▁미니	-10.6674
min	-10.6683
객	-10.6684
▁con	-10.6684
ml	-10.6685
▁na	-10.6688
▁약화	-10.669
▁ha	-10.6696
▁대가	-10.6711
▁로브	-10.6713
혔	-10.6713
▁기소된	-10.6713
▁명확	-10.6715
80	-10.6719
▁시인	-10.672
스티	-10.6725
▁건너	-10.6749
▁강세	-10.6751
▁작용	-10.6755
시오	-10.676
▁지휘관	-10.6763
▁로저	-10.6764
다란	-10.677
▁매춘	-10.6773
75	-10.6774
럽	-10.6775
▁농업	-10.6777
▁opec	-10.6778
▁seoul	-10.6778
▁루아얄	-10.6778
▁에넹	-10.6778
▁우주왕복선	-10.6778
▁울포위츠	-10.6778
▁지지선언	-10.6778
▁허커비	-10.6778
▁징후	-10.6778
▁벌써	-10.6778
▁막대한	-10.6778
▁본격적	-10.6779
▁center	-10.6779
업계	-10.6779
▁파나마	-10.6779
▁함유	-10.6779
▁술집	-10.678
▁있었습니다	-10.678
▁떠날	-10.678
▁사이클	-10.6781
으면서	-10.6781
▁드러내	-10.6782
▁x	-10.6782
▁새롭	-10.6782
▁디스크	-10.6782
콜	-10.6783
▁않으며	-10.6783
▁매매	-10.6783
▁소행성	-10.6786
▁서류	-10.6786
▁연계	-10.6786
▁집권당	-10.6787
▁형식	-10.6788
▁준수	-10.6789
▁승부	-10.6791
▁국방성	-10.6791
▁연간	-10.6791
▁자동	-10.6792
뉴스	-10.6794
▁정계	-10.6795
▁통과시켰다	-10.6795
▁표면	-10.6795
분께	-10.6797
코프	-10.6799
▁얼마전	-10.6799
▁지지하고	-10.6801
▁범위	-10.6805
▁내정	-10.6806
▁매케인이	-10.6806
end	-10.6808
▁곰	-10.6808
▁2005.10	-10.6809
▁미국으로	-10.6809
▁벌어졌다	-10.6812
▁ad	-10.6818
십	-10.6819
▁140	-10.6821
▁호소했다	-10.6824
▁기분	-10.6826
▁열고	-10.6826
ry	-10.6827
▁도달	-10.6829
▁내려진	-10.6831
▁조항	-10.6832
▁기울	-10.6834
▁테러에	-10.6836
▁여부에	-10.6842
▁나선	-10.6842
▁포함됐다	-10.6848
vs	-10.685
▁남자는	-10.685
▁72	-10.6851
었으나	-10.6855
▁완	-10.6855
▁대전	-10.6865
16	-10.6874
과정	-10.6876
▁일이라고	-10.6877
▁모르는	-10.688
▁올랐	-10.6885
▁포함된	-10.6886
▁바스라	-10.6886
▁지원하고	-10.6887
▁go	-10.689
▁증	-10.6892
▁어렵	-10.6895
▁전역에서	-10.6895
▁계속된	-10.6902
▁베를린	-10.6906
▁양국은	-10.6908
▁향상	-10.6909
▁감소했다	-10.6909
▁su	-10.6911
▁하나는	-10.6912
사고	-10.6914
▁타임	-10.6915
▁탑승객	-10.6916
팅	-10.6922
▁완료	-10.6925
복을	-10.6933
▁특	-10.6934
▁필요로	-10.6934
▁주최	-10.6943
▁제공한	-10.6944
▁용의자로	-10.6945
▁복	-10.6945
▁했으나	-10.6947
▁알려	-10.6951
▁약세	-10.6953
▁억제	-10.6954
▁등장	-10.6955
▁있을지	-10.6961
▁망	-10.6964
▁살해했다	-10.6975
▁ho	-10.6975
▁건강이	-10.6977
첼	-10.698
▁바르	-10.6987
에르	-10.6988
▁척	-10.6989
스탄	-10.699
▁외곽	-10.6991
▁소탕	-10.6991
▁밴	-10.6993
▁쓰레기	-10.6993
▁고이즈미	-10.6996
▁디자이너	-10.6996
▁베네딕	-10.6996
▁쇠고기	-10.6996
▁싶지	-10.6996
▁옮기	-10.6996
▁조승희	-10.6996
톨	-10.6996
▁우울증	-10.6996
▁포르노	-10.6996
▁시라크	-10.6996
▁교섭	-10.6996
63	-10.6996
므로	-10.6996
▁more	-10.6997
▁경향	-10.6997
▁cdc	-10.6998
▁1989	-10.6998
▁다룬	-10.6998
▁승인했다	-10.6998
▁정착	-10.6999
▁계산	-10.6999
▁지역사회	-10.7
▁mi	-10.7
베르토	-10.7
▁핵개발	-10.7001
▁상담	-10.7002
▁왕세자비	-10.7003
▁벗어	-10.7003
▁공판	-10.7005
▁에릭	-10.7006
리그	-10.7006
▁대대적	-10.7007
▁성명은	-10.7007
▁점거	-10.7008
▁소동	-10.7008
동맹	-10.7009
▁나토군	-10.7011
▁물체	-10.7012
▁통보	-10.7012
▁옹호	-10.7012
▁뿐이다	-10.7018
▁몸에	-10.7018
▁부족하다	-10.7019
▁한국은행	-10.7019
▁북부에	-10.7022
▁사체	-10.7024
▁신분	-10.7024
기자	-10.7024
▁2007.11	-10.7026
미국	-10.7028
강전에서	-10.7029
▁1,000	-10.7031
▁해주	-10.7032
▁도시인	-10.7038
▁발표했습니다	-10.7039
▁챔피언십	-10.7041
▁서서	-10.7043
▁결승전에서	-10.7047
▁고려하고	-10.7049
▁당국자들	-10.7049
ive	-10.7053
▁유전	-10.7054
om	-10.7056
▁중앙일보	-10.7056
▁떨어지	-10.7056
식이	-10.7061
▁불어	-10.7062
때까지	-10.7063
▁여기에	-10.7074
▁불이	-10.7078
공사	-10.7078
년과	-10.7083
▁맞이	-10.7087
▁합의에	-10.7087
▁진지	-10.7087
▁운동가들	-10.7089
북한	-10.709
▁명성	-10.7093
자르	-10.7096
▁멀	-10.7097
데이	-10.7099
얼	-10.7106
▁상영	-10.7114
▁가족들과	-10.7115
▁살았	-10.7117
▁정보부	-10.712
▁지식	-10.712
▁취했다	-10.7135
▁고장	-10.7138
▁게리	-10.714
▁대법원장	-10.7146
▁흔	-10.7156
▁조사할	-10.7164
▁희망한다	-10.7167
▁되며	-10.717
▁입었	-10.7172
롤	-10.7172
▁보도에	-10.7176
가격	-10.718
냈	-10.7184
되자	-10.7187
▁걸리	-10.7188
▁대통령직	-10.719
▁독일인	-10.719
속도로	-10.719
▁봤	-10.7191
럴	-10.7191
디아	-10.7193
▁내일	-10.7193
▁들어간	-10.7196
▁뉴햄프셔	-10.7196
▁경매에	-10.7198
▁건강에	-10.72
▁71	-10.7206
▁농민들	-10.7208
▁브라이언	-10.7209
탁	-10.7209
▁출	-10.7209
▁입법	-10.721
선거	-10.721
▁반대로	-10.7211
부가	-10.7213
데스	-10.7214
▁개막	-10.7215
▁덧붙	-10.7216
랭	-10.7218
▁노트북	-10.7218
▁뉴올리언스	-10.7218
▁두려움	-10.7218
▁심장마비	-10.7218
▁아닙니다	-10.7218
▁압바스	-10.7218
▁최첨단	-10.7218
▁톰슨	-10.7218
▁대서양	-10.7218
▁스크린	-10.7218
▁온실가스	-10.7218
▁윈도우	-10.7218
▁글로벌	-10.7218
▁이자율	-10.7218
▁멈추	-10.7218
▁부사장	-10.7218
▁저항세력	-10.7218
▁연례	-10.7219
▁가짜	-10.7219
수는	-10.722
▁관측	-10.7221
▁타밀	-10.7221
▁갈등	-10.7222
▁풍부	-10.7222
▁붙여	-10.7223
▁구름	-10.7223
▁회장이	-10.7225
끼	-10.7225
▁오프라	-10.7226
▁비서실장	-10.7227
▁받아왔다	-10.7227
▁열심	-10.7227
▁선임	-10.7229
▁기증	-10.723
▁발급	-10.723
▁무슨	-10.723
▁160	-10.723
▁by	-10.723
균	-10.7231
킬로미터	-10.7232
▁미첼	-10.7233
규모	-10.7233
▁발발	-10.7234
▁헬	-10.7236
▁확산되고	-10.7238
▁스파이	-10.7239
▁신화	-10.7242
▁르	-10.7243
▁참석하지	-10.7247
투표	-10.725
▁보건부	-10.7255
▁so	-10.7255
▁테러단체	-10.7255
▁참가자들	-10.7259
▁달간	-10.726
세계	-10.7264
300	-10.727
▁없었	-10.727
▁남측	-10.7276
▁기상청	-10.728
▁time	-10.7281
▁점수	-10.7284
▁언론과	-10.7285
스런	-10.7286
▁파리에서	-10.7291
▁러드	-10.7291
▁가중	-10.7293
▁문구	-10.7294
▁돌려	-10.7306
이었습니다	-10.7307
▁행위에	-10.7309
▁맡	-10.7313
▁풀어	-10.7314
▁테리	-10.7319
▁선수로	-10.732
▁의상	-10.7325
▁결정적인	-10.7328
▁has	-10.7332
▁유기	-10.7337
▁학교에서	-10.734
▁다루	-10.7343
▁보조	-10.7343
▁탈레반측	-10.7343
▁나타내는	-10.7353
구를	-10.7353
▁반복	-10.7355
▁소비자들	-10.7355
▁바위	-10.7362
▁공무원	-10.7364
▁벌여	-10.7365
점이	-10.7365
▁당해	-10.7365
▁제작사	-10.7366
원을	-10.7368
렉	-10.7376
▁원인이	-10.7382
▁남부에	-10.7384
혼	-10.7385
▁증상	-10.7391
▁명백	-10.7394
▁동성애	-10.7396
▁곳이	-10.7399
▁82	-10.7403
▁경사	-10.7404
▁남자들	-10.7406
▁ri	-10.7414
▁지도자는	-10.7418
▁au	-10.7424
▁정리	-10.7426
▁초래	-10.7427
▁있은	-10.743
▁총장	-10.743
▁장관과	-10.7432
금을	-10.7441
▁출입	-10.7442
▁입지	-10.7442
▁공격했다	-10.7443
▁에베레스트	-10.7443
▁troop	-10.7445
▁도요타	-10.7445
▁로드리게스	-10.7445
▁믿을	-10.7445
▁브래드	-10.7445
▁이브라힘	-10.7445
▁찾지	-10.7445
▁펼친	-10.7445
▁플루토늄	-10.7445
▁야생동물	-10.7445
▁허드슨	-10.7445
▁빼앗	-10.7445
▁아마디네자드	-10.7445
▁인터폴	-10.7445
▁준비하고	-10.7445
▁빅토리아	-10.7445
▁터널	-10.7445
▁의약품	-10.7445
▁품목	-10.7446
▁roh	-10.7446
▁우간다	-10.7446
▁남학생	-10.7446
▁금융위기	-10.7446
▁무덤	-10.7447
▁평화유지군	-10.7447
▁조절	-10.7448
▁고유가	-10.7448
▁요원들	-10.7448
▁일어나는	-10.7449
▁들어갈	-10.7449
▁사진이	-10.7449
▁예약	-10.745
▁아니지만	-10.745
▁단행	-10.7451
▁경로	-10.7451
▁채취	-10.7451
mm	-10.7451
▁완성	-10.7452
▁이루어진	-10.7453
폰	-10.7454
▁작업이	-10.7455
▁유통	-10.7455
▁압	-10.7455
▁구류	-10.7456
▁회수	-10.7457
▁배제	-10.7458
▁포터	-10.7458
칭	-10.7458
▁휴대	-10.7458
폐	-10.7459
▁양쪽	-10.7459
▁부분이	-10.7462
▁상관	-10.7463
값	-10.7465
▁군사력	-10.7465
▁졸업	-10.7467
▁5000	-10.7468
▁house	-10.7472
▁해체	-10.7473
▁빠졌다	-10.7475
▁양보	-10.7476
▁경쟁력	-10.7477
▁햄	-10.7477
▁언급하며	-10.7479
▁임대	-10.748
▁싸	-10.7485
▁묻는	-10.7487
▁도살	-10.7489
▁남성들	-10.749
▁담당자	-10.749
▁해적들	-10.7493
ter	-10.7494
▁반전	-10.7495
▁사면	-10.7499
▁너무나	-10.75
▁베리	-10.7501
▁서안	-10.7508
▁주에	-10.7508
▁목사는	-10.7509
▁아프	-10.7518
▁보인	-10.7522
ng	-10.7523
▁인정하지	-10.7524
▁모자	-10.7524
트라	-10.7525
▁미래에	-10.7526
▁턱	-10.7531
▁코치	-10.7532
te	-10.7532
▁악화되	-10.7536
▁군이	-10.754
호가	-10.754
▁all	-10.754
▁하에	-10.754
▁법정에서	-10.7542
▁부지	-10.7547
▁맞고	-10.755
▁은행에	-10.7553
▁아는	-10.7554
▁등에	-10.756
▁사용자들	-10.7564
▁향한	-10.7565
▁넘기	-10.7573
라드	-10.7577
▁위원장이	-10.758
▁변호	-10.7584
▁업체들	-10.7588
▁경험을	-10.7588
▁어려	-10.7592
▁위험성	-10.7592
▁선거법	-10.7593
▁궤도	-10.7596
▁멤버	-10.7597
▁시인했다	-10.7602
명인	-10.7603
▁승	-10.7603
▁사실에	-10.7605
▁논	-10.7606
▁담당자는	-10.7609
po	-10.7614
▁정치인들	-10.7616
▁폴리	-10.7618
▁파월	-10.7619
▁반지	-10.7625
▁지역인	-10.7627
▁좌절	-10.7632
▁내렸	-10.7632
▁정기적	-10.7636
▁이루어	-10.765
▁상업	-10.7662
▁시작했다고	-10.7663
▁직접적	-10.7664
▁통계	-10.7666
▁인권단체	-10.7666
렐	-10.7675
기술	-10.7675
ish	-10.7676
▁아라비아	-10.7678
5,000	-10.7678
▁washington	-10.7678
▁york	-10.7678
▁나눴다	-10.7678
▁낮아	-10.7678
▁느낌	-10.7678
▁망원경	-10.7678
▁성추행	-10.7678
▁스타벅스	-10.7678
▁시나리오	-10.7678
▁자르다리	-10.7678
▁최우선	-10.7678
▁토크쇼	-10.7678
▁확률	-10.7678
찌	-10.7678
▁무승부	-10.7678
bush	-10.7678
first	-10.7678
▁삭감	-10.7678
▁수류탄	-10.7678
▁해수면	-10.7678
▁맥캔	-10.7678
▁에드워드	-10.7678
▁남아프리카	-10.7678
▁남자아이	-10.7679
▁활발	-10.7679
▁긴밀	-10.7679
▁머레이	-10.7679
▁교외	-10.7679
▁물고기	-10.7679
▁사라졌다	-10.7681
▁외환	-10.7681
▁체류	-10.7681
▁실현	-10.7681
▁정밀	-10.7681
▁송금	-10.7682
연패	-10.7683
라인	-10.7684
▁하원의장	-10.7684
▁밀려	-10.7685
▁포스트	-10.7687
▁고위급	-10.7688
▁해저	-10.7692
스케	-10.7692
▁목록	-10.7693
▁적합한	-10.7696
▁위하여	-10.7696
▁주연	-10.7702
홀	-10.7704
▁경비대	-10.7704
덕	-10.7704
▁이득	-10.7705
벤	-10.7705
▁당부했다	-10.7705
▁일대	-10.7707
착륙	-10.7707
▁저질렀다	-10.7707
▁차질	-10.7708
▁맡았다	-10.7709
▁수면	-10.7714
윈	-10.7714
▁총통	-10.7715
▁퀸	-10.7715
▁하자	-10.7716
수술	-10.7718
단은	-10.7721
▁화가	-10.7724
▁뉴욕시	-10.7725
▁상금	-10.7725
상으로	-10.773
버렸다	-10.7731
▁상세	-10.7736
▁우세	-10.7737
▁느끼고	-10.7738
▁파키스탄군	-10.7738
▁싱	-10.7739
▁게릴라	-10.7741
▁절도	-10.7742
▁개인적으로	-10.7743
▁인터넷에	-10.7744
▁학생이	-10.7747
▁수여	-10.7749
▁장군	-10.775
도로	-10.7752
▁압수	-10.7755
널리	-10.7755
▁움직임은	-10.7756
▁중심지	-10.7759
졌습니다	-10.7771
▁크다	-10.7771
▁프	-10.7774
▁or	-10.7779
▁부검	-10.778
▁표준	-10.7781
스테	-10.7783
▁관객들	-10.7785
결과	-10.7788
▁이름으로	-10.7796
▁행동에	-10.7803
관련	-10.7806
▁남아있는	-10.7808
▁one	-10.7808
▁착수했다	-10.7816
▁센	-10.7817
▁연행	-10.7821
▁방문해	-10.7822
▁성공한	-10.7822
▁탈레반이	-10.7826
부를	-10.7827
▁지위	-10.7832
▁브로	-10.7835
▁매력	-10.7836
▁힘들다	-10.7838
▁모른다고	-10.7843
▁분야에서	-10.7843
▁방콕	-10.7852
▁수행할	-10.7852
▁출생	-10.7852
▁의견이	-10.7854
▁정기	-10.7855
▁신도들	-10.7856
▁몰려	-10.7856
키로	-10.7856
▁출연했다	-10.7856
▁암시	-10.7861
하에	-10.7865
▁묵	-10.7871
▁패스	-10.7871
▁맡았	-10.7886
99	-10.7892
즈는	-10.7895
퇴	-10.7898
▁연구에서	-10.7899
ck	-10.79
보기	-10.7909
농	-10.791
징	-10.7912
구가	-10.7914
훈	-10.7914
▁높게	-10.7916
▁똑같	-10.7916
▁메드베데프	-10.7916
▁서브프라임	-10.7916
▁아웅산수치	-10.7916
▁유죄판결	-10.7916
▁활성화	-10.7916
박근혜	-10.7916
▁뉴델리	-10.7916
▁세속주의	-10.7916
▁출구조사	-10.7916
▁국립공원	-10.7916
▁international	-10.7916
▁포셋	-10.7916
▁say	-10.7917
▁증강	-10.7917
▁1987	-10.7918
▁가리	-10.7918
▁염려	-10.7918
▁숨졌으며	-10.7918
▁카를로스	-10.7918
▁중앙은행	-10.7918
▁진전이	-10.7918
▁연구결과	-10.7919
▁추격	-10.7919
▁단독	-10.7919
▁aig	-10.792
▁연출	-10.7921
▁추구하	-10.7921
▁환율	-10.7922
▁복원	-10.7922
▁미리	-10.7922
▁대로	-10.7923
▁목격했다	-10.7926
▁부처	-10.7928
▁뿐이라	-10.793
▁제시한	-10.793
▁부품	-10.793
▁수색작업	-10.7931
▁영국과	-10.7931
▁기적	-10.7931
▁ai	-10.7935
▁인터	-10.7937
▁재활용	-10.7937
▁its	-10.7938
▁뛰	-10.7939
않	-10.7942
▁사용된	-10.7942
▁미성년자	-10.7945
▁여러번	-10.7945
▁도디	-10.7948
▁안내	-10.7951
▁가난한	-10.7953
감독	-10.7955
2000	-10.7956
▁달한다	-10.7956
▁루니	-10.7957
▁주류	-10.7958
▁말이	-10.796
▁시사	-10.796
▁대리인	-10.7963
▁건물에	-10.7965
▁종교적	-10.7971
▁간에	-10.7971
▁남아있다	-10.7972
▁남성의	-10.7973
▁웨인	-10.7974
▁업적	-10.7976
화된	-10.7976
▁잃어버	-10.7977
▁안으로	-10.7983
▁공정한	-10.7986
▁상당수	-10.7987
ent	-10.7988
▁파키스탄에서	-10.7995
▁열었다	-10.7996
교육	-10.7996
▁결심	-10.7997
co	-10.7997
▁하거나	-10.8001
▁제공했다	-10.8003
▁의원들이	-10.8004
▁도구	-10.8006
▁카리	-10.8011
▁도착할	-10.8016
성에	-10.8016
▁나치	-10.8019
▁방송에	-10.8024
▁출두	-10.8026
▁일하고	-10.8027
▁이슈	-10.8027
▁국가에	-10.8041
▁딘	-10.8048
▁관객	-10.8049
▁궁	-10.8052
▁출신으로	-10.8053
▁선고했다	-10.8054
▁주권	-10.8056
▁vi	-10.8058
▁상황이다	-10.8062
됐는지	-10.8062
▁77	-10.8068
▁은행들	-10.807
▁신장	-10.8071
▁강진이	-10.8074
sa	-10.8084
년전	-10.8084
▁물어	-10.8084
▁응답	-10.8084
▁보냈	-10.8085
▁사무	-10.8089
▁씨가	-10.8089
▁시작으로	-10.809
▁판결이	-10.8097
▁홍	-10.8099
▁자라	-10.8106
▁불리	-10.8108
▁방법에	-10.8109
▁당황	-10.811
▁기각	-10.8111
▁됐	-10.8122
13	-10.8123
▁지구에	-10.8127
▁토대	-10.813
▁받아들여	-10.813
장과	-10.8135
▁재정적	-10.8137
▁제작자	-10.814
▁기분이	-10.8157
▁국가비상사태	-10.8159
▁활동에	-10.8159
냉	-10.8159
▁ibm	-10.816
▁급습	-10.816
▁먹고	-10.816
▁선거관리위원회	-10.816
▁앞섰다	-10.816
▁하이브리드	-10.816
▁주유소	-10.816
▁섹시	-10.816
▁자전거	-10.816
▁윈프리	-10.816
▁최루탄	-10.816
▁부양책	-10.816
▁않았습니다	-10.816
됨에따라	-10.816
▁교착	-10.816
▁바꿀	-10.816
▁권총	-10.8161
▁앨런	-10.8161
▁흘러	-10.8161
▁bda	-10.8161
▁돌아갈	-10.8162
르게	-10.8162
▁설계	-10.8162
▁독감	-10.8162
▁추모	-10.8162
▁이뤄질	-10.8162
▁mdc	-10.8163
▁드레스	-10.8163
▁서식하	-10.8165
▁데리고	-10.8165
▁재배치	-10.8166
▁소년이	-10.8167
▁통행	-10.8167
▁줄이기	-10.8169
닉	-10.8169
▁던진	-10.817
▁심판	-10.817
▁보증	-10.8171
▁개체수	-10.8172
▁공격한	-10.8172
▁뚫	-10.8173
뉴	-10.8174
측이	-10.8174
▁서브	-10.8176
▁출장	-10.8178
▁피난	-10.8179
▁전형적	-10.8179
▁장려	-10.818
▁윌슨	-10.8181
▁도난	-10.8185
▁체포되었다	-10.8185
▁골드	-10.8188
작업	-10.8191
킹	-10.8193
롱	-10.8193
팔	-10.8195
콘	-10.8197
▁해석	-10.8197
앤	-10.82
▁아미	-10.8202
tu	-10.8203
▁산하	-10.8204
이라크	-10.8208
▁고안	-10.8211
▁사과했다	-10.8211
생산	-10.8212
▁셰	-10.8213
▁얻게	-10.8214
▁공개하지	-10.8214
▁명백한	-10.8218
▁war	-10.8219
▁발견되지	-10.8221
었을	-10.8222
▁전격	-10.823
▁양자	-10.8239
▁리버	-10.8239
▁국회에서	-10.8241
▁권고했다	-10.8245
ting	-10.8246
▁떠난	-10.825
나무	-10.825
▁피하기	-10.8253
▁담고	-10.8259
▁사라지	-10.8264
▁cd	-10.8265
▁메리	-10.8266
▁못했	-10.827
▁김치	-10.827
▁휴일	-10.8271
▁외상	-10.8274
▁분석했다	-10.8276
명에서	-10.8277
▁인공	-10.8277
▁무샤라프는	-10.8278
▁수감된	-10.8282
▁거리에서	-10.8285
▁판매량	-10.8289
▁이라크내	-10.829
ant	-10.8292
▁공주	-10.8292
국장	-10.8297
▁종이	-10.8299
겠습니다	-10.8303
▁출신인	-10.8303
시장에서	-10.8305
잡	-10.8309
▁win	-10.8319
▁이뤄	-10.8319
씨가	-10.832
▁사고는	-10.8333
▁차지하는	-10.8335
▁중이며	-10.8336
▁일어났	-10.8337
▁모두에게	-10.8343
▁조언	-10.8346
▁쏟아	-10.835
자리	-10.8354
▁싸우	-10.8358
▁사안	-10.8359
▁의제	-10.8359
ah	-10.8363
▁죽이	-10.8364
제품	-10.8366
▁준다	-10.8367
▁서쪽	-10.8371
월에는	-10.8373
▁거부한	-10.8374
▁am	-10.8377
클리	-10.8381
일에는	-10.8384
더스	-10.8387
▁후임	-10.8387
▁군과	-10.8392
▁le	-10.8395
▁모아	-10.8397
▁네바다	-10.8398
▁특파원	-10.8403
춘	-10.8404
왈	-10.8405
룰	-10.8406
둥	-10.8407
콤	-10.8408
▁데이비스	-10.8409
▁국제우주정거장	-10.841
▁맨해튼	-10.841
▁무렵	-10.841
▁바티칸	-10.841
▁스탈린	-10.841
▁유람선	-10.841
▁호나우두	-10.841
닛	-10.841
▁깨끗	-10.841
▁좌석	-10.841
▁퇴진	-10.841
▁fifa	-10.841
▁언덕	-10.841
▁행렬	-10.841
▁시티그룹	-10.841
▁요즘	-10.841
▁아스날	-10.841
▁왜곡	-10.841
▁유괴	-10.8411
▁국민투표	-10.8411
▁자발적	-10.8411
▁동참	-10.8411
▁국무총리	-10.8411
국은	-10.8411
▁절약	-10.8412
▁자동차업계	-10.8412
▁만능	-10.8413
▁창설	-10.8413
▁존스턴	-10.8414
▁불안정	-10.8414
▁역임	-10.8414
▁가끔	-10.8414
▁보조금	-10.8416
▁모집	-10.8416
▁위생	-10.8416
▁초에	-10.8417
▁연방정부	-10.8417
▁연임	-10.8418
▁카르	-10.8418
▁이적	-10.842
▁금리를	-10.842
▁피랍된	-10.8423
▁합의문	-10.8423
▁도청	-10.8426
▁수컷	-10.8427
▁부속	-10.8427
해달라	-10.8427
▁혼자	-10.8427
▁시골	-10.8428
▁판다	-10.8429
파운드	-10.8433
▁동영상에서	-10.8434
▁석방됐다	-10.8435
황	-10.8437
연승	-10.8447
▁상병	-10.8451
▁조선	-10.8453
8000	-10.8455
▁출전하지	-10.8455
▁꽃	-10.8456
캐	-10.8457
김	-10.8457
▁화장	-10.8458
▁아프간에	-10.8463
았습니다	-10.8463
▁느끼	-10.8467
▁지나가	-10.8467
▁지원금	-10.847
▁테러범들	-10.8471
ff	-10.8471
▁젊은이들	-10.8471
▁경주	-10.8472
▁발매	-10.8472
▁매수	-10.8472
▁고조되	-10.8473
분야	-10.8473
▁유물	-10.8474
▁유럽과	-10.8475
▁그랜드	-10.8475
▁돌아와	-10.8476
▁공개한	-10.8487
▁취하고	-10.8489
군의	-10.8495
해지고	-10.8496
▁불가능하다	-10.8496
▁개성	-10.8498
44	-10.8499
▁칼리	-10.8506
ig	-10.8507
카르	-10.851
▁눈물	-10.8511
▁학생들에게	-10.8514
쟁	-10.8517
▁틀	-10.852
▁변화에	-10.8523
▁말에	-10.8525
▁이스라엘에	-10.8526
▁열리	-10.8528
▁본드	-10.8529
▁전용	-10.8529
▁fi	-10.8533
용으로	-10.8534
▁전해지	-10.8538
▁병력이	-10.8543
▁포트	-10.8548
▁세운	-10.855
▁펼쳐	-10.8551
▁2.5	-10.8556
14	-10.8556
▁유해	-10.8557
18	-10.8558
유로	-10.8574
▁현상이	-10.8577
▁po	-10.8579
▁지고	-10.858
하러	-10.8583
▁광부	-10.8587
▁재고	-10.8593
대와	-10.8597
▁맞은	-10.8605
병원	-10.861
노조	-10.8624
스카	-10.8625
78	-10.8626
▁이후에	-10.8628
▁간부	-10.8629
▁민주당이	-10.8635
▁빌리	-10.8635
▁피랍	-10.8642
있었다	-10.8644
▁용납	-10.8658
촌	-10.866
덤	-10.8664
촉	-10.8665
▁military	-10.8666
▁people	-10.8666
▁가즈프롬	-10.8666
▁꺾고	-10.8666
▁디트로이트	-10.8666
▁러닝메이트	-10.8666
▁마이스페이스	-10.8666
▁믿는다	-10.8666
▁억만장자	-10.8666
▁음주운전	-10.8666
▁인명피해	-10.8666
▁저렴	-10.8666
▁창기라이	-10.8666
▁켄터키	-10.8666
▁피츠버그	-10.8666
▁apec	-10.8666
▁라호르	-10.8666
▁하버드	-10.8666
▁후지모리	-10.8666
▁내무장관	-10.8666
▁코카인	-10.8666
▁물러	-10.8666
▁press	-10.8666
▁가져올	-10.8666
▁돌아올	-10.8667
▁재판에서	-10.8667
▁워렌	-10.8667
▁아빠	-10.8668
two	-10.8668
▁국방위원장	-10.8668
▁산맥	-10.8669
▁굿	-10.8669
▁1986	-10.8669
▁안드레	-10.8669
▁회계	-10.867
바라데이	-10.867
▁않습니다	-10.867
▁치매	-10.867
▁미셸	-10.8671
▁매입	-10.8672
▁로켓포	-10.8673
▁의심되는	-10.8674
▁참가한	-10.8675
▁파커	-10.8675
▁부결	-10.8675
▁참배	-10.8675
▁시민권	-10.8677
land	-10.8678
▁개헌안	-10.8679
▁구조작업	-10.8685
▁못했지만	-10.8688
▁약탈	-10.8689
▁호주에서	-10.8694
분경	-10.8694
▁던졌다	-10.8695
▁해방	-10.8697
▁업무를	-10.8698
▁걸렸다	-10.8698
46	-10.8702
▁그들에게	-10.8703
▁돌아왔다	-10.8704
▁투표율	-10.8708
▁강간	-10.8708
▁영화에서	-10.8711
▁하비	-10.8711
▁이들에게	-10.8711
논	-10.8713
▁일단	-10.8715
▁진행될	-10.8716
▁자치	-10.8716
▁클린턴과	-10.8717
▁실패한	-10.8718
▁납치한	-10.8728
중국	-10.8729
▁처음에	-10.873
▁덜	-10.873
조약	-10.8732
▁방송에서	-10.8733
시위	-10.8733
li	-10.8735
▁have	-10.8738
▁꾸	-10.874
커스	-10.8742
타임	-10.8744
달러로	-10.8744
▁불과하다	-10.8746
ea	-10.8746
▁지방에서	-10.8749
업자들	-10.8749
▁관련하여	-10.875
▁제치	-10.8751
지에서	-10.876
▁해안에	-10.876
▁호텔에	-10.8762
지원	-10.8766
이라면	-10.8772
▁내고	-10.8775
▁상자	-10.8777
85	-10.8781
▁비극	-10.8784
▁회견에서	-10.8786
▁달러가	-10.8786
된다면	-10.8792
▁단장	-10.8794
▁재무	-10.8795
▁평화상	-10.8801
▁다르	-10.8803
▁수사에	-10.8809
▁수락	-10.8811
▁파크	-10.8814
▁찾아내	-10.8815
▁교도소에서	-10.8816
bc	-10.8816
담당	-10.8822
▁봉	-10.8825
▁계속할	-10.8826
tv	-10.8827
▁가르	-10.8834
▁이슬라마바드	-10.8841
▁상사	-10.8856
▁쪽	-10.886
▁흔들	-10.8861
▁장교	-10.8864
▁회사에	-10.8866
▁고조	-10.8867
소한	-10.8867
줬	-10.8871
해서는	-10.8871
▁롤	-10.8876
▁페리	-10.8879
▁충	-10.8879
▁크기의	-10.8882
▁회원국들	-10.8883
▁전사	-10.8884
84	-10.8885
주가	-10.8887
▁반대하고	-10.8887
학과	-10.8888
▁연대	-10.8896
▁진행중	-10.8897
▁웨이	-10.8898
▁전체가	-10.89
률이	-10.89
▁청소	-10.8901
▁가즈니	-10.8904
쳤으며	-10.8911
▁아기들	-10.8912
▁벌어지	-10.8912
▁81	-10.8914
▁뉴저지	-10.8917
▁연말	-10.8917
핑	-10.8919
▁위치해	-10.8921
▁잇따	-10.8925
냥	-10.8925
▁금메달	-10.8929
▁high	-10.8929
▁갤런	-10.8929
▁럼스펠드	-10.8929
▁박격포	-10.8929
▁엘리베이터	-10.8929
▁찾았다	-10.8929
▁최고경영자	-10.8929
껏	-10.8929
넌	-10.8929
▁라모스	-10.8929
▁북극곰	-10.8929
▁secretary	-10.8929
▁알제리	-10.8929
▁돌아다니	-10.8929
▁남아프리카공화국	-10.8929
▁떠오르	-10.8929
▁안토니오	-10.893
▁포획	-10.893
▁실무	-10.893
▁기획	-10.8931
▁결합	-10.8932
▁lg	-10.8932
▁설정	-10.8932
▁클라크	-10.8933
▁것이기	-10.8933
▁처형	-10.8933
▁예선	-10.8933
▁진료	-10.8933
▁대테러	-10.8934
▁마찰	-10.8934
▁로드	-10.8936
▁밀러	-10.8937
▁던져	-10.8938
▁모리	-10.8938
▁베어	-10.8939
▁배심원단	-10.8942
▁사이버	-10.8944
▁환수	-10.8945
▁재배	-10.8945
▁배포	-10.8945
▁반등	-10.8946
▁넣었다	-10.8947
▁미셀	-10.8948
▁석방된	-10.8949
▁사회당	-10.8953
▁거친	-10.8953
야드	-10.8955
▁댄	-10.8956
▁외국인들	-10.8957
▁쉬운	-10.8958
▁어디	-10.8959
▁맞았다	-10.8961
▁leader	-10.8963
▁소유주	-10.8964
▁생각해	-10.8967
▁사라진	-10.8969
▁월스트리트	-10.8969
▁1.5	-10.8971
39	-10.8974
궁	-10.8974
▁자랑	-10.8975
▁원하지	-10.8975
▁파편	-10.8976
▁북부에서	-10.8977
▁석	-10.8979
▁포경선	-10.8979
▁먼지	-10.898
▁걸려	-10.898
멜	-10.8981
무라	-10.8982
▁대비해	-10.899
▁낙	-10.8993
▁그곳에서	-10.8993
▁군중들	-10.8993
▁성분	-10.8997
▁전하고	-10.8998
베르	-10.8999
▁수사관들은	-10.8999
신문	-10.9001
▁중점	-10.9001
48	-10.9004
▁아시아에서	-10.9004
▁전시회	-10.9007
▁즐기는	-10.9009
▁측이	-10.9012
▁연이	-10.9014
시에서	-10.9019
55	-10.9019
▁독재자	-10.9022
▁확인하기	-10.9028
▁열기	-10.9032
▁써	-10.9032
되었는데	-10.9042
▁기원	-10.9042
▁정부군과	-10.9042
▁못하다	-10.9043
▁방문은	-10.9048
보드	-10.905
▁내지	-10.9052
▁입어	-10.9053
▁85	-10.9055
▁이른	-10.9057
▁남쪽	-10.9057
▁내리는	-10.9061
▁폭로	-10.9062
▁약속한	-10.9078
▁클린턴에	-10.9083
▁전쟁이	-10.9089
▁축출	-10.9095
▁유지할	-10.9095
▁느끼는	-10.9096
▁대선에	-10.9098
▁표시했다	-10.9102
렸으며	-10.911
▁없다며	-10.9116
였고	-10.9121
▁장악	-10.9126
▁해왔다	-10.9128
mo	-10.9131
▁보유한	-10.9132
▁서한	-10.9133
▁만났	-10.9135
▁위장	-10.9141
룬	-10.9145
▁활동이	-10.9148
받은	-10.9148
▁제공하기	-10.9148
▁장소에서	-10.915
▁미라	-10.9154
▁여행객들	-10.9155
▁수요일에	-10.9162
▁이라크인	-10.9167
년형	-10.9168
▁소비자들이	-10.9176
▁갈라	-10.9176
▁에티오피아	-10.9176
▁소유한	-10.9178
▁프랑스에서	-10.9187
▁변호인	-10.9188
▁영국은	-10.9188
▁bo	-10.9188
▁치를	-10.9189
원인	-10.9189
▁병사들이	-10.9192
▁벗	-10.9193
▁언급한	-10.9193
▁오스카	-10.9194
▁휩쓸	-10.9197
▁인정받	-10.9198
2007.09	-10.9199
▁human	-10.9199
▁느껴	-10.9199
▁브루니	-10.9199
▁시애틀	-10.9199
▁애완동물	-10.9199
▁엉덩이	-10.9199
▁그린피스	-10.9199
▁크레이그	-10.9199
▁해수욕장	-10.9199
▁바하마	-10.9199
▁덴버	-10.9199
▁대한민국	-10.9199
▁좌파	-10.92
▁고등법원	-10.92
▁켈리	-10.92
▁넬슨	-10.92
▁브레이크	-10.92
▁스콧	-10.92
▁무소속	-10.92
▁동굴	-10.92
▁슈퍼볼	-10.92
▁밝혀냈다	-10.9201
▁오늘밤	-10.9201
▁낭비	-10.9201
▁장벽	-10.9202
▁불황	-10.9202
▁절감	-10.9203
▁하여	-10.9203
▁위축	-10.9203
▁돌아온	-10.9203
▁오바마에	-10.9204
▁외쳤다	-10.9204
▁생명체	-10.9204
▁치른	-10.9205
▁승점	-10.9205
▁다행히	-10.9205
me	-10.9205
▁금속	-10.9205
▁케이시	-10.9206
▁교내	-10.9206
27	-10.9207
▁보수당	-10.9207
▁추천	-10.9207
▁창조	-10.9208
▁반환	-10.9208
▁유골	-10.9209
▁민간인들	-10.9209
▁매출	-10.921
▁네바다주	-10.9212
45	-10.9214
▁느낀다	-10.9214
▁펄	-10.9214
▁피고인	-10.9215
▁기념식	-10.9217
▁아니며	-10.9217
▁밀어	-10.9218
▁헐	-10.922
▁아민	-10.9223
▁과제	-10.9224
▁화제	-10.9224
▁휴식	-10.9225
▁한달	-10.9226
▁단식	-10.9226
▁남미	-10.9227
▁제보	-10.9228
▁무산	-10.9228
▁대원들	-10.9229
▁소화	-10.9233
▁받아들이지	-10.9238
▁총회	-10.9239
▁출연해	-10.9241
▁남쪽으로	-10.9242
▁방문에	-10.9246
▁버지니아주	-10.9247
▁차지한	-10.9248
▁인도분	-10.9251
▁구단	-10.9251
학생	-10.9253
▁이어졌다	-10.9253
▁투명	-10.9254
버트	-10.9254
▁장성	-10.9257
▁항의하	-10.9258
▁지지자들에게	-10.9259
▁원치	-10.9259
▁공안	-10.9261
▁예측했다	-10.9261
▁특사는	-10.9264
연구	-10.9266
▁캔	-10.9267
타운	-10.9269
시티	-10.9271
▁트레	-10.9271
▁난민들	-10.9275
▁좋아한다	-10.9276
구조	-10.9278
▁밝히기	-10.9279
편의	-10.928
▁분야에	-10.9281
▁근처에	-10.9283
마르	-10.929
▁성명서	-10.9292
▁전파	-10.9295
▁국경지역	-10.9296
▁통해서	-10.9299
▁거래됐다	-10.9301
▁복장	-10.9302
▁염	-10.9306
▁강타한	-10.9306
▁위협에	-10.9311
tri	-10.9313
▁일어나지	-10.9313
▁탄도	-10.9316
▁알라	-10.9321
▁함	-10.9324
ard	-10.9325
▁선보	-10.9329
▁폭력사태로	-10.9337
ee	-10.9346
우드	-10.9348
68	-10.935
텐	-10.9352
▁입수한	-10.9352
티스	-10.9353
▁총리직	-10.9353
▁안나	-10.9362
able	-10.9363
▁법적으로	-10.9364
▁원주민	-10.9366
▁74	-10.9367
▁명단에	-10.9368
▁행동이	-10.937
▁재해	-10.9372
▁대안	-10.9372
am	-10.9374
▁편집	-10.9375
▁78	-10.938
▁정부에서	-10.9381
▁usa	-10.9384
▁탈북자	-10.9384
사이트	-10.9387
▁친환경	-10.9388
▁최고위	-10.939
장비	-10.939
▁배심원	-10.939
어질	-10.9391
▁피어	-10.9394
스에서	-10.9394
▁경비원	-10.9394
세포	-10.9396
▁조국	-10.9397
카드	-10.94
▁대통령으로	-10.94
연대	-10.9402
▁부위	-10.9406
ld	-10.9406
▁170	-10.9411
▁리오	-10.9423
▁목요일에	-10.9428
▁쳐	-10.9434
▁당일	-10.9434
▁군중	-10.9441
▁움직임이	-10.9451
▁선택했다	-10.9457
▁전쟁에서	-10.9457
▁있었기	-10.9461
▁노대통령은	-10.9463
▁티벳	-10.9463
▁계속하고	-10.9468
▁개발한	-10.9469
▁국가인	-10.947
▁참여했다	-10.9471
bar	-10.9474
▁england	-10.9477
▁기준금리	-10.9477
▁끝났다	-10.9477
▁듣지	-10.9477
▁버냉키	-10.9477
▁슬픔	-10.9477
▁원자바오	-10.9477
▁텔레비전	-10.9477
▁트라볼타	-10.9477
▁헬리콥터	-10.9477
▁호날두	-10.9477
▁규칙	-10.9477
▁유수프	-10.9477
▁침묵	-10.9477
▁스튜디오	-10.9477
▁카지노	-10.9477
▁election	-10.9477
▁바바라	-10.9477
▁휴스턴	-10.9477
▁멸종위기	-10.9478
▁연구가	-10.9478
▁놀랄	-10.9478
▁감바	-10.9478
▁숨겨	-10.9478
▁처방	-10.9478
▁신원이	-10.9479
▁모험	-10.9479
▁논문	-10.9479
▁대선주자	-10.9479
축구연맹	-10.9479
▁레이저	-10.9479
▁사살했다	-10.9479
▁요르단강	-10.9479
▁남녀	-10.948
▁도핑	-10.948
▁반체제	-10.948
▁시청자들	-10.948
▁바지	-10.948
▁세부	-10.948
▁구호품	-10.9481
▁소총	-10.9481
▁텐트	-10.9481
▁출국	-10.9482
▁금융시장	-10.9483
▁탐사선	-10.9484
▁대기업	-10.9485
▁추구	-10.9486
디는	-10.9487
▁입력	-10.9489
▁결정이	-10.9489
▁밝히며	-10.949
▁가택	-10.949
▁개설	-10.9491
▁농민	-10.9491
였	-10.9492
▁취소했다	-10.9494
▁지나치	-10.9498
▁라울	-10.9499
▁역대	-10.95
▁첫날	-10.9502
안전	-10.9509
▁선적	-10.9514
▁된다면	-10.9514
▁거주하	-10.9515
▁폴슨	-10.9516
▁복지	-10.9517
▁이민자들	-10.9519
▁구타	-10.952
▁쓰는	-10.9525
▁news	-10.9526
▁구호단체	-10.9528
▁탈레반과	-10.9529
▁여기서	-10.9531
▁시카고에서	-10.9531
▁약품	-10.9532
▁유명하다	-10.9538
받고	-10.954
▁가족들에게	-10.954
까지도	-10.9541
▁심화	-10.9543
▁상원에서	-10.9543
▁sk	-10.9544
▁조치로	-10.9546
▁요청한	-10.9547
▁김씨	-10.9548
▁틸	-10.9548
▁취하지	-10.9551
서비스	-10.9554
▁일시적	-10.9554
3000	-10.9555
▁결함	-10.9556
▁시작될	-10.9559
▁바닥에	-10.9561
이션	-10.9567
▁워터	-10.957
▁과정에	-10.9574
▁이른다	-10.9575
▁처분	-10.958
▁헤이	-10.9581
군은	-10.9585
▁투기	-10.9585
▁결승전	-10.9586
인치	-10.9586
▁중반	-10.9587
▁비평	-10.9591
▁상위	-10.9591
▁회원들	-10.9591
▁일어나고	-10.9596
▁샤리프는	-10.9602
▁전합니다	-10.9605
▁선박이	-10.9609
▁집회에	-10.9613
▁장기적	-10.9619
▁돌입	-10.9619
▁조직원	-10.9624
▁자녀들	-10.9635
▁재선	-10.9637
▁탐험	-10.9641
▁소속의	-10.9647
▁다수의	-10.965
05	-10.965
▁ge	-10.9657
▁의자	-10.9662
기금	-10.9667
▁부상자들	-10.967
62	-10.9672
▁자카르타	-10.9674
▁러시아와	-10.9674
▁형태로	-10.9674
▁우승자	-10.9677
▁종식	-10.9679
▁들어와	-10.9679
▁개최된	-10.9683
77	-10.9685
▁중단됐다	-10.9686
tion	-10.9688
▁파이	-10.9691
디스	-10.9695
▁남성과	-10.9696
▁급락	-10.97
▁thi	-10.9706
▁추락한	-10.9709
▁목적이	-10.9715
▁프라	-10.9717
▁경찰청	-10.9719
▁보좌관들	-10.9724
하였으며	-10.9729
치료	-10.9729
▁이어지	-10.9733
▁넘겨	-10.9747
ick	-10.9749
▁구제금융	-10.975
▁선원들	-10.9752
바르	-10.9755
꾼	-10.9756
죄	-10.9756
▁음료	-10.9756
fa	-10.9761
▁알바니아	-10.9761
▁court	-10.9763
▁머리카락	-10.9763
▁산타클로스	-10.9763
▁애니메이션	-10.9763
▁크로아티아	-10.9763
▁애틀랜타	-10.9763
▁칸다하르	-10.9763
▁식민지	-10.9763
▁맥케인	-10.9763
▁week	-10.9763
▁브루스	-10.9763
▁히드로	-10.9763
▁마사지	-10.9763
▁신용카드	-10.9763
2007.07	-10.9764
▁밝혔으나	-10.9764
▁적응	-10.9764
▁몸값	-10.9764
▁집필	-10.9765
▁군사작전	-10.9766
▁지역이	-10.9767
▁가죽	-10.9767
▁날이	-10.9768
▁새겨	-10.9768
▁대폭	-10.9769
▁마침	-10.977
▁장거리	-10.9771
▁추문	-10.9771
69	-10.9771
▁편안	-10.9772
▁대령	-10.9772
▁때문입니다	-10.9773
같이	-10.9773
▁소유권	-10.9774
▁모래	-10.9774
▁복수	-10.9775
▁나와즈	-10.9776
▁프로그램이	-10.9776
▁신병	-10.9776
▁불교	-10.9779
▁다이애나비	-10.978
▁코피	-10.978
▁칼라	-10.9781
▁주소	-10.9781
▁받아들였다	-10.9783
▁주주들	-10.9784
▁예선전	-10.9787
▁알렌	-10.9787
▁부리	-10.9788
▁자정	-10.979
▁여아	-10.9791
▁태우고	-10.9792
▁관점에서	-10.9792
79	-10.9794
▁예정되어	-10.9801
▁장기간	-10.9804
37	-10.9805
▁차원에서	-10.9807
▁시계	-10.9808
▁녹화	-10.9808
▁모았다	-10.9811
▁대우	-10.9813
죄로	-10.9814
▁특별히	-10.9815
▁조씨	-10.9818
▁주말에	-10.9819
▁참사	-10.9821
▁민주적	-10.9821
당했다	-10.9822
▁증언했다	-10.9826
▁제외하고	-10.9834
▁2007.12	-10.9835
▁발달	-10.9835
▁레이더	-10.9838
얀	-10.9841
▁예술가	-10.9844
▁가고	-10.9845
▁데비	-10.9845
▁인도주의적	-10.9845
▁그곳에	-10.9845
▁선출된	-10.9846
시즌	-10.985
▁같	-10.9851
▁클로	-10.9857
▁일으키는	-10.9863
▁권위	-10.9863
▁강화할	-10.9865
▁공무원들	-10.9866
▁정상들	-10.9866
▁부르는	-10.9868
점에	-10.9869
▁남아있	-10.9872
▁개발에	-10.9873
▁대회에	-10.9876
▁돈이	-10.9877
레즈	-10.9877
슬리	-10.9882
▁판결에	-10.9884
▁괴한	-10.9888
▁재판이	-10.9891
▁내리고	-10.9891
▁확신했다	-10.9892
▁후보들	-10.9892
▁달러로	-10.9896
▁제트	-10.9898
▁할지	-10.9899
▁정치적으로	-10.9907
▁특이	-10.9917
돼있다	-10.992
04	-10.9922
▁어린이들이	-10.9922
기때문에	-10.9923
▁중심부	-10.9926
▁투자자	-10.993
▁강화하고	-10.9931
▁180	-10.9932
베스	-10.9934
▁부인하고	-10.9935
▁확인하고	-10.9936
▁멜	-10.9936
▁효율적	-10.9938
▁갖기	-10.9946
▁내용에	-10.9949
인들에게	-10.9956
▁내게	-10.9957
선에	-10.9967
였지만	-10.9971
▁기울이	-10.9972
주전	-10.9978
▁평양에서	-10.9979
▁발표는	-10.998
베리	-10.9985
▁액	-10.9985
▁루이	-10.9987
▁he	-10.999
▁줄이는	-10.9993
▁흉	-10.9993
ance	-10.9994
겼	-10.9995
▁적극	-11.0003
▁이송됐다	-11.0005
▁한다면	-11.0012
ap	-11.0013
어져	-11.0016
▁피살	-11.0016
▁필립	-11.002
▁사람과	-11.0021
▁금연	-11.0022
현정	-11.0022
▁대답했다	-11.0023
▁cha	-11.0025
▁적자	-11.0031
▁재활	-11.0032
▁사회에	-11.0033
400	-11.004
▁제작된	-11.0042
사이	-11.0043
▁강행	-11.0046
▁이슬람교	-11.0046
중이다	-11.0049
▁세탁	-11.0051
시경	-11.0052
▁2008.12	-11.0056
▁securit	-11.0057
▁끊임없	-11.0057
▁땅에	-11.0057
▁떨어질	-11.0057
▁마케팅	-11.0057
▁뮌헨	-11.0057
▁베어스턴스	-11.0057
▁베탕쿠르	-11.0057
▁브리트니	-11.0057
▁비즈니스	-11.0057
▁썼다	-11.0057
▁아칸소	-11.0057
▁에르도간	-11.0057
▁오케스트라	-11.0057
▁타협	-11.0057
▁테러지원국	-11.0057
▁펭귄	-11.0057
▁풀려났다	-11.0057
▁부적절	-11.0057
▁캔자스	-11.0057
▁되돌아	-11.0057
▁맥도날드	-11.0057
▁소탕작전	-11.0057
2006.02	-11.0058
▁bank	-11.0058
▁나아가	-11.0058
▁호송	-11.0059
▁고릴라	-11.0059
▁개념	-11.0059
▁1988	-11.0059
▁조짐	-11.0059
2006.05	-11.0059
▁영광	-11.006
▁버튼	-11.0061
▁영감	-11.0063
▁prim	-11.0063
▁타결	-11.0063
▁남기	-11.0063
▁없애	-11.0064
최지	-11.0066
▁평소	-11.0067
▁서약	-11.0067
▁들어온	-11.0068
곳에서	-11.007
▁에는	-11.0072
▁식수	-11.0072
▁파문	-11.0074
▁가져다	-11.0075
▁재판에	-11.0076
▁줬다	-11.0077
▁ban	-11.0078
▁때마다	-11.0078
라며	-11.0078
▁연방준비제도이사회	-11.0079
▁의장이	-11.0081
▁포위	-11.0082
▁앞선	-11.0083
▁잡았다	-11.0084
▁공조	-11.0084
▁여유	-11.0084
▁입구	-11.0084
▁하산	-11.0086
▁취급	-11.0088
▁겪었다	-11.0088
▁버전	-11.0091
▁여야	-11.0092
▁저지르	-11.0092
▁적십자사	-11.0093
9000	-11.0093
▁미치지	-11.0095
▁느꼈다	-11.0095
▁유용	-11.0095
▁계기	-11.0096
▁여단	-11.0101
량의	-11.0103
▁가자지구에서	-11.0103
▁슛	-11.0105
▁살이	-11.0113
▁면접	-11.0118
▁청년	-11.0122
▁명령했다	-11.0123
▁명시	-11.0124
▁붕괴된	-11.0127
레나	-11.0133
▁입원했다	-11.0134
▁말하면서	-11.014
tra	-11.0141
솔	-11.0145
▁보호하고	-11.0146
협정	-11.0148
떼	-11.0148
▁경제학자들	-11.015
▁국회에	-11.0151
ze	-11.0154
▁세이	-11.0155
▁통신사	-11.0155
원으로	-11.0159
▁엘리	-11.0162
▁선장	-11.0164
▁건수	-11.0169
▁중심에	-11.0171
▁싶어한다	-11.0172
▁도주	-11.0172
▁프레	-11.0173
▁행사에서	-11.0176
▁실업	-11.0176
리어	-11.0179
▁여사와	-11.0185
▁죽었다	-11.0189
▁gu	-11.0191
바리	-11.0193
▁물었다	-11.0197
▁자금이	-11.0198
월드	-11.0199
▁파파라치	-11.02
▁te	-11.0201
▁손자	-11.0204
봐야	-11.0205
▁성지	-11.0207
되었지만	-11.0207
▁분쟁이	-11.0208
ian	-11.0209
▁당국과	-11.021
▁상의	-11.0211
▁주차	-11.0211
▁금년	-11.0212
▁유지하기	-11.0213
▁심사	-11.0215
▁오리	-11.0216
▁교전이	-11.022
▁라인	-11.022
▁안전에	-11.0223
▁파키스탄에	-11.0223
만으로	-11.0224
▁자행	-11.0226
원들이	-11.0229
▁0.5	-11.0231
▁제공하고	-11.0233
▁지도자들과	-11.0238
▁생산하는	-11.0241
나갈	-11.0244
▁방문객들	-11.0251
게임	-11.0251
▁시위자	-11.0252
▁독재	-11.0258
▁보도한	-11.0261
▁관광지	-11.0264
▁요청할	-11.0264
▁보였다고	-11.0266
▁열렸	-11.0268
어진	-11.027
▁가족에게	-11.0273
22	-11.0275
부의	-11.0277
▁했고	-11.028
▁확인된	-11.028
▁바닥	-11.0281
전쟁	-11.0285
▁지원하기	-11.0286
보고	-11.029
았다고	-11.0291
▁높아	-11.0293
▁파손됐다	-11.0297
▁신도	-11.0298
달간	-11.0301
세트에서	-11.0307
▁주당	-11.031
▁동맹국들	-11.0313
▁벌어졌	-11.0314
▁전체에	-11.0315
▁교육부	-11.0316
천명	-11.032
▁킨	-11.0321
▁인접	-11.0321
▁줄리	-11.0322
▁덕	-11.0324
▁인도네시아에서	-11.0331
▁소방	-11.0333
▁man	-11.0335
▁요구에	-11.0343
널	-11.0346
▁종합	-11.0349
▁데뷔	-11.0349
▁고무	-11.0351
▁오클라호마	-11.0352
렘	-11.0353
ure	-11.0353
▁프랑스와	-11.0357
섭	-11.0357
▁득표	-11.0359
딜	-11.036
겔	-11.036
눌	-11.036
▁골든글로브	-11.036
▁구호물품	-11.036
▁동유럽	-11.036
▁야스쿠니	-11.036
▁에스토니아	-11.036
▁유니세프	-11.036
▁일으켜	-11.036
▁좋게	-11.036
▁침팬지	-11.036
▁티셔츠	-11.036
▁항생제	-11.036
렁	-11.036
▁뉴욕타임스	-11.036
▁유조선	-11.036
▁다운로드	-11.036
▁트로피	-11.036
▁오렌지	-11.036
▁니케이	-11.036
▁첩보	-11.036
▁유적지	-11.036
▁덕분에	-11.036
▁혈액	-11.036
▁착취	-11.0361
▁크로커	-11.0361
▁바꿔	-11.0361
▁출범	-11.0361
▁양키스	-11.0361
▁kim	-11.0361
▁요새	-11.0361
▁운반	-11.0362
리를	-11.0362
▁명칭	-11.0362
▁city	-11.0362
▁저택	-11.0362
▁대략	-11.0362
▁하얀	-11.0362
▁wto	-11.0362
▁폭등	-11.0363
▁기술자	-11.0363
▁패리스	-11.0363
▁어두운	-11.0364
▁현지경찰	-11.0365
▁근교	-11.0365
▁2011	-11.0365
▁복권	-11.0366
▁풍선	-11.0366
2006.10	-11.0366
▁참모	-11.0366
▁입학	-11.0367
▁아이돌	-11.0368
▁입었으며	-11.0368
▁볼튼	-11.0369
▁거둔	-11.037
▁모르겠다	-11.037
▁상반기	-11.0371
▁지낸	-11.0372
▁추산했다	-11.0372
▁설문	-11.0372
▁제약	-11.0373
▁소란	-11.0374
▁분실	-11.0375
▁타이어	-11.0378
▁쏘	-11.0379
▁뒤집	-11.038
▁친척	-11.038
▁조속	-11.0381
▁영원	-11.0381
▁닷	-11.0383
▁제프리	-11.0383
▁부유	-11.0384
▁주장했지만	-11.0384
▁시일	-11.0386
▁시판	-11.0392
▁예상보다	-11.0393
▁묘지	-11.0395
▁기권	-11.0397
후보	-11.0398
ber	-11.0398
▁채권	-11.0399
▁미술	-11.0399
▁전염	-11.04
▁기술이	-11.0401
▁실어	-11.0402
▁과시	-11.0403
▁사용하기	-11.0405
▁you	-11.0406
▁제방	-11.0406
▁중령	-11.0407
있거나	-11.0407
워드	-11.0409
▁줄여	-11.0413
▁제일	-11.0414
28	-11.0417
▁산소	-11.0417
▁투표할	-11.0418
▁양성	-11.0419
▁폭격기	-11.042
▁2,000	-11.0423
▁클라	-11.0426
▁밝혔었	-11.0427
▁비만	-11.0434
ction	-11.0446
▁my	-11.0446
▁국회의원들	-11.0448
시까지	-11.0448
▁하더라도	-11.045
▁기자들이	-11.045
▁기록하며	-11.0452
생활	-11.0453
▁사임했다	-11.0456
해준	-11.0457
멘	-11.0459
light	-11.0462
사령관	-11.0463
▁실려	-11.0464
▁스텔	-11.0465
▁보내기	-11.0469
▁사랑하는	-11.0469
▁프레드	-11.0469
▁결승	-11.0475
▁증인	-11.0479
▁과장	-11.0479
▁그레	-11.0481
▁기리	-11.0486
▁올리고	-11.0487
▁장착	-11.0495
▁지구에서	-11.0495
구의	-11.0501
▁끄	-11.0502
머리	-11.0503
▁보낸다	-11.0505
▁세기	-11.0508
▁가기	-11.0513
▁서울에	-11.0514
▁구간	-11.0521
▁정보국	-11.0522
▁몽	-11.0523
▁환경에	-11.0525
지구	-11.0529
▁흥미	-11.0529
▁작성한	-11.0532
▁이해할	-11.0539
▁사진들	-11.0539
부분	-11.054
▁아시	-11.054
▁들어가는	-11.0542
▁조사는	-11.0546
▁지속되	-11.0546
대에서	-11.0551
▁번지	-11.0559
▁열정	-11.0561
▁차가	-11.0562
65	-11.0563
까요	-11.0566
▁결의안에	-11.0569
▁부문에서	-11.0577
▁나타난	-11.058
▁전설	-11.0584
율이	-11.0594
권이	-11.0597
▁83	-11.0597
▁자신에	-11.0597
▁생존자들	-11.0597
lee	-11.0601
▁빼	-11.0604
▁이래로	-11.0606
▁지방의	-11.0615
▁추락했다	-11.0616
▁86	-11.0623
▁끝나는	-11.0628
념	-11.063
to	-11.0632
만년	-11.0633
▁사용한다	-11.0638
▁사육	-11.0638
럼	-11.0642
▁클레	-11.0646
▁나가는	-11.065
58	-11.0654
받아	-11.0655
▁생성	-11.0656
▁미시간	-11.0658
▁아바	-11.0659
▁피닉스	-11.0666
be	-11.0667
자이자	-11.0672
틱	-11.0672
밍	-11.0673
▁200806.0	-11.0673
▁afp	-11.0673
▁london	-11.0673
▁nfl	-11.0673
▁wfp	-11.0673
▁걷는	-11.0673
▁국회의사당	-11.0673
▁기습	-11.0673
▁로스앤젤레스	-11.0673
▁베이루트	-11.0673
▁불렀다	-11.0673
▁상관없이	-11.0673
▁스튜어트	-11.0673
▁이르기까지	-11.0673
▁클루니	-11.0673
▁포괄적	-11.0673
▁흰색	-11.0673
▁마라도나	-11.0673
▁되풀이	-11.0673
▁셰이크	-11.0673
▁린제이	-11.0673
▁교과서	-11.0673
▁lpga	-11.0673
▁모로코	-11.0673
▁정해지지	-11.0673
▁모바일	-11.0673
▁잔혹	-11.0673
▁취득	-11.0673
▁여자아이	-11.0673
▁진흙	-11.0673
▁흐름	-11.0673
▁칭찬	-11.0673
▁페이스북	-11.0673
▁표결	-11.0673
▁침범	-11.0673
▁세인트	-11.0673
▁감시단	-11.0673
2006.06	-11.0674
▁닉슨	-11.0674
▁호킹	-11.0674
▁가속화	-11.0674
▁같습니다	-11.0675
▁연극	-11.0675
▁모터	-11.0675
▁워너	-11.0675
▁스카이	-11.0676
▁평화협상	-11.0676
▁점프하	-11.0678
▁추출	-11.0679
former	-11.0681
▁유행	-11.0682
▁회부	-11.0682
▁받았지만	-11.0683
▁현행	-11.0683
▁식물	-11.0684
▁일고	-11.0684
▁전대통령	-11.0684
▁없었던	-11.0685
▁줄이고	-11.0686
▁극단주의자들	-11.0687
▁보호하는	-11.069
▁가자지구에	-11.0693
▁휘	-11.0695
▁동전	-11.0697
▁호화	-11.0697
▁시위로	-11.0697
▁우리베	-11.0697
▁가축	-11.0698
▁격리	-11.0698
▁참여하는	-11.07
▁설치된	-11.0701
▁인체	-11.0701
▁알려주	-11.0701
▁inter	-11.0701
▁참석해	-11.0701
▁인계	-11.0702
▁정오	-11.0703
통신은	-11.0703
▁기후변화	-11.0704
▁단기	-11.0704
▁머리에	-11.0705
▁참여하지	-11.0706
▁렌	-11.0706
▁비유	-11.0709
▁시달리고	-11.0709
▁여객기는	-11.0711
▁디스	-11.0711
▁지문	-11.0711
져야	-11.0713
▁이룩	-11.0714
▁논의했다	-11.0717
▁확실하지	-11.0717
▁아이티	-11.0719
▁전략적	-11.0723
▁일반적인	-11.0724
▁나체	-11.0725
▁자크	-11.0727
시켜야	-11.0728
▁반미	-11.0729
▁연방수사국	-11.0731
▁실력	-11.0731
▁성공회	-11.0732
▁life	-11.0737
▁소방관	-11.0739
▁우주인	-11.074
투어	-11.0744
▁의원들에게	-11.0745
▁지수가	-11.0745
▁그라운드	-11.0746
▁바다로	-11.0746
▁인기가	-11.0747
요원	-11.0748
▁지르	-11.0748
▁거주지	-11.0755
▁말로	-11.0756
▁침	-11.0759
▁사제	-11.0763
▁비난한	-11.0765
▁이어질	-11.0768
▁불화	-11.0771
▁해외에서	-11.0772
번에	-11.0774
펜	-11.0775
▁수용할	-11.0778
▁불평	-11.0779
▁드립니다	-11.0779
▁노력에	-11.0786
돈	-11.0786
▁변호사들	-11.0788
▁중상	-11.079
▁광부들	-11.0791
이기도	-11.0793
개혁	-11.0793
▁단계에	-11.0794
▁전범	-11.0795
76	-11.0799
보고서	-11.0799
호프	-11.0799
업체들	-11.0801
▁뉴욕에	-11.0801
버릴	-11.0802
▁ga	-11.0803
▁미소	-11.0805
35	-11.0806
▁닐	-11.0806
▁비가	-11.0809
▁학위	-11.0812
▁정신과	-11.0815
▁승자	-11.083
▁얻는	-11.0831
36	-11.0831
▁선정됐다	-11.0832
▁납	-11.0833
▁마을에	-11.0833
▁부자	-11.0833
ls	-11.0836
국민	-11.0836
원들은	-11.0843
이었고	-11.0846
느냐	-11.0855
통이	-11.0862
▁아내와	-11.0872
▁파일	-11.0873
▁지지도	-11.0873
구역	-11.0874
▁발생했	-11.0878
체제	-11.0887
▁떼	-11.089
▁혼란에	-11.0901
▁학생들과	-11.0903
▁어머니와	-11.0904
만명에	-11.0907
레이크	-11.0909
▁개최되	-11.0917
▁국무장관이	-11.0918
▁pi	-11.092
▁선거전	-11.092
▁주가가	-11.0924
▁힐튼이	-11.0928
▁선언한	-11.093
▁국민이	-11.0934
준다	-11.0934
▁서명했다	-11.094
▁등급	-11.094
▁위협했다	-11.094
ight	-11.0941
▁중단하고	-11.0941
▁패한	-11.0941
▁부토는	-11.0942
▁지니	-11.0944
ile	-11.0955
▁모스	-11.0955
▁후보들은	-11.0956
▁남편과	-11.0958
▁미만	-11.096
버린	-11.0962
▁통일	-11.0966
▁당원	-11.0966
21	-11.0968
리오	-11.0974
▁차례로	-11.0976
하자는	-11.0977
▁경영자	-11.0978
▁중계	-11.0982
▁루이지애나	-11.0983
퀴	-11.0984
▁부통령이	-11.0985
▁확고	-11.0985
롬	-11.0985
▁본국	-11.0986
▁참석하기	-11.099
▁고수	-11.0992
▁참가했다	-11.0993
▁풀려	-11.0994
▁되었습니다	-11.0995
팩	-11.0995
▁사업가	-11.0995
▁1981	-11.0995
▁url	-11.0995
▁광우병	-11.0995
▁뉴캐슬	-11.0995
▁당나귀	-11.0995
▁매머드	-11.0995
▁브리티시	-11.0995
▁싶은	-11.0995
▁왕복선	-11.0995
▁이르렀다	-11.0995
▁집무실	-11.0995
▁카자흐스탄	-11.0995
잎	-11.0995
▁몸무게	-11.0995
▁제니퍼	-11.0995
마누엘	-11.0995
▁글래스고	-11.0995
▁대주교	-11.0995
▁국가주석	-11.0995
▁세비야	-11.0995
▁예언자	-11.0995
▁영부인	-11.0995
▁지중해	-11.0995
▁중산층	-11.0995
▁효력	-11.0995
▁퇴치	-11.0995
▁쇼핑몰	-11.0996
▁맞붙	-11.0996
▁살아가	-11.0996
▁둘째	-11.0996
▁힌두교	-11.0996
▁벌어들	-11.0996
▁연휴	-11.0996
▁아마존	-11.0996
▁무너져	-11.0996
▁있었는지	-11.0996
2007.05	-11.0996
▁공군기지	-11.0997
▁농담	-11.0997
▁높아졌다	-11.0997
book	-11.0997
▁레논	-11.0997
▁허블	-11.0998
▁취약	-11.0998
▁할아버지	-11.0998
▁선데이	-11.0998
▁몰래	-11.0998
▁900	-11.0998
▁유혈	-11.0999
▁밤새	-11.0999
▁헌신	-11.0999
▁may	-11.1001
▁오픈에서	-11.1001
▁종양	-11.1001
▁예배	-11.1002
▁공백	-11.1003
▁피닉스호	-11.1003
▁감량	-11.1005
▁기름	-11.1005
▁무너진	-11.1006
▁이례적	-11.1007
▁계열사	-11.1007
▁제패	-11.1007
▁책정	-11.1008
▁우연	-11.1008
▁코너	-11.1008
▁병역	-11.1009
▁면적	-11.101
▁난동	-11.1011
▁부른	-11.1011
▁정체	-11.1011
▁지속될	-11.1012
▁off	-11.1017
▁거론	-11.1017
▁버진	-11.1017
▁work	-11.1017
▁사법부	-11.1017
▁폐기물	-11.1017
▁경제의	-11.1018
▁강연	-11.1018
▁페르	-11.1018
▁황우석	-11.102
▁재발	-11.1021
▁성경	-11.1021
mi	-11.1025
▁정상회의	-11.1026
▁방치	-11.1027
여부	-11.1028
▁가결	-11.1028
▁감원	-11.1029
▁공학	-11.1029
▁천문학자들	-11.103
▁im	-11.103
▁전송	-11.1034
95	-11.1037
▁드는	-11.1037
▁전례	-11.1038
▁나란	-11.1039
▁제안한	-11.1041
11	-11.1043
▁채우	-11.1045
▁대조	-11.1047
▁비교해	-11.1047
▁air	-11.1048
ors	-11.1048
▁지키기	-11.1049
▁광대	-11.1049
험	-11.105
▁가져	-11.105
▁기간에	-11.1051
▁1200	-11.1053
베키	-11.1056
▁라이프	-11.1058
▁내정자	-11.1063
▁넣어	-11.1066
ster	-11.1067
주기	-11.1068
son	-11.107
▁경찰에따르면	-11.107
▁공부	-11.1071
▁무장대원들	-11.1076
▁수십억	-11.1078
▁시작되는	-11.1078
▁청소년들	-11.1079
31	-11.1082
▁걸었다	-11.1083
▁리서치	-11.1083
직원	-11.109
▁발리	-11.1091
▁하트	-11.1094
티아	-11.1095
▁99	-11.1095
▁만료	-11.1096
▁2009.01	-11.1098
▁조사하기	-11.11
ros	-11.1101
기위해	-11.1102
▁구상	-11.1103
▁가서	-11.1104
▁엑스	-11.1105
회의에서	-11.1106
▁우드	-11.1107
▁한쪽	-11.1111
레오	-11.1116
▁주교	-11.112
▁헤어	-11.1123
▁빙	-11.1127
▁돌리	-11.1127
▁취임한	-11.1129
사단	-11.1129
▁공격수	-11.1132
nd	-11.1132
▁호위	-11.1136
▁증진	-11.1137
▁시점에서	-11.1139
▁모스크바에서	-11.1139
군데	-11.1146
달라	-11.1147
▁공세	-11.1147
▁팔려	-11.115
24	-11.1154
ni	-11.1156
첨	-11.1157
자들에	-11.1158
▁총격으로	-11.1158
▁ak	-11.1161
▁노스	-11.1161
▁문자	-11.1161
▁출전한	-11.1162
학년	-11.1162
▁크고	-11.1169
▁경기도	-11.1172
▁가정에	-11.1179
▁있었을	-11.1182
자료	-11.1183
전선	-11.1186
었	-11.1188
▁관계자들과	-11.1196
▁관리자	-11.1206
▁확보했다	-11.1207
▁시스템이	-11.1208
▁주인이	-11.1208
rs	-11.1213
대는	-11.1217
▁의혹에	-11.1217
▁금지하고	-11.1224
인데	-11.1226
▁연기했다	-11.1226
▁모술	-11.123
▁모욕	-11.123
▁강사	-11.1236
▁했을	-11.124
▁기소했다	-11.1241
▁시작되었다	-11.1242
▁du	-11.1242
▁새해	-11.1243
▁저가	-11.1245
ell	-11.1245
▁구하기	-11.1245
▁측면	-11.1255
▁국회의	-11.1255
line	-11.1255
ba	-11.1255
▁fr	-11.1257
▁런던에	-11.1259
▁지지율이	-11.1269
▁관리인	-11.1271
▁비행기에	-11.1272
▁수비	-11.1273
▁소식통들	-11.1275
▁불가피	-11.1278
바로	-11.1283
문화	-11.1284
▁산책	-11.1284
aw	-11.1287
▁모르	-11.1288
▁조사단	-11.1289
di	-11.129
부문	-11.1294
▁오해	-11.1297
자회담에	-11.1301
▁균	-11.1301
▁펜실베니아	-11.1305
▁꺼	-11.1307
▁위스콘신	-11.1307
▁판결했다	-11.1309
▁짜	-11.131
▁당의	-11.131
▁총선에	-11.1311
▁오바마를	-11.1318
▁장관들	-11.1319
▁메릴랜드	-11.1321
▁플래	-11.1321
▁들었	-11.1322
뒀	-11.1325
▁엄	-11.1326
덩	-11.1328
▁association	-11.1328
▁group	-11.1328
▁났다	-11.1328
▁도널드	-11.1328
▁벤자민	-11.1328
▁상파울루	-11.1328
▁세계보건기구	-11.1328
▁우주정거장	-11.1328
▁잃지	-11.1328
▁촛불	-11.1328
▁커뮤니티	-11.1328
▁그루지아	-11.1328
▁안락사	-11.1328
▁부작용	-11.1328
▁피아노	-11.1328
▁닥터	-11.1329
▁자서전	-11.1329
▁호르몬	-11.1329
▁김선일	-11.1329
▁퇴장	-11.1329
▁불쾌	-11.1329
▁수하물	-11.1329
▁office	-11.1329
▁침투	-11.1329
▁여배우	-11.1329
▁지뢰	-11.133
▁양육권	-11.133
▁조셉	-11.133
▁두뇌	-11.133
▁쿠르드족	-11.1331
▁인디아나	-11.1331
▁임박	-11.1331
▁받았으나	-11.1333
▁연방법원	-11.1333
▁해킹	-11.1333
▁토양	-11.1334
▁아끼	-11.1334
▁재벌	-11.1334
▁해명	-11.1334
▁침수	-11.1334
▁언제든	-11.1334
▁국가안보	-11.1334
▁control	-11.1335
▁수비수	-11.1335
▁정보기관	-11.1336
▁유예	-11.1337
학회	-11.1337
▁지닌	-11.1337
▁토론토	-11.1337
▁조종	-11.1337
▁유대	-11.1338
해왔	-11.1338
▁베스트	-11.1339
▁차림	-11.134
▁후퇴	-11.1341
▁승객들이	-11.1341
▁약혼	-11.1342
▁도시로	-11.1344
▁비준	-11.1346
▁닭	-11.1347
▁구단주	-11.1347
데르	-11.1348
▁문신	-11.1348
▁결장	-11.1349
▁교량	-11.1349
▁활기	-11.1349
▁기초	-11.135
▁수만명	-11.1352
▁구경	-11.1352
▁필리스	-11.1352
▁구형	-11.1352
▁감면	-11.1354
▁그럼	-11.1355
▁일축했다	-11.1355
▁인명	-11.1359
▁요트	-11.1359
▁get	-11.1359
▁지하드	-11.1361
▁확인되	-11.1364
▁시장과	-11.1366
▁팜	-11.1369
▁자선	-11.1371
▁확실하다	-11.1373
나라	-11.1375
▁비방	-11.1375
▁노동부	-11.1378
해져	-11.138
▁에디	-11.138
호를	-11.1381
▁누르고	-11.1381
▁상원의원에	-11.1382
점에서	-11.1383
ai	-11.1384
▁제공한다	-11.1384
▁고려해	-11.1388
▁발부	-11.1391
nt	-11.1393
▁원자력	-11.1397
▁협상단	-11.1399
▁주장이	-11.1399
▁경찰서에	-11.1399
▁시설에	-11.1401
▁만나기	-11.1401
▁인도에서	-11.1402
▁듀	-11.1402
▁하도록	-11.1409
▁장악하	-11.1412
▁벌어지고	-11.1413
▁범죄에	-11.1414
▁숨기	-11.1418
세스	-11.142
▁사회주의	-11.142
▁세관	-11.1425
▁후보들이	-11.1425
▁아이들과	-11.1428
▁엠	-11.1434
▁끈	-11.1435
▁이베이	-11.1439
▁기반으로	-11.144
▁시작해	-11.1441
▁추진하고	-11.1446
▁확인해	-11.1447
86	-11.1448
일째	-11.1448
답	-11.1453
▁알았다	-11.1454
년에서	-11.1456
▁과도	-11.1457
2006.08	-11.1459
웬	-11.146
컨	-11.1461
▁open	-11.1461
힘	-11.1463
페이지	-11.1464
▁들리	-11.147
▁관중	-11.1475
▁이브	-11.1475
▁명에	-11.1477
▁군복	-11.1479
▁탈출했다	-11.1483
▁군부대	-11.1484
26	-11.1485
▁유입	-11.149
41	-11.1497
▁카라	-11.15
▁착용하	-11.15
▁과학적	-11.1502
적이며	-11.1503
▁야후는	-11.1503
자들과	-11.1507
▁포기했다	-11.1507
▁밝혀내	-11.1508
▁대사가	-11.151
법안	-11.1513
▁물리치	-11.1514
▁착	-11.1517
층에	-11.1529
▁포함된다	-11.1531
▁기다려	-11.1535
no	-11.1536
▁사이트에	-11.1537
▁350	-11.1541
▁표현했다	-11.1543
▁정해	-11.1544
▁그때	-11.1545
▁언	-11.1548
▁car	-11.1551
ny	-11.1554
께	-11.1562
▁동물을	-11.1571
▁북부지역	-11.1572
도르	-11.1572
천억	-11.1573
▁신문에	-11.1574
▁제공해	-11.1579
ext	-11.1579
▁떨어졌	-11.1581
▁남부의	-11.1581
▁독일에서	-11.1582
▁내장	-11.1585
리노	-11.1587
▁것들	-11.1589
직에서	-11.1597
전문가	-11.1599
▁후송	-11.1601
▁아이들에게	-11.1601
▁기한	-11.1603
▁중에서	-11.1607
▁둔화	-11.1608
▁컵	-11.1609
▁감옥	-11.1617
▁시위대와	-11.162
mb	-11.1621
렌스	-11.1624
▁중국인	-11.1624
아나	-11.1624
▁산악	-11.1627
▁sa	-11.1629
▁보호할	-11.1635
▁미국에서는	-11.1638
▁프로그램은	-11.1642
▁국정원	-11.1643
▁지냈	-11.1648
▁풍경	-11.165
▁실은	-11.1652
▁벽에	-11.1653
▁아담	-11.1659
▁매사추세츠	-11.1664
▁에스	-11.1666
세에서	-11.1666
이상	-11.1668
튜	-11.1672
즘	-11.1673
▁모니터	-11.1673
▁치솟	-11.1673
7,000	-11.1673
▁police	-11.1673
▁냄새	-11.1673
▁마흐무드	-11.1673
▁매코맥	-11.1673
▁맥코맥	-11.1673
▁메사추세츠	-11.1673
▁미드필더	-11.1673
▁박테리아	-11.1673
▁뱅크	-11.1673
▁블룸버그	-11.1673
▁슈워제네거	-11.1673
▁스피처	-11.1673
▁악영향	-11.1673
▁알자와히리	-11.1673
▁암스트롱	-11.1673
▁오징어	-11.1673
▁오키나와	-11.1673
▁이스탄불	-11.1673
▁재정경제부	-11.1673
▁캠벨	-11.1673
▁케르비엘	-11.1673
▁탔다	-11.1673
▁프로듀서	-11.1673
▁수하르토	-11.1673
▁친선경기	-11.1673
▁그루지야	-11.1673
▁동계올림픽	-11.1673
▁바쿠바	-11.1673
▁흥행	-11.1673
▁아스널	-11.1673
▁research	-11.1673
▁도덕적	-11.1673
▁death	-11.1673
▁8226	-11.1674
▁중서부	-11.1674
▁방사능	-11.1674
▁속옷	-11.1674
▁무하메드	-11.1674
▁종신형	-11.1674
▁계곡	-11.1674
▁타이완	-11.1674
▁면밀	-11.1675
▁생겨	-11.1675
▁태양열	-11.1675
▁녹색	-11.1675
▁움직임에	-11.1675
2008.06	-11.1675
▁대피령	-11.1675
▁환경보호	-11.1676
▁1953	-11.1676
▁아닐	-11.1676
▁요격	-11.1677
▁불안감	-11.1677
▁몸집	-11.1678
2006.12	-11.1678
▁같았다	-11.1678
▁항복	-11.1678
▁만찬	-11.1679
▁적대적	-11.1679
▁도망	-11.1679
▁맹세	-11.1679
▁총알	-11.1679
▁품질	-11.168
▁787	-11.168
▁피셔	-11.168
▁아프가니스탄에	-11.168
▁성행위	-11.168
지오	-11.1681
▁화석	-11.1681
▁쓰여	-11.1681
▁외교관계	-11.1682
▁존드로	-11.1682
▁교토	-11.1682
▁일방적	-11.1683
▁격려	-11.1683
▁참전	-11.1684
▁원격	-11.1684
▁지침	-11.1684
스틴	-11.1685
▁배제하지	-11.1686
▁곡물	-11.1686
▁얼리	-11.169
▁용서	-11.169
▁정통	-11.169
uk	-11.1691
▁시범	-11.1691
▁인정한	-11.1691
▁아랍에미리트	-11.1692
자회담에서	-11.1692
▁크리스티나	-11.1692
버렸	-11.1693
▁홈페이지에	-11.1693
▁여파로	-11.1694
▁윤리	-11.1695
▁후보에게	-11.1696
▁산악지역	-11.1697
방법	-11.1698
▁사원에서	-11.1698
몬드	-11.17
▁제트기	-11.1703
▁곤	-11.1708
▁개조	-11.1709
▁가르치	-11.1711
천억원	-11.1711
▁대학살	-11.1713
▁혼다	-11.1713
▁승무원들	-11.1713
▁리타	-11.1713
▁부장관	-11.1714
▁크라우	-11.1715
▁붐	-11.1715
▁빵	-11.1715
▁필립스	-11.1717
▁아카데미상	-11.1719
▁일상적	-11.172
▁급진	-11.1721
▁구제안	-11.1723
일에도	-11.1724
▁취소됐다	-11.1728
하르	-11.1729
공항	-11.173
▁3,000	-11.173
▁확인하는	-11.1731
▁운하	-11.1731
▁감옥에	-11.1731
▁포기하지	-11.1732
▁말했지만	-11.1735
▁동영상에	-11.1736
▁상아	-11.1737
▁남았다	-11.1737
▁생겼다	-11.1737
▁가난	-11.1739
이면	-11.1742
▁단서	-11.1742
▁장악한	-11.1742
▁문제점	-11.1745
단이	-11.1746
▁향했다	-11.1749
메르	-11.1751
▁빗	-11.1753
▁팬들에게	-11.1755
▁fire	-11.1756
▁결의	-11.1758
▁강조하고	-11.176
67	-11.1763
▁부진	-11.1763
▁캐리	-11.1764
만여	-11.1766
▁통로	-11.1766
▁선고받	-11.1767
▁정책이	-11.1774
▁춤	-11.1775
▁집안	-11.1778
▁조치에	-11.1778
▁익	-11.1778
▁지표	-11.1779
▁칼로	-11.1782
▁운동가	-11.1785
▁촉구하	-11.1788
▁임원	-11.1789
89	-11.1789
램	-11.1792
전문	-11.1796
아누	-11.1797
우주	-11.1798
56	-11.1801
ger	-11.1805
짐	-11.1812
굴	-11.1815
비오	-11.1816
빛	-11.1818
▁미친	-11.1819
기와	-11.1821
▁돌보	-11.1824
▁반군과	-11.1827
▁진행됐다	-11.1827
등급	-11.1828
조정	-11.1828
ner	-11.1834
pp	-11.1835
▁미트	-11.1838
▁차량은	-11.1845
▁신의	-11.1855
▁환영했다	-11.1864
▁금지하는	-11.1872
▁실직	-11.1874
▁가려	-11.1875
▁국무	-11.1877
▁점이	-11.1879
▁지도자로	-11.1879
▁강진	-11.1882
▁공원에서	-11.1884
▁양측의	-11.1884
▁관료	-11.1885
수단	-11.1895
▁장소로	-11.1897
▁듯한	-11.1907
▁부상당	-11.1908
▁로라	-11.1909
▁목격한	-11.1912
▁손님	-11.1913
▁모의	-11.1917
▁막고	-11.1922
차이	-11.1924
▁파손되	-11.1925
▁경제와	-11.1926
▁떨어지는	-11.1926
▁기숙사	-11.1928
29	-11.1937
▁2008.11	-11.1939
▁건물에서	-11.1945
▁얼음이	-11.1947
리언	-11.1956
▁일으켰	-11.1958
▁부근에	-11.1962
▁주지사와	-11.1963
ted	-11.1963
▁달아	-11.1964
▁반대한다	-11.1966
▁79	-11.1966
왔지만	-11.1967
▁미하	-11.197
▁면에서	-11.1972
▁백악관에	-11.1975
▁폰	-11.1976
▁총리로	-11.198
▁was	-11.198
▁걸려있	-11.198
▁였다	-11.1981
▁광장에	-11.1982
▁박탈	-11.1991
▁관광객들은	-11.1991
▁앙	-11.1992
▁법정에	-11.1997
▁연령	-11.1998
건물	-11.2
▁반대했다	-11.2002
▁배급	-11.2004
▁2005.1	-11.2005
▁국왕이	-11.2007
▁93	-11.2009
▁동일	-11.2012
▁오를	-11.2013
▁89	-11.2013
▁스탠	-11.2017
▁시에	-11.2021
▁오고	-11.2025
픈	-11.2025
▁사무실에서	-11.2027
디어	-11.2028
oo	-11.2029
▁chin	-11.203
▁bmw	-11.203
▁economic	-11.203
▁united	-11.203
▁구스마오	-11.203
▁놀랐다	-11.203
▁뉴멕시코	-11.203
▁돕고	-11.203
▁만장일치	-11.203
▁모하마드	-11.203
▁사형집행	-11.203
▁세실리아	-11.203
▁승용차	-11.203
▁실업수당	-11.203
▁않았을	-11.203
▁자메이카	-11.203
▁캥거루	-11.203
▁크누트	-11.203
▁클리블랜드	-11.203
▁탈라바니	-11.203
▁펼칠	-11.203
▁피추시킨	-11.203
긋	-11.203
▁market	-11.203
▁애틀란타	-11.203
▁캠퍼스	-11.203
▁김계관	-11.203
▁깃발	-11.203
▁북동쪽	-11.203
▁비영리	-11.203
▁냉동	-11.203
▁빈민가	-11.2031
▁북서쪽	-11.2031
▁퍼트레이어스	-11.2031
▁사마라	-11.2031
▁벨몬트	-11.2031
▁월드시리즈	-11.2031
▁issue	-11.2031
▁said	-11.2031
▁미망인	-11.2031
▁러셀	-11.2031
▁down	-11.2031
▁노왁	-11.2031
▁유효	-11.2032
▁영국으로	-11.2032
▁구조조정	-11.2032
▁염두	-11.2032
▁공략	-11.2032
▁face	-11.2032
▁펠리	-11.2032
▁무엇인지	-11.2032
▁메뉴	-11.2032
▁평범	-11.2033
2006.07	-11.2033
▁완공	-11.2033
▁격추	-11.2033
▁외교정책	-11.2033
▁간섭	-11.2033
▁건립	-11.2034
2006.11	-11.2034
▁밀림	-11.2034
▁전염병	-11.2034
▁악재	-11.2034
▁페리노	-11.2034
▁want	-11.2034
▁감추	-11.2034
▁eta	-11.2035
▁국영방송	-11.2035
▁교황청	-11.2035
▁왔습니다	-11.2035
▁주치의	-11.2035
▁세균	-11.2035
▁탄약	-11.2035
▁방북	-11.2035
▁올랐으며	-11.2035
▁행방	-11.2036
▁제이미	-11.2036
▁머피	-11.2036
▁제라드	-11.2037
▁야심	-11.2038
▁발목	-11.2038
▁안겨	-11.2039
▁타입	-11.2039
▁국토	-11.2039
▁피플	-11.2039
▁보석금	-11.2039
roll	-11.204
▁종파	-11.204
▁메달	-11.204
▁번영	-11.204
▁장관급	-11.2042
▁폭풍우	-11.2043
▁서버	-11.2046
놨다	-11.2047
▁지연되	-11.2047
▁포착	-11.2048
▁보상금	-11.2049
▁중단하라	-11.2049
▁것이냐	-11.2049
▁납치범들	-11.2052
▁대피소	-11.2052
▁임명된	-11.2052
▁유포	-11.2056
▁측에	-11.2056
▁멈	-11.2057
▁터미널	-11.2058
▁전반적으로	-11.2058
▁안심	-11.2059
▁변함	-11.206
리나	-11.2061
▁않자	-11.2063
▁최상	-11.2064
▁차고	-11.2065
▁속한	-11.2066
▁상원의원직	-11.2066
▁편집자	-11.2066
▁지질	-11.2067
▁공개되지	-11.2067
▁자리잡고	-11.2068
▁순찰대	-11.2069
▁교회에서	-11.2073
▁2007.10	-11.2074
▁무시하고	-11.2074
▁기내	-11.2075
▁제인	-11.2078
▁콩	-11.2079
▁힐러리는	-11.2079
해진다	-11.2083
▁맹	-11.2083
▁대도시	-11.2085
세에	-11.2087
▁준장은	-11.2087
▁안건	-11.2087
일정	-11.209
▁유아	-11.2092
▁갖는다	-11.2093
43	-11.2093
있으며	-11.21
▁하나이다	-11.2101
▁모르고	-11.2102
▁제품에	-11.2104
▁대변	-11.2105
▁일원	-11.2109
▁그쳤다	-11.2109
▁반도	-11.2111
▁무장괴한	-11.2112
▁드러	-11.2114
▁지속된	-11.2114
▁올리는	-11.2115
▁만든다	-11.2115
▁흐르	-11.2116
▁연관된	-11.2116
▁브라	-11.2118
▁많지	-11.212
▁내로	-11.212
오르	-11.2122
▁상승으로	-11.2124
▁아버지와	-11.2125
▁임무는	-11.2128
▁민주당과	-11.2129
▁일할	-11.2131
▁si	-11.2132
▁딜러	-11.2135
▁미치	-11.2136
▁카페인	-11.2136
시키지	-11.2139
▁매트	-11.2139
▁들어있는	-11.214
살인	-11.2141
▁1800	-11.2142
▁칩	-11.2144
▁보여주기	-11.2146
▁물리	-11.215
▁큐	-11.2152
▁도시에	-11.2156
▁고고학자들	-11.2163
▁전하며	-11.2167
▁어려워	-11.2179
▁묘	-11.2179
▁마주	-11.2181
휴	-11.2184
▁환영한다	-11.2185
셰	-11.2187
풀	-11.2188
▁든다	-11.219
▁불안한	-11.2194
▁페이스	-11.2194
환경	-11.2196
▁전당	-11.2197
것을	-11.2198
▁릭	-11.2198
▁92	-11.2203
어졌다	-11.2204
주택	-11.2204
▁방한	-11.2208
사람	-11.2208
▁치고	-11.221
▁것이지만	-11.2211
▁기자들과	-11.2218
연구원	-11.2218
▁전달한	-11.2228
▁피해지역	-11.2228
회에서	-11.2231
▁핀	-11.2231
ite	-11.2233
단체가	-11.2234
▁국민에게	-11.2237
▁범죄자들	-11.224
▁국가들과	-11.224
▁제조사	-11.2241
▁fc	-11.2242
▁지역이다	-11.2243
병력	-11.2247
▁흔적	-11.2248
▁램	-11.225
▁개최지	-11.2252
▁당장	-11.2257
▁북한에서	-11.2259
처리	-11.2261
▁목소리로	-11.2262
▁기어	-11.2262
▁소유자	-11.2264
▁다음과	-11.2265
▁란	-11.2272
▁비극적	-11.2273
엑	-11.2276
▁열려	-11.2276
▁위에서	-11.228
▁갑작스	-11.2283
▁그날	-11.2284
▁ka	-11.2289
이라도	-11.2291
되게	-11.2293
▁블로그	-11.2295
▁예상되는	-11.2299
만달러를	-11.2305
▁무엇이	-11.2308
전략	-11.2312
군과	-11.2313
▁오지	-11.2316
▁mu	-11.2317
▁최대한	-11.232
▁전설적	-11.2324
▁시간에	-11.2327
▁줄기	-11.2333
si	-11.2335
▁감독상	-11.2336
▁부탁	-11.2338
▁거치	-11.2339
▁8000	-11.2339
▁신고했다	-11.2346
▁진행할	-11.2349
혐의로	-11.235
시기	-11.2357
어지고	-11.2364
▁시리아와	-11.2366
▁미화	-11.2379
▁확인한	-11.2383
ail	-11.2385
▁당연	-11.2386
▁개헌	-11.2387
▁110	-11.2387
▁케이	-11.2389
▁콜린	-11.2391
줘	-11.2393
▁코스피	-11.2393
▁델타	-11.2394
만여명	-11.2396
▁비공식	-11.2397
17	-11.2399
▁화염	-11.24
삭	-11.24
▁머무	-11.24
▁내셔널	-11.2401
▁chief	-11.2401
▁consumer	-11.2401
▁general	-11.2401
▁넘어섰다	-11.2401
▁늘어났다	-11.2401
▁무책임	-11.2401
▁색깔	-11.2401
▁습관	-11.2401
▁에탄올	-11.2401
▁여동생	-11.2401
▁올바른	-11.2401
▁200806.1	-11.2401
▁peace	-11.2401
▁꿈이	-11.2401
▁댈러스	-11.2401
▁따돌리	-11.2401
▁브로드웨이	-11.2401
▁없기	-11.2401
▁웨스트버지니아	-11.2401
▁초등학교	-11.2401
▁흡수	-11.2401
믹	-11.2401
▁change	-11.2401
▁최우수	-11.2401
▁검찰총장	-11.2401
▁이벤트	-11.2401
▁도메인	-11.2401
▁하리리	-11.2401
▁financ	-11.2401
▁셔츠	-11.2401
▁call	-11.2401
▁다뤄	-11.2401
▁앙겔	-11.2401
▁월마트	-11.2401
▁어휘	-11.2401
2006.09	-11.2401
▁겁니다	-11.2401
트로터	-11.2401
▁낙찰	-11.2401
▁투데이	-11.2402
▁빨간색	-11.2402
▁make	-11.2402
▁열쇠	-11.2402
▁유혹	-11.2402
▁동성	-11.2402
▁홀랜드	-11.2402
▁후계자	-11.2402
▁압승	-11.2402
▁홈런	-11.2403
▁평결	-11.2403
▁디스커버리호	-11.2403
▁에이미	-11.2403
▁뜨거	-11.2404
▁밀집	-11.2404
▁부회장	-11.2404
▁삼림	-11.2404
▁글렌	-11.2404
▁모르지만	-11.2404
▁결백	-11.2404
▁영입	-11.2404
▁초대형	-11.2405
▁이른바	-11.2405
▁제재조치	-11.2405
▁자치구	-11.2405
▁벌금형	-11.2407
▁데니스	-11.2408
▁육상	-11.2408
▁사업에	-11.2409
▁양상	-11.241
▁국정	-11.241
▁분출	-11.241
▁자매	-11.2411
▁암호	-11.2412
벨트	-11.2413
▁독점	-11.2414
▁담겨있다	-11.2415
▁악성	-11.2415
▁외출	-11.2415
▁도왔다	-11.2416
▁시술	-11.2416
▁공통	-11.2416
▁대담	-11.2417
▁소감	-11.2417
▁생각합니다	-11.2418
▁오락	-11.2419
▁스위	-11.242
▁퇴직	-11.2421
▁호흡기	-11.2421
▁실내	-11.2422
▁악화될	-11.2423
▁부인과	-11.2423
▁영역	-11.2423
▁위법	-11.2423
▁위기로	-11.2423
▁공방	-11.2424
▁걸프	-11.2424
▁일정이	-11.2425
▁전미	-11.2425
▁올릴	-11.2426
▁리더	-11.2426
▁자유당	-11.2427
▁노동력	-11.2429
▁후보작	-11.243
▁가이드	-11.2432
▁시도한	-11.2432
▁상정	-11.2434
있던	-11.2436
▁때로는	-11.2438
▁이용하여	-11.244
▁놓았다	-11.2441
▁박수	-11.2443
▁개발도상국	-11.2447
▁조카	-11.2449
▁장착된	-11.245
▁초래할	-11.2451
▁도쿄에서	-11.2452
시키는데	-11.2453
하려면	-11.2455
▁불가피하다	-11.2457
▁수준의	-11.2458
▁정한	-11.246
▁과도한	-11.2462
▁iss	-11.2465
▁정비	-11.2469
▁방문이	-11.2471
▁back	-11.2471
▁방사	-11.2473
하겠지만	-11.2473
▁투표권	-11.2475
▁후임자	-11.2476
▁인적	-11.2477
▁파견된	-11.2478
이었지만	-11.248
▁판사들	-11.2482
일만에	-11.2483
▁제작자들	-11.2483
▁입장권	-11.2486
▁지미	-11.2486
▁발생했던	-11.2492
▁성전	-11.2492
▁입원한	-11.2493
▁재판은	-11.2494
▁수잔	-11.2495
▁암살된	-11.2496
다소	-11.25
▁pf	-11.2505
▁참가자	-11.2508
07	-11.2513
작업을	-11.2518
▁각료	-11.2519
▁지목했다	-11.252
▁피신	-11.2523
▁계획한	-11.2531
▁펼치고	-11.2532
▁게이	-11.2539
▁철수시키	-11.2539
▁이겨	-11.254
명이다	-11.2541
▁복합	-11.2543
특	-11.2546
▁상태였다	-11.2547
▁용인	-11.2548
▁맡아	-11.2549
into	-11.255
▁내리기	-11.2554
▁관해서	-11.2555
▁허위	-11.2559
▁중유	-11.2559
▁유지하는	-11.2568
납	-11.2568
컴	-11.2569
▁보았다	-11.2572
탑	-11.2573
묘	-11.2573
핀	-11.2573
팀이	-11.2574
▁톱	-11.2577
q	-11.2577
way	-11.2579
하우스	-11.258
▁star	-11.2581
▁단체에	-11.2581
▁크로	-11.2582
▁여진이	-11.2584
▁일부에서는	-11.2584
▁웹사이트에서	-11.2587
▁아니고	-11.2588
▁주민이	-11.2589
▁이탈	-11.259
문서	-11.259
▁알리기	-11.2593
▁고백	-11.2593
법에따라	-11.2596
34	-11.26
▁정보가	-11.2601
대책	-11.2602
▁통신과	-11.2606
회장	-11.2614
▁임신한	-11.262
▁일로	-11.262
▁영국에	-11.2621
수준	-11.2621
라니	-11.2626
▁이라크전에	-11.2628
▁괜찮	-11.2629
▁다음으로	-11.2634
▁링	-11.2636
▁우주에서	-11.2642
▁ta	-11.2644
▁안되	-11.265
공장	-11.2651
▁시민단체	-11.2652
▁악의	-11.2653
▁고려할	-11.2658
▁필수	-11.2659
▁파고	-11.2662
▁받았고	-11.2663
▁검	-11.2664
▁98	-11.2671
과정에서	-11.2677
▁될지	-11.2678
▁성사	-11.268
▁파키스탄이	-11.268
▁정당이	-11.2682
▁경위	-11.2682
▁주장해	-11.2683
방식	-11.2683
▁부부의	-11.2686
▁거래가	-11.2687
▁납치됐다	-11.2687
▁영구	-11.2688
▁라일	-11.2689
▁내년에	-11.2702
프리	-11.2709
▁끝내	-11.271
발전	-11.2712
▁녹아	-11.2715
▁발견되	-11.2717
부시	-11.2718
do	-11.2719
▁공개할	-11.272
▁페이	-11.272
▁봐	-11.2721
▁마련했다	-11.2723
▁per	-11.2726
대사관	-11.273
▁상원의	-11.2733
룩	-11.2734
▁직면한	-11.2739
▁여성에게	-11.2739
▁치명적	-11.274
텍	-11.2742
시키며	-11.2748
▁펼쳤	-11.275
▁무너	-11.2752
▁관심사	-11.2753
▁지는	-11.2754
▁고속	-11.2754
▁통상	-11.2756
▁무너지	-11.2756
트릭	-11.2756
▁1.6	-11.2759
곳에	-11.2762
▁br	-11.2764
▁업	-11.2764
▁정찰	-11.2767
42	-11.2776
▁밀수	-11.2779
쁜	-11.2781
▁전인	-11.2782
첩	-11.2782
▁선호	-11.2782
렬	-11.2784
▁끌려	-11.2785
4,000	-11.2785
▁agency	-11.2785
▁baghdad	-11.2785
▁health	-11.2785
▁pakistan	-11.2785
▁ufo	-11.2785
▁과테말라	-11.2785
▁국가보안법	-11.2785
▁높였다	-11.2785
▁닌텐도	-11.2785
▁리얼리티	-11.2785
▁마호메트	-11.2785
▁베테랑	-11.2785
▁보건복지부	-11.2785
▁엔터테인먼트	-11.2785
▁저작권	-11.2785
▁정동영	-11.2785
▁조선중앙통신	-11.2785
▁조코비치	-11.2785
▁집행유예	-11.2785
▁추수감사절	-11.2785
▁퍼레이드	-11.2785
겹	-11.2785
▁싱가폴	-11.2785
▁열렬한	-11.2785
▁의구심	-11.2785
▁좌익	-11.2785
▁토마토	-11.2785
▁혐오	-11.2785
무장혁명군	-11.2785
▁bbk	-11.2785
▁제네바	-11.2785
▁두개골	-11.2785
▁비공개	-11.2785
▁콜레라	-11.2785
▁수족관	-11.2785
▁태어나	-11.2785
▁뉴욕증시	-11.2785
▁하반기	-11.2785
▁유태인	-11.2785
▁터뜨	-11.2786
▁white	-11.2786
▁링컨	-11.2786
▁원내대표	-11.2786
▁가볍	-11.2786
▁대지진	-11.2786
▁신용위기	-11.2786
▁의료보험	-11.2786
▁결렬	-11.2786
2007.06	-11.2786
▁꾸준	-11.2786
▁돌아갔다	-11.2786
▁사찰	-11.2786
▁삼엄	-11.2787
▁검출	-11.2787
▁zan	-11.2787
▁free	-11.2787
▁티켓	-11.2787
▁혼합	-11.2787
▁배럭	-11.2787
▁과잉	-11.2787
▁참패	-11.2787
▁코미디언	-11.2787
▁연합뉴스	-11.2787
▁신념	-11.2788
▁워커	-11.2788
▁호주오픈	-11.2788
▁블록	-11.2788
▁설교	-11.2788
▁노리에가	-11.2788
▁영예	-11.2789
▁이정인	-11.2789
▁검진	-11.279
▁깜	-11.279
▁규명	-11.279
▁계층	-11.2791
▁없었지만	-11.2791
▁태양계	-11.2791
▁광경	-11.2791
▁포스터	-11.2791
▁관행	-11.2792
▁1984	-11.2792
▁당분간	-11.2792
▁일상	-11.2792
▁극심	-11.2792
▁지폐	-11.2793
▁리틀	-11.2793
▁가격에	-11.2793
▁보수파	-11.2794
▁911	-11.2795
▁응원	-11.2795
▁레저	-11.2795
▁히트	-11.2797
▁석상	-11.2798
▁권유	-11.2798
▁섞	-11.2798
라트	-11.2799
▁시사회	-11.28
▁재생	-11.28
▁suv	-11.28
▁격분	-11.2802
▁남겼다	-11.2802
▁예금	-11.2802
▁발작	-11.2802
▁국면	-11.2803
▁맡게	-11.2803
▁단호	-11.2804
▁사우스	-11.2804
▁더이상	-11.2804
▁보류	-11.2805
▁dc	-11.2805
▁야간	-11.2806
▁제프	-11.2809
▁야당의	-11.281
▁장난	-11.2811
▁호우	-11.2811
▁비율이	-11.2812
▁애쓰고	-11.2813
▁풍자	-11.2813
▁유니	-11.2813
▁마련하기	-11.2814
▁내주	-11.2815
▁인플루엔자	-11.2815
▁비자금	-11.2815
▁연예	-11.2816
▁체인	-11.2817
▁정상적으로	-11.2819
▁발견돼	-11.2819
▁예로	-11.2821
▁러시아에서	-11.2823
▁단백질	-11.2824
▁이끌었다	-11.2825
▁논의하고	-11.2828
▁작곡가	-11.2831
▁취해야	-11.2832
▁가할	-11.2838
▁사이즈	-11.284
▁우파	-11.2841
pr	-11.2842
년째	-11.2843
▁살해하겠다	-11.285
▁심정	-11.2854
▁가두	-11.2858
▁파르	-11.2859
▁범죄자	-11.2859
▁폐쇄했다	-11.286
▁여러분들	-11.2866
▁흔들리	-11.2868
▁결승에서	-11.287
▁하마스와	-11.2873
▁che	-11.2876
▁정치범	-11.2877
▁초과	-11.288
▁미군측	-11.2881
▁찬사	-11.2882
▁대표들은	-11.2882
▁바퀴	-11.2882
▁공격할	-11.2884
▁결과에따르면	-11.2884
▁여자들	-11.2885
▁보아	-11.289
▁제기한	-11.2891
▁합의는	-11.2891
▁지명자	-11.2892
▁살아있는	-11.2897
시스	-11.2898
▁빌라	-11.2901
▁자회사	-11.2902
tic	-11.2905
▁와서	-11.2906
▁잡혀있	-11.2907
▁톤	-11.2907
▁대리	-11.291
▁친구들과	-11.2911
net	-11.2913
일본	-11.2914
▁경제학	-11.2924
▁줄어들고	-11.2925
▁대원	-11.2925
▁리사	-11.2932
▁방문객	-11.2934
▁독자	-11.2938
▁부수	-11.2941
▁결승전에	-11.2942
다리	-11.2942
▁식으로	-11.2944
▁잡기	-11.2945
▁베를린에서	-11.2948
▁헤르	-11.2949
▁추정되	-11.2951
▁첸	-11.2951
켜	-11.2953
▁나르	-11.2955
지요	-11.2959
▁수반과	-11.296
여개	-11.2961
▁사무소	-11.2961
▁진행하는	-11.2962
응	-11.2963
살이	-11.2963
▁말했으며	-11.2964
건이	-11.2965
▁길에	-11.2967
▁수의사	-11.297
몽	-11.2971
▁나갔다	-11.2972
▁해변에서	-11.2973
▁감자	-11.2973
2006.01	-11.2973
▁문화적	-11.2973
아프리카	-11.2975
오픈	-11.2976
떨어진	-11.2976
▁주자	-11.2978
▁미수	-11.2979
▁갇혀	-11.2981
▁기념일	-11.2984
▁재판소	-11.2984
개국이	-11.2986
▁하는데	-11.2988
▁구조대원	-11.2989
▁돌입했다	-11.2989
▁사태로	-11.299
▁125	-11.299
위권	-11.2996
▁코커스에서	-11.3003
피크	-11.3003
▁나라들	-11.3004
▁람	-11.3007
간다	-11.3009
채가	-11.3013
▁hd	-11.3015
▁에바	-11.3019
▁가담	-11.3027
▁하원에서	-11.3028
▁세번째	-11.3031
▁촉발	-11.3033
▁미사	-11.3038
▁재미	-11.3039
▁동원해	-11.304
주재	-11.3044
▁결의안은	-11.3045
sh	-11.3054
▁붙이	-11.3057
▁비리	-11.3059
▁앤더슨	-11.306
▁기념하기	-11.306
줘야	-11.3061
▁공격하는	-11.3065
▁줄어	-11.3067
▁명인	-11.3067
킨스	-11.3069
▁여행사	-11.307
번호	-11.307
▁칠	-11.3073
코스	-11.3083
▁시작하는	-11.3083
iz	-11.3085
▁너	-11.3085
나마	-11.3086
▁뉴스는	-11.3092
▁뒤에서	-11.3093
ew	-11.3094
▁근무하	-11.3101
푸르	-11.3101
▁주거	-11.3105
▁소방관들	-11.3106
▁양곤	-11.3112
▁개막식	-11.3113
모어	-11.3113
▁안다	-11.3113
▁요한	-11.3114
▁무기한	-11.3115
▁위반한	-11.3119
▁칭	-11.312
▁조사했다	-11.3126
eve	-11.3134
▁도움으로	-11.3134
▁이란에서	-11.3146
순위	-11.3146
▁버렸다	-11.3148
▁압도적	-11.3152
ga	-11.3156
편이	-11.3157
▁바탕	-11.3159
▁크라	-11.3159
▁주사	-11.316
디오	-11.3163
▁홈페이지	-11.3163
▁호흡	-11.3163
▁정치에	-11.3164
▁어디에	-11.3167
▁시작하기	-11.3169
님	-11.3171
▁q	-11.3172
▁강화했다	-11.3174
▁year	-11.3175
▁연예인	-11.3176
▁중동평화	-11.318
혜	-11.318
▁윤리적	-11.3181
롯	-11.3181
▁america	-11.3184
▁공장에서	-11.3184
▁빨간	-11.3184
세르	-11.3185
엽	-11.3185
▁갤럭시	-11.3185
▁곤돌라	-11.3185
▁라왈핀디	-11.3185
▁로맨틱	-11.3185
▁루마니아	-11.3185
▁마닐라	-11.3185
▁부딪혀	-11.3185
▁아웅산수지	-11.3185
▁얀코비치	-11.3185
▁엔데버호	-11.3185
▁이데올로기	-11.3185
▁짝짓기	-11.3185
▁카라카스	-11.3185
▁카톨릭	-11.3185
▁타블로이드	-11.3185
▁터무니	-11.3185
▁페널티킥	-11.3185
▁폴라로이드	-11.3185
▁횟수	-11.3185
넥	-11.3185
룽	-11.3185
▁report	-11.3185
▁농작물	-11.3185
▁대중교통	-11.3185
▁백화점	-11.3185
▁유망주	-11.3185
▁치렀	-11.3185
▁카리스마	-11.3185
▁페르난도	-11.3185
돋	-11.3185
▁내비쳤다	-11.3185
▁로페즈	-11.3185
▁자이툰	-11.3185
▁ftse	-11.3185
▁that	-11.3185
▁테이블	-11.3185
▁동남아시아	-11.3186
▁wild	-11.3186
▁살모넬라균	-11.3186
▁대통합민주신당	-11.3186
▁억압	-11.3186
▁보스니아	-11.3186
▁표적이	-11.3186
▁소수민족	-11.3186
▁소아과	-11.3186
▁밀접	-11.3186
▁brit	-11.3186
▁동점골	-11.3186
▁가자시티	-11.3186
▁good	-11.3186
▁범람	-11.3186
ship	-11.3186
▁패널	-11.3186
▁부정선거	-11.3187
▁결승골	-11.3187
▁pre	-11.3187
▁나중에	-11.3187
▁무너졌다	-11.3187
tive	-11.3187
▁관광산업	-11.3187
▁비싸	-11.3188
▁울머	-11.3188
▁이끌었던	-11.3188
▁난폭	-11.3189
▁평생	-11.3189
▁오스틴	-11.3189
▁세레나	-11.319
▁기둥	-11.319
▁도착했을	-11.3192
▁결별	-11.3192
▁경제성장률	-11.3192
▁동남	-11.3193
▁연구조사	-11.3193
▁지칭	-11.3193
▁페퍼	-11.3194
▁면허	-11.3194
▁천연	-11.3194
▁2014	-11.3194
▁바이오	-11.3194
▁숨지게	-11.3194
▁면제	-11.3195
▁심장병	-11.3195
▁과실	-11.3195
▁감안	-11.3196
2008.09	-11.3196
▁매사추세츠주	-11.3196
▁외각	-11.3196
▁동행	-11.3196
티드	-11.3197
▁순회	-11.3197
▁책임감	-11.3197
▁감동	-11.3198
▁바스크	-11.3198
74	-11.3198
허가	-11.3199
▁사절	-11.32
▁온천	-11.3201
강에	-11.3203
▁상업적	-11.3203
▁여정	-11.3205
들이다	-11.3206
▁조업	-11.3207
▁우방	-11.3207
▁삼았다	-11.3207
▁쇼에	-11.3209
▁버크	-11.321
▁유명인사	-11.3213
▁선거는	-11.3216
▁반란	-11.3216
▁750	-11.3216
▁재미있	-11.3216
▁이끈	-11.3217
▁행운	-11.3217
느라	-11.3218
▁국민당	-11.3218
▁일기로	-11.322
었기	-11.322
▁퇴원	-11.3221
객들	-11.3224
▁현직	-11.3229
▁누드	-11.3233
블리	-11.3234
분기에	-11.3234
▁투수	-11.3235
▁경선이	-11.3237
▁질서	-11.3237
▁관세	-11.3238
▁번식	-11.3239
▁주문했다	-11.324
▁양당	-11.324
▁시도했다	-11.3242
▁어선	-11.3244
▁1600	-11.3244
23	-11.3245
▁넘어서	-11.3246
ious	-11.3247
▁후보자들	-11.3248
▁프린스	-11.3248
▁결정된	-11.3248
▁후임으로	-11.3252
▁의견에	-11.3256
▁230	-11.3257
▁까	-11.3259
▁줄어들었다	-11.3259
▁행동으로	-11.3262
▁이룬	-11.3263
▁의뢰인	-11.3263
▁선택한	-11.3265
▁정권은	-11.3267
▁흘	-11.3267
▁움직	-11.3268
▁샘	-11.3269
▁많았다	-11.3273
▁모닝	-11.3276
▁세라	-11.3279
강전	-11.3279
▁도로에	-11.328
▁사망했고	-11.3282
▁대처하기	-11.3284
▁원장은	-11.3285
▁충고	-11.3291
▁나라에서	-11.3293
▁발생하기	-11.3293
적이지	-11.3293
▁면서	-11.3294
▁별로	-11.3294
▁방콕에서	-11.3295
▁무혐의	-11.3296
▁달에	-11.3297
▁끌어들	-11.3297
▁신비	-11.3298
▁전통적으로	-11.3299
▁살리	-11.33
▁거라고	-11.3304
▁가한	-11.3305
아웃	-11.3306
ame	-11.3308
▁포기할	-11.3308
▁내기	-11.3309
병이	-11.331
▁괴	-11.3315
라기	-11.3317
▁불과했다	-11.3317
법에	-11.332
▁감기	-11.3332
▁하는지	-11.3333
93	-11.3333
▁분명한	-11.3333
▁행한	-11.3334
▁지정된	-11.3339
▁맡기	-11.3341
▁qu	-11.3348
▁기록적인	-11.3349
▁마일	-11.3351
헤드	-11.3352
▁로한이	-11.3361
▁왔으며	-11.3367
▁정부로부터	-11.337
▁발표하지	-11.3371
▁def	-11.3372
▁납치했다	-11.3374
▁연합은	-11.3384
▁국경지역에	-11.3389
폭탄	-11.3389
즐	-11.3391
▁전선	-11.3392
▁바스라에서	-11.3393
▁위치에	-11.3394
▁정직	-11.3395
▁후안	-11.3395
▁지구로	-11.3396
게이트	-11.3398
민족	-11.3398
니까	-11.34
장애	-11.3403
▁죽을	-11.3403
▁걸스	-11.3404
fc	-11.3404
▁start	-11.3405
▁탑	-11.341
▁법무	-11.3416
▁차원	-11.3418
▁밝혔	-11.3419
코르	-11.3421
교회	-11.3421
▁이외	-11.3422
▁we	-11.3423
노동	-11.3423
라이트	-11.3423
▁글로	-11.3425
통제	-11.3425
▁제안에	-11.3427
▁용의	-11.3427
위안	-11.3429
▁이목	-11.3429
노프	-11.3432
▁협정에	-11.3432
수사	-11.3434
▁가하고	-11.3436
성과	-11.3439
▁낙관적	-11.3441
▁퍼지	-11.3443
▁남지	-11.3444
▁중국인들	-11.3444
▁험	-11.3444
스텐	-11.345
▁기본적	-11.3453
▁몬	-11.3454
▁도와	-11.3455
▁협상에서	-11.3457
▁수감됐다	-11.346
▁구입한	-11.3463
▁공직	-11.3466
▁이라크로	-11.3468
▁명으로	-11.3468
▁직면해	-11.347
▁여성으로	-11.3472
▁당원들	-11.3476
▁관광객이	-11.348
▁말하지	-11.3483
▁방송과	-11.3484
면서도	-11.349
▁태국에서	-11.3491
▁이어진	-11.3494
▁막는	-11.35
▁지사	-11.3504
▁통근	-11.3506
▁조달	-11.3508
▁놓여	-11.3509
▁제어	-11.3511
▁은행이	-11.3517
층에서	-11.3518
치기	-11.3519
49	-11.3519
▁기뻐	-11.3521
▁잃었	-11.3522
자루	-11.3523
▁의뢰	-11.3523
▁발생한다	-11.3526
▁이상으로	-11.3533
▁감행했다	-11.3533
▁군의	-11.3536
▁높이고	-11.3537
회전	-11.3537
▁복용한	-11.3539
▁겐	-11.354
▁보여준	-11.3541
▁나가고	-11.3545
▁감염자	-11.3549
▁국세청	-11.3554
▁승리하는	-11.3554
▁하겠다	-11.3559
▁인도와	-11.356
됐기	-11.3562
▁영화로	-11.3567
브레	-11.3568
▁누르	-11.3573
one	-11.3576
▁red	-11.3577
만톤	-11.3578
▁사정	-11.358
▁한반도에서	-11.3584
ii	-11.3588
▁오르는	-11.3591
▁버몬트	-11.3591
▁빚어	-11.3592
▁나눠	-11.3592
▁발표에	-11.3594
▁다국적	-11.3594
▁열린다	-11.3595
▁경제성장	-11.3596
▁사진에	-11.3596
▁캐롤	-11.3597
▁101	-11.3598
쾌	-11.3598
▁about	-11.3602
▁wwf	-11.3602
▁가톨릭	-11.3602
▁로널드	-11.3602
▁몬타나	-11.3602
▁무크타다	-11.3602
▁버시바우	-11.3602
▁부정부패	-11.3602
▁사카쉬빌리	-11.3602
▁연습	-11.3602
▁쫓겨	-11.3602
▁콘크리트	-11.3602
▁콜레스테롤	-11.3602
▁합참의장	-11.3602
뭉	-11.3602
윗	-11.3602
쿤	-11.3602
▁금융제재	-11.3602
▁브뤼셀	-11.3602
▁임산부	-11.3602
▁컨퍼런스	-11.3602
▁프리메라리가	-11.3602
▁오마바	-11.3602
▁팔루자	-11.3602
▁휴양지	-11.3602
▁뮤직	-11.3602
▁횡단	-11.3602
▁힉스	-11.3602
▁뒤덮	-11.3602
▁주니어	-11.3602
▁이소연	-11.3602
▁페인트	-11.3602
▁기번스	-11.3602
▁크리켓	-11.3602
▁아지즈	-11.3602
▁home	-11.3603
▁근접	-11.3603
▁농촌	-11.3603
▁쟁점	-11.3603
▁소요사태	-11.3603
▁와중에	-11.3603
▁번호판	-11.3603
▁호르타	-11.3604
▁여객선	-11.3604
▁불쾌감	-11.3604
▁동북아	-11.3604
▁통계청	-11.3604
▁있겠지만	-11.3604
▁엄중	-11.3605
▁싸울	-11.3605
▁간첩	-11.3605
▁최후	-11.3605
실장	-11.3605
▁게임에서	-11.3605
▁연애	-11.3606
▁평등	-11.3606
▁union	-11.3606
▁총격사건	-11.3607
▁활력	-11.3607
▁철거	-11.3607
▁패션계	-11.3607
스테이트	-11.3607
▁달라이라마는	-11.3607
▁이루어질	-11.3608
▁피델	-11.3608
▁정글	-11.3608
▁단절	-11.3609
▁팔렸다	-11.3609
▁금지령	-11.3609
▁분양	-11.361
▁테네시주	-11.361
▁다녀	-11.3611
▁포격	-11.3611
▁rights	-11.3611
▁본래	-11.3612
▁law	-11.3612
돌프	-11.3612
▁완수	-11.3613
▁지나친	-11.3613
▁테러공격	-11.3613
▁황제	-11.3614
▁09	-11.3614
▁변동	-11.3615
▁추모식	-11.3615
▁울프	-11.3615
▁급파	-11.3616
▁터진	-11.3618
▁만행	-11.3618
▁스탠리	-11.3618
▁접근할	-11.3618
▁테마	-11.3619
▁뉴저지주	-11.3621
▁질식	-11.3621
▁건조	-11.3622
▁데이트	-11.3622
▁반격	-11.3623
▁사격	-11.3624
▁태아	-11.3624
▁대승	-11.3625
▁상징적인	-11.3625
▁액수	-11.3626
▁지도력	-11.3627
안이	-11.3627
▁스노	-11.3628
▁상실	-11.3628
▁앙리	-11.363
▁신종	-11.3631
▁섬에	-11.3632
▁외모	-11.3634
▁조그	-11.3635
▁인용하여	-11.3636
▁분명하다	-11.3637
되었으나	-11.3638
▁두목	-11.364
▁반감	-11.3642
▁가즈니주	-11.3643
▁독일과	-11.3644
▁여객기에	-11.3644
실에서	-11.3646
잡이	-11.365
▁한국정부	-11.3651
코트	-11.3652
상과	-11.3654
▁카디	-11.3655
▁핵문제	-11.3655
▁사람들에	-11.3655
▁보수적인	-11.3656
▁열리기	-11.3656
▁페트로	-11.3656
▁플로	-11.3657
▁미쳤다	-11.3658
▁인파	-11.3661
▁작용할	-11.3663
▁휩싸였다	-11.3663
▁말라위	-11.3663
▁배아	-11.3664
프트	-11.3665
▁돌아가는	-11.3666
▁억류된	-11.3668
▁아카	-11.3668
받을	-11.367
▁발견했으며	-11.3671
▁끝내고	-11.3674
▁맺었다	-11.3675
▁발사된	-11.3676
▁명명	-11.3679
▁허리	-11.368
▁수백만명	-11.3681
▁획득했다	-11.3682
▁살해됐다	-11.3682
▁일종	-11.3683
▁헨	-11.3684
▁450	-11.3685
▁흉기	-11.3689
▁전술	-11.369
▁구분	-11.3691
▁워싱턴에	-11.3694
▁치르는	-11.3695
▁쉐	-11.3699
▁캄	-11.3699
▁폭발했다	-11.3701
▁지원한	-11.3702
▁일요일에	-11.3706
▁점에서	-11.3706
▁의원과	-11.3706
▁경찰청장	-11.3706
▁노동자들이	-11.3709
▁거물	-11.3709
▁켄	-11.371
▁심각하다	-11.3716
▁열리고	-11.3717
▁하에서	-11.3717
▁문제다	-11.3718
▁피로	-11.3719
▁4.5	-11.3719
▁표기	-11.3722
▁작품상	-11.3724
모토	-11.3724
론자들	-11.3725
▁교도	-11.3728
고문	-11.373
▁선박에	-11.373
▁동해	-11.3733
▁앤더슨은	-11.3735
내기	-11.3737
▁의원들과	-11.374
up	-11.3742
▁차지할	-11.3743
▁알바	-11.3744
▁개혁안	-11.3755
▁결정될	-11.3758
▁지지율로	-11.3758
▁서있	-11.376
▁만족한다	-11.3763
▁수직	-11.3766
▁앤드	-11.3767
▁치료제	-11.3767
▁전임	-11.3768
▁시대에	-11.3772
윤	-11.3773
▁발사한	-11.3774
▁이견	-11.3774
▁관료들	-11.378
물질	-11.378
파인	-11.3781
▁방위	-11.3801
▁수퍼대의원	-11.3802
▁홀에서	-11.381
과학	-11.3811
▁파괴됐다	-11.3814
▁경쟁에서	-11.3815
▁경의	-11.3817
▁포기하	-11.3817
▁내용이다	-11.3822
▁민주당원들	-11.3824
털	-11.3825
자동차	-11.3828
▁경고하고	-11.3829
▁2006.01	-11.3829
▁미군에	-11.383
▁설립한	-11.383
로프	-11.3832
▁고집	-11.3833
▁마르코	-11.3834
▁공격하기	-11.3835
▁줄었다	-11.3835
▁인정하고	-11.3839
▁들어가기	-11.3839
▁안개	-11.3841
장소	-11.3846
증권	-11.3848
▁can	-11.3848
배우	-11.385
▁ag	-11.3853
▁ph	-11.3854
▁앞에서	-11.3854
학자인	-11.386
마른	-11.386
▁노력으로	-11.3861
사이드	-11.3861
더미	-11.3861
▁중재자	-11.3867
▁파괴된	-11.3869
사실	-11.3875
▁장소에	-11.3878
54	-11.3881
▁해치	-11.3883
▁고정	-11.3883
시간이	-11.3888
▁반군에	-11.3888
마드	-11.3889
▁물질이	-11.3894
▁되면서	-11.3894
▁도착했다고	-11.3895
▁합의안	-11.3897
▁차에	-11.39
위기	-11.39
▁190	-11.3901
▁순수	-11.3902
▁괴한들	-11.3907
▁우리들	-11.3909
▁지점에	-11.3909
▁클럽에서	-11.3912
▁토로	-11.3912
▁난자	-11.3915
▁천명	-11.3917
데요	-11.3917
▁요인이	-11.3925
화물	-11.3928
▁시스템에	-11.3928
▁공습이	-11.3928
마크	-11.3929
▁맞지	-11.3933
▁일어	-11.3934
▁전문의	-11.3937
▁pop	-11.3938
총리는	-11.3941
▁간다	-11.3947
▁정상에	-11.395
득	-11.3952
▁통과한	-11.3952
▁저자	-11.3955
▁판매하는	-11.3959
▁일반인들	-11.3959
▁교착상태	-11.396
▁공급받	-11.3964
▁저널	-11.3965
▁학자들	-11.3966
▁미국내	-11.397
마이어	-11.3971
▁kt	-11.3972
▁비전	-11.3972
셨	-11.398
야당	-11.3985
였을	-11.3986
▁자연적	-11.3989
▁남겨	-11.3989
▁겪었	-11.3991
럭	-11.3992
▁나타났	-11.3994
▁죄수	-11.3998
▁박물관에	-11.3998
▁현안	-11.4002
▁사고에	-11.4002
▁울리	-11.4004
▁장례식에	-11.4007
▁적지	-11.4008
▁못하면	-11.4008
▁킬로미터	-11.4008
단체인	-11.4008
ern	-11.4009
▁매케인과	-11.4016
▁프로그램과	-11.4017
▁피고인들	-11.4021
▁생활에	-11.4021
▁고전	-11.4024
▁일시	-11.4025
▁테네시	-11.4028
센터에서	-11.4029
▁검문	-11.403
▁냉전	-11.4037
2007.03	-11.4037
▁australia	-11.4037
▁oecd	-11.4037
▁school	-11.4037
▁그린스펀	-11.4037
▁급상승	-11.4037
▁낙하산	-11.4037
▁농산물	-11.4037
▁대량살상무기	-11.4037
▁디얄라	-11.4037
▁라우터바흐	-11.4037
▁롱고리아	-11.4037
▁선거캠페인	-11.4037
▁슈나이더	-11.4037
▁앨라배마	-11.4037
▁언색호	-11.4037
▁없음	-11.4037
▁오차범위	-11.4037
▁잃게	-11.4037
▁지구온난화	-11.4037
▁카메론	-11.4037
▁테헤란	-11.4037
셜	-11.4037
쭉	-11.4037
▁국토안보부	-11.4037
▁올랜도	-11.4037
▁황교수	-11.4037
▁마스터스	-11.4037
▁퇴역	-11.4037
▁유시프	-11.4037
▁저녁식사	-11.4037
▁획기적	-11.4037
▁administration	-11.4037
▁클레이코트	-11.4037
▁정부청사	-11.4037
▁정유	-11.4037
▁리더십	-11.4037
▁졸릭	-11.4037
▁괴롭	-11.4037
▁사냥꾼	-11.4037
▁gnp	-11.4037
own	-11.4038
▁tax	-11.4038
▁six	-11.4038
▁검열	-11.4038
▁자살폭탄	-11.4038
▁호킨스	-11.4038
2007.04	-11.4038
▁무엇인가	-11.4039
▁아르빌	-11.4039
▁fun	-11.4039
▁토끼	-11.4039
▁줄어든	-11.4039
▁안젤리	-11.4039
▁평창	-11.4039
▁반도체	-11.4039
▁그린랜드	-11.4039
▁자본주의	-11.4039
▁동맹관계	-11.4039
▁우편	-11.404
▁회색	-11.404
▁아바타	-11.4041
▁자유로운	-11.4041
▁친밀	-11.4041
▁그렇다면	-11.4041
▁기념품	-11.4042
▁발송	-11.4042
▁적당한	-11.4042
▁증산	-11.4042
▁보였지만	-11.4042
▁납부	-11.4043
▁요구해	-11.4043
▁증오	-11.4044
▁주머니	-11.4044
▁늘어난	-11.4044
▁재능	-11.4044
▁검시관	-11.4044
▁친절	-11.4044
▁라틴	-11.4046
▁출간	-11.4046
▁성능	-11.4046
▁샤론	-11.4046
▁잔디	-11.4046
▁선거자금	-11.4046
▁서열	-11.4046
▁받았습니다	-11.4047
워진	-11.4047
▁누설	-11.4047
▁한국전쟁	-11.4047
▁시몬	-11.4048
▁교역	-11.4048
▁동요	-11.4049
런스	-11.405
▁지난밤	-11.405
▁미시간주	-11.4053
퍼스	-11.4053
▁도박	-11.4053
▁곳곳	-11.4053
▁관계자에따르면	-11.4054
▁베이비	-11.4054
▁태어났다	-11.4054
▁생선	-11.4057
▁스파이스	-11.4057
▁파워	-11.4057
살짜리	-11.4058
▁샤프	-11.4058
▁신설	-11.4058
▁섬유	-11.4058
기종	-11.4059
▁87	-11.4062
▁참수	-11.4062
▁원한다면	-11.4062
▁말았다	-11.4063
▁오프	-11.4063
▁들어보	-11.4064
길에	-11.4065
▁불거	-11.4066
아갈	-11.4067
▁루디	-11.4068
▁배정	-11.4069
▁종전	-11.4069
▁탈세	-11.4069
▁노벨상	-11.4069
▁인천	-11.407
▁6000	-11.4072
▁일조	-11.4074
▁탈당	-11.4074
▁선제	-11.4074
▁양호	-11.4074
▁온실	-11.4075
ical	-11.4075
▁놀이	-11.4077
▁별도로	-11.4077
▁시작했고	-11.4078
▁문학	-11.4078
▁타운	-11.408
▁경유	-11.4081
▁불경기	-11.4082
▁효과적인	-11.4083
▁주입	-11.4084
▁만이	-11.4084
▁비행선	-11.4084
▁항해	-11.4086
▁피터슨	-11.4087
▁싱글	-11.4088
▁누구나	-11.4089
▁위크	-11.4089
▁기여	-11.409
▁보호소	-11.409
▁끝나지	-11.4093
▁여인	-11.4094
▁주정부	-11.4095
▁aid	-11.4095
▁유타	-11.4098
▁대신해	-11.4099
▁강화하기	-11.4099
지스	-11.4099
▁답변했다	-11.41
▁의사당	-11.4102
▁말했었다	-11.4103
▁졸	-11.4103
▁실종됐다고	-11.4106
▁중국정부	-11.4108
▁자란	-11.4109
▁주둔군	-11.4109
▁외계인	-11.411
2008.02	-11.4111
▁만들어내	-11.4112
▁서쪽으로	-11.4112
해주고	-11.4113
▁적군	-11.4114
리코	-11.4116
▁쓰이	-11.4116
▁랜드	-11.4122
▁신성	-11.4123
▁내리지	-11.4124
▁물리적	-11.4124
▁허용하는	-11.4125
▁이민법	-11.4125
▁들어서	-11.4126
▁사람으로	-11.413
▁진상	-11.4132
벨리	-11.4135
▁토로했다	-11.4135
▁덩어리	-11.4138
▁통과할	-11.4139
▁살상	-11.414
▁올렸	-11.4142
▁들어주	-11.4143
▁홀리	-11.4143
▁기대된다	-11.4144
▁서울시장	-11.4145
조차도	-11.4146
▁부상했으며	-11.4146
▁지어	-11.4148
▁밝혀지	-11.4149
▁시작되	-11.4149
▁분기	-11.4152
▁의미하는	-11.4152
▁시선	-11.4153
▁본즈	-11.4153
▁참가국들	-11.4154
▁작전에	-11.4156
▁무서	-11.4157
▁우주비행사들	-11.4158
▁일이었다	-11.4159
▁생각할	-11.4159
▁상표	-11.4159
▁아나	-11.416
▁연인	-11.416
▁아랍어	-11.4164
▁서부지역	-11.4164
▁린다	-11.4169
▁입장이다	-11.4172
▁103	-11.4173
▁석방했다	-11.4173
▁외곽에서	-11.4175
▁경상	-11.4176
▁sun	-11.4177
▁이유에	-11.4179
▁해준다	-11.418
야만	-11.4183
▁고민	-11.4183
▁팔레스타인과	-11.4186
▁휩싸	-11.4187
가량	-11.4188
▁중태라	-11.4189
▁플	-11.4189
▁증거로	-11.4189
cent	-11.4193
▁선보였	-11.42
마저	-11.4202
▁활	-11.4203
▁대학생들	-11.4203
▁참가하는	-11.4203
▁최근까지	-11.4206
▁도달했다	-11.4212
▁근거지	-11.4213
▁제조회사	-11.4214
▁생각된다	-11.4215
시간에	-11.4216
▁로즈	-11.4216
▁해결하는	-11.4225
,400	-11.4226
▁승무원들은	-11.423
▁식당에서	-11.4231
▁내야	-11.4236
▁지불할	-11.4236
▁단계적	-11.4238
ki	-11.4238
▁사건에서	-11.4241
▁정국	-11.4241
지수가	-11.4242
▁행위로	-11.4244
▁진정시키	-11.4247
▁마이크로	-11.425
▁주도하고	-11.4254
글리	-11.4256
▁오만	-11.4256
▁결정한	-11.4258
▁되어야	-11.4264
▁작고	-11.4267
▁파업이	-11.4268
활	-11.4269
▁보도된	-11.4272
괴	-11.4274
▁공해	-11.4275
톱	-11.4277
팬	-11.4278
▁피의자	-11.4279
▁바비	-11.4279
끄	-11.4279
탐	-11.428
공화국	-11.4281
검찰	-11.4283
▁로이	-11.4288
▁주립대학	-11.429
▁관계자와	-11.429
나이트	-11.4291
▁한가지	-11.4292
▁다루는	-11.4294
▁검찰에	-11.4294
▁san	-11.4296
▁배달	-11.4299
▁아파트에서	-11.4305
▁모였다	-11.4311
러운	-11.4312
▁주립	-11.4313
out	-11.4314
여행	-11.4314
▁여진	-11.4317
▁있었	-11.4318
▁수행한	-11.4318
▁여행자	-11.4318
략	-11.432
▁마련된	-11.4321
▁전경	-11.4324
gb	-11.4326
▁실시됐다	-11.4328
드레	-11.4328
▁ps	-11.4329
32	-11.4331
▁멘	-11.4341
▁투자가	-11.4345
▁움직이는	-11.4346
인당	-11.4347
▁순간에	-11.4349
▁바그다드에	-11.4349
구간	-11.435
▁금지된	-11.4351
▁수행했다	-11.4353
▁이동했다	-11.4357
▁총살	-11.436
범죄	-11.436
▁선포한	-11.4363
▁수성	-11.4366
▁정말로	-11.4368
▁결함이	-11.4372
감시	-11.4375
▁국내에서	-11.4375
▁수년간	-11.438
top	-11.4381
▁성공할	-11.4382
ling	-11.4383
봤다	-11.4388
▁카라치	-11.4391
▁세르	-11.4392
▁브레	-11.4396
예프	-11.4398
▁영화화	-11.4401
정권	-11.4402
▁경제학자	-11.4403
▁끌어들이	-11.4403
▁설립자	-11.441
별로	-11.4417
▁파기	-11.4419
▁과일	-11.4419
▁떠났	-11.4421
▁피우	-11.4422
혁명	-11.4423
▁진출에	-11.4424
▁맞이하	-11.4424
적이라고	-11.4424
▁전반에	-11.4428
▁los	-11.4431
▁도착해	-11.4437
▁따뜻하	-11.444
▁모여들	-11.4443
▁투자가들	-11.4444
▁충돌했다	-11.4445
▁작년에	-11.4445
▁117	-11.4452
▁참가국	-11.4454
▁추산	-11.4455
▁이용자	-11.4457
▁증가시키	-11.446
▁승려	-11.4461
▁공항으로	-11.4461
▁외교관들	-11.4462
▁동부에	-11.4462
▁일본군	-11.4462
▁나비	-11.4462
▁사항이	-11.4463
▁수행하는	-11.4465
▁산업이	-11.4465
므	-11.4466
▁우주비행	-11.4472
▁시작한다	-11.4475
que	-11.4476
차원	-11.4479
▁발령	-11.4482
▁친구와	-11.4483
▁아프리카에서	-11.4489
▁닉	-11.4489
▁총기난사	-11.4491
갓	-11.4491
헴	-11.4491
▁beijing	-11.4491
▁claim	-11.4491
▁defense	-11.4491
▁hsbc	-11.4491
▁movie	-11.4491
▁nymex	-11.4491
▁society	-11.4491
▁street	-11.4491
▁summit	-11.4491
▁system	-11.4491
▁가라앉	-11.4491
▁국제사면위원회	-11.4491
▁김경준	-11.4491
▁낮게	-11.4491
▁돈세탁	-11.4491
▁몰디브	-11.4491
▁믿음	-11.4491
▁베스트셀러	-11.4491
▁손해배상	-11.4491
▁신천옹	-11.4491
▁아이슬란드	-11.4491
▁애널리스트	-11.4491
▁우비넨	-11.4491
▁윌리암	-11.4491
▁자이언트	-11.4491
▁좋았다	-11.4491
▁찍었다	-11.4491
▁콘텐트	-11.4491
▁페르난데스	-11.4491
▁폭넓	-11.4491
▁푸에르토리코	-11.4491
궈	-11.4491
덱	-11.4491
밭	-11.4491
윙	-11.4491
▁price	-11.4491
▁가금류	-11.4491
▁무중력	-11.4491
▁자부심	-11.4491
▁해리왕자	-11.4491
▁가석방	-11.4491
▁갱신	-11.4491
▁내다봤다	-11.4491
▁전화통화	-11.4491
▁오페라	-11.4491
▁프리킥	-11.4491
▁break	-11.4491
▁후쿠다	-11.4492
▁진원지	-11.4492
▁발레리	-11.4492
▁플레이오프	-11.4492
▁황박사	-11.4492
▁라시드	-11.4492
▁놀랍	-11.4492
▁남서쪽	-11.4492
▁브라더스	-11.4492
▁프레슬리	-11.4492
▁vote	-11.4492
▁딜리	-11.4492
▁트레킹	-11.4492
▁280	-11.4492
▁강아지	-11.4492
▁설문조사	-11.4492
▁아이팟	-11.4492
▁gps	-11.4492
▁않으려	-11.4492
▁선제골	-11.4492
▁삭스	-11.4492
▁화폐	-11.4492
▁공동성명	-11.4493
▁삼성그룹	-11.4493
▁푸켓	-11.4493
▁다툼	-11.4493
▁왕궁	-11.4493
▁이틀째	-11.4493
▁포옹	-11.4493
▁탑재	-11.4493
▁인디언	-11.4493
▁석탄	-11.4493
▁곤란	-11.4493
▁맞춘	-11.4494
▁차세대	-11.4494
▁지방선거	-11.4494
▁메이저	-11.4494
▁소행	-11.4494
▁프라임	-11.4494
▁투항	-11.4494
▁fund	-11.4494
▁post	-11.4495
▁지저스	-11.4495
▁물러난	-11.4495
▁기차역	-11.4495
▁우익	-11.4495
▁터너	-11.4496
▁단축	-11.4496
▁헌터	-11.4496
▁쌍	-11.4497
▁정교회	-11.4497
▁진열	-11.4497
▁파견했다	-11.4497
▁감각	-11.4497
속에	-11.4497
▁예외	-11.4497
▁미술관	-11.4497
▁다룰	-11.4498
▁디에고	-11.4499
▁호박	-11.4499
▁데이브	-11.4499
▁익사	-11.45
▁선진국	-11.45
▁근본주의	-11.4501
▁무패	-11.4501
▁대기권	-11.4501
▁1975	-11.4501
스턴	-11.4501
▁선언문	-11.4501
▁침실	-11.4501
▁지방에	-11.4501
▁교정	-11.4502
▁프로디	-11.4502
▁live	-11.4502
시께	-11.4503
▁복부	-11.4503
▁사이먼	-11.4503
▁기부금	-11.4503
▁공범	-11.4503
▁방위군	-11.4503
▁변형	-11.4503
▁나이키	-11.4504
▁북경	-11.4505
▁예보	-11.4505
년대에	-11.4505
▁해산물	-11.4505
▁일삼	-11.4506
▁포도	-11.4509
▁일본인들	-11.451
▁주식시장이	-11.4511
▁연정	-11.4512
▁골든	-11.4512
▁나온다	-11.4513
▁보리스	-11.4514
▁콜린스	-11.4514
▁대학은	-11.4514
▁방침이다	-11.4514
▁솜	-11.4517
▁펴	-11.4517
▁웃음	-11.4517
▁빈번	-11.4517
▁콜로라도주	-11.4519
▁선동	-11.4519
▁레노	-11.4519
▁채무	-11.452
▁영아	-11.452
▁역전	-11.452
▁린치	-11.4521
▁비정부	-11.4521
▁정부기관	-11.4522
▁실바	-11.4523
▁표한다	-11.4523
▁공표	-11.4525
▁우려하는	-11.4525
재단	-11.4525
▁결성	-11.4525
▁단일	-11.4525
▁안고	-11.4526
▁딴	-11.4527
▁중단된	-11.4528
▁1400	-11.4528
▁폐허	-11.453
▁어미	-11.4531
▁조각상	-11.4531
▁하스	-11.4534
자산	-11.4534
▁에따르면	-11.4534
▁툴	-11.4535
▁제작진	-11.4535
▁감독과	-11.4536
용품	-11.4536
▁space	-11.4537
방안	-11.4537
▁의류	-11.454
▁풀어주	-11.4541
▁sg	-11.4542
▁그럴	-11.4543
슬러	-11.4543
▁능력이	-11.4546
▁ev	-11.4546
▁연어	-11.4546
▁주차장에서	-11.4547
▁연기됐다	-11.4548
링턴	-11.4549
▁매케인에	-11.4549
▁담겨	-11.455
▁간호사	-11.4551
▁기간이	-11.4552
▁잔인	-11.4552
함이	-11.4553
▁저자인	-11.4553
▁게시	-11.4555
▁내려오	-11.4558
▁보건당국	-11.4559
▁돌아간	-11.456
▁친구인	-11.4561
▁곳곳에서	-11.4561
▁우주복	-11.4562
▁비중	-11.4563
▁접어들	-11.4564
▁국제법	-11.4567
▁발표하면서	-11.4568
▁설치한	-11.4569
▁보도자료	-11.4569
▁결과에따라	-11.457
▁우주로	-11.457
▁보험사	-11.4572
▁검토하	-11.4573
▁목표물	-11.4573
ence	-11.4575
▁악명	-11.4576
▁겁	-11.4577
▁판명	-11.4578
▁쓰지	-11.4585
▁하퍼	-11.4586
▁후속	-11.4588
uri	-11.4589
▁요청했다고	-11.459
▁확인하지	-11.459
▁영해	-11.459
▁주목할	-11.4591
▁되려	-11.4592
▁240	-11.4593
▁템	-11.4594
▁시작했으며	-11.4595
▁거부하	-11.4595
▁희생자들이	-11.4598
▁시사했다	-11.4598
▁남부지역에서	-11.46
▁랜	-11.4601
▁전투에서	-11.4602
▁조직원들	-11.4602
▁결의안이	-11.4603
▁아크	-11.4603
▁저명	-11.4605
▁입히	-11.4607
▁센터는	-11.4611
▁가사	-11.4612
con	-11.4614
▁한국계	-11.4616
▁기록했으며	-11.4616
▁재료	-11.4619
▁관여한	-11.4621
59	-11.4622
▁타이거	-11.4622
▁몰린	-11.4625
▁공화당원들	-11.4628
▁교통부	-11.4629
▁다스	-11.4631
▁직위	-11.464
▁버스에	-11.4641
조건	-11.4642
명만	-11.4642
▁배상	-11.4643
▁대표들이	-11.4644
▁손님들	-11.4646
▁자바	-11.4646
▁하사	-11.4652
▁떠나지	-11.4654
▁노력했다	-11.4657
▁신자	-11.4657
▁이스트	-11.466
▁왕위	-11.466
배로	-11.4666
타다	-11.4669
▁esta	-11.4669
▁당선됐다	-11.4673
▁바람에	-11.4675
▁재미있는	-11.4676
▁프로젝트에	-11.4678
91	-11.4681
해줬다	-11.4683
▁이용자들	-11.469
리터	-11.4693
▁설립된	-11.4696
리트	-11.4697
▁대표와	-11.4706
▁결정하기	-11.4708
▁젠	-11.4714
▁인터넷에서	-11.4717
▁완화하기	-11.4719
▁cl	-11.4721
▁특파원은	-11.4724
▁사망했	-11.4727
▁마련해	-11.4727
려면	-11.4728
▁특파원이	-11.4728
▁갇혀있	-11.4729
실적	-11.4733
▁간부들	-11.4735
▁레인	-11.4737
▁박스	-11.474
▁토론회에서	-11.474
▁파키스탄과	-11.474
경기에	-11.4748
딕	-11.4752
▁극적	-11.4752
▁결혼했다	-11.4755
2008.12	-11.4756
▁됐고	-11.4757
핵	-11.4757
책임자	-11.4758
▁국제적으로	-11.4758
밴드	-11.4759
투쟁	-11.4759
내려	-11.4759
▁언론인	-11.476
▁진도	-11.476
음악	-11.4761
▁등장하	-11.4762
분쟁	-11.4764
▁소방대원	-11.4765
스트라	-11.4766
하였다고	-11.4768
관광	-11.4768
나갔다	-11.4771
▁폐쇄하고	-11.4771
▁일부분	-11.4773
모양	-11.4775
▁방문하고	-11.478
▁방송이	-11.4781
부족	-11.4782
▁숨지	-11.4785
체계	-11.4788
▁목록에	-11.4791
▁철학	-11.4793
▁심리학	-11.4796
▁한반도에	-11.4797
▁가나	-11.4797
요금	-11.4798
▁지원에	-11.4801
▁자신만	-11.4802
▁신체적	-11.4805
십만	-11.4805
▁ira	-11.4806
▁다가오	-11.4812
▁결심했다	-11.4813
▁압수했다	-11.4821
▁십대	-11.4825
▁잡혀	-11.4829
▁본부장	-11.4829
▁돼있다	-11.4833
▁지명에	-11.4837
▁팔리	-11.4839
▁촉구하고	-11.4842
▁집회에서	-11.4842
하기위해	-11.4844
▁잃어	-11.4845
▁가정에서	-11.4849
▁경호원들	-11.485
▁법에	-11.4851
▁제시할	-11.4853
▁지아	-11.4854
▁근본	-11.4856
▁시점에	-11.4856
▁한국측	-11.4857
▁폭락했다	-11.4858
▁창고	-11.4861
io	-11.4865
▁뒤지	-11.4865
▁회전	-11.487
▁이혼했다	-11.4873
▁직원과	-11.4876
▁젊은이들이	-11.4882
▁위안	-11.4884
tt	-11.4887
▁실험에	-11.489
▁당선된	-11.4891
평가	-11.4892
▁악화된	-11.4894
▁베이징에	-11.4897
▁사실이다	-11.4899
척이	-11.49
▁부분에	-11.4907
▁격렬	-11.4914
타로	-11.4918
▁치열	-11.4921
▁중대	-11.4923
▁퇴원했다	-11.4925
▁고고학자	-11.4925
▁나타냈	-11.4925
▁엔지니어	-11.4926
▁전제	-11.4926
▁94	-11.4927
ali	-11.4935
▁실종됐다	-11.4937
▁레바논에서	-11.4938
▁내부에	-11.494
▁블리	-11.4941
위원장은	-11.4942
빠	-11.4944
▁구조됐다	-11.4948
▁납치범	-11.4948
케르	-11.4948
▁빠뜨	-11.495
▁미네소타	-11.4955
▁protest	-11.4955
융	-11.4956
끔	-11.4959
흥	-11.4962
▁나사	-11.4963
▁그렇다	-11.4963
옹	-11.4964
ong	-11.4965
셋	-11.4966
▁agree	-11.4967
▁얼룩	-11.4967
벡	-11.4968
▁200809.1	-11.4968
▁black	-11.4968
▁candidate	-11.4968
▁official	-11.4968
▁public	-11.4968
▁science	-11.4968
▁가로질러	-11.4968
▁그랜드슬램	-11.4968
▁높았다	-11.4968
▁땅콩	-11.4968
▁라스무센	-11.4968
▁레드삭스	-11.4968
▁마터호른	-11.4968
▁만델라	-11.4968
▁맞교환	-11.4968
▁매릴랜드	-11.4968
▁믿지	-11.4968
▁불필요	-11.4968
▁빈라덴	-11.4968
▁생태계	-11.4968
▁소렌스탐	-11.4968
▁스콜세지	-11.4968
▁스탤론	-11.4968
▁식이요법	-11.4968
▁신용경색	-11.4968
▁싫어하	-11.4968
▁아라파트	-11.4968
▁얼어붙	-11.4968
▁와지리스탄	-11.4968
▁유네스코	-11.4968
▁제너럴	-11.4968
▁주미대사	-11.4968
▁질렀다	-11.4968
▁코네티컷	-11.4968
▁투탕카멘	-11.4968
▁팽팽	-11.4968
▁펌프	-11.4968
▁포틀랜드	-11.4968
▁푸에르타	-11.4968
덟	-11.4968
▁ecb	-11.4968
▁russia	-11.4968
▁국가정보원	-11.4968
▁알자지라	-11.4968
▁commission	-11.4968
▁이건희	-11.4968
▁아메드	-11.4968
▁고마움	-11.4968
▁로드맵	-11.4968
▁본거지	-11.4968
▁가이트너	-11.4968
▁밀리밴드	-11.4968
▁텔레콤	-11.4968
▁남동쪽	-11.4968
▁비평가들은	-11.4968
▁앗아	-11.4968
▁핑크	-11.4968
▁아로요	-11.4968
▁파이프라인	-11.4968
▁이뤄져야	-11.4968
▁외딴	-11.4968
▁블레이크	-11.4968
▁있느냐	-11.4968
▁납북	-11.4968
▁거세지	-11.4969
▁앉아있	-11.4969
▁몬테	-11.4969
▁불러일으키	-11.4969
▁버클리	-11.4969
▁투옥	-11.497
▁완승	-11.497
▁신분증	-11.497
▁재처리	-11.497
▁그래함	-11.4971
▁점유율	-11.4971
지역으로	-11.4971
▁우호적	-11.4971
하였으나	-11.4971
▁청색	-11.4971
▁기관들	-11.4971
▁로얄	-11.4971
▁음란물	-11.4971
▁생물학적	-11.4972
▁정황	-11.4972
▁위헌	-11.4972
▁함정	-11.4972
▁나이로비	-11.4972
▁위안화	-11.4972
▁방안에	-11.4972
▁정확하게	-11.4972
than	-11.4973
▁증권거래소	-11.4973
▁은폐	-11.4973
▁봅	-11.4974
▁러브	-11.4974
▁잠재력	-11.4974
▁hit	-11.4974
▁철강	-11.4974
▁wti	-11.4975
▁사촌	-11.4975
▁절단	-11.4975
▁소식통에따르면	-11.4975
▁투병	-11.4975
▁바이든	-11.4975
▁첫째	-11.4976
▁계단	-11.4976
ore	-11.4976
▁사절단	-11.4977
▁forces	-11.4977
▁화물선	-11.4977
▁경색	-11.4977
▁교황이	-11.4977
매치	-11.4978
▁유머	-11.4978
▁사탕	-11.4978
ney	-11.4978
▁버려진	-11.4978
▁진심	-11.4978
▁부착	-11.4978
함으로서	-11.4978
▁긴장감	-11.4979
▁노엘	-11.498
▁유언	-11.498
▁은행은	-11.4981
▁jp	-11.4982
▁앞서있다	-11.4982
▁테러범이	-11.4983
▁보험금	-11.4983
▁인준	-11.4983
▁파타당	-11.4984
▁분배	-11.4985
▁판결문	-11.4986
▁대통령궁	-11.4986
▁드문	-11.4987
▁대열	-11.4987
▁엔화	-11.4988
▁마샤	-11.4988
▁wh	-11.4988
하였고	-11.4989
▁시청률	-11.4989
▁달렸다	-11.4989
▁효과적으로	-11.499
바인	-11.499
판매	-11.499
▁육성	-11.4991
▁미얀마에서	-11.4992
▁투하	-11.4992
▁쿠즈	-11.4993
▁시합	-11.4993
▁자체적으로	-11.4994
▁상임	-11.4994
▁애정	-11.4994
▁해결에	-11.4994
▁통역	-11.4995
왔으며	-11.4996
▁줄리아	-11.4996
▁공공장소에서	-11.4996
form	-11.5
▁전념	-11.5
▁더미	-11.5
▁일정에	-11.5001
국가대표팀	-11.5002
레시	-11.5003
▁정당화	-11.5003
▁금융계	-11.5003
▁루즈	-11.5004
▁장애물	-11.5004
▁붙였다	-11.5004
▁시작됐으며	-11.5006
▁합법적으로	-11.5007
▁가졌으며	-11.5007
▁계속됐다	-11.5008
▁전인대	-11.5008
▁감수	-11.5008
▁박차	-11.5009
lin	-11.501
▁교실	-11.5012
▁항의했다	-11.5014
▁팔아	-11.5014
▁취업	-11.5015
▁치료법	-11.5015
▁샬	-11.5015
▁치아	-11.5016
▁남부지역	-11.5021
▁캘리포니아에서	-11.5022
▁신선	-11.5027
▁들소	-11.5027
▁합법적인	-11.5028
▁인종차별	-11.5028
▁도시들	-11.5029
▁들어왔다	-11.503
▁펜실베이니아주	-11.503
▁96	-11.5031
▁오르기	-11.5031
▁금주	-11.5031
▁당선자가	-11.5034
▁감행한	-11.5035
▁과정이	-11.5036
관리국	-11.5037
▁의존하고	-11.5037
▁금연법	-11.5038
▁있을까	-11.5041
▁라파	-11.5041
▁만들었	-11.5043
생물학	-11.5045
▁문어	-11.5046
▁내달	-11.5046
▁수영장	-11.5049
▁대통령으로서	-11.5051
▁돌며	-11.5051
▁교착상태에	-11.5053
▁치우	-11.5054
▁동상	-11.5054
▁예상치	-11.5056
▁양곤에서	-11.5061
▁투표소	-11.5061
▁알려졌	-11.5061
▁제압	-11.5062
▁지원했다	-11.5064
▁못했으며	-11.5065
▁올드	-11.5065
▁주심	-11.5066
어서	-11.5066
▁출판사	-11.5067
▁실질적으로	-11.5067
▁전용기	-11.5067
▁목에	-11.5069
▁빼고	-11.507
▁들며	-11.5072
▁연맹	-11.5074
▁비티	-11.5075
▁대면	-11.5075
▁음와	-11.5079
▁왕국	-11.5083
▁기르	-11.5083
▁기업체	-11.5084
▁우주센터	-11.5084
ens	-11.5086
▁서울대	-11.5087
▁내려가	-11.5088
▁견디	-11.5088
▁숨졌	-11.5092
▁적게	-11.5099
시민	-11.5102
▁혼인	-11.5103
ease	-11.5103
▁측면에서	-11.5104
▁없었고	-11.5111
wid	-11.5111
▁운전자들	-11.5113
▁220	-11.5117
▁이행할	-11.5119
▁작전이	-11.5121
▁해법	-11.5121
▁분리주의자들	-11.5122
▁영화관	-11.5127
▁하와	-11.5127
▁집이	-11.5128
▁가계	-11.5129
▁이슬라마바드에서	-11.513
▁홍콩에서	-11.5132
▁카불에서	-11.5132
▁토레	-11.5132
▁호주군	-11.5133
어드	-11.5133
fi	-11.5135
▁과다	-11.5135
▁국가와	-11.5136
▁움	-11.5138
▁궤도에	-11.514
▁평방	-11.514
▁북한군	-11.5143
▁걸리는	-11.5144
▁등정	-11.5146
▁만나고	-11.5147
▁발효	-11.5149
▁중단시키	-11.515
▁랩	-11.5154
▁예고	-11.5155
▁이끌어내	-11.5155
▁손상된	-11.5157
▁자식	-11.5157
▁행정부에	-11.5159
▁장점	-11.516
▁조사팀	-11.5161
▁위반했다	-11.5165
▁모델로	-11.5167
▁변수	-11.5175
▁대응할	-11.5177
▁서명한	-11.5178
머니	-11.5178
▁바라보	-11.518
하느냐	-11.518
란다	-11.5183
▁충돌해	-11.5185
▁일반인	-11.5188
▁다운	-11.5192
리드	-11.5192
▁시민이	-11.5197
▁게임에	-11.5205
훈련	-11.5207
▁등록된	-11.5208
▁이사장	-11.5224
▁경찰관이	-11.5225
▁수용소에	-11.5225
닐	-11.5226
▁착용한	-11.5234
▁전사들	-11.5234
되도록	-11.5237
▁매력적	-11.5238
▁벨리	-11.5238
잡지	-11.5242
▁하우스	-11.5247
첸	-11.5252
재판소	-11.5252
사무소	-11.5255
컬	-11.5255
앞	-11.5258
금융	-11.526
day	-11.5261
▁제조업	-11.5261
▁확보해	-11.5262
변화	-11.5265
▁0.1	-11.5266
▁제기되	-11.5266
모델	-11.5266
▁선정했다	-11.5267
▁마시는	-11.5267
▁컨	-11.527
ps	-11.5271
버거	-11.5274
▁우려해	-11.5275
▁충족	-11.5277
▁돌아왔	-11.5277
▁프로그램에서	-11.528
정치	-11.5282
▁조화	-11.5284
▁회복하고	-11.5285
▁사고기	-11.5286
▁석방에	-11.529
▁요구한다	-11.5297
상품	-11.5299
카트	-11.5301
▁그루	-11.5303
▁나이에	-11.5306
▁구사	-11.5307
▁의문이	-11.531
▁강화된	-11.5314
go	-11.5315
▁페트	-11.5316
▁제의	-11.5318
▁사나	-11.5319
▁유전적	-11.5319
겼으며	-11.5322
▁고등	-11.5324
▁얀	-11.5327
▁공산	-11.5329
▁민영	-11.5331
▁다치	-11.5335
red	-11.5342
▁조장	-11.5342
▁살해하고	-11.5345
▁전비	-11.5356
▁합법적	-11.5364
▁무장세력과	-11.5365
87	-11.5365
▁임명했다	-11.5366
▁트럭이	-11.5366
▁선박들	-11.5375
973	-11.5379
▁적도	-11.5379
▁유대인들	-11.5379
보관소	-11.5381
▁채로	-11.5381
▁하위	-11.5383
▁2008.0	-11.5385
▁공로	-11.5387
▁올림픽에	-11.5389
▁심리적	-11.5391
노스	-11.5394
▁혐의와	-11.5398
▁중태	-11.5398
▁나이로	-11.54
▁팀에	-11.5403
▁폭발물이	-11.5404
▁여겨	-11.5408
▁심리학자	-11.541
▁수단으로	-11.5412
▁느끼지	-11.5416
▁바다에	-11.5417
▁외계	-11.5418
▁가혹	-11.5419
▁십년	-11.542
투자	-11.5423
▁수준에	-11.5425
▁월터	-11.5427
▁미끄러	-11.543
컷	-11.5431
▁정규	-11.5434
▁관리들과	-11.5435
our	-11.5435
ue	-11.5436
메스	-11.5438
겠	-11.5439
대상	-11.5443
어요	-11.5444
▁태어났	-11.5447
▁포기한	-11.5449
▁시달	-11.545
▁안된다	-11.5451
▁일환	-11.5454
▁교회에	-11.5454
ful	-11.5456
▁친척들	-11.5459
▁미주리	-11.5459
획	-11.5461
▁중앙정보	-11.5463
칙	-11.5464
▁뒤따	-11.5464
▁제품들	-11.5464
븐	-11.5464
▁작가들	-11.5466
▁힌두	-11.5467
▁소행이라	-11.5467
랙	-11.5467
돔	-11.5467
펀	-11.5467
뮤	-11.5468
▁앵커	-11.5468
랫	-11.5468
팍	-11.5468
8,000	-11.5468
▁glob	-11.5468
▁rctv	-11.5468
▁support	-11.5468
▁uae	-11.5468
▁window	-11.5468
▁갖췄다	-11.5468
▁갤러리	-11.5468
▁끊어	-11.5468
▁네그로폰테	-11.5468
▁뉴욕상업거래소	-11.5468
▁뚜렷	-11.5468
▁매카트니	-11.5468
▁빨라	-11.5468
▁쓰러져	-11.5468
▁아흐마디네자드	-11.5468
▁않았기	-11.5468
▁영유권	-11.5468
▁와이오밍	-11.5468
▁왜냐하면	-11.5468
▁즈보나레바	-11.5468
▁초콜릿	-11.5468
▁포츠머스	-11.5468
▁해안경비대	-11.5468
▁햇볕	-11.5468
▁현수막	-11.5468
▁흑자	-11.5468
뜯	-11.5468
푼	-11.5468
▁비아그라	-11.5468
▁신생아	-11.5468
▁자민당	-11.5468
▁마리화나	-11.5468
▁www	-11.5468
▁딜런	-11.5468
▁갱단	-11.5468
▁센트럴	-11.5468
▁아폴로	-11.5468
▁홈구장	-11.5468
▁헝가리	-11.5468
▁몰아넣	-11.5468
▁프리츨	-11.5468
▁함부르크	-11.5468
▁무자비	-11.5468
▁해들리	-11.5468
▁하루종일	-11.5468
▁heart	-11.5468
▁아이다호	-11.5468
▁발자국	-11.5468
▁france	-11.5468
▁게놈	-11.5468
▁마스리	-11.5468
▁혜성	-11.5468
▁독특	-11.5468
▁연못	-11.5468
▁다이앤	-11.5468
▁가르시아	-11.5468
▁룰라	-11.5468
▁휴이트	-11.5468
▁봉착	-11.5468
▁에어웨이	-11.5468
▁오스만	-11.5469
▁눈보라	-11.5469
▁cru	-11.5469
▁출항	-11.5469
▁무하마	-11.5469
▁park	-11.5469
▁food	-11.5469
▁게시판	-11.5469
▁중력	-11.5469
▁척추	-11.5469
▁틀림	-11.5469
▁도미니카	-11.5469
▁육박	-11.5469
▁창업자	-11.5469
▁2.13	-11.5469
▁웰스	-11.5469
▁순결	-11.547
▁라싸	-11.547
▁혼잡	-11.547
▁잠비아	-11.547
▁참의원	-11.547
▁피해여성	-11.547
▁잡혔다	-11.547
▁떨어졌습니다	-11.547
▁매도프	-11.547
▁올림픽에서	-11.547
▁경찰관들	-11.5471
▁7.9	-11.5471
▁뒤이어	-11.5471
▁막으려	-11.5471
▁돌풍	-11.5471
▁지방법원	-11.5471
▁거슬러	-11.5471
ncy	-11.5471
▁제이슨	-11.5471
985	-11.5472
▁솔직하	-11.5472
▁faa	-11.5472
▁test	-11.5472
▁스몰	-11.5472
▁low	-11.5472
▁묻혀	-11.5472
▁야외	-11.5473
▁파이프	-11.5473
▁인질극	-11.5474
▁기원전	-11.5474
▁확보에	-11.5474
▁없었으며	-11.5474
▁훔쳐	-11.5475
▁메모리	-11.5475
▁단언	-11.5475
▁내놓았다	-11.5476
▁1945	-11.5476
▁버려	-11.5476
▁법령	-11.5476
▁인텔	-11.5476
▁선고받았다	-11.5477
▁green	-11.5477
▁독립국가	-11.5477
▁초드리	-11.5477
▁조사결과	-11.5478
▁슈퍼대의원	-11.5478
▁해리슨	-11.5478
▁재앙	-11.5478
▁도착하자	-11.5478
▁승진	-11.5478
▁악마	-11.5479
명씩	-11.5481
▁사라질	-11.5481
▁조립	-11.5481
▁복사	-11.5482
▁카이로	-11.5482
▁그곳	-11.5482
▁정박	-11.5482
▁조율	-11.5483
▁예정이지만	-11.5484
▁실감	-11.5484
▁동거	-11.5484
▁숨어	-11.5485
▁촉발된	-11.5486
▁남긴	-11.5486
▁캐나다에서	-11.5487
▁만연	-11.5488
▁투여	-11.5488
▁살리기	-11.549
▁부양	-11.5492
▁구두	-11.5492
▁점심	-11.5493
▁임상	-11.5493
▁노출되	-11.5494
▁크로스	-11.5495
▁케이스	-11.5495
▁인수위원회	-11.5496
ju	-11.5496
▁체포됐으며	-11.5497
▁평론가들은	-11.5497
▁힐러리경	-11.5498
▁측에서는	-11.5498
▁조세	-11.5499
▁들려	-11.5499
▁잠수	-11.5499
▁다행	-11.5499
▁걸음	-11.5499
▁가져왔다	-11.55
▁무거	-11.5501
▁실었다	-11.5503
▁아이오와주	-11.5504
▁제기됐다	-11.5504
▁만회	-11.5504
▁112	-11.5506
▁흐	-11.5507
▁128	-11.5507
▁따내	-11.5507
▁그래픽	-11.5507
▁부재	-11.5508
능력	-11.5509
▁스티	-11.551
▁목성	-11.5511
▁구성원	-11.5512
▁도피	-11.5513
▁고리	-11.5515
▁티나	-11.5516
▁손길	-11.5516
▁레이드	-11.5517
▁기록됐다	-11.5518
▁mp	-11.552
▁따라잡	-11.552
▁배역	-11.5522
▁발견해	-11.5525
▁토드	-11.5525
파크	-11.5525
▁추종자들	-11.5526
▁관광객들에게	-11.5526
▁리우	-11.5526
▁버드	-11.5527
▁os	-11.5528
▁동력	-11.5528
▁번개	-11.5529
▁마루	-11.553
▁사무국장	-11.553
▁포크	-11.553
▁자파	-11.553
▁포즈	-11.5531
▁연구하는	-11.5533
▁발표되지	-11.5536
▁태세	-11.5537
▁본인	-11.5537
▁97	-11.5537
▁참석하는	-11.5538
▁멍	-11.5539
▁ser	-11.554
▁중립	-11.554
▁띠	-11.554
▁head	-11.554
▁해역	-11.5541
▁서구	-11.5543
▁예산안	-11.5544
▁근본적	-11.5547
▁끌어내	-11.555
▁말했으나	-11.5554
▁기용	-11.5555
▁이전에는	-11.5559
▁상승하며	-11.556
▁막았다	-11.5561
▁이제까지	-11.5561
▁여왕이	-11.5562
▁사우	-11.5563
▁집어	-11.5564
▁공개될	-11.5564
▁몰리	-11.5568
▁만지	-11.5572
▁격돌한	-11.5572
시간만	-11.5574
▁혈	-11.5576
▁공격해	-11.5578
▁3.5	-11.558
▁경찰에게	-11.5581
▁추락해	-11.5583
▁ump	-11.5587
▁기각했다	-11.559
▁해안가	-11.5591
▁가야	-11.5596
ord	-11.5597
▁명확한	-11.5601
▁버린	-11.5605
▁시위대에	-11.5609
▁지지했다	-11.561
▁북해	-11.561
▁길게	-11.561
▁본회의	-11.5611
▁편집장	-11.5611
▁방문했	-11.5612
▁나타난다	-11.5619
73	-11.5621
비안	-11.5623
▁날에	-11.5624
▁두번째로	-11.5625
▁노인들	-11.5629
ain	-11.563
▁정해진	-11.5631
▁신뢰할	-11.5633
▁지나간	-11.5633
▁위험하다	-11.5635
▁잘라	-11.5638
▁지켜보고	-11.564
▁차이나	-11.564
만대	-11.5646
▁mid	-11.5653
▁몰아내	-11.5655
water	-11.5657
봤	-11.5657
▁쓰인	-11.5658
▁조심	-11.5659
▁효율	-11.5663
▁낙관	-11.5665
▁포기하고	-11.5666
▁농부들	-11.5667
ill	-11.5671
▁보내지	-11.5681
▁벌여왔	-11.5682
▁연행됐다	-11.5683
▁노린	-11.5684
▁가져가	-11.5689
▁주시하	-11.5692
▁결정하지	-11.5693
▁과거사	-11.5697
데릭	-11.5698
▁않았다면	-11.5702
▁광장에서	-11.5708
▁죽였다	-11.5717
▁하루만	-11.5719
상태에	-11.5719
▁북한측	-11.572
▁경기장에서	-11.572
여년	-11.572
▁노던	-11.5723
▁조사관	-11.5725
▁무대에	-11.5725
살된	-11.5726
▁높이기	-11.5733
▁처했다	-11.5737
mar	-11.5739
979	-11.5739
ast	-11.5744
▁센터에서	-11.575
ties	-11.5751
▁주최한	-11.5755
▁팔레스타인인들	-11.5761
▁개들	-11.5767
▁임무에	-11.5767
접	-11.5767
여건	-11.5768
▁취하	-11.5768
▁외곽에	-11.5769
▁집중적	-11.5773
▁운항이	-11.5775
▁위원회에	-11.5775
▁하나다	-11.5777
물리학	-11.5779
▁걸렸	-11.578
▁션	-11.578
▁대상자	-11.5781
시리즈	-11.5784
뒤	-11.5785
앨	-11.5785
▁주전	-11.5787
▁위협받	-11.5796
워스	-11.5796
▁이라크인들	-11.5798
1.7	-11.5798
아시아	-11.5798
▁아파	-11.5801
에너지	-11.5803
▁주석이	-11.5808
연방	-11.5808
월말	-11.5809
▁타지	-11.5814
▁농부	-11.5819
▁아서	-11.5831
▁별개	-11.5831
▁동물원에서	-11.5832
유지	-11.5834
▁커플은	-11.5843
▁하드	-11.5844
▁정신병	-11.5849
▁재계	-11.586
신원	-11.5861
▁샌프란시스코에서	-11.5867
▁개정된	-11.5867
철도	-11.587
▁주관	-11.5871
▁업무에	-11.5871
▁91	-11.5874
아주	-11.5876
리프	-11.5878
▁부분에서	-11.5879
▁시청자	-11.5883
▁sen	-11.5888
▁이집트에서	-11.5893
▁아사	-11.5902
비드	-11.5902
▁모가디슈	-11.5905
▁회피	-11.5906
▁절반이	-11.5908
▁월스트리트에서	-11.5914
▁135	-11.5917
밀리에	-11.5921
▁중장	-11.5927
▁생산된	-11.5934
▁밀리	-11.5938
벨라	-11.5938
▁동의한다	-11.5941
▁마드리드에서	-11.5944
▁고속도로에서	-11.5944
ition	-11.5947
우며	-11.5948
어지는	-11.5948
▁조사하는	-11.5949
▁호전	-11.595
모리	-11.5951
르트	-11.5951
▁구속됐다	-11.5957
mas	-11.5957
▁측근들	-11.5961
단지	-11.5963
▁금요일에	-11.5963
71	-11.5969
▁일년	-11.5971
▁방문한다	-11.5971
계약	-11.5982
▁right	-11.5983
▁해외로	-11.5986
▁감염되	-11.5987
▁서기	-11.5988
했거나	-11.5988
▁꼬리	-11.5989
듬	-11.5992
깃	-11.5992
▁meet	-11.5992
▁첨단	-11.5994
▁북대서양	-11.5994
2007.01	-11.5994
employ	-11.5994
▁economy	-11.5994
▁hostage	-11.5994
▁strike	-11.5994
▁travel	-11.5994
▁가깝게	-11.5994
▁가솔린	-11.5994
▁꿀벌	-11.5994
▁낳았다	-11.5994
▁니스텔로이	-11.5994
▁동성결혼	-11.5994
▁디스플레이	-11.5994
▁르완다	-11.5994
▁리트비넨코	-11.5994
▁메르세데스	-11.5994
▁미항공우주국	-11.5994
▁바랍니다	-11.5994
▁박정희	-11.5994
▁방코델타아시아	-11.5994
▁버틀러	-11.5994
▁베를루스코니	-11.5994
▁불매운동	-11.5994
▁성매매	-11.5994
▁심장질환	-11.5994
▁아제르바이잔	-11.5994
▁앙카라	-11.5994
▁애틀랜티스호	-11.5994
▁옥스포드	-11.5994
▁요하네스버그	-11.5994
▁인공위성	-11.5994
▁정권인수팀	-11.5994
▁좋겠다	-11.5994
▁즐거움	-11.5994
▁찍힌	-11.5994
▁칠면조	-11.5994
▁키드먼	-11.5994
▁토튼햄	-11.5994
▁핸드폰	-11.5994
늄	-11.5994
늬	-11.5994
옌	-11.5994
콥	-11.5994
펙	-11.5994
▁power	-11.5994
▁노워크	-11.5994
▁니제르	-11.5994
▁밀라노	-11.5994
▁스즈키	-11.5994
▁재규어	-11.5994
▁합법화	-11.5994
▁usgs	-11.5994
▁순이익	-11.5994
▁영사관	-11.5994
▁조선일보	-11.5994
▁나뉘어	-11.5994
▁원자재	-11.5994
▁카펠로	-11.5994
▁로날드	-11.5994
▁오사카	-11.5994
▁사직서	-11.5994
▁예정이었으나	-11.5994
▁대운하	-11.5994
▁선거유세	-11.5994
▁비너스	-11.5994
▁핀란드	-11.5994
▁징조	-11.5994
▁셰퍼드	-11.5994
▁막바지	-11.5994
▁좌우	-11.5994
▁사형선고	-11.5994
▁관절염	-11.5994
▁나이트클럽	-11.5994
▁그려진	-11.5994
▁페라로	-11.5994
▁블랙워터	-11.5994
▁강원도	-11.5994
▁묵념	-11.5994
▁프라이스	-11.5994
▁참혹	-11.5994
▁번화가	-11.5994
▁그리핀	-11.5994
▁반짝이	-11.5994
▁몸싸움	-11.5995
▁노숙자	-11.5995
▁아이튠	-11.5995
▁체첸	-11.5995
▁하이킹	-11.5995
▁액션	-11.5995
▁드라이브	-11.5995
▁파란색	-11.5995
▁빠져나가	-11.5995
▁역전승	-11.5995
▁와일드	-11.5995
▁bill	-11.5995
▁휘말	-11.5995
▁인내심	-11.5995
point	-11.5995
▁쉽다	-11.5996
▁재건축	-11.5996
▁그린존	-11.5996
▁바오로	-11.5996
▁군복무	-11.5996
▁잠수함	-11.5996
▁크리스틴	-11.5996
▁관례	-11.5996
▁형벌	-11.5996
▁부유층	-11.5997
▁넘겼다	-11.5997
▁쏟아져	-11.5997
▁휴먼	-11.5997
▁1983	-11.5997
▁정회장	-11.5997
▁오닐	-11.5997
▁파라오	-11.5997
▁불빛	-11.5997
▁놓인	-11.5997
▁soldiers	-11.5997
▁가정집	-11.5998
▁요구사항	-11.5999
▁연봉	-11.5999
▁생물체	-11.5999
▁꾸미	-11.5999
▁터져	-11.5999
▁환급	-11.6
▁표범	-11.6
있지	-11.6
▁직무	-11.6
▁괴물	-11.6
▁난항	-11.6
▁소방차	-11.6001
▁부국장	-11.6001
▁라이더	-11.6001
▁숨져	-11.6001
▁아흐메드	-11.6002
▁저격	-11.6002
▁그레이스	-11.6002
▁마스크	-11.6003
▁deal	-11.6003
▁들렸다	-11.6003
▁미주리주	-11.6003
▁푸미	-11.6004
▁샤리아	-11.6004
▁곤경에	-11.6004
▁어디서	-11.6004
▁명절	-11.6004
▁기다렸다	-11.6005
▁카누	-11.6005
▁사귀	-11.6005
▁티모	-11.6005
▁가져오	-11.6005
▁접종	-11.6006
▁개체	-11.6006
▁기준에	-11.6006
▁난처	-11.6006
▁아비	-11.6007
▁만들어졌다	-11.6007
▁속출	-11.6007
▁반란군	-11.6007
▁사과문	-11.6008
▁드러나	-11.6008
▁이용했다	-11.6008
▁허브	-11.6008
클라	-11.6008
▁경감	-11.6009
▁보였으며	-11.6009
▁미시건주	-11.6009
▁통과된	-11.6009
▁aft	-11.6009
▁며칠간	-11.601
▁비틀	-11.6011
▁굽	-11.6012
▁카렌	-11.6012
▁지켜봤다	-11.6012
▁각료회의	-11.6012
▁사립	-11.6014
ness	-11.6014
▁표정	-11.6014
▁루이지애나주	-11.6015
신고서	-11.6015
▁공작	-11.6016
▁생길	-11.6016
▁제약회사	-11.6016
▁테디	-11.6016
▁유타주	-11.6017
▁그런데	-11.6018
▁구제금융안	-11.6018
▁매설	-11.602
▁570	-11.6021
▁이르다	-11.6021
▁벤치	-11.6022
▁예상한	-11.6023
▁형량	-11.6023
▁해커	-11.6023
▁반세기	-11.6024
▁소송에서	-11.6026
▁치타	-11.6028
그램	-11.6029
메이어	-11.603
▁주장했었다	-11.603
▁로열	-11.6031
▁들어있다	-11.6032
▁펜실베니아주	-11.6032
▁외신	-11.6033
▁360	-11.6034
▁불행한	-11.6034
▁거행	-11.6036
▁국가들에	-11.6037
▁째	-11.6038
▁친분	-11.604
▁돌진	-11.6042
▁저하	-11.6042
▁구직	-11.6042
▁히스	-11.6044
▁정보원	-11.6044
▁의약	-11.6045
▁블루스	-11.6045
▁set	-11.6046
▁총력	-11.6046
▁날려	-11.6046
men	-11.6047
▁압도적으로	-11.6048
▁연관성	-11.6049
▁페어	-11.605
▁은신	-11.605
▁반경	-11.6052
▁카카	-11.6054
▁회복세	-11.6054
▁루트	-11.6054
▁미션	-11.6055
▁끝나기	-11.6055
▁쉴	-11.6056
▁인내	-11.6057
▁찔	-11.6059
▁소령은	-11.6059
▁최다	-11.606
▁자질	-11.6061
▁기조	-11.6061
전화	-11.6062
스프링스	-11.6062
▁민족주의	-11.6062
rate	-11.6062
▁플로리다에	-11.6063
▁입원해	-11.6066
▁의거	-11.6069
▁가담한	-11.6069
▁퓨	-11.607
▁수송기	-11.6071
▁분주	-11.6074
▁밝혔고	-11.6076
▁우표	-11.6077
▁보잉사	-11.6078
▁천국	-11.6078
▁산책로	-11.6078
▁위원회에서	-11.6079
▁우수	-11.608
▁벌인다	-11.6082
▁무너지고	-11.6086
▁나포	-11.6086
▁구속력	-11.6087
▁urge	-11.6087
▁질병에	-11.609
▁나간	-11.6092
타카	-11.6092
▁상징으로	-11.6093
▁연합통신	-11.6094
▁스트리트	-11.6094
we	-11.6094
▁건스	-11.6095
▁나노	-11.6098
▁되었	-11.6098
▁주행	-11.61
▁한창	-11.61
▁cut	-11.6101
▁파악하	-11.6104
▁복도	-11.6105
▁타개	-11.6105
▁총회에서	-11.6108
▁소원	-11.611
ham	-11.6112
▁촬영된	-11.6113
▁국경지역에서	-11.6116
▁라드	-11.6117
▁모색하고	-11.612
▁크루	-11.6123
플레	-11.6124
▁rock	-11.6126
▁보이지만	-11.6128
▁국가적	-11.6129
▁정서	-11.6134
▁책상	-11.6136
▁설립했다	-11.6138
▁석유회사	-11.6139
▁인사들과	-11.614
▁다닐	-11.6145
요원들	-11.6146
▁교사들	-11.6146
▁주제로	-11.6148
▁놓치	-11.6148
▁통신에	-11.6148
▁교류	-11.6158
▁법규	-11.6159
▁이겼다	-11.616
dition	-11.616
ler	-11.6167
였음	-11.6169
가렛	-11.6172
▁수사관들	-11.6172
▁얼굴에	-11.6173
듯이	-11.6175
▁판매되	-11.6175
▁내부에서	-11.6175
▁인종적	-11.6177
▁2007.08	-11.6177
▁건물들	-11.6177
▁프린	-11.6187
▁진압하기	-11.6188
▁증상이	-11.6189
▁매춘부	-11.619
▁결혼한	-11.619
▁추방된	-11.6193
der	-11.6194
▁클레이	-11.6194
▁지시한	-11.6195
arly	-11.6196
▁부각	-11.6199
▁comp	-11.6202
▁바에따르면	-11.6202
▁남쪽에	-11.6202
▁설명하지	-11.6208
52	-11.6211
▁보니	-11.6212
상자	-11.6213
▁원주민들	-11.6213
명이었다	-11.6216
▁1.2	-11.6218
▁컬	-11.622
▁청문회에서	-11.622
▁대장	-11.6222
▁롭	-11.6225
▁다르지	-11.6225
이어서	-11.6226
▁비난해	-11.6229
제작	-11.6229
▁행복한	-11.6229
▁들어왔	-11.6229
▁얻었	-11.6231
▁기독교인	-11.6231
문제에	-11.6234
72	-11.6237
▁매도	-11.624
▁환경에서	-11.624
▁미안	-11.624
▁조심스럽	-11.624
▁인질들은	-11.6241
▁독자적	-11.6245
▁여당이	-11.6246
▁심리에서	-11.6249
▁일했다	-11.6253
▁따르지	-11.6255
▁회사에서	-11.6255
▁참여하고	-11.6255
▁영향으로	-11.6257
▁실직자	-11.6258
카니	-11.626
▁사령관이	-11.6265
▁콜로	-11.6267
▁때보다	-11.627
자키	-11.6271
마트	-11.6277
ark	-11.6277
바락	-11.6278
▁sea	-11.628
▁관여하	-11.6281
▁배우자	-11.6282
▁top	-11.6284
▁통과했다	-11.6288
▁주어진	-11.6289
▁고독	-11.629
▁그녀에게	-11.6293
▁거부할	-11.6293
▁통신원	-11.6293
▁84	-11.6298
대통령	-11.6306
▁북쪽에	-11.6308
▁드리	-11.6308
▁시드니에서	-11.631
▁poll	-11.6315
밤	-11.632
▁목적지	-11.6323
▁1,2	-11.6328
▁존재하지	-11.6328
▁희생됐다	-11.6331
▁정상회담에	-11.6333
랩	-11.6336
▁권했다	-11.6336
2005.1	-11.6336
프로그램	-11.6337
open	-11.6337
붙	-11.6338
턱	-11.6338
▁번호	-11.6339
클럽	-11.6341
최초	-11.6341
▁상반	-11.6342
▁추측이	-11.6343
▁이어져	-11.6345
▁가시	-11.6345
지휘	-11.6345
▁들어있	-11.6348
▁죽고	-11.635
진압	-11.6353
▁져야	-11.6355
aut	-11.6358
pt	-11.636
▁도발적	-11.6361
▁자원봉사자들	-11.6363
▁바라지	-11.6363
▁거부하는	-11.6366
▁국무장관과	-11.6366
▁기기	-11.637
▁중앙일보는	-11.6394
할지도	-11.6396
uni	-11.6405
▁보스	-11.6405
▁싶어하	-11.6408
▁미미	-11.6409
▁210	-11.6411
▁관람객	-11.6415
ound	-11.6416
▁어기	-11.642
천여	-11.6422
▁벌이다	-11.6423
▁지었다	-11.6428
▁변호사와	-11.6429
할때	-11.6443
▁구속했다	-11.6444
▁차량과	-11.6453
▁여론조사에	-11.6453
▁만들어지	-11.6461
▁훔	-11.6464
▁롱	-11.6467
▁ko	-11.6467
저널	-11.6472
▁죽음이	-11.6473
▁동원됐다	-11.6474
▁호스	-11.6478
▁126	-11.648
▁방에서	-11.6484
▁제국	-11.649
▁임원들	-11.6491
▁힘들었	-11.6496
▁노출된	-11.6497
▁현대적	-11.6497
▁소방서	-11.6497
▁달했다	-11.6498
action	-11.6499
▁제작했다	-11.6499
▁고통스러	-11.6504
▁마티	-11.6517
▁corp	-11.6517
▁사원에	-11.6517
▁반대해	-11.652
▁정교	-11.6521
▁사진기자	-11.6521
▁극단주의	-11.6524
▁권장	-11.6524
ana	-11.6526
심리	-11.6529
▁재확인	-11.6531
▁바람직	-11.6532
▁계열	-11.6532
▁다해	-11.6532
▁파예드는	-11.6533
▁유학	-11.6534
illi	-11.6536
▁service	-11.6537
▁역설	-11.6538
홉	-11.6546
▁무효	-11.6547
쇠	-11.6548
▁kill	-11.6548
궐	-11.6549
▁살모넬라	-11.6549
톡	-11.6549
▁200809.0	-11.6549
▁business	-11.6549
▁california	-11.6549
▁committee	-11.6549
▁dead	-11.6549
▁epl	-11.6549
▁isaf	-11.6549
▁nhc	-11.6549
▁paris	-11.6549
▁return	-11.6549
▁개성공단	-11.6549
▁걸림돌	-11.6549
▁경기후퇴	-11.6549
▁국제올림픽위원회	-11.6549
▁금강산	-11.6549
▁긱스	-11.6549
▁남우주연상	-11.6549
▁뉴잉글랜드	-11.6549
▁늦추	-11.6549
▁대니얼	-11.6549
▁독극물	-11.6549
▁라크시미	-11.6549
▁상임이사국	-11.6549
▁샌안토니오	-11.6549
▁서둘러	-11.6549
▁선거기부금	-11.6549
▁세골렌	-11.6549
▁신행정수도	-11.6549
▁악천후	-11.6549
▁애슐리	-11.6549
▁옮겼다	-11.6549
▁유엔사무총장	-11.6549
▁이바노비치	-11.6549
▁자르카위	-11.6549
▁재결합	-11.6549
▁제퍼슨	-11.6549
▁지켰다	-11.6549
▁췌장암	-11.6549
▁컸다	-11.6549
▁쿠즈넷소바	-11.6549
▁키티호크	-11.6549
▁하드웨어	-11.6549
▁헐리우드	-11.6549
▁화성탐사	-11.6549
▁히스패닉	-11.6549
습니까	-11.6549
시켰으며	-11.6549
쯔	-11.6549
캇	-11.6549
▁grow	-11.6549
▁대법관	-11.6549
▁새크라멘토	-11.6549
▁석유수출	-11.6549
▁아프카니스탄	-11.6549
▁즐거운	-11.6549
sweek	-11.6549
▁나타날	-11.6549
▁불공정	-11.6549
▁승부차기	-11.6549
▁엑스파일	-11.6549
▁추기경	-11.6549
▁깁슨	-11.655
▁유동성	-11.655
▁회교도	-11.655
▁희귀	-11.655
▁개구리	-11.655
▁루카스	-11.655
▁백과사전	-11.655
▁하니야	-11.655
▁깁스	-11.655
▁산체스	-11.655
▁다둘라	-11.655
▁어쩔	-11.655
▁즐겁	-11.655
▁million	-11.655
▁바시르	-11.655
▁어렸을	-11.655
▁music	-11.655
▁캐롤라인	-11.655
▁진짜	-11.655
▁진상조사	-11.655
▁그만두	-11.655
으므로	-11.655
▁익숙	-11.655
▁적혀있	-11.655
▁욕구	-11.655
▁게이머	-11.655
▁바레인	-11.655
▁탈퇴	-11.655
▁글로리아	-11.6551
▁시달리	-11.6551
▁부모님	-11.6551
▁음향	-11.6551
▁항구도시	-11.6551
▁궁금	-11.6551
▁즐겨	-11.6551
▁기념행사	-11.6551
▁스프레이	-11.6551
▁four	-11.6551
▁잠자리	-11.6551
▁쿠마르	-11.6551
▁밀매	-11.6551
▁출현	-11.6551
▁핵연료	-11.6551
▁벌어질	-11.6552
▁run	-11.6552
▁오래전부터	-11.6552
height	-11.6552
브리지	-11.6552
▁uci	-11.6552
▁잠겨	-11.6552
▁플루	-11.6552
▁호황	-11.6552
▁case	-11.6552
▁big	-11.6552
▁어워드	-11.6553
▁양육	-11.6553
▁액체	-11.6553
▁헌법에	-11.6553
▁디젤	-11.6553
▁평화협정	-11.6553
▁어윈	-11.6554
▁컬럼비아호	-11.6554
▁들어올	-11.6554
▁빙산	-11.6554
▁오디오	-11.6554
▁bid	-11.6554
▁시행되	-11.6554
▁실망감	-11.6554
▁표결에	-11.6554
▁옮겨졌다	-11.6554
▁찰리	-11.6555
▁루머	-11.6555
▁국제축구연맹	-11.6556
▁버리고	-11.6557
▁카타르	-11.6557
▁기네스	-11.6557
▁attacks	-11.6557
▁에밀리	-11.6557
▁무척	-11.6557
▁중동평화회의	-11.6557
▁이어갔다	-11.6558
▁오리건주	-11.6558
▁모여들었다	-11.6558
▁표본	-11.6558
▁강철	-11.6559
▁의논	-11.656
▁집결	-11.656
▁충성	-11.6561
▁누출	-11.6561
ood	-11.6561
▁과속	-11.6561
▁빅토	-11.6561
▁교도통신	-11.6562
▁꺼내	-11.6562
▁과감	-11.6563
▁현저	-11.6563
화씨	-11.6563
▁별장	-11.6563
▁자국민	-11.6564
▁탈선	-11.6564
▁궁극적으로	-11.6565
▁기대감	-11.6565
▁ces	-11.6565
▁제왕	-11.6567
▁밝혀질	-11.6568
▁770	-11.6568
▁삼바	-11.6568
▁진동	-11.6568
▁출산율	-11.6569
▁king	-11.6569
▁소유즈	-11.657
▁어류	-11.6571
▁종사하	-11.6571
▁눈으로	-11.6571
▁다름	-11.6572
▁통제권	-11.6572
▁로렌스	-11.6573
▁won	-11.6574
▁확정된	-11.6574
▁수익금	-11.6575
▁않을까	-11.6575
▁로렌	-11.6575
▁불량	-11.6576
▁비스타	-11.6576
▁1930	-11.6576
▁점유	-11.6578
▁김영	-11.6578
▁토티	-11.6578
▁지지해	-11.6578
▁진척	-11.6579
▁적법	-11.6579
▁코란	-11.6579
▁정복	-11.658
▁애리조나주	-11.658
▁가져야	-11.6581
▁2007.02	-11.6581
▁변호인단	-11.6582
▁감당	-11.6583
▁센터에	-11.6584
▁망치	-11.6584
▁지하실	-11.6584
▁촉진시키	-11.6584
eic	-11.6585
▁친미	-11.6585
▁알아야	-11.6587
▁싶다면	-11.6588
▁사료	-11.6588
▁여러차례	-11.659
▁원형	-11.6591
▁성실	-11.6592
▁수사팀	-11.6592
▁썩	-11.6593
▁파이낸셜	-11.6593
▁자동차업체	-11.6593
▁항공편	-11.6595
▁난관	-11.6595
▁돌파구	-11.6595
▁come	-11.6595
▁북극해	-11.6596
▁세상에	-11.6597
▁부의장	-11.6599
▁아담스	-11.66
▁4500	-11.6601
▁거울	-11.6602
▁소비자들에게	-11.6602
▁선교	-11.6602
▁bet	-11.6602
▁준결승전에서	-11.6604
▁벗어나기	-11.6605
▁바탕으로	-11.6607
▁부패혐의	-11.661
▁사용하여	-11.661
▁원내	-11.6611
▁가혹한	-11.6612
▁병장	-11.6612
▁되자	-11.6615
88	-11.6615
dy	-11.6616
▁1300	-11.6618
▁리마	-11.6618
▁안았다	-11.6621
▁정부측	-11.6623
▁레비	-11.6623
▁지냈다	-11.6623
▁분개	-11.6624
▁군용	-11.6625
▁변하지	-11.6626
▁자백	-11.6628
호선	-11.6628
▁발명	-11.663
▁장군이	-11.663
▁새우	-11.6632
▁지질학	-11.6632
대학교	-11.6634
▁수십만	-11.6634
▁대미	-11.6641
▁클라인	-11.6644
▁쿠폰	-11.6645
▁계약서	-11.6645
▁스티븐스	-11.6645
▁체스	-11.6647
세대	-11.6651
▁주말까지	-11.6658
▁확정됐다	-11.6662
▁선서	-11.6663
▁중심부에서	-11.6664
군요	-11.6664
▁플로리다에서	-11.6671
▁허용했다	-11.6673
▁공약으로	-11.6673
▁말레이시아에서	-11.6674
▁이해하고	-11.6679
▁운동화	-11.6679
▁카라치에서	-11.6682
▁트럭에	-11.6683
▁육지	-11.6684
▁조사관들	-11.6685
▁축하하기	-11.6686
92	-11.6686
▁바꾸기	-11.669
▁2.4	-11.6691
▁물건들	-11.6697
▁나빠	-11.6697
▁거주자	-11.6698
▁한국어	-11.6699
▁살아있	-11.67
▁결정적	-11.6709
▁통제하는	-11.6709
▁떠나기	-11.6714
▁그외	-11.6716
우리	-11.6717
▁뒷받침	-11.6717
하드	-11.6724
하다며	-11.6725
▁철회할	-11.6726
▁사령부	-11.673
▁생사	-11.6734
▁음식점	-11.6734
▁승인한	-11.6735
▁농장에서	-11.6738
▁가루	-11.6738
탈루	-11.6744
▁취하는	-11.6745
▁신뢰도	-11.6746
▁이재민들	-11.675
▁청와대에서	-11.6755
▁191	-11.6764
▁다양성	-11.6766
루드	-11.6766
▁블로거	-11.6767
▁under	-11.6772
타스	-11.6774
▁중심부에	-11.6774
▁누구에게	-11.6776
롤라	-11.678
▁장애인	-11.6784
▁중단해야	-11.6784
ge	-11.6785
▁농구	-11.6787
▁사용된다	-11.6788
▁생산성	-11.6788
▁깨고	-11.6796
▁베니스	-11.6802
▁폭도	-11.6803
해왔으며	-11.6803
▁개별	-11.6806
▁연구자들	-11.6809
▁사라져	-11.6809
▁부위에	-11.6813
tter	-11.682
▁적었다	-11.6823
▁320	-11.6826
az	-11.6829
▁이해하는	-11.6829
1974	-11.6829
▁살아있다	-11.6833
▁대위	-11.6834
드미	-11.6846
▁주어지	-11.6859
▁오르고	-11.6862
▁컴	-11.687
▁way	-11.687
▁우승했다	-11.6873
▁주식시장에서	-11.6875
▁웬	-11.6878
▁채워	-11.6879
▁협력해	-11.6883
▁중위	-11.6887
▁물자	-11.6888
▁넘었다	-11.6889
▁타계했다	-11.689
▁관중들	-11.6894
▁환자에게	-11.6899
▁예루살렘에서	-11.6904
▁생명에	-11.6911
▁정상들이	-11.6911
▁파티에	-11.6911
▁우주국	-11.6913
죽	-11.6917
▁집권한	-11.692
▁합류했다	-11.692
▁다나	-11.6922
▁오르지	-11.6922
▁마련하고	-11.6924
페이스	-11.6926
쥐	-11.6927
▁상점들	-11.6927
랭킹	-11.6929
잘	-11.6929
▁생겼	-11.693
보험	-11.6931
▁흥분한	-11.6935
▁출연할	-11.6937
혁	-11.6938
▁흔적이	-11.6939
업무	-11.694
▁분리된	-11.6943
▁살기	-11.6945
▁사회에서	-11.6948
바오	-11.6948
▁cas	-11.6951
집단	-11.6951
▁감소하고	-11.6953
▁2.2	-11.6955
신청	-11.6958
▁갖지	-11.6966
▁체포됐	-11.6972
▁wi	-11.6972
▁되는데	-11.6974
▁경우에는	-11.6974
▁무장세력들	-11.6975
특사	-11.6975
▁혁신적	-11.698
▁같지	-11.6985
▁텐	-11.6985
▁시작된다	-11.6986
▁제한된	-11.6991
▁전화기	-11.6996
시절	-11.6998
시키다	-11.7
▁자동차회사	-11.7005
▁기존에	-11.7005
▁금지했다	-11.7014
▁내역	-11.7018
중단	-11.703
▁거점	-11.7037
▁해변에	-11.7043
▁냈	-11.7044
▁nation	-11.7046
라프	-11.7048
▁결정하는	-11.7053
▁대부	-11.7058
▁대항하는	-11.7059
공원	-11.7061
▁270	-11.7062
운영	-11.7063
▁당사자들	-11.7064
▁소실	-11.7068
▁자백했다	-11.7072
▁지배하	-11.7075
글판	-11.7075
▁cur	-11.7076
06	-11.7077
▁분리주의	-11.708
38	-11.7082
▁이슬람교도	-11.7083
▁아프간군	-11.7085
▁프레이	-11.7087
효	-11.7088
▁요청으로	-11.709
차관	-11.7098
▁죽어	-11.7105
▁국민과	-11.7105
▁메디컬	-11.7109
▁보라	-11.7109
▁라만	-11.7118
▁일축	-11.712
▁미시건	-11.7121
나요	-11.7122
▁브랜	-11.7123
주일간	-11.7124
▁준결승	-11.7127
▁상기	-11.7129
▁주차장	-11.713
랍	-11.7132
셉	-11.7134
둬	-11.7134
륜	-11.7135
왓	-11.7136
▁act	-11.7137
ugh	-11.7138
놔	-11.7138
툰	-11.7138
팽	-11.7138
▁church	-11.7138
▁demand	-11.7138
▁eads	-11.7138
▁earth	-11.7138
▁iwc	-11.7138
▁organization	-11.7138
▁program	-11.7138
▁unhcr	-11.7138
▁검정색	-11.7138
▁고르바초프	-11.7138
▁공상과학	-11.7138
▁굉장히	-11.7138
▁구소련	-11.7138
▁국영언론	-11.7138
▁뇌졸중	-11.7138
▁더글라스	-11.7138
▁듣게	-11.7138
▁리우데자네이루	-11.7138
▁먹어	-11.7138
▁메릴린치	-11.7138
▁몰랐다	-11.7138
▁미확인	-11.7138
▁민주노동당	-11.7138
▁바나프샤	-11.7138
▁볼티모어	-11.7138
▁블래터	-11.7138
▁빈민층	-11.7138
▁스필버그	-11.7138
▁시에라리온	-11.7138
▁식품의약국	-11.7138
▁신시내티	-11.7138
▁아디다스	-11.7138
▁않았었다	-11.7138
▁암스테르담	-11.7138
▁여중생	-11.7138
▁예방접종	-11.7138
▁위태롭게	-11.7138
▁인신매매	-11.7138
▁자페타	-11.7138
▁조류독감	-11.7138
▁좁혀	-11.7138
▁준이치로	-11.7138
▁찍어	-11.7138
▁타이타닉	-11.7138
▁트러스트	-11.7138
▁트리폴리	-11.7138
▁포유류	-11.7138
▁햇빛	-11.7138
▁확립	-11.7138
▁흩어져	-11.7138
뚝	-11.7138
띤	-11.7138
샨	-11.7138
퐁	-11.7138
▁gdp	-11.7138
▁마스터즈	-11.7138
▁솔직히	-11.7138
▁언젠가	-11.7138
▁영업이익	-11.7138
▁정찰위성	-11.7138
▁항공모함	-11.7138
▁헤드폰	-11.7138
▁kbs	-11.7138
▁다이어트	-11.7138
▁정보통신부	-11.7138
▁쿼터백	-11.7138
▁사이언스	-11.7138
▁존엄성	-11.7138
▁irna	-11.7138
▁메이도프	-11.7138
▁상무부	-11.7138
▁에스트라다	-11.7138
▁타디치	-11.7138
▁하토야	-11.7138
▁thai	-11.7138
▁흥정	-11.7138
▁대성당	-11.7138
▁버나드	-11.7138
▁카펫	-11.7138
▁치뤄	-11.7138
▁놀이공원	-11.7138
▁스틸러스	-11.7138
▁강대국	-11.7138
▁버크헤드	-11.7138
▁사진작가	-11.7138
▁고등학생	-11.7138
▁경수로	-11.7138
▁씨앗	-11.7138
▁특혜	-11.7138
▁패트로스	-11.7138
▁senate	-11.7138
▁슬픈	-11.7138
▁통합민주당	-11.7138
▁journal	-11.7138
▁북아일랜드	-11.7138
▁정착촌	-11.7138
▁트랙	-11.7138
▁작가조합	-11.7138
▁당뇨병	-11.7138
▁낭독	-11.7138
▁침착하	-11.7138
▁도망쳤다	-11.7138
▁현대자동차	-11.7139
▁출혈	-11.7139
▁휴전협정	-11.7139
▁블랙홀	-11.7139
▁mtv	-11.7139
▁체험	-11.7139
▁클릭	-11.7139
▁고아원	-11.7139
▁크랜	-11.7139
▁볼드윈	-11.7139
▁헬렌	-11.714
▁식별	-11.714
▁총파업	-11.714
▁tsa	-11.714
▁항의시위	-11.714
▁007	-11.714
▁유대교	-11.714
▁신흥	-11.714
▁리옹	-11.714
▁십자가	-11.714
▁출처	-11.714
▁force	-11.714
▁키팅	-11.7141
▁극도로	-11.7141
▁내륙	-11.7141
▁조세프	-11.7141
▁다저스	-11.7141
▁전해진	-11.7142
▁절망	-11.7142
▁계승	-11.7142
▁부활절	-11.7142
▁탄원서	-11.7142
▁몰락	-11.7142
▁무장조직	-11.7142
▁단원	-11.7142
▁무효화	-11.7142
▁연립	-11.7143
▁살인사건	-11.7143
▁취하기	-11.7144
▁통신망	-11.7144
▁용감	-11.7144
▁프린트	-11.7144
▁완구	-11.7144
▁제휴	-11.7145
▁머무르	-11.7145
▁흠	-11.7145
▁최신작	-11.7145
▁올라왔다	-11.7145
▁엔론	-11.7145
▁1967	-11.7145
▁운용	-11.7145
▁ask	-11.7145
▁검역	-11.7146
▁종목	-11.7146
▁환경단체	-11.7146
▁야망	-11.7146
▁돌렸다	-11.7146
▁평화롭	-11.7146
▁로리언	-11.7146
▁축복	-11.7146
▁즉석	-11.7147
▁최장	-11.7147
▁나토군이	-11.7147
▁피켓	-11.7147
▁경찰국장	-11.7148
▁inc	-11.7148
▁청산	-11.7148
▁켄트	-11.7148
▁절정	-11.7149
▁물리학자	-11.7149
▁오델	-11.7149
▁상환	-11.715
▁근방	-11.715
▁소년병	-11.715
▁열광	-11.715
▁폴락	-11.7151
▁넘긴	-11.7151
▁할렘	-11.7152
▁야채	-11.7152
▁최적	-11.7152
▁견제	-11.7153
▁aids	-11.7154
▁강탈	-11.7154
▁2015	-11.7155
▁보내졌다	-11.7155
▁years	-11.7155
▁worker	-11.7155
▁737	-11.7156
▁오찬	-11.7157
▁귀중	-11.7157
▁흔들며	-11.7157
▁국무회의	-11.7159
▁화면에	-11.7159
▁관제	-11.7159
org	-11.716
▁악수	-11.7161
▁의장직	-11.7161
▁발령했다	-11.7162
▁타워	-11.7162
▁휴전선	-11.7163
▁황소	-11.7163
▁단계로	-11.7164
▁밀크	-11.7167
▁테크	-11.7169
▁배출량	-11.717
▁참석자들	-11.717
▁배아줄기세포	-11.7171
▁주의보	-11.7172
▁공동체	-11.7172
cle	-11.7172
▁영하	-11.7172
▁격전	-11.7172
짐에따라	-11.7173
▁결선	-11.7173
▁파란	-11.7173
▁소포	-11.7173
▁자재	-11.7174
▁정문	-11.7174
▁진술서	-11.7175
펠드	-11.7176
▁기자실	-11.7178
▁바다위	-11.7178
먼트	-11.7179
▁지상군	-11.718
▁중요하게	-11.7182
▁생물학자	-11.7183
▁체력	-11.7184
▁메모리얼	-11.7184
▁개통	-11.7186
ag	-11.7186
▁틸리	-11.7187
▁관용	-11.7188
▁부친	-11.7188
▁세울	-11.7189
▁희생된	-11.719
▁어조	-11.719
▁실업자	-11.719
▁총리실	-11.7192
▁찾아야	-11.7194
▁고객들에게	-11.7195
▁내외	-11.7196
▁뻔	-11.7197
군사훈련	-11.7199
▁캐시	-11.72
▁크리	-11.7202
▁개제	-11.7203
▁루스	-11.7203
▁압력에	-11.7204
▁처사	-11.7206
저스	-11.7206
▁아마드	-11.7206
▁허가했다	-11.7207
▁쇼에서	-11.7209
▁시급	-11.721
▁공석	-11.721
스럽다	-11.7211
▁노동조합	-11.7211
▁사업체	-11.7211
▁건물들이	-11.7213
▁불법적으로	-11.7214
▁당사자	-11.7214
▁기본적으로	-11.7215
▁헌법상	-11.7216
투성이	-11.7217
▁회의적	-11.7217
▁마신	-11.7219
됐음	-11.722
▁보건장관	-11.7222
▁손잡	-11.7223
▁유지될	-11.7223
▁보이기	-11.7225
학술	-11.7226
▁마오	-11.7227
▁통과시키	-11.723
▁반대파	-11.7232
▁장르	-11.7233
▁정찰기	-11.7233
▁소치	-11.7234
▁스토	-11.7235
▁딱	-11.7237
▁매진	-11.7241
▁왔었다	-11.7242
▁구조물	-11.7242
▁집행위원	-11.7243
▁태워	-11.7244
▁발사됐다	-11.7245
▁위력	-11.7246
▁부탁했다	-11.7247
▁장군과	-11.7248
▁확산되는	-11.7249
▁보내며	-11.725
▁놈	-11.725
받지	-11.7253
94	-11.7255
▁해왔	-11.7256
▁패했다	-11.7257
▁자진	-11.7258
▁이슬람교도들	-11.726
▁문화원	-11.7261
▁꼬	-11.7261
▁미렌	-11.7261
▁숨어있	-11.7262
▁천장	-11.7267
▁원석	-11.7267
▁영화계	-11.727
헌재	-11.7271
▁등교	-11.7273
▁집계됐다	-11.7274
▁급락했다	-11.7276
▁셈	-11.7277
▁107	-11.7277
▁승리해야	-11.7279
▁지휘자	-11.7279
▁수염	-11.7283
well	-11.7284
▁조니	-11.7285
▁에너지부	-11.7286
▁깨어	-11.7287
▁보석으로	-11.7287
▁차이점	-11.7287
▁지도자들에게	-11.7289
렉스	-11.7294
나단	-11.7298
▁기술자들	-11.7299
▁지역구	-11.7304
▁gra	-11.7306
▁양식	-11.7307
▁해안지역	-11.731
▁촬영했다	-11.7313
▁신중한	-11.732
▁묵인	-11.732
▁없다면	-11.7323
▁수출국	-11.7323
▁맞이했다	-11.7326
▁자카르타에서	-11.7327
▁대구	-11.7328
▁이민자	-11.7333
▁벌이며	-11.7335
담당자	-11.7338
▁사망률	-11.7339
▁일으키고	-11.7341
▁한동안	-11.7342
▁뷰	-11.7344
▁다가오는	-11.7344
▁워싱턴주	-11.7353
▁관점	-11.7359
▁0.7	-11.736
▁피지	-11.7363
▁대응하기	-11.7364
▁7.1	-11.7365
행해진	-11.7368
▁작위	-11.7373
베르트	-11.7375
▁의미한다고	-11.7376
▁대행	-11.7376
▁후회	-11.7381
▁비슷하다	-11.7382
▁지도부와	-11.7383
사르	-11.7383
▁jon	-11.7383
건설	-11.7386
▁목장	-11.7388
▁잠들	-11.7394
▁기지에서	-11.7396
▁죽음으로	-11.7402
워졌다	-11.7408
▁되도록	-11.741
▁장착한	-11.7413
▁흥미로	-11.7417
▁회사측	-11.7417
▁전후	-11.742
▁모아이	-11.7422
▁라마	-11.7431
▁타계	-11.7435
▁수니파와	-11.7436
▁다량	-11.7437
▁도드	-11.7446
▁향상시키	-11.7447
▁패배한	-11.7448
▁별도	-11.7453
bra	-11.7454
▁터지	-11.7462
▁대사와	-11.7462
▁아들에게	-11.7466
▁하늘에서	-11.7467
키스	-11.7471
time	-11.7472
▁회원국들은	-11.7474
▁인용했다	-11.7475
노동자당	-11.7476
▁여러분이	-11.7478
선박	-11.748
▁신자들	-11.7482
▁정했다	-11.7484
리얼	-11.7485
▁경매에서	-11.7486
4.6	-11.7492
▁올라와	-11.7496
▁타마	-11.7498
▁신청했다	-11.7499
▁교장	-11.75
▁art	-11.75
늘	-11.7514
스러워	-11.7517
최	-11.7517
▁보자	-11.7518
일쯤	-11.752
▁2006.08	-11.752
▁소녀들	-11.752
▁마카	-11.7523
우트	-11.7526
▁sho	-11.7528
바라크	-11.7528
▁bp	-11.753
혹	-11.7534
꾸	-11.7543
▁사자	-11.7544
틸	-11.7547
뷰	-11.7548
2007.08	-11.7549
눈	-11.7549
큐	-11.755
nois	-11.7554
▁베니	-11.7554
드립니다	-11.7555
평방	-11.7555
반응	-11.7555
테니스	-11.7556
▁실시하고	-11.7556
차관보	-11.756
▁사르	-11.756
프랑스	-11.7562
외교	-11.7563
▁보안군이	-11.7564
등록	-11.7565
득점	-11.7566
예산	-11.7573
▁유튜브에	-11.7573
▁단계에서	-11.7575
공연	-11.7575
조각	-11.7576
금치	-11.7585
재정	-11.7589
▁유가족들	-11.759
처분	-11.759
▁정보통	-11.759
▁라벨	-11.7592
▁토론회에	-11.7597
자녀	-11.7599
보안	-11.7607
아래	-11.7608
▁교수와	-11.7634
백만명	-11.7637
▁도와주	-11.7648
ism	-11.7652
▁약속했다고	-11.7654
▁부문에	-11.7655
had	-11.7661
그너	-11.7663
▁임명됐다	-11.7664
976	-11.767
▁기여한	-11.767
▁파장	-11.7675
▁봉인	-11.7678
▁소매업	-11.7678
▁불명	-11.7679
▁사람이다	-11.7682
▁보였	-11.7684
▁빠졌	-11.7685
▁불확실	-11.7686
▁생중계	-11.7687
▁바커	-11.7687
ient	-11.7691
스텔	-11.7693
▁경쟁자들	-11.7694
▁천문학	-11.7696
▁스타디움	-11.7704
ally	-11.7706
▁베트남전	-11.7708
▁폭도들	-11.7712
▁달링	-11.7713
▁sur	-11.7719
▁유명인사들	-11.7721
▁자리잡	-11.7725
▁거뒀	-11.7727
▁조각들	-11.7731
▁알렉산드	-11.7736
시안	-11.7737
▁반사	-11.7742
▁사유	-11.7746
▁그래미	-11.7754
▁면역	-11.7754
▁숙박	-11.776
▁장례	-11.7761
▁창립	-11.7761
▁불러일으	-11.7761
▁수마트라	-11.7762
▁냉각	-11.7763
▁academy	-11.7763
▁africa	-11.7763
▁capital	-11.7763
▁christ	-11.7763
▁conference	-11.7763
▁country	-11.7763
▁institute	-11.7763
▁job	-11.7763
▁second	-11.7763
▁watch	-11.7763
▁건강검진	-11.7763
▁걷기	-11.7763
▁국가평의회	-11.7763
▁깨달았다	-11.7763
▁나폴리타노	-11.7763
▁남동생	-11.7763
▁내보냈다	-11.7763
▁대검찰청	-11.7763
▁디카프리오	-11.7763
▁떠올랐다	-11.7763
▁래드클리프	-11.7763
▁리투아니아	-11.7763
▁멜버른	-11.7763
▁멤피스	-11.7763
▁모레스모	-11.7763
▁물러났다	-11.7763
▁바랐다	-11.7763
▁배트맨	-11.7763
▁밸리	-11.7763
▁부총재	-11.7763
▁불균형	-11.7763
▁불러일으켰다	-11.7763
▁블록버스터	-11.7763
▁사이언톨로지	-11.7763
▁알츠하이머	-11.7763
▁알카티리	-11.7763
▁옵션	-11.7763
▁찾으려	-11.7763
▁츠방기라이	-11.7763
▁퀘벡	-11.7763
▁파키스탄인민당	-11.7763
▁프랑크푸르트	-11.7763
▁플레이스테이션	-11.7763
▁혹등고래	-11.7763
▁휠체어	-11.7763
▁흡입	-11.7763
랏	-11.7763
쑤	-11.7763
윅	-11.7763
▁기울여야	-11.7763
▁남겨두고	-11.7763
▁매몰된	-11.7763
▁부동층	-11.7763
▁카르발라	-11.7763
뚜	-11.7763
▁abn	-11.7763
▁sex	-11.7763
▁나미비아	-11.7763
▁구속영장	-11.7763
▁섭씨	-11.7763
▁트레일러	-11.7763
▁전자메일	-11.7763
▁헬만드	-11.7763
하였는데	-11.7763
▁wall	-11.7763
▁리브니	-11.7763
▁사로잡	-11.7763
▁인수제안	-11.7763
▁레코드	-11.7763
▁스콜스	-11.7763
▁사무차장	-11.7763
▁원동력	-11.7763
▁중질유	-11.7763
▁메케인	-11.7763
▁로드아일랜드	-11.7763
▁산악지대	-11.7763
▁불가사의	-11.7763
▁산시성	-11.7763
▁수수료	-11.7763
▁자위대	-11.7763
▁희미	-11.7763
▁때때로	-11.7763
▁올림피	-11.7763
▁train	-11.7763
▁이스마일	-11.7763
▁있으므로	-11.7763
ie	-11.7763
▁엘리엇	-11.7763
▁화학물질	-11.7763
▁bomb	-11.7763
▁벗겨	-11.7764
▁압델	-11.7764
ague	-11.7764
▁1,500	-11.7764
▁철폐	-11.7764
▁메인주	-11.7764
▁노던록	-11.7764
▁레빈슨	-11.7764
▁국가안보회의	-11.7764
▁당첨	-11.7764
▁주변국들	-11.7764
▁trial	-11.7764
▁동아시아	-11.7764
▁trans	-11.7764
▁교훈	-11.7764
▁list	-11.7764
▁헤엄	-11.7765
▁봉투	-11.7765
▁east	-11.7765
▁있냐	-11.7765
▁도둑	-11.7765
▁놀라움	-11.7765
▁슬림	-11.7765
▁불륜	-11.7765
▁마피아	-11.7765
▁killed	-11.7765
▁별칭	-11.7765
▁입후보	-11.7765
▁대슐	-11.7765
▁멜론	-11.7766
▁스튜	-11.7766
▁우주여행	-11.7766
▁차량폭탄	-11.7766
▁그레그	-11.7766
첸코	-11.7766
▁축구선수	-11.7766
▁생애	-11.7766
▁정몽	-11.7766
▁대리모	-11.7766
▁예상됩니다	-11.7766
▁필름	-11.7767
▁emi	-11.7767
기동대	-11.7767
▁집값	-11.7767
▁찾아냈다	-11.7768
▁나눈	-11.7768
▁있었는데	-11.7768
▁벤처	-11.7768
▁청원서	-11.7768
▁오웬	-11.7769
▁누구인지	-11.7769
▁신기록	-11.7769
▁stop	-11.7769
▁알라위	-11.7769
▁공헌	-11.7769
▁범죄행위	-11.7769
▁출입국	-11.7769
▁제국주의	-11.7769
▁태생	-11.777
▁흔들었다	-11.777
▁조롱	-11.777
▁550	-11.777
▁법무상	-11.777
▁홀더	-11.777
▁생생	-11.777
▁프로스트	-11.7771
▁팻	-11.7771
▁절실	-11.7771
▁단결	-11.7771
▁증파	-11.7772
▁레빈	-11.7772
▁불법행위	-11.7772
▁공공연	-11.7772
▁자폭	-11.7772
▁3.3	-11.7772
▁로빈슨	-11.7772
▁자동차산업	-11.7773
▁관통	-11.7773
▁코웰	-11.7773
▁centr	-11.7774
▁지방정부	-11.7774
▁게시물	-11.7774
▁언니	-11.7774
▁단편	-11.7775
▁이맘	-11.7775
▁우편물	-11.7775
▁지명되기	-11.7775
▁골절	-11.7775
▁학계	-11.7776
▁아델	-11.7777
▁강타했다	-11.7777
▁바꾼	-11.7777
▁운영되	-11.7777
▁신랑	-11.7778
▁생체	-11.7778
▁생계	-11.7779
▁군사정부	-11.7779
▁왕관	-11.778
▁od	-11.778
▁포탄	-11.7781
▁정치인들이	-11.7781
▁풀려나	-11.7782
▁팬더	-11.7782
▁아스	-11.7783
▁놓여있다	-11.7783
▁마술	-11.7784
▁꾸며	-11.7784
▁threaten	-11.7784
▁루터	-11.7785
▁찾아온	-11.7785
▁딸들	-11.7785
▁무력화	-11.7786
▁비축	-11.7787
데라	-11.7788
▁과오	-11.7788
▁우려했다	-11.7788
▁건축물	-11.7788
▁145	-11.7788
▁브라이언트	-11.7789
▁강조하며	-11.7791
▁거액	-11.7791
▁증대	-11.7792
▁발판	-11.7795
▁부분적으로	-11.7795
▁부주의	-11.7796
▁경미	-11.7796
▁times	-11.7797
▁통상적	-11.7798
▁인권문제	-11.7798
▁위함	-11.7798
▁랜디	-11.7798
▁도출	-11.7799
▁청년들	-11.7799
▁맺어	-11.7799
▁states	-11.7799
▁유실	-11.7799
다시피	-11.7799
ek	-11.7801
▁2030	-11.7802
▁해골	-11.7802
▁교수들	-11.7804
▁there	-11.7804
▁우정	-11.7805
프레드	-11.7805
▁모방	-11.7807
수익	-11.7807
▁부장은	-11.781
▁특성	-11.7811
▁상속	-11.7812
▁인터내셔널	-11.7812
▁살레	-11.7812
▁5500	-11.7813
▁종업원	-11.7814
▁추억	-11.7815
▁합의에따라	-11.7815
▁벗기	-11.7815
▁주연상	-11.7816
▁서두르	-11.7816
▁깨진	-11.7817
▁궁전	-11.7818
▁유로화	-11.782
키마	-11.7823
▁유지해	-11.7826
▁대피시켰다	-11.7827
▁제마	-11.7827
▁연상	-11.7827
▁주범	-11.7827
dom	-11.7828
▁생산업체	-11.7828
▁당내	-11.783
▁1.8	-11.7832
▁225	-11.7834
▁설명할	-11.7834
여성	-11.7834
방위	-11.7836
▁구매자	-11.7837
▁순교자	-11.7837
▁들지	-11.7839
▁외국인들이	-11.7839
▁박탈당	-11.784
pri	-11.7841
▁모국	-11.7842
▁당파	-11.7843
▁계획이었다	-11.7844
▁동점	-11.7844
▁궁지에	-11.7846
▁xp	-11.7848
▁경찰서로	-11.7851
▁늘었다	-11.7852
▁등장한다	-11.7853
▁요리사	-11.7853
▁국회의장	-11.7854
▁호건	-11.7854
▁적어	-11.7855
로프트	-11.7856
▁편리	-11.7857
▁유발할	-11.7858
▁신차	-11.786
▁0.8	-11.7864
▁친부	-11.7865
▁베드	-11.7868
▁캘	-11.7869
▁동의안	-11.7871
side	-11.7871
▁합쳐	-11.7873
▁좋아지	-11.7875
▁태우	-11.7877
▁부대변인	-11.7878
▁감사원	-11.7879
▁계기로	-11.7881
었음	-11.7887
▁대금	-11.7889
국적	-11.7889
▁정면	-11.789
▁밝혀져	-11.7891
▁경시	-11.7893
▁죽어가	-11.7894
▁개막식에	-11.7894
▁붕괴되	-11.7895
▁주장했으며	-11.7897
▁가속	-11.7897
▁중단시켰다	-11.79
▁받아들이기	-11.79
정지	-11.7901
▁반대하며	-11.7902
▁관람객들	-11.7918
▁낭	-11.7918
▁섬에서	-11.7918
▁직원들에게	-11.7921
▁입소	-11.7921
▁장갑	-11.7921
▁적들	-11.7923
공학	-11.7925
▁흙	-11.7926
▁비판하는	-11.7926
▁도와주는	-11.7928
▁의사회	-11.7929
▁2008.12.1	-11.7934
▁돌아보	-11.7936
▁지원자들	-11.7937
53	-11.7943
▁소식으로	-11.7947
▁코드	-11.795
▁안면	-11.7952
▁조직위	-11.7953
▁영국으로부터	-11.7954
▁올랐고	-11.7962
▁연구실	-11.7962
▁킴	-11.7963
▁남북간	-11.7965
▁목록에서	-11.7966
브론	-11.7968
었었다	-11.7971
공유	-11.7973
▁남동부에서	-11.7976
▁전락	-11.798
▁케냐에서	-11.798
▁일보	-11.7982
▁초까지	-11.7983
▁하나였다	-11.7987
▁해당한다	-11.7991
▁정세	-11.7992
▁펼쳐지	-11.7994
bel	-11.7999
▁결승에	-11.8
▁축구팬	-11.8002
▁애플사	-11.8003
▁축출된	-11.8017
▁키트	-11.8018
▁rate	-11.8021
▁에드로	-11.8024
▁발표되었다	-11.8035
▁언론사	-11.8036
▁소방대원들	-11.8037
▁그들과	-11.8038
▁탐험가	-11.8041
▁급증했다	-11.8043
▁0.4	-11.8045
교사	-11.8047
였기	-11.8049
▁실망했다	-11.8049
▁인부	-11.8051
▁지나면	-11.8055
▁작동되	-11.8066
98	-11.8073
▁케인	-11.8076
▁돌아가고	-11.8076
nts	-11.808
▁노르	-11.8084
▁죽인	-11.8084
▁성대	-11.8092
키야	-11.8096
점이다	-11.8098
▁대체로	-11.8098
▁베티	-11.8106
tan	-11.8106
▁켜	-11.8109
학자들	-11.8111
nel	-11.8112
▁대비하고	-11.8117
▁유사하다	-11.8119
▁카바	-11.812
949	-11.8127
▁아타	-11.8134
투르크	-11.8135
▁회복할	-11.8137
▁남성에게	-11.8153
▁선보이	-11.8153
레이즈	-11.8153
▁하락하고	-11.8155
있게	-11.8159
▁hel	-11.8159
▁파라	-11.8164
끈	-11.8165
▁묘사한	-11.8166
▁대개	-11.8166
자본	-11.8171
ama	-11.8172
▁신씨	-11.8173
▁dai	-11.8175
▁축구팬들	-11.8181
▁대중들	-11.8187
▁op	-11.8189
매장	-11.8189
▁싶어하지	-11.8191
nn	-11.8209
▁삼아	-11.821
쿠르	-11.8213
사령부	-11.8216
봐	-11.8216
콩	-11.8217
칩	-11.8217
엠	-11.8217
2009.01	-11.8219
킴	-11.822
잠	-11.822
이슬람	-11.8221
티브	-11.8221
▁mon	-11.8221
97	-11.8234
▁추진해	-11.8235
조합	-11.8239
▁반기	-11.824
워터	-11.8242
▁압박했다	-11.8246
▁딸에게	-11.8247
▁휘트	-11.8268
▁인도주의	-11.8269
퍼트	-11.8272
▁폐쇄됐다	-11.8274
▁슬로	-11.8275
▁원정	-11.8279
▁확산됐다	-11.8286
▁변했다	-11.8289
▁연결하	-11.829
행진	-11.8292
▁165	-11.8292
▁월드컵에서	-11.8295
보라	-11.8295
기남	-11.8297
트너	-11.8301
▁경신	-11.8305
▁참석한다	-11.8306
ino	-11.8318
▁감정적	-11.8321
965	-11.833
▁추산되	-11.8333
▁시신들	-11.8338
▁지장	-11.8338
▁저질렀	-11.8344
▁원장	-11.835
있어	-11.8354
▁제출된	-11.8354
▁인류학	-11.8355
▁순례	-11.8355
bb	-11.8357
▁연결된	-11.8359
연금	-11.8359
▁존재한다	-11.836
러진	-11.8361
회사들	-11.8361
노선	-11.8364
▁팀장	-11.8366
명중	-11.8366
▁같아	-11.8373
쳤습니다	-11.8375
▁환경부	-11.8376
▁적합	-11.8378
▁수감돼	-11.8381
▁표하고	-11.8385
저리	-11.8386
▁싶었	-11.8394
화학	-11.8396
bur	-11.8403
▁입찰	-11.8404
쉽	-11.841
셸	-11.8415
▁다짐	-11.8417
대비	-11.8418
▁480	-11.8421
캣	-11.8421
▁마텔	-11.8422
얄	-11.8423
▁디스커버리	-11.8425
▁콜롬	-11.8427
▁도미니	-11.8427
콕	-11.8428
▁thre	-11.8429
▁오피니언	-11.8429
긍	-11.8429
6,000	-11.8429
▁depart	-11.8429
▁federal	-11.8429
▁iucn	-11.8429
▁joint	-11.8429
▁politic	-11.8429
▁problem	-11.8429
▁record	-11.8429
▁끊겼	-11.8429
▁냉장고	-11.8429
▁다비덴코	-11.8429
▁댓글	-11.8429
▁루고보이	-11.8429
▁만토바니	-11.8429
▁미식축구	-11.8429
▁발렌시아	-11.8429
▁벗어났다	-11.8429
▁부드러운	-11.8429
▁비정상적	-11.8429
▁서유럽	-11.8429
▁세컨드라이프	-11.8429
▁아르메니아	-11.8429
▁안타깝게	-11.8429
▁애틀랜틱	-11.8429
▁어소시에이션	-11.8429
▁유투브	-11.8429
▁잉그리드	-11.8429
▁칼데론	-11.8429
▁캠브리지	-11.8429
▁키프로스	-11.8429
▁타임스퀘어	-11.8429
▁티크리트	-11.8429
▁프랑수아	-11.8429
▁하르툼	-11.8429
▁해밀턴	-11.8429
▁홍석현	-11.8429
엉	-11.8429
▁alliance	-11.8429
▁major	-11.8429
▁국제영화제	-11.8429
▁무기징역	-11.8429
▁볼리비아	-11.8429
▁서포터	-11.8429
▁슈퍼마켓	-11.8429
▁스타워즈	-11.8429
▁시트콤	-11.8429
▁전두환	-11.8429
▁출퇴근	-11.8429
▁테러리즘	-11.8429
▁핵폐기	-11.8429
▁buy	-11.8429
▁hyun	-11.8429
▁견뎌	-11.8429
▁대배심	-11.8429
▁여기저기	-11.8429
▁은하계	-11.8429
▁즐긴다	-11.8429
▁크라이튼	-11.8429
▁파딜라	-11.8429
▁패터슨	-11.8429
▁아메바	-11.8429
▁dax	-11.8429
▁비무장지대	-11.8429
▁제레미	-11.8429
▁보너스	-11.8429
▁돌려보내	-11.8429
▁바이에른	-11.8429
▁재경부	-11.8429
▁invest	-11.8429
▁just	-11.8429
▁모으고	-11.8429
▁동등한	-11.8429
▁금리인하	-11.8429
▁할로윈	-11.8429
▁국가안보보좌관	-11.843
▁미생물	-11.843
▁유연한	-11.843
▁말리부	-11.843
▁전비법안	-11.843
▁무언가	-11.843
▁georg	-11.843
▁세르게이	-11.843
▁아스카리	-11.843
▁어쩌	-11.843
▁뛰어넘	-11.843
▁구제금융법안	-11.843
▁갑작스럽	-11.843
▁알라스카	-11.843
▁소비에트	-11.843
▁종지부	-11.843
▁money	-11.843
도날드	-11.843
▁선거인단	-11.843
▁산업자원부	-11.843
▁어둠	-11.843
▁남태평양	-11.843
▁베이징올림픽	-11.843
▁얼룩말	-11.843
▁마지드	-11.843
쿼터	-11.8431
▁수감생활	-11.8431
▁peta	-11.8431
▁part	-11.8431
▁군사행동	-11.8431
▁겨누	-11.8431
▁미뤄	-11.8431
▁작별	-11.8431
▁낫다	-11.8431
▁ahead	-11.8431
▁건강보험	-11.8431
▁슈렉	-11.8431
▁탈옥	-11.8431
▁용도로	-11.8431
▁스마트	-11.8432
▁십먼	-11.8432
▁알렉	-11.8432
▁북극광	-11.8432
▁디즈니랜드	-11.8432
사미	-11.8432
▁포털	-11.8432
▁피난처	-11.8432
▁비밀요원	-11.8432
▁날카로	-11.8432
▁홈경기	-11.8432
▁약물검사	-11.8432
▁give	-11.8432
▁order	-11.8432
▁드럼	-11.8432
▁콜롬보	-11.8432
▁도서관	-11.8433
▁부정행위	-11.8433
▁meeting	-11.8433
▁간접	-11.8433
▁우발적	-11.8433
▁싸워	-11.8433
▁압류	-11.8433
▁비웃	-11.8433
▁일기장	-11.8433
▁업종	-11.8433
▁푸른	-11.8433
▁봉급	-11.8433
▁페드로	-11.8434
▁머독	-11.8434
▁스노우	-11.8434
▁축구스타	-11.8434
▁cac	-11.8434
▁기관총	-11.8434
▁필사적	-11.8435
▁케이티	-11.8435
▁만평	-11.8435
▁1972	-11.8435
▁교각	-11.8435
▁iraqi	-11.8435
층짜리	-11.8435
▁편견	-11.8435
▁루시디	-11.8435
▁근절	-11.8435
▁하렐	-11.8435
▁결말	-11.8436
▁자치권	-11.8436
▁사망원인	-11.8436
▁today	-11.8436
▁해산시키기	-11.8436
▁대국민	-11.8436
▁아프리카연합	-11.8436
▁투명성	-11.8436
▁선례	-11.8436
▁암살사건	-11.8436
▁애견	-11.8437
▁에베레스트산	-11.8437
▁짐작	-11.8437
▁계급	-11.8437
▁폭발사고	-11.8437
▁합작	-11.8437
▁애완용	-11.8437
▁듀크	-11.8437
▁가디언	-11.8438
▁빈센트	-11.8438
▁종말	-11.8438
▁경합	-11.8438
▁소도시	-11.8439
▁상향	-11.8439
▁무례	-11.8439
▁부시대통령	-11.844
▁1977	-11.844
▁주택시장	-11.844
▁번복	-11.8441
▁연합정부	-11.8441
▁설전	-11.8441
▁난입	-11.8441
▁보스톤	-11.8441
▁요한슨	-11.8442
▁평온	-11.8442
▁투자은행	-11.8443
▁반테러	-11.8444
▁발머	-11.8444
▁위독	-11.8444
▁과연	-11.8444
▁2018	-11.8444
▁설비	-11.8445
▁로지스	-11.8445
▁플래시	-11.8446
▁무레이	-11.8446
▁들어설	-11.8447
▁spe	-11.8447
▁은둔	-11.8447
▁결단	-11.8447
▁야유	-11.8447
▁조엘	-11.8447
▁속해	-11.8448
▁이외에	-11.8448
▁담요	-11.8448
▁버몬트주	-11.8448
▁놀란	-11.8448
▁상업용	-11.8449
▁음료수	-11.8449
▁용납하지	-11.8451
▁불확실성	-11.8452
▁입건	-11.8452
▁종교단체	-11.8452
▁역설했다	-11.8452
▁헝	-11.8452
▁폐쇄하기	-11.8452
▁가장자리	-11.8453
▁김양	-11.8453
▁폭력배	-11.8453
▁매료	-11.8454
▁실천	-11.8454
▁왕조	-11.8454
▁속력	-11.8456
▁잠재	-11.8457
▁시립	-11.8457
▁분단	-11.8457
▁로빈	-11.8458
▁메모	-11.8459
▁알려왔	-11.846
▁형편	-11.846
▁부르며	-11.846
▁당부	-11.846
nsc	-11.846
▁난방	-11.8461
▁아샤	-11.8461
▁호스트	-11.8461
▁토미	-11.8462
▁소방당국	-11.8463
▁유영	-11.8463
▁동부지역	-11.8464
▁싶었다	-11.8464
▁검찰청	-11.8465
스쿨	-11.8465
▁매복	-11.8465
▁요구했었다	-11.8467
▁흉내	-11.8467
▁커뮤니케이션	-11.8467
▁고의적으로	-11.8471
▁왕비	-11.8472
투스	-11.8472
▁요크	-11.8472
▁매리	-11.8473
▁엄청나	-11.8474
▁용량	-11.8476
▁거주민	-11.8476
▁근본주의자들	-11.8476
▁거품	-11.8477
▁리츠	-11.8477
▁소모	-11.8477
만파운드	-11.8477
▁경계선	-11.8479
▁매직	-11.8482
▁페니	-11.8484
▁토레스	-11.8485
▁자랑하는	-11.8485
▁공적	-11.8486
▁군사위원회	-11.8486
▁정치국	-11.8486
▁심각성	-11.8487
▁끝내기	-11.8488
▁등장했다	-11.8489
정규직	-11.849
▁골드만	-11.849
▁속편	-11.8491
▁펼쳐진	-11.8491
▁입안	-11.8493
▁국어	-11.8493
▁보험회사	-11.8496
▁착륙했다	-11.8496
▁뉴햄프셔주	-11.8497
▁간직	-11.8497
▁공금	-11.8497
▁설사	-11.8498
▁asia	-11.8499
▁기울이지	-11.8499
▁나누어	-11.85
▁성범죄자	-11.8502
▁해역에서	-11.8504
▁서점	-11.8505
2008.01	-11.8505
▁국세청장	-11.8508
▁생각되는	-11.8509
▁나오기	-11.851
▁전반전	-11.8511
▁이윤	-11.8512
▁초고속	-11.8513
▁불안해	-11.8515
▁꺼리	-11.8515
▁인정한다	-11.8516
▁기자단	-11.8521
▁1700	-11.8522
▁지불했다	-11.8522
▁기미	-11.8523
▁지형	-11.8526
▁알바로	-11.8529
▁주의회	-11.8531
▁330	-11.8534
▁2200	-11.8535
▁도하	-11.8536
▁koreans	-11.8537
▁헤리	-11.8537
▁이루기	-11.8538
▁무엇보다도	-11.8538
▁소실됐다	-11.8542
▁1100	-11.8544
▁교리	-11.8545
▁제출해야	-11.8552
▁채용	-11.8554
▁야스	-11.8556
▁저서	-11.8559
▁과학기술	-11.856
▁0.6	-11.8565
▁것인데	-11.8567
▁투표자	-11.8568
▁지원국	-11.857
▁민주당원	-11.8571
▁자비	-11.8573
▁수혈	-11.8575
▁웨스	-11.8576
▁피난민	-11.8578
▁휴회	-11.8579
▁부모에게	-11.8582
▁주거지	-11.8585
해준다	-11.8589
▁안정성	-11.859
▁주마	-11.8591
▁구성원들	-11.8592
▁등반	-11.8593
▁보수주의	-11.8596
▁크레인	-11.8598
▁가문	-11.8601
▁앞서서	-11.8603
▁외화	-11.8605
블라	-11.8607
▁sup	-11.8607
▁보물	-11.861
▁안정화	-11.8612
▁거머쥐었	-11.8613
▁오바	-11.8614
▁다크	-11.8614
▁던졌	-11.862
▁106	-11.862
▁선수들에게	-11.8626
▁기숙사에서	-11.8627
▁발표했으며	-11.863
▁키니	-11.863
▁tea	-11.8634
▁거래되	-11.8638
▁115	-11.8638
person	-11.8641
▁분자	-11.8645
▁지불하는	-11.8649
▁구리	-11.8654
▁시차	-11.8656
▁제시하지	-11.8658
▁환경적	-11.8658
▁활동가들	-11.8661
▁끝나면	-11.8661
▁부르고	-11.8666
▁상하이에서	-11.8669
▁초소	-11.8675
▁명상	-11.8675
▁적용할	-11.8678
셰르	-11.8679
▁용지	-11.8682
▁고심하	-11.8683
▁건강상	-11.8688
▁간주되	-11.8689
▁접어	-11.869
란드	-11.8692
▁여자친구와	-11.8695
▁유나이티드와	-11.8699
겠는가	-11.8702
▁유서	-11.8703
▁mc	-11.8706
▁경제팀	-11.8706
▁통제하고	-11.8707
▁뒤진	-11.8707
uit	-11.8713
▁0.3	-11.8715
▁납세자들	-11.8718
▁출전했다	-11.8724
▁볼트	-11.8726
▁부패와	-11.8729
▁도발	-11.8732
▁6.8	-11.8734
▁her	-11.8734
▁발견됐	-11.8743
▁상대적	-11.8743
▁레스토랑에서	-11.8745
▁일이며	-11.8751
해주기	-11.8752
▁청장	-11.8753
▁pd	-11.8757
▁공직자	-11.8757
▁말하	-11.8758
▁변명	-11.876
▁개회	-11.8766
▁제조업체들	-11.8768
▁가파	-11.877
np	-11.8773
1191	-11.8777
타그	-11.8777
▁탈북자들	-11.8779
4.8	-11.8781
▁행해	-11.88
환자	-11.8803
▁선출됐다	-11.8809
▁거기에	-11.8815
▁무능	-11.882
▁경쟁사	-11.8822
▁사망하기	-11.8833
▁사육사들	-11.8834
▁제공되	-11.8837
▁그러면	-11.8841
▁팔린	-11.8841
▁무시했다	-11.8845
▁유출된	-11.886
▁미대사	-11.8862
▁벗어나지	-11.8863
▁메카	-11.8866
▁비서	-11.8866
▁상징인	-11.8872
▁표지	-11.8872
▁제소	-11.8876
uck	-11.888
▁안전성	-11.8884
▁신청자	-11.8885
▁방영되	-11.8886
▁발전기	-11.8887
▁패트	-11.8887
▁나쁘	-11.889
▁india	-11.889
▁비난한다	-11.8893
▁경찰들은	-11.8897
▁출발했다	-11.8904
▁게르	-11.8905
ble	-11.8906
▁각료들	-11.891
흘	-11.8925
싸	-11.8925
춤	-11.893
졸	-11.8931
민주당	-11.8933
잇	-11.8933
월드컵	-11.8934
주민들	-11.8934
미사일	-11.8936
큰	-11.8936
▁선호하	-11.8942
랜스	-11.8942
러시아	-11.8947
교류	-11.8951
소득	-11.8954
▁개최국	-11.8958
▁인도적	-11.896
▁전사자	-11.897
제조	-11.8971
▁당혹	-11.8973
▁연주자	-11.898
▁약화시키	-11.8984
▁노력해야	-11.8985
▁요인들	-11.8989
▁무차별	-11.899
대결	-11.899
집회	-11.8994
▁프로그램들	-11.9006
▁우려된다	-11.9008
▁전장에	-11.9011
▁가능해	-11.9018
rry	-11.9018
ada	-11.902
▁피랍됐	-11.9022
mg	-11.9022
국제	-11.9026
▁한국전	-11.9028
▁장악했다	-11.9028
▁나타낸	-11.9029
토프	-11.9038
▁말해주	-11.9041
▁자행한	-11.9042
소니	-11.9042
▁강조하는	-11.9042
▁정하지	-11.9042
▁우위	-11.9043
▁성교	-11.9049
부총리	-11.9049
▁lead	-11.9051
▁모기	-11.9052
쳐야	-11.9054
▁배우들	-11.9056
ray	-11.9056
▁미성년	-11.9058
▁제조업자	-11.9062
▁islami	-11.9064
▁계획안	-11.9065
모건	-11.9065
▁힘들어	-11.9066
▁1.4	-11.9079
▁2.7	-11.9079
▁참여하기	-11.908
▁사무국	-11.9083
쿨	-11.9097
▁재기	-11.9099
▁관장	-11.9114
▁참모총장	-11.9131
거래소에서	-11.9133
▁계절	-11.9138
둑	-11.9138
물라	-11.914
슐	-11.914
▁프란시스	-11.9141
그리	-11.9141
슬라브	-11.9143
▁경기부양	-11.9143
▁솔로몬	-11.9143
▁crisis	-11.9144
▁john	-11.9144
▁missile	-11.9144
▁stock	-11.9144
▁withdraw	-11.9144
▁나스랄라	-11.9144
▁발렌타인	-11.9144
▁시베리아	-11.9144
▁와코비아	-11.9144
껴	-11.9144
뚱	-11.9144
륭	-11.9144
ready	-11.9144
through	-11.9144
▁campaign	-11.9144
▁council	-11.9144
▁envoy	-11.9144
▁great	-11.9144
▁illegal	-11.9144
▁kkk	-11.9144
▁microsoft	-11.9144
▁number	-11.9144
▁safe	-11.9144
▁sncf	-11.9144
▁unveil	-11.9144
▁고혈압	-11.9144
▁굉장한	-11.9144
▁네브라스카	-11.9144
▁뉴욕타임즈	-11.9144
▁다녔다	-11.9144
▁대기오염	-11.9144
▁대선예비후보	-11.9144
▁델라웨어	-11.9144
▁독립선언	-11.9144
▁뒷좌석	-11.9144
▁듀프레	-11.9144
▁드림라이너	-11.9144
▁따돌렸다	-11.9144
▁레오나르도	-11.9144
▁마르세유	-11.9144
▁머물렀다	-11.9144
▁먹었다	-11.9144
▁메탄가스	-11.9144
▁믿어지	-11.9144
▁바예스테로스	-11.9144
▁박스오피스	-11.9144
▁분리독립	-11.9144
▁비디오테이프	-11.9144
▁사우스다코타	-11.9144
▁스머프	-11.9144
▁스테로이드	-11.9144
▁스프린트	-11.9144
▁시니오라	-11.9144
▁아름답	-11.9144
▁아리조나	-11.9144
▁아쿠아리움	-11.9144
▁알레르기	-11.9144
▁애국전선	-11.9144
▁에메랄드	-11.9144
▁엔터프라이즈	-11.9144
▁오마이뉴스	-11.9144
▁옥수수	-11.9144
▁울프위츠	-11.9144
▁워싱턴포스트	-11.9144
▁자와히리	-11.9144
▁조기총선	-11.9144
▁최연소	-11.9144
▁카메룬	-11.9144
▁카스파로프	-11.9144
▁컨소시엄	-11.9144
▁클랩튼	-11.9144
▁펠릭스	-11.9144
▁폴란스키	-11.9144
▁홀로코스트	-11.9144
▁히말라야	-11.9144
멕	-11.9144
텀	-11.9144
▁europe	-11.9144
▁극단적인	-11.9144
▁다빈치	-11.9144
▁라말라	-11.9144
▁모토로라	-11.9144
▁스릴러	-11.9144
▁외할머니	-11.9144
▁인공심장	-11.9144
▁클리닉	-11.9144
프로농구	-11.9144
▁rbs	-11.9144
▁공청회	-11.9144
▁목걸이	-11.9144
▁부끄러	-11.9144
▁에버튼	-11.9144
▁카제미	-11.9144
▁현기증	-11.9144
어느때보다	-11.9144
▁공동기자회견에	-11.9144
▁분화구	-11.9144
▁산티아고	-11.9144
▁현충일	-11.9144
▁omx	-11.9144
▁퇴근	-11.9144
▁아세안	-11.9144
▁알메이다	-11.9144
▁우체국	-11.9144
▁허덕이	-11.9144
▁엘비스	-11.9144
▁임상실험	-11.9144
▁퇴출	-11.9144
▁트레이드	-11.9144
▁불도저	-11.9144
▁세비르	-11.9144
▁direct	-11.9144
▁삼성전자	-11.9144
▁오피스	-11.9144
▁아침식사	-11.9144
▁스프링스틴	-11.9144
▁떠다니	-11.9144
▁민주변화	-11.9144
▁손가락	-11.9144
▁etc	-11.9144
▁월경작전	-11.9144
▁트레이시	-11.9144
▁행정명령	-11.9144
▁니가타	-11.9144
▁부녀자	-11.9144
▁결론지었다	-11.9144
▁추도식	-11.9144
▁민주변화운동	-11.9144
▁버핏	-11.9144
▁맛봤다	-11.9144
▁탐지기	-11.9144
▁쓰러진	-11.9144
▁가오리	-11.9144
▁종합병원	-11.9144
▁불상사	-11.9144
▁히트곡	-11.9144
▁크로포드	-11.9144
▁디아즈	-11.9144
▁슬램	-11.9144
▁슬럼	-11.9144
▁헐값	-11.9144
▁히잡	-11.9144
▁적임자	-11.9144
▁메세지	-11.9144
▁재가동	-11.9144
▁현명한	-11.9144
▁천수이	-11.9144
▁김일성	-11.9144
▁홍보담당자	-11.9144
▁골드버그	-11.9144
▁빠져나갔다	-11.9144
▁구급차	-11.9145
▁출몰	-11.9145
▁빛나는	-11.9145
▁옐로	-11.9145
▁블랙베리	-11.9145
▁쥐스틴	-11.9145
▁마샬	-11.9145
▁constitutional	-11.9145
▁아름다움	-11.9145
▁평의회	-11.9145
▁데이비스컵	-11.9145
▁강제진압	-11.9145
▁겸손	-11.9145
했었지만	-11.9145
▁완패	-11.9145
▁놀이기구	-11.9145
▁올라간다	-11.9145
▁사기꾼	-11.9145
▁enter	-11.9145
▁army	-11.9145
▁선거운동본부	-11.9145
▁감기약	-11.9146
▁용암	-11.9146
▁스페이스	-11.9146
▁목욕	-11.9146
했어야	-11.9146
▁출근	-11.9146
▁패션쇼	-11.9146
▁베풀	-11.9146
▁폭염	-11.9146
▁비겁	-11.9146
▁청취	-11.9146
▁night	-11.9146
▁갈망하	-11.9147
▁fight	-11.9147
▁동북	-11.9147
▁달려있다	-11.9147
▁금전적	-11.9147
▁주모자	-11.9147
▁사형제도	-11.9147
▁리프트	-11.9148
▁라디오뉴스	-11.9148
▁검은색	-11.9148
▁육류	-11.9148
▁검시	-11.9148
▁남아시아	-11.9148
▁완강	-11.9148
▁가져온	-11.9148
▁노골적	-11.9148
phone	-11.9148
▁입혔다	-11.9149
▁회생	-11.9149
▁숙박비	-11.9149
▁베이커	-11.9149
▁유니티	-11.9149
▁잃었으며	-11.9149
▁만들어낸	-11.9149
▁어부들	-11.9149
▁뉴먼	-11.9149
▁채굴	-11.9149
▁올리버	-11.915
▁환경운동	-11.915
▁실용적	-11.915
▁구매자들	-11.915
▁자궁	-11.915
▁잠입	-11.915
▁축구협회	-11.915
▁sola	-11.9151
▁유명해졌다	-11.9151
▁girls	-11.9151
▁석권	-11.9151
▁월급	-11.9152
▁터졌다	-11.9152
▁성폭행범	-11.9152
▁아이콘	-11.9152
▁과열	-11.9152
▁tam	-11.9152
▁처방전	-11.9152
reme	-11.9152
▁화산재	-11.9153
▁하향	-11.9153
▁임시정부	-11.9153
▁떨어지면서	-11.9154
▁담합	-11.9154
▁열악	-11.9154
▁auto	-11.9155
▁칭하며	-11.9155
▁털어	-11.9155
▁스토리	-11.9155
▁wta	-11.9155
▁west	-11.9155
▁신랄	-11.9156
▁특권	-11.9156
▁불행	-11.9156
▁모스크	-11.9157
▁잠복	-11.9157
프로축구	-11.9157
▁구슬	-11.9157
▁떼어	-11.9157
디언	-11.9158
▁표출	-11.9158
▁독려	-11.9158
▁nations	-11.9158
▁축적	-11.9159
▁양빈	-11.9159
▁수상작	-11.9159
▁정치활동	-11.9159
▁교신	-11.916
여채	-11.9161
▁어두	-11.9161
▁통치권	-11.9161
▁자율	-11.9161
▁에릭슨	-11.9162
▁진학	-11.9162
식품	-11.9163
▁행보	-11.9163
▁성취	-11.9163
▁감형	-11.9163
▁그라이브	-11.9163
▁거칠	-11.9164
▁버리는	-11.9165
▁변종	-11.9165
▁모빌	-11.9165
▁의향	-11.9166
▁친교	-11.9167
▁친지들	-11.9167
▁응용	-11.9167
▁혼자서	-11.9168
▁벵	-11.9168
▁간격	-11.9169
▁도매	-11.9169
▁칼리드	-11.9169
▁경고문	-11.917
▁달아나	-11.9171
less	-11.9171
▁시에나	-11.9171
▁돌발	-11.9172
▁없어질	-11.9172
▁파탄	-11.9172
▁청원	-11.9173
▁카나리	-11.9173
▁카본	-11.9175
▁아예	-11.9175
▁usb	-11.9176
▁인도양	-11.9177
▁mac	-11.9178
▁상류	-11.9179
▁극우	-11.918
툴라	-11.9181
▁증명서	-11.9182
▁나빠지	-11.9182
▁여론조사에따르면	-11.9183
▁담았다	-11.9183
요리	-11.9184
▁인출	-11.9184
▁재연	-11.9184
▁아래서	-11.9184
▁소득세	-11.9184
▁의문사	-11.9185
▁분산	-11.9185
▁모친	-11.9186
▁억지	-11.9186
▁쓰러졌다	-11.9187
▁동조	-11.9187
▁건전	-11.9187
▁폰다	-11.9187
▁저조	-11.9188
▁초보	-11.9189
▁상무위원	-11.9189
▁천원	-11.919
▁유형	-11.919
▁영국항공	-11.919
▁공단	-11.919
▁위스콘신주	-11.919
▁소중	-11.9191
▁시작하자	-11.9192
▁보수주의자들	-11.9192
▁사본	-11.9193
▁atp	-11.9194
▁배신	-11.9197
▁개종	-11.9197
coming	-11.9198
▁104	-11.9199
▁피력	-11.9199
▁농성	-11.9199
83	-11.92
자격	-11.92
▁쥬	-11.9201
▁맘	-11.9201
▁언급하면서	-11.9201
▁얻어야	-11.9201
▁동화	-11.9202
▁아론	-11.9208
퍼드	-11.9209
▁상태이며	-11.921
[...]
